{
  "version": "1.0",
  "truncation": null,
  "padding": null,
  "added_tokens": [
    {
      "id": 0,
      "content": "[PAD]",
      "single_word": false,
      "lstrip": false,
      "rstrip": false,
      "normalized": false,
      "special": true
    },
    {
      "id": 1,
      "content": "[UNK]",
      "single_word": false,
      "lstrip": false,
      "rstrip": false,
      "normalized": false,
      "special": true
    },
    {
      "id": 2,
      "content": "[CLS]",
      "single_word": false,
      "lstrip": false,
      "rstrip": false,
      "normalized": false,
      "special": true
    },
    {
      "id": 3,
      "content": "[SEP]",
      "single_word": false,
      "lstrip": false,
      "rstrip": false,
      "normalized": false,
      "special": true
    },
    {
      "id": 4,
      "content": "[MASK]",
      "single_word": false,
      "lstrip": false,
      "rstrip": false,
      "normalized": false,
      "special": true
    }
  ],
  "normalizer": {
    "type": "BertNormalizer",
    "clean_text": true,
    "handle_chinese_chars": true,
    "strip_accents": null,
    "lowercase": false
  },
  "pre_tokenizer": {
    "type": "BertPreTokenizer"
  },
  "post_processor": {
    "type": "TemplateProcessing",
    "single": [
      {
        "SpecialToken": {
          "id": "[CLS]",
          "type_id": 0
        }
      },
      {
        "Sequence": {
          "id": "A",
          "type_id": 0
        }
      },
      {
        "SpecialToken": {
          "id": "[SEP]",
          "type_id": 0
        }
      }
    ],
    "pair": [
      {
        "SpecialToken": {
          "id": "[CLS]",
          "type_id": 0
        }
      },
      {
        "Sequence": {
          "id": "A",
          "type_id": 0
        }
      },
      {
        "SpecialToken": {
          "id": "[SEP]",
          "type_id": 0
        }
      },
      {
        "Sequence": {
          "id": "B",
          "type_id": 1
        }
      },
      {
        "SpecialToken": {
          "id": "[SEP]",
          "type_id": 1
        }
      }
    ],
    "special_tokens": {
      "[CLS]": {
        "id": "[CLS]",
        "ids": [
          2
        ],
        "tokens": [
          "[CLS]"
        ]
      },
      "[SEP]": {
        "id": "[SEP]",
        "ids": [
          3
        ],
        "tokens": [
          "[SEP]"
        ]
      }
    }
  },
  "decoder": {
    "type": "WordPiece",
    "prefix": "##",
    "cleanup": true
  },
  "model": {
    "type": "WordPiece",
    "unk_token": "[UNK]",
    "continuing_subword_prefix": "##",
    "max_input_chars_per_word": 100,
    "vocab": {
      "[PAD]": 0,
      "[UNK]": 1,
      "[CLS]": 2,
      "[SEP]": 3,
      "[MASK]": 4,
      "!": 5,
      "\"": 6,
      "#": 7,
      "$": 8,
      "%": 9,
      "&": 10,
      "'": 11,
      "(": 12,
      ")": 13,
      "*": 14,
      "+": 15,
      ",": 16,
      "-": 17,
      ".": 18,
      "/": 19,
      "0": 20,
      "1": 21,
      "2": 22,
      "3": 23,
      "4": 24,
      "5": 25,
      "6": 26,
      "7": 27,
      "8": 28,
      "9": 29,
      ":": 30,
      ";": 31,
      "<": 32,
      "=": 33,
      ">": 34,
      "?": 35,
      "@": 36,
      "A": 37,
      "B": 38,
      "C": 39,
      "D": 40,
      "E": 41,
      "F": 42,
      "G": 43,
      "H": 44,
      "I": 45,
      "J": 46,
      "K": 47,
      "L": 48,
      "M": 49,
      "N": 50,
      "O": 51,
      "P": 52,
      "Q": 53,
      "R": 54,
      "S": 55,
      "T": 56,
      "U": 57,
      "V": 58,
      "W": 59,
      "X": 60,
      "Y": 61,
      "Z": 62,
      "[": 63,
      "\\": 64,
      "]": 65,
      "^": 66,
      "_": 67,
      "`": 68,
      "a": 69,
      "b": 70,
      "c": 71,
      "d": 72,
      "e": 73,
      "f": 74,
      "g": 75,
      "h": 76,
      "i": 77,
      "j": 78,
      "k": 79,
      "l": 80,
      "m": 81,
      "n": 82,
      "o": 83,
      "p": 84,
      "q": 85,
      "r": 86,
      "s": 87,
      "t": 88,
      "u": 89,
      "v": 90,
      "w": 91,
      "x": 92,
      "y": 93,
      "z": 94,
      "{": 95,
      "|": 96,
      "}": 97,
      "~": 98,
      "¡": 99,
      "¢": 100,
      "£": 101,
      "¤": 102,
      "¥": 103,
      "¦": 104,
      "§": 105,
      "©": 106,
      "«": 107,
      "¬": 108,
      "®": 109,
      "°": 110,
      "±": 111,
      "¶": 112,
      "·": 113,
      "»": 114,
      "¿": 115,
      "Â": 116,
      "Ã": 117,
      "Å": 118,
      "Ç": 119,
      "É": 120,
      "Ê": 121,
      "Ï": 122,
      "Ð": 123,
      "Ñ": 124,
      "Ö": 125,
      "×": 126,
      "Ø": 127,
      "Ù": 128,
      "Ü": 129,
      "Þ": 130,
      "ß": 131,
      "à": 132,
      "á": 133,
      "â": 134,
      "ã": 135,
      "ä": 136,
      "å": 137,
      "æ": 138,
      "ç": 139,
      "è": 140,
      "é": 141,
      "ê": 142,
      "ë": 143,
      "í": 144,
      "î": 145,
      "ï": 146,
      "ñ": 147,
      "ò": 148,
      "ó": 149,
      "ô": 150,
      "õ": 151,
      "ö": 152,
      "÷": 153,
      "ø": 154,
      "ù": 155,
      "ú": 156,
      "û": 157,
      "ü": 158,
      "ā": 159,
      "ă": 160,
      "Ą": 161,
      "ą": 162,
      "ć": 163,
      "ĉ": 164,
      "Č": 165,
      "č": 166,
      "ď": 167,
      "Đ": 168,
      "đ": 169,
      "ę": 170,
      "ğ": 171,
      "Ģ": 172,
      "ī": 173,
      "į": 174,
      "İ": 175,
      "ı": 176,
      "ĸ": 177,
      "Ļ": 178,
      "Ľ": 179,
      "Ł": 180,
      "ł": 181,
      "ŋ": 182,
      "ō": 183,
      "ő": 184,
      "Œ": 185,
      "œ": 186,
      "Ŗ": 187,
      "Ś": 188,
      "ś": 189,
      "ŝ": 190,
      "Ş": 191,
      "ş": 192,
      "Š": 193,
      "š": 194,
      "ţ": 195,
      "Ť": 196,
      "Ŧ": 197,
      "ū": 198,
      "ŷ": 199,
      "ž": 200,
      "ƒ": 201,
      "ư": 202,
      "Ʒ": 203,
      "Ƹ": 204,
      "ƽ": 205,
      "ǁ": 206,
      "ǿ": 207,
      "ȫ": 208,
      "ə": 209,
      "ɪ": 210,
      "ɱ": 211,
      "ʁ": 212,
      "ʃ": 213,
      "ʋ": 214,
      "ʘ": 215,
      "ʽ": 216,
      "ʾ": 217,
      "ʿ": 218,
      "ˆ": 219,
      "ˉ": 220,
      "ˮ": 221,
      "́": 222,
      "̃": 223,
      "̄": 224,
      "̅": 225,
      "̇": 226,
      "̈": 227,
      "̊": 228,
      "̡": 229,
      "̧": 230,
      "̨": 231,
      "̲": 232,
      "̳": 233,
      "̴": 234,
      "̵": 235,
      "̶": 236,
      "̷": 237,
      "̸": 238,
      "͡": 239,
      "ͼ": 240,
      "Θ": 241,
      "Μ": 242,
      "Ξ": 243,
      "Σ": 244,
      "Ψ": 245,
      "Ω": 246,
      "ά": 247,
      "έ": 248,
      "ή": 249,
      "ί": 250,
      "α": 251,
      "β": 252,
      "γ": 253,
      "ε": 254,
      "ζ": 255,
      "η": 256,
      "θ": 257,
      "ι": 258,
      "κ": 259,
      "λ": 260,
      "μ": 261,
      "ν": 262,
      "ξ": 263,
      "ο": 264,
      "π": 265,
      "ρ": 266,
      "ς": 267,
      "σ": 268,
      "τ": 269,
      "υ": 270,
      "φ": 271,
      "ψ": 272,
      "ω": 273,
      "ό": 274,
      "ώ": 275,
      "Ϡ": 276,
      "Є": 277,
      "А": 278,
      "Б": 279,
      "В": 280,
      "Г": 281,
      "Д": 282,
      "И": 283,
      "Й": 284,
      "К": 285,
      "М": 286,
      "Н": 287,
      "О": 288,
      "П": 289,
      "Р": 290,
      "С": 291,
      "Т": 292,
      "Ф": 293,
      "Я": 294,
      "а": 295,
      "б": 296,
      "в": 297,
      "г": 298,
      "д": 299,
      "е": 300,
      "ж": 301,
      "з": 302,
      "и": 303,
      "й": 304,
      "к": 305,
      "л": 306,
      "м": 307,
      "н": 308,
      "о": 309,
      "п": 310,
      "р": 311,
      "с": 312,
      "т": 313,
      "у": 314,
      "ф": 315,
      "х": 316,
      "ц": 317,
      "ч": 318,
      "ш": 319,
      "ъ": 320,
      "ы": 321,
      "ь": 322,
      "я": 323,
      "ё": 324,
      "є": 325,
      "ѕ": 326,
      "і": 327,
      "ї": 328,
      "ѽ": 329,
      "҈": 330,
      "҉": 331,
      "Ғ": 332,
      "Җ": 333,
      "Ҳ": 334,
      "ҳ": 335,
      "һ": 336,
      "ա": 337,
      "խ": 338,
      "մ": 339,
      "վ": 340,
      "֝": 341,
      "ִ": 342,
      "ַ": 343,
      "ָ": 344,
      "ּ": 345,
      "־": 346,
      "ֿ": 347,
      "א": 348,
      "ב": 349,
      "ג": 350,
      "ד": 351,
      "ה": 352,
      "ו": 353,
      "ז": 354,
      "ח": 355,
      "ט": 356,
      "י": 357,
      "ך": 358,
      "כ": 359,
      "ל": 360,
      "ם": 361,
      "מ": 362,
      "ן": 363,
      "נ": 364,
      "ס": 365,
      "ע": 366,
      "ף": 367,
      "פ": 368,
      "ץ": 369,
      "צ": 370,
      "ק": 371,
      "ר": 372,
      "ש": 373,
      "ת": 374,
      "װ": 375,
      "״": 376,
      "׼": 377,
      "،": 378,
      "؛": 379,
      "؟": 380,
      "ء": 381,
      "آ": 382,
      "أ": 383,
      "ؤ": 384,
      "إ": 385,
      "ئ": 386,
      "ا": 387,
      "ب": 388,
      "ة": 389,
      "ت": 390,
      "ث": 391,
      "ج": 392,
      "ح": 393,
      "خ": 394,
      "د": 395,
      "ذ": 396,
      "ر": 397,
      "ز": 398,
      "س": 399,
      "ش": 400,
      "ص": 401,
      "ض": 402,
      "ط": 403,
      "ظ": 404,
      "ع": 405,
      "غ": 406,
      "ػ": 407,
      "ف": 408,
      "ق": 409,
      "ك": 410,
      "ل": 411,
      "م": 412,
      "ن": 413,
      "ه": 414,
      "و": 415,
      "ى": 416,
      "ي": 417,
      "ٓ": 418,
      "ٔ": 419,
      "٠": 420,
      "١": 421,
      "٢": 422,
      "٣": 423,
      "٤": 424,
      "٥": 425,
      "٦": 426,
      "٧": 427,
      "٨": 428,
      "٩": 429,
      "٪": 430,
      "٫": 431,
      "٬": 432,
      "٭": 433,
      "ٱ": 434,
      "ٲ": 435,
      "ٳ": 436,
      "ٴ": 437,
      "ٹ": 438,
      "ٺ": 439,
      "ٻ": 440,
      "ټ": 441,
      "پ": 442,
      "ٿ": 443,
      "چ": 444,
      "ڈ": 445,
      "ڊ": 446,
      "ڑ": 447,
      "ړ": 448,
      "ڔ": 449,
      "ڕ": 450,
      "ږ": 451,
      "ژ": 452,
      "ڙ": 453,
      "ڛ": 454,
      "ڠ": 455,
      "ڤ": 456,
      "ڦ": 457,
      "ڨ": 458,
      "ک": 459,
      "ڪ": 460,
      "ڬ": 461,
      "ڭ": 462,
      "گ": 463,
      "ڲ": 464,
      "ڳ": 465,
      "ڵ": 466,
      "ڶ": 467,
      "ڷ": 468,
      "ڸ": 469,
      "ڹ": 470,
      "ں": 471,
      "ڼ": 472,
      "ڽ": 473,
      "ھ": 474,
      "ۀ": 475,
      "ہ": 476,
      "ۂ": 477,
      "ۃ": 478,
      "ۅ": 479,
      "ۆ": 480,
      "ۇ": 481,
      "ۈ": 482,
      "ۉ": 483,
      "ۋ": 484,
      "ی": 485,
      "ێ": 486,
      "ې": 487,
      "ۑ": 488,
      "ے": 489,
      "ۓ": 490,
      "۔": 491,
      "ە": 492,
      "ۖ": 493,
      "ۗ": 494,
      "ۚ": 495,
      "ۜ": 496,
      "۞": 497,
      "ۡ": 498,
      "ۣ": 499,
      "ۤ": 500,
      "ۧ": 501,
      "ۨ": 502,
      "۩": 503,
      "۪": 504,
      "۫": 505,
      "۰": 506,
      "۱": 507,
      "۲": 508,
      "۳": 509,
      "۴": 510,
      "۵": 511,
      "۶": 512,
      "۷": 513,
      "۸": 514,
      "۹": 515,
      "۾": 516,
      "ܐ": 517,
      "ܓ": 518,
      "ܔ": 519,
      "ܕ": 520,
      "ܘ": 521,
      "ܝ": 522,
      "ܠ": 523,
      "ܡ": 524,
      "ܢ": 525,
      "ܨ": 526,
      "ܪ": 527,
      "ܬ": 528,
      "ށ": 529,
      "ँ": 530,
      "ऊ": 531,
      "ऋ": 532,
      "ख": 533,
      "द": 534,
      "न": 535,
      "र": 536,
      "़": 537,
      "ा": 538,
      "ी": 539,
      "ॐ": 540,
      "ঔ": 541,
      "া": 542,
      "ৣ": 543,
      "৲": 544,
      "৴": 545,
      "৵": 546,
      "ਿ": 547,
      "ੀ": 548,
      "ઇ": 549,
      "હ": 550,
      "ஃ": 551,
      "இ": 552,
      "ஊ": 553,
      "ஐ": 554,
      "ஓ": 555,
      "ஜ": 556,
      "ண": 557,
      "ஷ": 558,
      "ஹ": 559,
      "ಏ": 560,
      "ಞ": 561,
      "ೋ": 562,
      "್": 563,
      "്": 564,
      "ก": 565,
      "ง": 566,
      "ฒ": 567,
      "ด": 568,
      "ท": 569,
      "น": 570,
      "บ": 571,
      "ม": 572,
      "ย": 573,
      "ร": 574,
      "ล": 575,
      "ว": 576,
      "ส": 577,
      "ห": 578,
      "อ": 579,
      "ะ": 580,
      "ั": 581,
      "า": 582,
      "ิ": 583,
      "ี": 584,
      "฿": 585,
      "เ": 586,
      "แ": 587,
      "ไ": 588,
      "็": 589,
      "่": 590,
      "้": 591,
      "๏": 592,
      "๐": 593,
      "๑": 594,
      "๘": 595,
      "༄": 596,
      "ཡ": 597,
      "დ": 598,
      "ო": 599,
      "რ": 600,
      "ღ": 601,
      "წ": 602,
      "ჲ": 603,
      "჻": 604,
      "ᅠ": 605,
      "ᴍ": 606,
      "ᴥ": 607,
      "ḋ": 608,
      "Ḥ": 609,
      "ḥ": 610,
      "Ḿ": 611,
      "ṭ": 612,
      "ả": 613,
      "ị": 614,
      "‐": 615,
      "–": 616,
      "—": 617,
      "‘": 618,
      "’": 619,
      "‚": 620,
      "“": 621,
      "”": 622,
      "„": 623,
      "†": 624,
      "‡": 625,
      "•": 626,
      "‰": 627,
      "′": 628,
      "‹": 629,
      "›": 630,
      "※": 631,
      "‿": 632,
      "⁄": 633,
      "₡": 634,
      "₩": 635,
      "₪": 636,
      "₫": 637,
      "€": 638,
      "₹": 639,
      "⃣": 640,
      "←": 641,
      "↑": 642,
      "→": 643,
      "↓": 644,
      "↔": 645,
      "↕": 646,
      "↡": 647,
      "↵": 648,
      "⇐": 649,
      "∂": 650,
      "∑": 651,
      "−": 652,
      "∙": 653,
      "√": 654,
      "∞": 655,
      "∥": 656,
      "∫": 657,
      "≈": 658,
      "≡": 659,
      "≽": 660,
      "⊰": 661,
      "⊱": 662,
      "⋘": 663,
      "⋙": 664,
      "⋰": 665,
      "⋱": 666,
      "⌐": 667,
      "─": 668,
      "━": 669,
      "│": 670,
      "┈": 671,
      "┣": 672,
      "┨": 673,
      "┫": 674,
      "═": 675,
      "║": 676,
      "╔": 677,
      "╗": 678,
      "╚": 679,
      "╝": 680,
      "╠": 681,
      "╣": 682,
      "╬": 683,
      "╭": 684,
      "╯": 685,
      "▂": 686,
      "▃": 687,
      "▅": 688,
      "▆": 689,
      "▇": 690,
      "█": 691,
      "▌": 692,
      "▏": 693,
      "▐": 694,
      "░": 695,
      "▒": 696,
      "▓": 697,
      "■": 698,
      "□": 699,
      "▣": 700,
      "▧": 701,
      "▪": 702,
      "▫": 703,
      "▬": 704,
      "▲": 705,
      "▶": 706,
      "▷": 707,
      "▸": 708,
      "►": 709,
      "▼": 710,
      "▽": 711,
      "◀": 712,
      "◁": 713,
      "◂": 714,
      "◄": 715,
      "◆": 716,
      "◇": 717,
      "◊": 718,
      "○": 719,
      "●": 720,
      "◐": 721,
      "◑": 722,
      "◕": 723,
      "◘": 724,
      "◙": 725,
      "◢": 726,
      "◣": 727,
      "◤": 728,
      "◥": 729,
      "◦": 730,
      "◾": 731,
      "☀": 732,
      "☂": 733,
      "☃": 734,
      "★": 735,
      "☆": 736,
      "☎": 737,
      "☏": 738,
      "☕": 739,
      "☜": 740,
      "☝": 741,
      "☞": 742,
      "☰": 743,
      "☹": 744,
      "☺": 745,
      "☻": 746,
      "☼": 747,
      "♀": 748,
      "♂": 749,
      "♔": 750,
      "♕": 751,
      "♛": 752,
      "♞": 753,
      "♠": 754,
      "♡": 755,
      "♢": 756,
      "♣": 757,
      "♥": 758,
      "♦": 759,
      "♨": 760,
      "♩": 761,
      "♪": 762,
      "♫": 763,
      "♬": 764,
      "♭": 765,
      "⚐": 766,
      "⚑": 767,
      "⚛": 768,
      "⚜": 769,
      "⚠": 770,
      "⚡": 771,
      "⚫": 772,
      "⚽": 773,
      "✅": 774,
      "✈": 775,
      "✉": 776,
      "✋": 777,
      "✌": 778,
      "✍": 779,
      "✎": 780,
      "✒": 781,
      "✓": 782,
      "✔": 783,
      "✖": 784,
      "✣": 785,
      "✦": 786,
      "✨": 787,
      "✪": 788,
      "✲": 789,
      "✽": 790,
      "✿": 791,
      "❀": 792,
      "❄": 793,
      "❊": 794,
      "❌": 795,
      "❖": 796,
      "❝": 797,
      "❞": 798,
      "❣": 799,
      "❤": 800,
      "❥": 801,
      "❦": 802,
      "❧": 803,
      "➖": 804,
      "➞": 805,
      "➽": 806,
      "⟰": 807,
      "⠀": 808,
      "⦁": 809,
      "⬇": 810,
      "⭐": 811,
      "⭕": 812,
      "ⴰ": 813,
      "ⴳ": 814,
      "ⴷ": 815,
      "ⴼ": 816,
      "ⵉ": 817,
      "ⵍ": 818,
      "ⵎ": 819,
      "ⵏ": 820,
      "ⵓ": 821,
      "ⵔ": 822,
      "ⵖ": 823,
      "ⵙ": 824,
      "ⵜ": 825,
      "ⵡ": 826,
      "ⵣ": 827,
      "、": 828,
      "。": 829,
      "《": 830,
      "》": 831,
      "『": 832,
      "』": 833,
      "【": 834,
      "】": 835,
      "〖": 836,
      "〗": 837,
      "あ": 838,
      "の": 839,
      "゚": 840,
      "ア": 841,
      "イ": 842,
      "ウ": 843,
      "グ": 844,
      "ジ": 845,
      "ッ": 846,
      "ツ": 847,
      "ト": 848,
      "ド": 849,
      "ビ": 850,
      "フ": 851,
      "ブ": 852,
      "ベ": 853,
      "ミ": 854,
      "ム": 855,
      "メ": 856,
      "モ": 857,
      "ョ": 858,
      "ラ": 859,
      "ロ": 860,
      "ン": 861,
      "・": 862,
      "ー": 863,
      "ㄨ": 864,
      "中": 865,
      "乀": 866,
      "乂": 867,
      "二": 868,
      "優": 869,
      "国": 870,
      "备": 871,
      "彡": 872,
      "文": 873,
      "日": 874,
      "本": 875,
      "語": 876,
      "设": 877,
      "국": 878,
      "스": 879,
      "어": 880,
      "한": 881,
      "﴾": 882,
      "﴿": 883,
      "️": 884,
      "￼": 885,
      "🇦": 886,
      "🇧": 887,
      "🇩": 888,
      "🇪": 889,
      "🇬": 890,
      "🇮": 891,
      "🇰": 892,
      "🇲": 893,
      "🇴": 894,
      "🇶": 895,
      "🇷": 896,
      "🇸": 897,
      "🇹": 898,
      "🇼": 899,
      "🌚": 900,
      "🌞": 901,
      "🌟": 902,
      "🌷": 903,
      "🌸": 904,
      "🌹": 905,
      "🌺": 906,
      "🌻": 907,
      "🌼": 908,
      "🌿": 909,
      "🍃": 910,
      "🎁": 911,
      "🎈": 912,
      "🎉": 913,
      "🎶": 914,
      "🏃": 915,
      "🏻": 916,
      "🏼": 917,
      "🏽": 918,
      "👀": 919,
      "👆": 920,
      "👇": 921,
      "👈": 922,
      "👉": 923,
      "👊": 924,
      "👌": 925,
      "👍": 926,
      "👏": 927,
      "👑": 928,
      "💃": 929,
      "💋": 930,
      "💐": 931,
      "💓": 932,
      "💔": 933,
      "💕": 934,
      "💖": 935,
      "💗": 936,
      "💘": 937,
      "💙": 938,
      "💚": 939,
      "💛": 940,
      "💜": 941,
      "💞": 942,
      "💥": 943,
      "💪": 944,
      "💫": 945,
      "💭": 946,
      "💯": 947,
      "📌": 948,
      "📍": 949,
      "🔥": 950,
      "🔴": 951,
      "🔵": 952,
      "🔹": 953,
      "🔻": 954,
      "🕊": 955,
      "🕔": 956,
      "🖤": 957,
      "😀": 958,
      "😁": 959,
      "😂": 960,
      "😃": 961,
      "😄": 962,
      "😅": 963,
      "😆": 964,
      "😇": 965,
      "😉": 966,
      "😊": 967,
      "😋": 968,
      "😌": 969,
      "😍": 970,
      "😎": 971,
      "😏": 972,
      "😐": 973,
      "😑": 974,
      "😒": 975,
      "😔": 976,
      "😕": 977,
      "😘": 978,
      "😜": 979,
      "😡": 980,
      "😢": 981,
      "😩": 982,
      "😪": 983,
      "😭": 984,
      "😱": 985,
      "😳": 986,
      "😴": 987,
      "😹": 988,
      "😻": 989,
      "🙁": 990,
      "🙂": 991,
      "🙃": 992,
      "🙄": 993,
      "🙈": 994,
      "🙊": 995,
      "🙌": 996,
      "🙏": 997,
      "🚶": 998,
      "🤔": 999,
      "🤗": 1000,
      "🤣": 1001,
      "🤦": 1002,
      "🤷": 1003,
      "🧡": 1004,
      "##ت": 1005,
      "##ن": 1006,
      "##ا": 1007,
      "##ز": 1008,
      "##ع": 1009,
      "##ل": 1010,
      "##ق": 1011,
      "##و": 1012,
      "##ي": 1013,
      "##ك": 1014,
      "##م": 1015,
      "##د": 1016,
      "##ر": 1017,
      "##8": 1018,
      "##S": 1019,
      "##q": 1020,
      "##M": 1021,
      "##F": 1022,
      "##e": 1023,
      "##c": 1024,
      "##g": 1025,
      "##y": 1026,
      "##ض": 1027,
      "##ه": 1028,
      "##1": 1029,
      "##5": 1030,
      "##ص": 1031,
      "##ح": 1032,
      "##س": 1033,
      "##ش": 1034,
      "##ذ": 1035,
      "##خ": 1036,
      "##ف": 1037,
      "##ؤ": 1038,
      "##ث": 1039,
      "##ط": 1040,
      "##ج": 1041,
      "##ئ": 1042,
      "##ة": 1043,
      "##غ": 1044,
      "##ب": 1045,
      "##أ": 1046,
      "##d": 1047,
      "##t": 1048,
      "##a": 1049,
      "##i": 1050,
      "##o": 1051,
      "##n": 1052,
      "##ء": 1053,
      "##آ": 1054,
      "##ٲ": 1055,
      "##ھ": 1056,
      "##ظ": 1057,
      "##7": 1058,
      "##2": 1059,
      "##b": 1060,
      "##L": 1061,
      "##I": 1062,
      "##A": 1063,
      "##H": 1064,
      "##K": 1065,
      "##k": 1066,
      "##٠": 1067,
      "##x": 1068,
      "##4": 1069,
      "##Y": 1070,
      "##0": 1071,
      "##E": 1072,
      "##v": 1073,
      "##G": 1074,
      "##Z": 1075,
      "##3": 1076,
      "##9": 1077,
      "##پ": 1078,
      "##6": 1079,
      "##إ": 1080,
      "##ک": 1081,
      "##N": 1082,
      "##u": 1083,
      "##C": 1084,
      "##P": 1085,
      "##f": 1086,
      "##p": 1087,
      "##U": 1088,
      "##J": 1089,
      "##w": 1090,
      "##r": 1091,
      "##s": 1092,
      "##€": 1093,
      "##h": 1094,
      "##j": 1095,
      "##l": 1096,
      "##ñ": 1097,
      "##O": 1098,
      "##R": 1099,
      "##D": 1100,
      "##ے": 1101,
      "##ى": 1102,
      "##m": 1103,
      "##е": 1104,
      "##з": 1105,
      "##м": 1106,
      "##😂": 1107,
      "##ִ": 1108,
      "##ז": 1109,
      "##ּ": 1110,
      "##י": 1111,
      "##ר": 1112,
      "##ָ": 1113,
      "##ה": 1114,
      "##T": 1115,
      "##X": 1116,
      "##B": 1117,
      "##z": 1118,
      "##🏼": 1119,
      "##ی": 1120,
      "##🚶": 1121,
      "##🏻": 1122,
      "##ê": 1123,
      "##ٹ": 1124,
      "##Q": 1125,
      "##£": 1126,
      "##■": 1127,
      "##V": 1128,
      "##W": 1129,
      "##😇": 1130,
      "##🤔": 1131,
      "##ڷ": 1132,
      "##ü": 1133,
      "##ˆ": 1134,
      "##μ": 1135,
      "##ڑ": 1136,
      "##ڈ": 1137,
      "##١": 1138,
      "##٦": 1139,
      "##😉": 1140,
      "##❤": 1141,
      "##️": 1142,
      "##گ": 1143,
      "##🎁": 1144,
      "##🎈": 1145,
      "##🎉": 1146,
      "##🤗": 1147,
      "##😘": 1148,
      "##ۈ": 1149,
      "##ە": 1150,
      "##×": 1151,
      "##ں": 1152,
      "##🤦": 1153,
      "##🏽": 1154,
      "##♂": 1155,
      "##٧": 1156,
      "##٨": 1157,
      "##٥": 1158,
      "##💔": 1159,
      "##ä": 1160,
      "##ہ": 1161,
      "##چ": 1162,
      "##ʁ": 1163,
      "##̃": 1164,
      "##ρ": 1165,
      "##γ": 1166,
      "##υ": 1167,
      "##ό": 1168,
      "##κ": 1169,
      "##α": 1170,
      "##σ": 1171,
      "##τ": 1172,
      "##ο": 1173,
      "##р": 1174,
      "##ё": 1175,
      "##н": 1176,
      "##ы": 1177,
      "##ڳ": 1178,
      "##ٱ": 1179,
      "##ͼ": 1180,
      "##̳": 1181,
      "##٢": 1182,
      "##é": 1183,
      "##✋": 1184,
      "##😭": 1185,
      "##😩": 1186,
      "##т": 1187,
      "##а": 1188,
      "##ۃ": 1189,
      "##â": 1190,
      "##😹": 1191,
      "##٤": 1192,
      "##♀": 1193,
      "##Ù": 1194,
      "##Š": 1195,
      "##Ø": 1196,
      "##😊": 1197,
      "##👏": 1198,
      "##и": 1199,
      "##٩": 1200,
      "##с": 1201,
      "##п": 1202,
      "##у": 1203,
      "##́": 1204,
      "##б": 1205,
      "##л": 1206,
      "##к": 1207,
      "##🔥": 1208,
      "##👌": 1209,
      "##♥": 1210,
      "##è": 1211,
      "##®": 1212,
      "##ٔ": 1213,
      "##ã": 1214,
      "##😎": 1215,
      "##🌹": 1216,
      "##🍃": 1217,
      "##ػ": 1218,
      "##в": 1219,
      "##о": 1220,
      "##й": 1221,
      "##д": 1222,
      "##ۡ": 1223,
      "##۰": 1224,
      "##ڤ": 1225,
      "##є": 1226,
      "##💚": 1227,
      "##ٓ": 1228,
      "##ۆ": 1229,
      "##ڨ": 1230,
      "##✌": 1231,
      "##🇸": 1232,
      "##🇦": 1233,
      "##¬": 1234,
      "##ו": 1235,
      "##ע": 1236,
      "##ץ": 1237,
      "##▓": 1238,
      "##█": 1239,
      "##ς": 1240,
      "##٣": 1241,
      "##💘": 1242,
      "##Ã": 1243,
      "##©": 1244,
      "##ч": 1245,
      "##ٺ": 1246,
      "##Ф": 1247,
      "##💖": 1248,
      "##Œ": 1249,
      "##¥": 1250,
      "##💗": 1251,
      "##●": 1252,
      "##☼": 1253,
      "##○": 1254,
      "##ټ": 1255,
      "##ó": 1256,
      "##ڵ": 1257,
      "##ۅ": 1258,
      "##🙂": 1259,
      "##🏃": 1260,
      "##ç": 1261,
      "##х": 1262,
      "##🙃": 1263,
      "##🙄": 1264,
      "##ン": 1265,
      "##ラ": 1266,
      "##イ": 1267,
      "##ж": 1268,
      "##я": 1269,
      "##¤": 1270,
      "##۪": 1271,
      "##۫": 1272,
      "##✈": 1273,
      "##😀": 1274,
      "##💛": 1275,
      "##💭": 1276,
      "##û": 1277,
      "##°": 1278,
      "##ۋ": 1279,
      "##ù": 1280,
      "##😢": 1281,
      "##ć": 1282,
      "##ı": 1283,
      "##í": 1284,
      "##ν": 1285,
      "##į": 1286,
      "##👍": 1287,
      "##🙌": 1288,
      "##ô": 1289,
      "##✔": 1290,
      "##😒": 1291,
      "##ל": 1292,
      "##ⵎ": 1293,
      "##ⴰ": 1294,
      "##ⵜ": 1295,
      "##۱": 1296,
      "##💕": 1297,
      "##☕": 1298,
      "##✨": 1299,
      "##İ": 1300,
      "##😆": 1301,
      "##ี": 1302,
      "##่": 1303,
      "##🙏": 1304,
      "##Ƹ": 1305,
      "##נ": 1306,
      "##ט": 1307,
      "##ק": 1308,
      "##۶": 1309,
      "##۸": 1310,
      "##👀": 1311,
      "##⚠": 1312,
      "##ι": 1313,
      "##💙": 1314,
      "##±": 1315,
      "##۹": 1316,
      "##ö": 1317,
      "##۳": 1318,
      "##۴": 1319,
      "##۷": 1320,
      "##š": 1321,
      "##★": 1322,
      "##ד": 1323,
      "##ם": 1324,
      "##😌": 1325,
      "##∞": 1326,
      "##ڛ": 1327,
      "##ێ": 1328,
      "##🌚": 1329,
      "##ژ": 1330,
      "##🇰": 1331,
      "##🇼": 1332,
      "##🇴": 1333,
      "##🇲": 1334,
      "##ٴ": 1335,
      "##ā": 1336,
      "##│": 1337,
      "##π": 1338,
      "##г": 1339,
      "##⚫": 1340,
      "##ร": 1341,
      "##ั": 1342,
      "##ง": 1343,
      "##ก": 1344,
      "##ว": 1345,
      "##า": 1346,
      "##อ": 1347,
      "##ห": 1348,
      "##บ": 1349,
      "##💋": 1350,
      "##🌷": 1351,
      "##É": 1352,
      "##😋": 1353,
      "##۵": 1354,
      "##א": 1355,
      "##ٻ": 1356,
      "##ۧ": 1357,
      "##ڙ": 1358,
      "##ې": 1359,
      "##ڸ": 1360,
      "##😃": 1361,
      "##😁": 1362,
      "##¦": 1363,
      "##√": 1364,
      "##Ś": 1365,
      "##ь": 1366,
      "##ח": 1367,
      "##😕": 1368,
      "##ō": 1369,
      "##😍": 1370,
      "##ڬ": 1371,
      "##ڠ": 1372,
      "##😏": 1373,
      "##⁄": 1374,
      "##ס": 1375,
      "##פ": 1376,
      "##ڪ": 1377,
      "##ַ": 1378,
      "##☺": 1379,
      "##ę": 1380,
      "##ी": 1381,
      "##😑": 1382,
      "##რ": 1383,
      "##ڕ": 1384,
      "##น": 1385,
      "##ด": 1386,
      "##̴": 1387,
      "##̵": 1388,
      "##❌": 1389,
      "##║": 1390,
      "##❀": 1391,
      "##۲": 1392,
      "##ा": 1393,
      "##æ": 1394,
      "##ת": 1395,
      "##ğ": 1396,
      "##ש": 1397,
      "##✍": 1398,
      "##ī": 1399,
      "##β": 1400,
      "##ʽ": 1401,
      "##ڽ": 1402,
      "##￼": 1403,
      "##ן": 1404,
      "##η": 1405,
      "##ε": 1406,
      "##ღ": 1407,
      "##ø": 1408,
      "##🇧": 1409,
      "##đ": 1410,
      "##ٿ": 1411,
      "##ド": 1412,
      "##フ": 1413,
      "##ト": 1414,
      "##ə": 1415,
      "##ɪ": 1416,
      "##ц": 1417,
      "##🌸": 1418,
      "##ú": 1419,
      "##◦": 1420,
      "##à": 1421,
      "##₪": 1422,
      "##λ": 1423,
      "##έ": 1424,
      "##╭": 1425,
      "##━": 1426,
      "##🙈": 1427,
      "##ṭ": 1428,
      "##ƒ": 1429,
      "##🌺": 1430,
      "##œ": 1431,
      "##◄": 1432,
      "##á": 1433,
      "##î": 1434,
      "##ï": 1435,
      "##ڼ": 1436,
      "##ۓ": 1437,
      "##ա": 1438,
      "##צ": 1439,
      "##כ": 1440,
      "##💓": 1441,
      "##💜": 1442,
      "##С": 1443,
      "##ܐ": 1444,
      "##ܠ": 1445,
      "##🇶": 1446,
      "##ۂ": 1447,
      "##☆": 1448,
      "##ʿ": 1449,
      "##╔": 1450,
      "##Â": 1451,
      "##ž": 1452,
      "##♫": 1453,
      "##♪": 1454,
      "##ë": 1455,
      "##😳": 1456,
      "##🤣": 1457,
      "##ъ": 1458,
      "##❝": 1459,
      "##😐": 1460,
      "##🙊": 1461,
      "##👊": 1462,
      "##ş": 1463,
      "##💐": 1464,
      "##Ş": 1465,
      "##ۉ": 1466,
      "##ஐ": 1467,
      "##र": 1468,
      "##ˮ": 1469,
      "##😪": 1470,
      "##۩": 1471,
      "##ʾ": 1472,
      "##↓": 1473,
      "##ー": 1474,
      "##ム": 1475,
      "##ۚ": 1476,
      "##ܘ": 1477,
      "##ܪ": 1478,
      "##ܝ": 1479,
      "##ܢ": 1480,
      "##Г": 1481,
      "##♡": 1482,
      "##💃": 1483,
      "##🇹": 1484,
      "##া": 1485,
      "##😅": 1486,
      "##어": 1487,
      "##👇": 1488,
      "##😔": 1489,
      "##🇪": 1490,
      "##å": 1491,
      "##⃣": 1492,
      "##ш": 1493,
      "##🌿": 1494,
      "##מ": 1495,
      "##ג": 1496,
      "##🌼": 1497,
      "##👈": 1498,
      "##💞": 1499,
      "##😡": 1500,
      "##ܬ": 1501,
      "##Д": 1502,
      "##❊": 1503,
      "##←": 1504,
      "##😄": 1505,
      "##і": 1506,
      "##ѕ": 1507,
      "##இ": 1508,
      "##̈": 1509,
      "##🖤": 1510,
      "##💪": 1511,
      "##ά": 1512,
      "##ⴳ": 1513,
      "##ⵏ": 1514,
      "##👉": 1515,
      "##♠": 1516,
      "##🤷": 1517,
      "##ξ": 1518,
      "##ב": 1519,
      "##ڊ": 1520,
      "##̶": 1521,
      "##ω": 1522,
      "##ί": 1523,
      "##ū": 1524,
      "##ڹ": 1525,
      "##ۗ": 1526,
      "##🌻": 1527,
      "##̨": 1528,
      "##ٳ": 1529,
      "##θ": 1530,
      "##ܕ": 1531,
      "##ܡ": 1532,
      "##һ": 1533,
      "##А": 1534,
      "##ţ": 1535,
      "##🕊": 1536,
      "##დ": 1537,
      "##φ": 1538,
      "##ή": 1539,
      "##ツ": 1540,
      "##õ": 1541,
      "##☻": 1542,
      "##ڦ": 1543,
      "##ண": 1544,
      "##ò": 1545,
      "##ڔ": 1546,
      "##้": 1547,
      "##เ": 1548,
      "##ย": 1549,
      "##็": 1550,
      "##ڭ": 1551,
      "##÷": 1552,
      "##ŋ": 1553,
      "##☝": 1554,
      "##О": 1555,
      "##Я": 1556,
      "##В": 1557,
      "##И": 1558,
      "##♛": 1559,
      "##💥": 1560,
      "##վ": 1561,
      "##✿": 1562,
      "##🌟": 1563,
      "##≡": 1564,
      "##✅": 1565,
      "##ッ": 1566,
      "##ブ": 1567,
      "##մ": 1568,
      "##̄": 1569,
      "##▬": 1570,
      "##☹": 1571,
      "##ł": 1572,
      "##Ö": 1573,
      "##۞": 1574,
      "##ۤ": 1575,
      "##แ": 1576,
      "##😜": 1577,
      "##ア": 1578,
      "##モ": 1579,
      "##¢": 1580,
      "##⚽": 1581,
      "##̇": 1582,
      "##Н": 1583,
      "##Й": 1584,
      "##ώ": 1585,
      "##☞": 1586,
      "##ख": 1587,
      "##✒": 1588,
      "##⭐": 1589,
      "##द": 1590,
      "##⠀": 1591,
      "##┈": 1592,
      "##🇮": 1593,
      "##ă": 1594,
      "##͡": 1595,
      "##ۀ": 1596,
      "##č": 1597,
      "##═": 1598,
      "##Р": 1599,
      "##ۖ": 1600,
      "##−": 1601,
      "##ζ": 1602,
      "##🇩": 1603,
      "##Б": 1604,
      "##ɱ": 1605,
      "##😴": 1606,
      "##ß": 1607,
      "##ⵉ": 1608,
      "##ⵍ": 1609,
      "##ⵡ": 1610,
      "##🧡": 1611,
      "##̧": 1612,
      "##✎": 1613,
      "##̲": 1614,
      "##ロ": 1615,
      "##▪": 1616,
      "##Ł": 1617,
      "##Đ": 1618,
      "##ǿ": 1619,
      "##ś": 1620,
      "##Μ": 1621,
      "##░": 1622,
      "##▒": 1623,
      "##🌞": 1624,
      "##►": 1625,
      "##П": 1626,
      "##̷": 1627,
      "##스": 1628,
      "##❥": 1629,
      "##ミ": 1630,
      "##ۑ": 1631,
      "##ۨ": 1632,
      "##ँ": 1633,
      "##♨": 1634,
      "##ۣ": 1635,
      "##ⴷ": 1636,
      "##ล": 1637,
      "##ф": 1638,
      "##☜": 1639,
      "##ą": 1640,
      "##🎶": 1641,
      "##♩": 1642,
      "##▌": 1643,
      "##👑": 1644,
      "##🔴": 1645,
      "##❄": 1646,
      "##😻": 1647,
      "##╠": 1648,
      "##न": 1649,
      "##😱": 1650,
      "##Ľ": 1651,
      "##Ą": 1652,
      "##Ç": 1653,
      "##✓": 1654,
      "##✦": 1655,
      "##🇷": 1656,
      "##💫": 1657,
      "##⚡": 1658,
      "##ď": 1659,
      "##📍": 1660,
      "##ۜ": 1661,
      "##ڶ": 1662,
      "##↔": 1663,
      "##➖": 1664,
      "##ږ": 1665,
      "##ḥ": 1666,
      "##Ð": 1667,
      "##Å": 1668,
      "##あ": 1669,
      "##խ": 1670,
      "##👆": 1671,
      "##◣": 1672,
      "##◆": 1673,
      "##❖": 1674,
      "##メ": 1675,
      "##๑": 1676,
      "##Ω": 1677,
      "##ᅠ": 1678,
      "##ї": 1679,
      "##の": 1680,
      "##→": 1681,
      "##Ϡ": 1682,
      "##☏": 1683,
      "##М": 1684,
      "##ƽ": 1685,
      "##🇬": 1686,
      "##◊": 1687,
      "##ⵓ": 1688,
      "##ⵣ": 1689,
      "##⬇": 1690,
      "##≈": 1691,
      "##К": 1692,
      "##☀": 1693,
      "##ړ": 1694,
      "##♦": 1695,
      "##✽": 1696,
      "##🙁": 1697,
      "##ʃ": 1698,
      "##ő": 1699,
      "##🔵": 1700,
      "##़": 1701,
      "##↑": 1702,
      "##ⵔ": 1703,
      "##ȫ": 1704,
      "##∙": 1705,
      "##💯": 1706,
      "##ะ": 1707,
      "##ิ": 1708,
      "##ท": 1709,
      "##ף": 1710,
      "##국": 1711,
      "##❣": 1712,
      "##ܓ": 1713,
      "##Θ": 1714,
      "##Ļ": 1715,
      "##☂": 1716,
      "##Ü": 1717,
      "##☃": 1718,
      "##ŝ": 1719,
      "##Č": 1720,
      "##ҳ": 1721,
      "##─": 1722,
      "##Ḥ": 1723,
      "##ョ": 1724,
      "##Σ": 1725,
      "##▲": 1726,
      "##Т": 1727,
      "##ך": 1728,
      "##ĸ": 1729,
      "##ψ": 1730,
      "##Ξ": 1731,
      "##╚": 1732,
      "##ジ": 1733,
      "##׼": 1734,
      "##⋰": 1735,
      "##ウ": 1736,
      "##한": 1737,
      "##ო": 1738,
      "##ส": 1739,
      "##Ï": 1740,
      "##ܔ": 1741,
      "##🔹": 1742,
      "##ۇ": 1743,
      "##ả": 1744,
      "##ஓ": 1745,
      "##წ": 1746,
      "##∂": 1747,
      "##۾": 1748,
      "##ŷ": 1749,
      "##Є": 1750,
      "##Ñ": 1751,
      "##ม": 1752,
      "##Ŗ": 1753,
      "##ஜ": 1754,
      "##ܨ": 1755,
      "##̸": 1756,
      "##Ҳ": 1757,
      "##Ê": 1758,
      "##್": 1759,
      "##്": 1760,
      "##⊰": 1761,
      "##♕": 1762,
      "##⊱": 1763,
      "##∫": 1764,
      "##ֿ": 1765,
      "##◾": 1766,
      "##ށ": 1767,
      "##̅": 1768,
      "##Ŧ": 1769,
      "##▶": 1770,
      "##♣": 1771,
      "##✲": 1772,
      "##♢": 1773,
      "##ビ": 1774,
      "##ڲ": 1775,
      "##▸": 1776,
      "##Ť": 1777,
      "##✉": 1778,
      "##◘": 1779,
      "##ઇ": 1780,
      "##ไ": 1781,
      "##⚜": 1782,
      "##ੀ": 1783,
      "##҉": 1784,
      "##▃": 1785,
      "##▅": 1786,
      "##▆": 1787,
      "##▇": 1788,
      "##▷": 1789,
      "##✖": 1790,
      "##৲": 1791,
      "##♔": 1792,
      "##◇": 1793,
      "##□": 1794,
      "##ĉ": 1795,
      "##⦁": 1796,
      "##Ғ": 1797,
      "##グ": 1798,
      "##◀": 1799,
      "##🔻": 1800,
      "##▐": 1801,
      "##̡": 1802,
      "##ベ": 1803,
      "##ị": 1804,
      "##₡": 1805,
      "##Ψ": 1806,
      "##⭕": 1807,
      "##◕": 1808,
      "##☰": 1809,
      "##╬": 1810,
      "##▫": 1811,
      "##ⵖ": 1812,
      "##Ʒ": 1813,
      "##ஃ": 1814,
      "##📌": 1815,
      "##̊": 1816,
      "##▂": 1817,
      "##ѽ": 1818,
      "##ⵙ": 1819,
      "##ⴼ": 1820,
      "##▼": 1821,
      "##┨": 1822,
      "##╝": 1823,
      "##๘": 1824,
      "##╣": 1825,
      "##ೋ": 1826,
      "##ਿ": 1827,
      "##▽": 1828,
      "##װ": 1829,
      "##Ḿ": 1830,
      "##฿": 1831,
      "##ḋ": 1832,
      "##⋙": 1833,
      "##Җ": 1834,
      "##♬": 1835,
      "##ư": 1836,
      "##ஹ": 1837,
      "##∑": 1838,
      "##ǁ": 1839,
      "##₩": 1840,
      "##◤": 1841,
      "##☎": 1842,
      "##▣": 1843,
      "##ฒ": 1844,
      "##↕": 1845,
      "##ॐ": 1846,
      "##╗": 1847,
      "##⇐": 1848,
      "##◁": 1849,
      "##◙": 1850,
      "##↵": 1851,
      "##ಞ": 1852,
      "##◐": 1853,
      "##ʋ": 1854,
      "##҈": 1855,
      "##Þ": 1856,
      "##ˉ": 1857,
      "##▏": 1858,
      "##╯": 1859,
      "##ᴍ": 1860,
      "##ऋ": 1861,
      "##હ": 1862,
      "##ஊ": 1863,
      "##⚛": 1864,
      "##✪": 1865,
      "##ㄨ": 1866,
      "##Ģ": 1867,
      "##❧": 1868,
      "##ৣ": 1869,
      "##◂": 1870,
      "##ஷ": 1871,
      "##৵": 1872,
      "##゚": 1873,
      "##৴": 1874,
      "##↡": 1875,
      "##₹": 1876,
      "##₫": 1877,
      "##❦": 1878,
      "##🕔": 1879,
      "##ঔ": 1880,
      "##♭": 1881,
      "##๐": 1882,
      "##◢": 1883,
      "##ऊ": 1884,
      "##ʘ": 1885,
      "##❞": 1886,
      "##▧": 1887,
      "##┣": 1888,
      "##⚑": 1889,
      "##♞": 1890,
      "##◑": 1891,
      "##⋱": 1892,
      "##ჲ": 1893,
      "##֝": 1894,
      "##┫": 1895,
      "##◥": 1896,
      "##∥": 1897,
      "##⋘": 1898,
      "##ᴥ": 1899,
      "##➽": 1900,
      "##ال": 1901,
      "##لم": 1902,
      "##لا": 1903,
      "##ات": 1904,
      "الم": 1905,
      "##ان": 1906,
      "##لي": 1907,
      "من": 1908,
      "##ار": 1909,
      "##ية": 1910,
      "##ين": 1911,
      "في": 1912,
      "##ها": 1913,
      "##نا": 1914,
      "الا": 1915,
      "##ير": 1916,
      "##له": 1917,
      "وال": 1918,
      "##لت": 1919,
      "##لع": 1920,
      "##ام": 1921,
      "##ون": 1922,
      "##ري": 1923,
      "الع": 1924,
      "##را": 1925,
      "##لى": 1926,
      "الت": 1927,
      "##وا": 1928,
      "##لس": 1929,
      "##دي": 1930,
      "##ما": 1931,
      "##ست": 1932,
      "##اب": 1933,
      "##لك": 1934,
      "##لب": 1935,
      "##ور": 1936,
      "##يا": 1937,
      "##لح": 1938,
      "ان": 1939,
      "##ول": 1940,
      "##لق": 1941,
      "##لأ": 1942,
      "الس": 1943,
      "الح": 1944,
      "الأ": 1945,
      "##لف": 1946,
      "##بي": 1947,
      "##لو": 1948,
      "##هم": 1949,
      "##اد": 1950,
      "بال": 1951,
      "##لله": 1952,
      "##اء": 1954,
      "عن": 1955,
      "##لد": 1956,
      "##لج": 1957,
      "علي": 1958,
      "##لش": 1959,
      "##مي": 1960,
      "على": 1961,
      "##لن": 1962,
      "لا": 1963,
      "الق": 1964,
      "##ائ": 1965,
      "الش": 1966,
      "##وم": 1967,
      "الب": 1968,
      "##عد": 1969,
      "الج": 1970,
      "##وي": 1971,
      "ما": 1972,
      "مع": 1973,
      "##ني": 1974,
      "##رب": 1975,
      "##ذا": 1976,
      "الن": 1977,
      "الد": 1978,
      "أن": 1979,
      "الف": 1980,
      "##رو": 1981,
      "##اف": 1982,
      "##يد": 1983,
      "##سم": 1984,
      "##رك": 1985,
      "##من": 1986,
      "##لص": 1987,
      "##يه": 1988,
      "وا": 1989,
      "##لخ": 1990,
      "##حد": 1991,
      "##نت": 1992,
      "##ود": 1993,
      "الك": 1994,
      "الخ": 1995,
      "الص": 1996,
      "##بر": 1997,
      "##حم": 1998,
      "##سي": 1999,
      "##اع": 2000,
      "وت": 2001,
      "الي": 2002,
      "##لإ": 2003,
      "##قي": 2004,
      "##تي": 2005,
      "##لر": 2006,
      "##في": 2007,
      "##قد": 2008,
      "الو": 2009,
      "الإ": 2010,
      "##عم": 2011,
      "##دى": 2012,
      "##با": 2013,
      "##كر": 2014,
      "##وق": 2015,
      "##لط": 2016,
      "الر": 2017,
      "##كم": 2018,
      "##يم": 2019,
      "##رف": 2020,
      "##حت": 2021,
      "##اني": 2022,
      "##لذ": 2023,
      "##سب": 2024,
      "##لام": 2025,
      "##مر": 2026,
      "##يل": 2027,
      "منت": 2028,
      "##عة": 2029,
      "##اه": 2030,
      "الذ": 2031,
      "##يف": 2032,
      "##كن": 2033,
      "##يت": 2034,
      "##لة": 2035,
      "##يس": 2036,
      "##رة": 2037,
      "كل": 2038,
      "##قت": 2039,
      "بن": 2040,
      "##بد": 2041,
      "##خر": 2042,
      "لم": 2043,
      "تع": 2044,
      "إلى": 2045,
      "##لال": 2046,
      "##جه": 2047,
      "##لغ": 2048,
      "##مع": 2049,
      "##اص": 2050,
      "##فر": 2051,
      "است": 2052,
      "##كت": 2053,
      "##وت": 2054,
      "كان": 2055,
      "20": 2056,
      "الط": 2057,
      "##وب": 2058,
      "##قة": 2059,
      "##دا": 2060,
      "##يب": 2062,
      "##دة": 2063,
      "##سا": 2064,
      "##صر": 2065,
      "##يات": 2066,
      "##بار": 2067,
      "مت": 2068,
      "##لث": 2070,
      "##حمد": 2071,
      "##شر": 2072,
      "وأ": 2073,
      "##حب": 2074,
      "أو": 2075,
      "##ته": 2076,
      "##دم": 2077,
      "##اج": 2078,
      "مج": 2079,
      "##رض": 2080,
      "وم": 2081,
      "##لية": 2082,
      "##ذه": 2083,
      "الث": 2084,
      "هذا": 2085,
      "ولا": 2086,
      "##وف": 2088,
      "بعد": 2089,
      "اله": 2090,
      "##عت": 2091,
      "##اض": 2092,
      "اب": 2093,
      "##فس": 2094,
      "##وع": 2095,
      "مش": 2096,
      "يت": 2097,
      "##كل": 2098,
      "##در": 2099,
      "##الم": 2100,
      "وه": 2101,
      "عم": 2102,
      "##كون": 2103,
      "يا": 2104,
      "##يع": 2105,
      "##حة": 2106,
      "##صل": 2107,
      "##بل": 2108,
      "##وس": 2109,
      "##نه": 2110,
      "##للي": 2111,
      "ام": 2112,
      "##مة": 2113,
      "##خت": 2114,
      "##ارة": 2116,
      "بين": 2117,
      "وب": 2118,
      "##حي": 2120,
      "##هر": 2121,
      "قسم": 2122,
      "##عب": 2123,
      "##ده": 2124,
      "تح": 2125,
      "201": 2126,
      "##لنا": 2127,
      "##وج": 2128,
      "مس": 2129,
      "##عو": 2131,
      "##ثر": 2132,
      "##تح": 2133,
      "لي": 2134,
      "وق": 2135,
      "قال": 2136,
      "##خص": 2137,
      "وس": 2138,
      "هو": 2139,
      "##اري": 2140,
      "وع": 2141,
      "##عض": 2142,
      "##قا": 2143,
      "##قه": 2144,
      "##الي": 2145,
      "##هد": 2146,
      "##راء": 2147,
      "##رت": 2148,
      "##لز": 2149,
      "##نة": 2151,
      "##مه": 2152,
      "##رد": 2153,
      "له": 2154,
      "##رج": 2155,
      "با": 2156,
      "##رح": 2157,
      "##وري": 2158,
      "هذه": 2159,
      "##لات": 2160,
      "تق": 2161,
      "وي": 2162,
      "##بح": 2163,
      "انت": 2164,
      "مد": 2165,
      "##رق": 2166,
      "##فا": 2167,
      "يع": 2170,
      "اس": 2171,
      "تم": 2172,
      "الغ": 2173,
      "##وات": 2174,
      "##وض": 2175,
      "##ويت": 2176,
      "##بت": 2177,
      "وان": 2178,
      "##كان": 2179,
      "مح": 2180,
      "##مل": 2182,
      "##وز": 2183,
      "##ئيس": 2184,
      "##عا": 2185,
      "الى": 2186,
      "##اح": 2187,
      "اج": 2188,
      "للم": 2189,
      "##سة": 2190,
      "##فض": 2191,
      "عند": 2192,
      "الز": 2194,
      "عبد": 2195,
      "##ند": 2196,
      "##ره": 2197,
      "##قط": 2198,
      "##كي": 2199,
      "وج": 2200,
      "تت": 2201,
      "##عي": 2203,
      "##به": 2204,
      "##زي": 2205,
      "بت": 2206,
      "بر": 2207,
      "##يرة": 2208,
      "##فت": 2209,
      "يق": 2210,
      "##ديد": 2212,
      "او": 2213,
      "تج": 2214,
      "##بة": 2215,
      "اي": 2218,
      "لت": 2219,
      "##ورة": 2220,
      "##er": 2221,
      "تص": 2223,
      "غير": 2224,
      "بم": 2225,
      "##عه": 2226,
      "##نس": 2227,
      "شي": 2228,
      "##ريق": 2229,
      "فى": 2230,
      "##ولي": 2231,
      "يوم": 2232,
      "##اس": 2233,
      "##طن": 2234,
      "أي": 2235,
      "##ظر": 2236,
      "أم": 2239,
      "##فع": 2241,
      "يم": 2243,
      "لو": 2244,
      "تن": 2245,
      "##قل": 2246,
      "هي": 2247,
      "##طر": 2248,
      "به": 2249,
      "بد": 2250,
      "قد": 2251,
      "ات": 2253,
      "##وى": 2254,
      "##وان": 2255,
      "##ارك": 2256,
      "مست": 2257,
      "##كثر": 2258,
      "إن": 2259,
      "بي": 2260,
      "##كس": 2261,
      "##يني": 2262,
      "ون": 2263,
      "##ولة": 2264,
      "سي": 2266,
      "##ميع": 2267,
      "عام": 2268,
      "اخ": 2269,
      "وح": 2270,
      "ذلك": 2271,
      "##اي": 2272,
      "مط": 2274,
      "##از": 2275,
      "##رائ": 2276,
      "##ركة": 2277,
      "لك": 2278,
      "اح": 2279,
      "اع": 2280,
      "##يون": 2281,
      "##دد": 2282,
      "##وه": 2283,
      "تش": 2284,
      "##ربي": 2285,
      "حس": 2286,
      "##مال": 2287,
      "##ليم": 2288,
      "قبل": 2289,
      "##وقع": 2290,
      "##أن": 2291,
      "##دين": 2292,
      "##جل": 2293,
      "##لري": 2294,
      "##00": 2296,
      "##طف": 2297,
      "ومن": 2298,
      "##ياه": 2299,
      "وز": 2300,
      "##قر": 2301,
      "بح": 2302,
      "##قات": 2303,
      "تس": 2304,
      "كما": 2306,
      "##زة": 2307,
      "##كا": 2308,
      "##بك": 2309,
      "يج": 2310,
      "اش": 2312,
      "انا": 2315,
      "##ديه": 2316,
      "##وال": 2318,
      "##ضا": 2319,
      "##مت": 2321,
      "حي": 2322,
      "##ثل": 2323,
      "مص": 2324,
      "##خل": 2325,
      "##نان": 2326,
      "##عر": 2327,
      "##وية": 2328,
      "##عل": 2329,
      "##نية": 2330,
      "بش": 2331,
      "ست": 2333,
      "##ثير": 2334,
      "##وله": 2335,
      "##يش": 2336,
      "نفس": 2339,
      "##افة": 2340,
      "وك": 2341,
      "##صف": 2342,
      "##الة": 2343,
      "##رم": 2344,
      "##طة": 2345,
      "بعض": 2346,
      "وش": 2347,
      "##تك": 2348,
      "هنا": 2349,
      "##غير": 2351,
      "##رام": 2352,
      "##ذلك": 2353,
      "##باح": 2355,
      "##وك": 2356,
      "بس": 2357,
      "وإ": 2358,
      "##راق": 2359,
      "للت": 2360,
      "##لوا": 2361,
      "قلب": 2362,
      "##وار": 2364,
      "كت": 2365,
      "فيه": 2366,
      "##ولا": 2367,
      "##مد": 2368,
      "موا": 2369,
      "##فضل": 2370,
      "ثم": 2371,
      "##روب": 2372,
      "##رس": 2373,
      "##حدة": 2374,
      "##ريد": 2375,
      "##عاد": 2376,
      "##تها": 2377,
      "##حه": 2379,
      "##لض": 2380,
      "##لآ": 2381,
      "##راف": 2382,
      "للا": 2383,
      "##مو": 2384,
      "##ئة": 2385,
      "##غفر": 2386,
      "اذا": 2387,
      "ين": 2388,
      "##ناء": 2389,
      "وف": 2390,
      "##جر": 2391,
      "أب": 2393,
      "##مات": 2394,
      "بك": 2395,
      "##اق": 2396,
      "##قال": 2398,
      "##وني": 2399,
      "وهو": 2400,
      "##رات": 2401,
      "اص": 2402,
      "الض": 2403,
      "لن": 2404,
      "للع": 2405,
      "##بير": 2406,
      "##ميل": 2407,
      "##اش": 2408,
      "الآ": 2409,
      "يح": 2410,
      "##ينا": 2411,
      "##ضي": 2412,
      "##رش": 2413,
      "يست": 2414,
      "##تى": 2415,
      "يس": 2416,
      "وص": 2417,
      "##اره": 2418,
      "##تم": 2419,
      "##ماع": 2420,
      "##هي": 2421,
      "##لرا": 2422,
      "##اط": 2423,
      "##لاث": 2424,
      "لكن": 2425,
      "وفي": 2427,
      "##بات": 2428,
      "##لان": 2429,
      "##ديث": 2430,
      "تط": 2432,
      "##ارب": 2433,
      "##يك": 2434,
      "للد": 2437,
      "يش": 2438,
      "احد": 2439,
      "##وره": 2440,
      "##ذكر": 2441,
      "مؤ": 2442,
      "##بية": 2444,
      "##اصة": 2445,
      "##جد": 2448,
      "##سية": 2450,
      "##عود": 2451,
      "رس": 2452,
      "##ابع": 2453,
      "ولك": 2454,
      "حيث": 2455,
      "تد": 2457,
      "##هل": 2458,
      "بها": 2459,
      "##ظيم": 2460,
      "فر": 2462,
      "##بط": 2463,
      "19": 2464,
      "##ياء": 2465,
      "##كوم": 2466,
      "تو": 2467,
      "##حر": 2468,
      "حد": 2470,
      "لأ": 2471,
      "##قب": 2472,
      "##ضع": 2473,
      "يد": 2474,
      "##عيد": 2475,
      "أس": 2476,
      "##حن": 2478,
      "##مان": 2480,
      "مو": 2481,
      "##امل": 2482,
      "##كري": 2483,
      "اد": 2485,
      "##on": 2487,
      "شخص": 2489,
      "حتى": 2494,
      "##كد": 2495,
      "قر": 2496,
      "##زر": 2497,
      "بق": 2498,
      "بأ": 2499,
      "تب": 2500,
      "##ادي": 2501,
      "##سات": 2502,
      "لح": 2503,
      "##شف": 2504,
      "##حات": 2505,
      "##نام": 2507,
      "##قدم": 2508,
      "##قع": 2509,
      "##شي": 2510,
      "##ضر": 2511,
      "رب": 2512,
      "##سن": 2513,
      "آخر": 2514,
      "##عمل": 2516,
      "##وح": 2517,
      "لما": 2518,
      "لب": 2519,
      "##صال": 2520,
      "بط": 2522,
      "مخ": 2523,
      "##اخ": 2524,
      "##ائل": 2525,
      "##ارج": 2526,
      "اخت": 2527,
      "حول": 2528,
      "##لوب": 2529,
      "##at": 2530,
      "خط": 2533,
      "##انا": 2534,
      "##ur": 2535,
      "اق": 2536,
      "تحت": 2538,
      "##فة": 2539,
      "كلم": 2540,
      "##يان": 2542,
      "##اك": 2544,
      "##نيا": 2545,
      "مثل": 2546,
      "##جت": 2547,
      "عدد": 2548,
      "ابن": 2549,
      "لان": 2551,
      "سبح": 2552,
      "لها": 2553,
      "##ركز": 2555,
      "##اله": 2556,
      "ود": 2557,
      "تست": 2558,
      "مصر": 2559,
      "##لاح": 2560,
      "تف": 2562,
      "وما": 2564,
      "##ديم": 2566,
      "##هما": 2567,
      "##باب": 2568,
      "##يز": 2569,
      "دون": 2571,
      "فت": 2572,
      "##ماء": 2573,
      "فقط": 2574,
      "حق": 2576,
      "##حدث": 2577,
      "##راج": 2578,
      "سن": 2579,
      "##بع": 2581,
      "##تر": 2582,
      "##ينة": 2583,
      "##ضاء": 2584,
      "وقد": 2585,
      "##راه": 2586,
      "##وة": 2587,
      "##صد": 2588,
      "##افظ": 2589,
      "أنه": 2590,
      "أخ": 2591,
      "##طي": 2594,
      "##ابة": 2595,
      "##زل": 2596,
      "##الك": 2597,
      "مق": 2599,
      "##ادة": 2600,
      "##هه": 2601,
      "##لاء": 2602,
      "##ظام": 2605,
      "##خدم": 2606,
      "مب": 2607,
      "##جة": 2608,
      "##خرى": 2609,
      "عش": 2610,
      "##فه": 2611,
      "ملي": 2612,
      "##كبر": 2613,
      "##فل": 2614,
      "انه": 2615,
      "اعت": 2616,
      "إذا": 2617,
      "ليس": 2618,
      "##طقة": 2620,
      "شيء": 2621,
      "فإ": 2622,
      "##ليل": 2623,
      "##وص": 2624,
      "##ar": 2625,
      "##وير": 2626,
      "حتي": 2627,
      "##جم": 2629,
      "دي": 2630,
      "خير": 2631,
      "##مس": 2632,
      "##لين": 2633,
      "##as": 2634,
      "##لاق": 2636,
      "##فاع": 2641,
      "##جي": 2643,
      "##قم": 2644,
      "##لسط": 2645,
      "##واء": 2646,
      "##ليه": 2647,
      "صور": 2649,
      "##ائر": 2650,
      "##اث": 2651,
      "##الب": 2653,
      "تك": 2654,
      "وات": 2655,
      "##حيح": 2656,
      "##صول": 2658,
      "##سبة": 2660,
      "تخ": 2661,
      "##غي": 2662,
      "##راك": 2663,
      "##زك": 2665,
      "##يام": 2666,
      "10": 2667,
      "اف": 2668,
      "ولي": 2670,
      "لج": 2672,
      "جن": 2673,
      "كنت": 2678,
      "وخ": 2680,
      "##الف": 2681,
      "نت": 2682,
      "بل": 2683,
      "##عار": 2685,
      "##رها": 2686,
      "##ارس": 2688,
      "علم": 2689,
      "ور": 2690,
      "احت": 2691,
      "##صة": 2692,
      "اني": 2694,
      "##عاء": 2696,
      "##سام": 2697,
      "##فظ": 2698,
      "أع": 2699,
      "بلا": 2701,
      "##ديو": 2703,
      "بع": 2704,
      "##قيق": 2705,
      "##كتب": 2707,
      "مك": 2708,
      "##حا": 2709,
      "##ريم": 2710,
      "فان": 2712,
      "##قتص": 2713,
      "تأ": 2715,
      "##دام": 2718,
      "##ريف": 2719,
      "دا": 2720,
      "يو": 2724,
      "إلا": 2725,
      "##ضيع": 2726,
      "##يري": 2727,
      "##لها": 2728,
      "##وط": 2729,
      "##قول": 2730,
      "##نين": 2731,
      "##حك": 2733,
      "##سر": 2734,
      "##جن": 2736,
      "مم": 2737,
      "##ابه": 2738,
      "منه": 2739,
      "ري": 2740,
      "##زم": 2741,
      "ترك": 2742,
      "ولم": 2743,
      "احب": 2744,
      "##روع": 2745,
      "كيف": 2746,
      "##ger": 2750,
      "##ضاف": 2752,
      "##اته": 2755,
      "##نيه": 2757,
      "وقت": 2758,
      "##امج": 2759,
      "##ذي": 2760,
      "##عية": 2761,
      "sur": 2764,
      "##لظ": 2765,
      "##سبب": 2766,
      "حال": 2767,
      "بان": 2768,
      "##الح": 2769,
      "##نى": 2770,
      "##ظم": 2771,
      "##روض": 2772,
      "للح": 2773,
      "##قبل": 2774,
      "رج": 2775,
      "لنا": 2776,
      "##قى": 2777,
      "حز": 2778,
      "##in": 2779,
      "11": 2780,
      "##شت": 2781,
      "تر": 2782,
      "##ريك": 2783,
      "لله": 2784,
      "200": 2785,
      "صح": 2786,
      "##لقة": 2787,
      "نف": 2790,
      "##هلي": 2791,
      "##ادر": 2792,
      "##or": 2793,
      "لق": 2794,
      "##جز": 2796,
      "##زيد": 2799,
      "محت": 2800,
      "##لاج": 2802,
      "اغ": 2803,
      "##لاب": 2804,
      "وط": 2806,
      "الظ": 2808,
      "للب": 2809,
      "##ولى": 2810,
      "أص": 2815,
      "##فق": 2817,
      "يص": 2818,
      "05": 2819,
      "بج": 2821,
      "حين": 2823,
      "##سه": 2824,
      "##كو": 2826,
      "هل": 2827,
      "فلا": 2828,
      "عبر": 2830,
      "##الث": 2832,
      "##ويه": 2835,
      "##وقف": 2836,
      "منذ": 2837,
      "##ريب": 2838,
      "هم": 2839,
      "##لون": 2840,
      "##لوم": 2841,
      "وهي": 2843,
      "##وائ": 2844,
      "حم": 2848,
      "##اضي": 2849,
      "عمر": 2852,
      "##يج": 2853,
      "##ودة": 2855,
      "قص": 2858,
      "ضع": 2862,
      "##غم": 2863,
      "##ظيف": 2864,
      "##اهد": 2866,
      "سب": 2869,
      "##هو": 2871,
      "##بيه": 2872,
      "##يره": 2873,
      "##زيز": 2874,
      "يخ": 2875,
      "##ارت": 2876,
      "##اا": 2877,
      "##قص": 2878,
      "وجه": 2879,
      "##الد": 2880,
      "جدا": 2882,
      "##ميز": 2883,
      "تغ": 2887,
      "يب": 2888,
      "##واب": 2889,
      "las": 2890,
      "عنه": 2891,
      "##داد": 2892,
      "##اعة": 2893,
      "صد": 2894,
      "##بيب": 2895,
      "لهم": 2899,
      "##اذ": 2900,
      "فقد": 2901,
      "أبو": 2902,
      "بص": 2903,
      "##جيل": 2904,
      "##اتب": 2905,
      "أحد": 2907,
      "بما": 2908,
      "نص": 2909,
      "##وث": 2911,
      "##es": 2913,
      "مي": 2914,
      "##an": 2915,
      "للس": 2916,
      "12": 2919,
      "##اتي": 2920,
      "##راض": 2921,
      "طلب": 2922,
      "##نك": 2923,
      "##راد": 2924,
      "قط": 2925,
      "##وء": 2926,
      "##حق": 2927,
      "##تمع": 2929,
      "##ئي": 2930,
      "فع": 2933,
      "بإ": 2935,
      "##كره": 2936,
      "##وش": 2937,
      "##للغ": 2938,
      "للأ": 2939,
      "##يرا": 2940,
      "لع": 2941,
      "##روف": 2942,
      "##ئا": 2944,
      "نس": 2946,
      "ربي": 2949,
      "##ائق": 2950,
      "14": 2951,
      "يتم": 2952,
      "##احب": 2953,
      "##ميم": 2954,
      "لات": 2955,
      "##لرو": 2956,
      "اط": 2959,
      "##ينه": 2960,
      "انك": 2963,
      "مر": 2964,
      "بيت": 2967,
      "لس": 2968,
      "للج": 2970,
      "حا": 2971,
      "اسم": 2974,
      "صلى": 2977,
      "اه": 2978,
      "عمل": 2979,
      "شر": 2980,
      "سيا": 2982,
      "##ac": 2984,
      "##لاف": 2985,
      "15": 2986,
      "##عين": 2987,
      "ار": 2988,
      "فال": 2989,
      "دائ": 2991,
      "أش": 2992,
      "##en": 2993,
      "إس": 2994,
      "كم": 2995,
      "##أس": 2996,
      "##سين": 2998,
      "##فاق": 2999,
      "نح": 3000,
      "نج": 3001,
      "##ياة": 3003,
      "##أة": 3004,
      "##اة": 3007,
      "##حاب": 3008,
      "بأن": 3010,
      "يط": 3012,
      "##وبي": 3015,
      "##ائي": 3017,
      "مات": 3019,
      "عد": 3020,
      "##ذن": 3022,
      "شك": 3023,
      "##عات": 3024,
      "فإن": 3027,
      "لإ": 3028,
      "##لاد": 3029,
      "##وسط": 3030,
      "فا": 3031,
      "لأن": 3034,
      "##مام": 3035,
      "##خذ": 3039,
      "##زه": 3040,
      "تلك": 3041,
      "صف": 3042,
      "لمن": 3043,
      "##al": 3046,
      "##داء": 3047,
      "##طية": 3048,
      "##باد": 3050,
      "ضد": 3051,
      "##للا": 3053,
      "عق": 3054,
      "##طني": 3060,
      "##ويل": 3061,
      "##لهم": 3062,
      "اث": 3064,
      "##وو": 3065,
      "مث": 3066,
      "ير": 3067,
      "خاص": 3068,
      "##خول": 3069,
      "##ساب": 3070,
      "رحم": 3072,
      "##مبر": 3073,
      "اخر": 3076,
      "مما": 3077,
      "يف": 3078,
      "خدم": 3079,
      "أف": 3080,
      "##انب": 3082,
      "##وتر": 3083,
      "اول": 3085,
      "##رفة": 3087,
      "للش": 3091,
      "##جات": 3094,
      "##الى": 3095,
      "##شار": 3096,
      "ذكر": 3097,
      "##نع": 3102,
      "##اما": 3103,
      "##زن": 3104,
      "##لاه": 3107,
      "##صار": 3109,
      "##حث": 3110,
      "##قاف": 3111,
      "##اعه": 3113,
      "##جب": 3116,
      "نها": 3117,
      "سلم": 3118,
      "##حمل": 3121,
      "بنا": 3122,
      "##امة": 3124,
      "بخ": 3125,
      "بدا": 3126,
      "##زا": 3127,
      "رقم": 3128,
      "##ريه": 3129,
      "##قاط": 3131,
      "##الت": 3134,
      "##ونه": 3135,
      "##ذر": 3136,
      "ارت": 3137,
      "رم": 3139,
      "##is": 3140,
      "##بيض": 3141,
      "##لكة": 3142,
      "##نج": 3145,
      "##طار": 3148,
      "ضعف": 3149,
      "##دف": 3150,
      "حب": 3151,
      "باب": 3153,
      "##زق": 3155,
      "شع": 3156,
      "ey": 3159,
      "##خرج": 3161,
      "يجب": 3163,
      "لكل": 3164,
      "ماي": 3165,
      "قائ": 3166,
      "##ساس": 3167,
      "##يدة": 3168,
      "##فار": 3169,
      "##اعر": 3170,
      "يؤ": 3172,
      "##om": 3174,
      "##لل": 3175,
      "##يين": 3176,
      "للق": 3178,
      "##للب": 3180,
      "كن": 3181,
      "مكت": 3182,
      "##روس": 3183,
      "##بدا": 3186,
      "##لعب": 3188,
      "ومع": 3191,
      "صوت": 3195,
      "لش": 3198,
      "كتب": 3199,
      "##هب": 3201,
      "##وفي": 3202,
      "مغ": 3203,
      "##ضم": 3204,
      "جز": 3205,
      "##وجد": 3206,
      "ابت": 3209,
      "##يده": 3210,
      "##راب": 3211,
      "##سط": 3212,
      "##واج": 3213,
      "##ساء": 3214,
      "##ناه": 3215,
      "عدم": 3216,
      "طب": 3217,
      "خلق": 3222,
      "أبي": 3223,
      "##ذك": 3225,
      "##ونة": 3226,
      "إلي": 3228,
      "eye": 3230,
      "##تين": 3232,
      "سنة": 3234,
      "##ثم": 3235,
      "##هاب": 3237,
      "جه": 3238,
      "##قف": 3241,
      "13": 3243,
      "##ضة": 3246,
      "جمي": 3248,
      "##طق": 3249,
      "##ظهر": 3250,
      "##شد": 3251,
      "نحن": 3252,
      "زي": 3253,
      "##فاء": 3254,
      "##ائف": 3256,
      "عرض": 3261,
      "##طيع": 3262,
      "##am": 3263,
      "وين": 3266,
      "##ديل": 3267,
      "بكل": 3268,
      "##ئه": 3269,
      "وحد": 3272,
      "روا": 3275,
      "##ياد": 3277,
      "ولو": 3278,
      "عز": 3280,
      "شهر": 3282,
      "واب": 3283,
      "##باء": 3284,
      "ريت": 3285,
      "##امي": 3287,
      "##مين": 3289,
      "رص": 3290,
      "نب": 3291,
      "##وتي": 3292,
      "أد": 3293,
      "##قق": 3295,
      "##ولو": 3296,
      "##غط": 3297,
      "##اعد": 3298,
      "##فو": 3301,
      "##ائب": 3302,
      "عشر": 3304,
      "لد": 3305,
      "وأن": 3310,
      "نظ": 3313,
      "حسن": 3314,
      "يحت": 3315,
      "علا": 3317,
      "##قدر": 3319,
      "##ذب": 3322,
      "##شاء": 3324,
      "##راح": 3326,
      "##جا": 3327,
      "18": 3328,
      "##اكل": 3330,
      "نعم": 3331,
      "فأ": 3332,
      "عين": 3334,
      "نوف": 3335,
      "##انه": 3336,
      "##ion": 3339,
      "جمع": 3341,
      "##يق": 3343,
      "نق": 3345,
      "قام": 3347,
      "مه": 3349,
      "##طا": 3350,
      "وإن": 3352,
      "را": 3353,
      "##خب": 3355,
      "حدث": 3356,
      "##تنا": 3359,
      "##بيل": 3360,
      "فض": 3361,
      "كي": 3364,
      "دين": 3365,
      "16": 3367,
      "##كرة": 3368,
      "##ظمة": 3369,
      "##كية": 3370,
      "##ئية": 3371,
      "بلد": 3373,
      "##يدك": 3374,
      "عس": 3376,
      "ينا": 3377,
      "##تهم": 3378,
      "عاد": 3381,
      "نش": 3382,
      "##ورد": 3383,
      "ابو": 3388,
      "##صي": 3389,
      "##ديك": 3390,
      "##ريط": 3391,
      "##تمر": 3392,
      "قت": 3393,
      "##يفة": 3396,
      "##شق": 3397,
      "ويت": 3398,
      "أول": 3399,
      "##رير": 3401,
      "واس": 3402,
      "يعت": 3404,
      "##حبه": 3405,
      "لكم": 3406,
      "وتح": 3408,
      "ته": 3410,
      "قب": 3412,
      "كب": 3413,
      "##ورا": 3415,
      "##ياب": 3416,
      "يك": 3422,
      "HD": 3424,
      "##دق": 3427,
      "مف": 3430,
      "وعد": 3431,
      "بار": 3434,
      "##فيذ": 3435,
      "أق": 3436,
      "##واد": 3442,
      "##ic": 3443,
      "أما": 3444,
      "انس": 3445,
      "##مية": 3446,
      "##طال": 3447,
      "##خاص": 3448,
      "نشر": 3449,
      "##طه": 3450,
      "وث": 3452,
      "وكل": 3453,
      "##ابل": 3456,
      "رح": 3457,
      "##لحة": 3458,
      "##وما": 3459,
      "##هلا": 3461,
      "وضع": 3462,
      "##شة": 3463,
      "##جع": 3464,
      "##ميس": 3467,
      "##كمة": 3468,
      "##شن": 3470,
      "##act": 3473,
      "##واع": 3474,
      "##بلي": 3476,
      "زد": 3477,
      "##مني": 3478,
      "خلف": 3479,
      "##باس": 3482,
      "##ضو": 3483,
      "للن": 3484,
      "نحو": 3487,
      "راح": 3490,
      "ذات": 3492,
      "حما": 3493,
      "انف": 3494,
      "ههه": 3495,
      "##صور": 3496,
      "بغ": 3499,
      "منا": 3501,
      "مره": 3502,
      "##رنت": 3503,
      "##يدا": 3504,
      "##باط": 3506,
      "مرت": 3508,
      "##يمة": 3509,
      "##هدف": 3510,
      "##ميه": 3511,
      "مبا": 3512,
      "##ضح": 3514,
      "##روح": 3516,
      "بو": 3517,
      "سا": 3518,
      "17": 3519,
      "##ابت": 3520,
      "عائ": 3521,
      "25": 3525,
      "##آن": 3526,
      "وتع": 3527,
      "##زين": 3528,
      "##رين": 3529,
      "رأ": 3530,
      "رد": 3535,
      "##اتف": 3536,
      "##ليا": 3538,
      "جاء": 3539,
      "##ضور": 3540,
      "##بيق": 3541,
      "##صب": 3542,
      "##طاء": 3544,
      "أغ": 3545,
      "##جاز": 3551,
      "##يبه": 3553,
      "للف": 3554,
      "اكت": 3555,
      "مز": 3556,
      "##افي": 3561,
      "مض": 3562,
      "##امن": 3563,
      "ينت": 3564,
      "وار": 3565,
      "##ورو": 3567,
      "عاج": 3568,
      "##ربة": 3569,
      "##وعة": 3571,
      "##هاد": 3572,
      "##ضية": 3575,
      "##لول": 3576,
      "يغ": 3579,
      "مسؤ": 3582,
      "اشت": 3583,
      "##برا": 3585,
      "##ارا": 3588,
      "فوق": 3589,
      "##جاه": 3590,
      "دور": 3591,
      "دعم": 3592,
      "##قاء": 3596,
      "بنت": 3597,
      "##موع": 3601,
      "أح": 3603,
      "لغ": 3606,
      "30": 3612,
      "حزب": 3614,
      "##ed": 3616,
      "##سك": 3617,
      "##شرة": 3619,
      "##ظه": 3620,
      "##زال": 3622,
      "خص": 3624,
      "##ركه": 3628,
      "##قتل": 3629,
      "نا": 3630,
      "اجت": 3631,
      "وض": 3632,
      "##وبر": 3633,
      "نع": 3634,
      "ضمن": 3637,
      "##نسي": 3638,
      "قدر": 3640,
      "سوف": 3641,
      "تنا": 3643,
      "##ادم": 3645,
      "للر": 3647,
      "كام": 3648,
      "##وده": 3649,
      "حسب": 3650,
      "##زمة": 3651,
      "cat": 3652,
      "للط": 3655,
      "##هرب": 3657,
      "محا": 3666,
      "##خي": 3667,
      "##لني": 3668,
      "##امه": 3669,
      "##ضان": 3670,
      "سر": 3672,
      "##عى": 3675,
      "منك": 3677,
      "اك": 3678,
      "قدم": 3681,
      "حص": 3684,
      "رغم": 3685,
      "##11": 3686,
      "##وبة": 3687,
      "تؤ": 3688,
      "سوق": 3689,
      "للك": 3691,
      "امر": 3693,
      "رائ": 3694,
      "##it": 3695,
      "ني": 3703,
      "در": 3705,
      "##طلب": 3706,
      "سيد": 3708,
      "##ائج": 3709,
      "##يته": 3710,
      "وسي": 3713,
      "##ومة": 3714,
      "##ليز": 3715,
      "عنا": 3717,
      "فن": 3718,
      "##رى": 3719,
      "##ادث": 3722,
      "##حية": 3723,
      "##ارف": 3726,
      "##لاة": 3729,
      "##هير": 3732,
      "ملت": 3734,
      "##هاز": 3735,
      "##وها": 3736,
      "##em": 3739,
      "حلو": 3740,
      "ريا": 3746,
      "##ابي": 3748,
      "##رفع": 3749,
      "خلي": 3750,
      "إت": 3751,
      "##لته": 3753,
      "##20": 3755,
      "##للج": 3756,
      "##الا": 3757,
      "##سل": 3758,
      "##نب": 3759,
      "أهم": 3760,
      "##همة": 3761,
      "داع": 3767,
      "توا": 3769,
      "##علق": 3770,
      "نور": 3772,
      "ملك": 3776,
      "##لوك": 3777,
      "##ونا": 3778,
      "##طان": 3779,
      "از": 3780,
      "وغ": 3781,
      "بير": 3782,
      "##للق": 3783,
      "##نف": 3785,
      "##شا": 3786,
      "##رجع": 3787,
      "24": 3789,
      "##ريح": 3791,
      "##ؤال": 3795,
      "##اهر": 3797,
      "فهو": 3799,
      "##غب": 3801,
      "اهم": 3802,
      "##ارع": 3803,
      "##ik": 3805,
      "##ستر": 3806,
      "جد": 3809,
      "يكن": 3812,
      "##ربع": 3813,
      "سم": 3817,
      "##زب": 3818,
      "##st": 3819,
      "إع": 3820,
      "للإ": 3822,
      "##جهة": 3826,
      "بب": 3827,
      "رجل": 3829,
      "حبي": 3833,
      "##ولد": 3837,
      "##ونس": 3838,
      "##لما": 3841,
      "شه": 3844,
      "##ائد": 3845,
      "أث": 3846,
      "##فعل": 3847,
      "##غل": 3848,
      "##بحث": 3850,
      "ألف": 3853,
      "بلغ": 3854,
      "ابي": 3855,
      "معه": 3860,
      "للص": 3862,
      "لقد": 3863,
      "##ro": 3865,
      "يحب": 3866,
      "100": 3869,
      "يه": 3873,
      "معا": 3874,
      "##انى": 3877,
      "##جاج": 3879,
      "أج": 3880,
      "كال": 3881,
      "##ديق": 3882,
      "أجل": 3883,
      "##لائ": 3884,
      "##بيع": 3885,
      "##يلة": 3886,
      "##وخ": 3887,
      "نقل": 3890,
      "سير": 3892,
      "روح": 3894,
      "أنا": 3897,
      "دعو": 3898,
      "##ad": 3899,
      "##بدأ": 3900,
      "سلط": 3901,
      "حكم": 3904,
      "اض": 3907,
      "اما": 3910,
      "ند": 3911,
      "لدى": 3912,
      "##طب": 3916,
      "مسا": 3920,
      "واج": 3923,
      "أمس": 3924,
      "جع": 3929,
      "عقد": 3931,
      "تض": 3932,
      "##وين": 3934,
      "بوا": 3935,
      "##انت": 3937,
      "حر": 3938,
      "##طلق": 3940,
      "تعت": 3941,
      "بني": 3942,
      "##قطع": 3943,
      "ول": 3945,
      "##ويد": 3946,
      "##سد": 3949,
      "زوج": 3950,
      "##شات": 3951,
      "##اهل": 3953,
      "##ذهب": 3955,
      "##اده": 3956,
      "##خصص": 3958,
      "21": 3960,
      "##سسة": 3962,
      "موج": 3964,
      "تحب": 3965,
      "##لمه": 3967,
      "ناس": 3970,
      "شعب": 3972,
      "اقت": 3973,
      "ساب": 3974,
      "##روج": 3975,
      "##ؤون": 3977,
      "##ومي": 3978,
      "لز": 3983,
      "قطر": 3984,
      "##انة": 3987,
      "##شه": 3990,
      "صل": 3991,
      "سمع": 3993,
      "بات": 3994,
      "جما": 3995,
      "اهل": 3997,
      "محم": 4000,
      "عرف": 4001,
      "قلت": 4002,
      "##يار": 4003,
      "دم": 4006,
      "##وسف": 4007,
      "وسط": 4008,
      "وهم": 4009,
      "نز": 4011,
      "تنت": 4013,
      "سعد": 4014,
      "##ناة": 4015,
      "مرة": 4016,
      "فيك": 4017,
      "دول": 4022,
      "للو": 4023,
      "فرح": 4025,
      "درا": 4028,
      "##ثي": 4029,
      "سكس": 4031,
      "##ميد": 4033,
      "##ولك": 4035,
      "##ont": 4041,
      "واح": 4042,
      "##ومه": 4044,
      "لعب": 4046,
      "انش": 4051,
      "قول": 4052,
      "##ابر": 4056,
      "رؤ": 4060,
      "##le": 4061,
      "22": 4063,
      "##سمع": 4064,
      "##عيم": 4065,
      "##99": 4066,
      "ph": 4067,
      "##ديا": 4068,
      "موس": 4071,
      "##اقة": 4072,
      "##ماد": 4073,
      "##فات": 4074,
      "##كار": 4075,
      "سنه": 4076,
      "بقي": 4078,
      "##ريض": 4079,
      "صلي": 4082,
      "نوع": 4083,
      "ولد": 4084,
      "##ربه": 4087,
      "##روط": 4088,
      "##ولت": 4089,
      "##جان": 4090,
      "وير": 4092,
      "مان": 4093,
      "##نون": 4095,
      "وام": 4100,
      "##رر": 4103,
      "##راع": 4104,
      "##ليق": 4107,
      "صار": 4109,
      "لص": 4110,
      "يأ": 4112,
      "بيع": 4116,
      "لتح": 4117,
      "لدي": 4118,
      "##عوذ": 4121,
      "##وضع": 4122,
      "واف": 4124,
      "##واق": 4129,
      "هدف": 4130,
      "فتح": 4131,
      "يض": 4132,
      "مال": 4133,
      "ليت": 4134,
      "امن": 4135,
      "##بتد": 4137,
      "ايه": 4138,
      "افت": 4142,
      "تكن": 4146,
      "تز": 4147,
      "محد": 4148,
      "روس": 4149,
      "##هاء": 4150,
      "أهل": 4151,
      "##عرض": 4153,
      "com": 4154,
      "##اول": 4155,
      "إب": 4156,
      "##ent": 4157,
      "##اعت": 4159,
      "##يط": 4161,
      "فق": 4162,
      "##سبه": 4163,
      "php": 4171,
      "##ادل": 4173,
      "##علم": 4176,
      "طيب": 4177,
      "##رع": 4178,
      "##BB": 4179,
      "مار": 4183,
      "##ve": 4185,
      "تا": 4186,
      "##ئات": 4188,
      "لاب": 4189,
      "مشك": 4190,
      "##قية": 4192,
      "##لكه": 4194,
      "##re": 4195,
      "##وبه": 4199,
      "00": 4200,
      "بمن": 4201,
      "##ظة": 4202,
      "##لفة": 4203,
      "##قيم": 4204,
      "##ليف": 4205,
      "طال": 4206,
      "كون": 4207,
      "##شك": 4208,
      "شاء": 4217,
      "هال": 4218,
      "##ri": 4220,
      "دع": 4222,
      "##ذاب": 4224,
      "سف": 4226,
      "##كات": 4228,
      "##بره": 4231,
      "##جاب": 4232,
      "##جار": 4233,
      "كله": 4236,
      "##عام": 4239,
      "إد": 4241,
      "##ارض": 4242,
      "وآ": 4243,
      "##55": 4244,
      "حاج": 4245,
      "##كه": 4246,
      "##قرا": 4250,
      "##رضي": 4252,
      "##راس": 4256,
      "##تا": 4258,
      "##دية": 4259,
      "##لدي": 4260,
      "طبي": 4261,
      "لاي": 4269,
      "بدأ": 4272,
      "ويس": 4274,
      "##افع": 4277,
      "##حل": 4278,
      "##ec": 4279,
      "23": 4287,
      "ملا": 4288,
      "##ويا": 4293,
      "##دت": 4300,
      "فه": 4301,
      "بف": 4304,
      "رضي": 4309,
      "نتي": 4310,
      "##لرب": 4314,
      "رسم": 4315,
      "##ويس": 4316,
      "##وضح": 4317,
      "أمر": 4319,
      "وعن": 4321,
      "ركن": 4322,
      "كر": 4323,
      "سيت": 4326,
      "##هام": 4327,
      "##ينك": 4328,
      "بث": 4329,
      "##ئب": 4332,
      "##شفى": 4336,
      "وتم": 4338,
      "عب": 4340,
      "##ارق": 4343,
      "##صه": 4344,
      "راب": 4346,
      "##بخ": 4347,
      "إذ": 4348,
      "##ريا": 4351,
      "وصف": 4356,
      "##وجه": 4358,
      "تلق": 4360,
      "كشف": 4361,
      "بور": 4362,
      "سبب": 4364,
      "##سيط": 4368,
      "##كتر": 4369,
      "امي": 4372,
      "أنت": 4374,
      "##50": 4375,
      "أكد": 4378,
      "##ائه": 4379,
      "سك": 4380,
      "##ناك": 4381,
      "ده": 4382,
      "عط": 4384,
      "سام": 4387,
      "##الغ": 4390,
      "رفع": 4391,
      "##بكة": 4395,
      "مني": 4397,
      "ترا": 4398,
      "فك": 4399,
      "##وغ": 4400,
      "وتش": 4402,
      "دبي": 4403,
      "##يوم": 4405,
      "##عون": 4406,
      "عدة": 4412,
      "أكت": 4413,
      "دار": 4417,
      "##لبي": 4418,
      "##ليك": 4420,
      "رك": 4422,
      "##ائم": 4424,
      "امس": 4426,
      "عص": 4427,
      "درج": 4433,
      "اجل": 4434,
      "##نسا": 4436,
      "كثر": 4438,
      "##et": 4444,
      "حرب": 4445,
      "للخ": 4446,
      "مفت": 4448,
      "عني": 4449,
      "##oo": 4452,
      "نظر": 4461,
      "حل": 4463,
      "سبت": 4464,
      "##طات": 4466,
      "##ارد": 4474,
      "وطن": 4482,
      "##افه": 4484,
      "واص": 4485,
      "##ing": 4487,
      "لف": 4488,
      "قل": 4491,
      "للي": 4492,
      "إنه": 4493,
      "برو": 4494,
      "غدا": 4496,
      "199": 4498,
      "رو": 4499,
      "##اتك": 4501,
      "معت": 4502,
      "وتن": 4504,
      "عي": 4505,
      "##عرف": 4506,
      "فمن": 4507,
      "##ياس": 4509,
      "ظهر": 4512,
      "شئ": 4513,
      "##الج": 4520,
      "##ساد": 4522,
      "راس": 4528,
      "##يفه": 4532,
      "شعر": 4537,
      "مقد": 4538,
      "##قيت": 4539,
      "تري": 4542,
      "##ou": 4543,
      "يعد": 4544,
      "نقط": 4546,
      "26": 4547,
      "عنك": 4548,
      "معك": 4549,
      "##اصر": 4550,
      "ذن": 4552,
      "##هور": 4560,
      "##كة": 4561,
      "##حف": 4565,
      "هاي": 4568,
      "كث": 4570,
      "##10": 4571,
      "حض": 4572,
      "##خة": 4573,
      "##ردد": 4574,
      "جدي": 4575,
      "##جوم": 4577,
      "مشت": 4580,
      "معد": 4582,
      "اعد": 4583,
      "سعر": 4584,
      "co": 4587,
      "طوي": 4591,
      "ويع": 4594,
      "نسي": 4596,
      "جري": 4597,
      "فهد": 4599,
      "##شفي": 4600,
      "أت": 4602,
      "يصل": 4604,
      "تعد": 4613,
      "##طلا": 4615,
      "50": 4616,
      "##لمة": 4617,
      "##شره": 4618,
      "##كذا": 4619,
      "##مم": 4621,
      "ويم": 4622,
      "جام": 4623,
      "خلا": 4627,
      "صدر": 4628,
      "##ذار": 4629,
      "ليب": 4630,
      "##بدو": 4632,
      "##فرح": 4634,
      "##نات": 4637,
      "##واز": 4638,
      "##il": 4639,
      "رغ": 4641,
      "وتق": 4646,
      "ذا": 4647,
      "مرض": 4648,
      "مهم": 4649,
      "لط": 4651,
      "##كيل": 4652,
      "##قين": 4657,
      "##كين": 4659,
      "شا": 4660,
      "خي": 4662,
      "ممن": 4663,
      "##حمر": 4664,
      "##وصا": 4667,
      "27": 4672,
      "عج": 4674,
      "لاح": 4678,
      "قيم": 4679,
      "##للح": 4680,
      "28": 4683,
      "تمت": 4690,
      "فعل": 4695,
      "فلو": 4696,
      "وتت": 4697,
      "نست": 4702,
      "##زام": 4703,
      "سج": 4704,
      "##he": 4707,
      "وست": 4709,
      "##ot": 4710,
      "##رفه": 4711,
      "##حمه": 4712,
      "حفظ": 4713,
      "##متع": 4715,
      "##واف": 4717,
      "##ايد": 4719,
      "فما": 4721,
      "##ظف": 4724,
      "##امر": 4726,
      "يز": 4727,
      "##ضب": 4728,
      "##66": 4729,
      "ومت": 4730,
      "واخ": 4734,
      "غزة": 4735,
      "##ندي": 4739,
      "للغ": 4740,
      "##افر": 4742,
      "صنا": 4743,
      "##اية": 4744,
      "##ناب": 4747,
      "##ريع": 4749,
      "برا": 4751,
      "##حين": 4754,
      "##فيد": 4756,
      "هد": 4758,
      "##ثة": 4759,
      "ولن": 4763,
      "##ليب": 4764,
      "##۞۩": 4766,
      "بهم": 4769,
      "##um": 4770,
      "نصف": 4771,
      "##ra": 4772,
      "##ضمن": 4775,
      "عيد": 4776,
      "يمن": 4778,
      "##كلم": 4779,
      "واع": 4780,
      "خبر": 4781,
      "راج": 4784,
      "بشر": 4785,
      "جزء": 4787,
      "ورد": 4788,
      "##لور": 4789,
      "##عك": 4790,
      "##قيل": 4792,
      "قرب": 4795,
      "سما": 4797,
      "نه": 4799,
      "##يح": 4803,
      "##كال": 4804,
      "دخ": 4805,
      "##حص": 4807,
      "##ردن": 4809,
      "وصل": 4810,
      "ظل": 4812,
      "##شيد": 4813,
      "شكل": 4814,
      "##ظار": 4822,
      "قتل": 4824,
      "##ريل": 4827,
      "##غر": 4830,
      "جعل": 4835,
      "بري": 4836,
      "##سان": 4838,
      "##كرم": 4839,
      "ويب": 4840,
      "##سيه": 4841,
      "مين": 4842,
      "سجل": 4846,
      "##سمح": 4851,
      "قض": 4856,
      "##بيد": 4858,
      "وفق": 4863,
      "##هن": 4865,
      "عضو": 4866,
      "##el": 4867,
      "جده": 4868,
      "سوي": 4871,
      "لخ": 4872,
      "وتط": 4875,
      "فهم": 4881,
      "جي": 4885,
      "##اسم": 4891,
      "##77": 4894,
      "##غيل": 4895,
      "دخل": 4896,
      "إست": 4897,
      "رفض": 4898,
      "إي": 4901,
      "باك": 4904,
      "##شل": 4908,
      "##سون": 4912,
      "ونا": 4916,
      "##جلس": 4918,
      "##ثار": 4920,
      "جم": 4923,
      "مخت": 4926,
      "جلس": 4928,
      "##فاف": 4929,
      "##30": 4931,
      "##كير": 4933,
      "##ورك": 4935,
      "##طع": 4936,
      "##لاك": 4939,
      "بمع": 4943,
      "كف": 4946,
      "##ol": 4947,
      "ضر": 4948,
      "##برز": 4950,
      "of": 4954,
      "##غال": 4956,
      "ها": 4958,
      "##يتك": 4961,
      "##ورت": 4964,
      "يال": 4965,
      "طول": 4968,
      "##قاش": 4969,
      "##صدق": 4972,
      "اذ": 4974,
      "بدر": 4975,
      "فهي": 4976,
      "##12": 4977,
      "##فيق": 4978,
      "عاش": 4981,
      "واد": 4982,
      "وله": 4983,
      "مظ": 4985,
      "40": 4986,
      "##id": 4988,
      "سين": 4991,
      "##لمي": 4995,
      "بنك": 4996,
      "##امت": 4999,
      "##ضه": 5003,
      "##رجم": 5004,
      "##ذة": 5005,
      "متن": 5006,
      "##عاب": 5008,
      "##ندق": 5011,
      "##nd": 5014,
      "نصر": 5023,
      "##عيش": 5027,
      "##وعه": 5030,
      "امت": 5033,
      "وفر": 5035,
      "سعو": 5039,
      "معي": 5040,
      "##رسل": 5041,
      "##انك": 5042,
      "وعم": 5046,
      "نم": 5055,
      "##يفا": 5057,
      "##واك": 5058,
      "##ub": 5061,
      "29": 5064,
      "##فاظ": 5066,
      "ليه": 5067,
      "بز": 5069,
      "##ئين": 5071,
      "ارض": 5075,
      "كذا": 5078,
      "قوه": 5079,
      "##سيس": 5082,
      "##سف": 5084,
      "فلي": 5086,
      "##ائع": 5088,
      "##دير": 5089,
      "تجد": 5091,
      "##60": 5092,
      "##وفر": 5095,
      "##يور": 5096,
      "##آت": 5098,
      "وتس": 5102,
      "تي": 5103,
      "قم": 5105,
      "##واه": 5106,
      "هت": 5107,
      "##تاح": 5108,
      "##أي": 5113,
      "##33": 5118,
      "##باك": 5125,
      "وقف": 5127,
      "##جرة": 5129,
      "##88": 5131,
      "لين": 5133,
      "اون": 5137,
      "قصص": 5143,
      "##ادت": 5145,
      "لكي": 5146,
      "راي": 5148,
      "##اوز": 5149,
      "##نيف": 5150,
      "##فيف": 5151,
      "##تيب": 5153,
      "##اطر": 5154,
      "##قته": 5155,
      "##وسي": 5157,
      "##ذف": 5158,
      "##غة": 5161,
      "##باق": 5162,
      "عاي": 5163,
      "لر": 5165,
      "موت": 5166,
      "فوز": 5168,
      "خمس": 5169,
      "بتح": 5171,
      "آل": 5172,
      "كأس": 5173,
      "##ريس": 5177,
      "##بحت": 5180,
      "ماء": 5185,
      "##كيم": 5187,
      "۩۞۩": 5191,
      "##40": 5194,
      "منز": 5196,
      "بسم": 5197,
      "لتص": 5198,
      "ومش": 5199,
      "أط": 5203,
      "كلا": 5207,
      "تقد": 5208,
      "خس": 5210,
      "##رفض": 5212,
      "##لكم": 5214,
      "##صح": 5215,
      "##شرح": 5217,
      "##رية": 5221,
      "##يي": 5222,
      "##زو": 5225,
      "كرة": 5226,
      "##ناق": 5229,
      "##ov": 5231,
      "##رار": 5233,
      "##تني": 5244,
      "نيك": 5246,
      "##ويق": 5247,
      "قلي": 5248,
      "##طور": 5249,
      "بكر": 5254,
      "##اطق": 5259,
      "##مرة": 5263,
      "##ودي": 5265,
      "##لتي": 5268,
      "شهد": 5270,
      "##ظات": 5282,
      "##نائ": 5283,
      "فات": 5289,
      "##الس": 5290,
      "##فن": 5291,
      "جب": 5295,
      "##وام": 5296,
      "##ter": 5299,
      "حظ": 5301,
      "##قوق": 5303,
      "مقر": 5304,
      "إم": 5306,
      "##سس": 5310,
      "خال": 5311,
      "##اعي": 5313,
      "يحي": 5315,
      "##صري": 5317,
      "إنت": 5320,
      "##كسر": 5323,
      "كار": 5325,
      "##80": 5326,
      "##زع": 5327,
      "##برى": 5329,
      "##سو": 5333,
      "داخ": 5337,
      "تمر": 5345,
      "تتم": 5346,
      "##قيع": 5349,
      "##مئ": 5352,
      "وبر": 5354,
      "##مار": 5359,
      "قطع": 5364,
      "رأس": 5365,
      "صعب": 5366,
      "عت": 5367,
      "واش": 5368,
      "##واح": 5369,
      "كس": 5373,
      "##بيت": 5376,
      "##ريت": 5381,
      "##ناس": 5384,
      "ألم": 5386,
      "##حو": 5389,
      "خذ": 5390,
      "##صاص": 5396,
      "يلت": 5403,
      "##راز": 5408,
      "##ئلة": 5409,
      "دام": 5414,
      "ورب": 5418,
      "حمد": 5419,
      "رف": 5423,
      "جهة": 5424,
      "بأس": 5425,
      "##فيه": 5427,
      "واض": 5428,
      "فخ": 5431,
      "لذا": 5432,
      "ميز": 5437,
      "ماب": 5445,
      "وجد": 5446,
      "شرق": 5447,
      "ياب": 5453,
      "##ذية": 5454,
      "سه": 5455,
      "##غا": 5459,
      "ميت": 5463,
      "عف": 5465,
      "##بو": 5467,
      "يرت": 5475,
      "##22": 5476,
      "01": 5479,
      "أمن": 5484,
      "جيش": 5485,
      "طرف": 5488,
      "كفر": 5489,
      "صاد": 5490,
      "خرج": 5491,
      "شرح": 5493,
      "##ذج": 5494,
      "وتد": 5495,
      "##19": 5497,
      "فاع": 5499,
      "كنا": 5500,
      "##اجه": 5503,
      "##فاض": 5509,
      "##44": 5511,
      "قبي": 5512,
      "055": 5513,
      "جو": 5514,
      "شيخ": 5516,
      "حلم": 5517,
      "##000": 5519,
      "حصل": 5521,
      "##vis": 5523,
      "جان": 5527,
      "بحث": 5533,
      "زين": 5540,
      "##حدى": 5543,
      "جزر": 5544,
      "محب": 5545,
      "##ow": 5546,
      "##كمل": 5548,
      "##كام": 5552,
      "ملف": 5556,
      "##ياج": 5562,
      "##ونت": 5565,
      "##بين": 5569,
      "##ave": 5573,
      "طف": 5578,
      "وتص": 5580,
      "حرف": 5583,
      "إخ": 5585,
      "فلم": 5586,
      "وو": 5594,
      "##فى": 5596,
      "صن": 5597,
      "##قوم": 5599,
      "##ؤمن": 5601,
      "عما": 5606,
      "كري": 5608,
      "أرض": 5611,
      "in": 5613,
      "صدي": 5614,
      "هن": 5615,
      "##فال": 5617,
      "شاه": 5621,
      "31": 5623,
      "##مسة": 5629,
      "فح": 5632,
      "مدى": 5638,
      "##70": 5639,
      "بسر": 5640,
      "فار": 5646,
      "##كيد": 5650,
      "000": 5653,
      "##ونك": 5654,
      "برج": 5657,
      "عرب": 5658,
      "شف": 5660,
      "##ثبت": 5661,
      "##قام": 5662,
      "لعم": 5665,
      "##حتى": 5667,
      "كاس": 5668,
      "##tt": 5670,
      "##ظل": 5671,
      "##فية": 5673,
      "مرا": 5674,
      "صدق": 5678,
      "##طقه": 5680,
      "رق": 5684,
      "ومر": 5688,
      "##طين": 5691,
      "جاه": 5694,
      "##رشح": 5704,
      "##طفى": 5712,
      "عض": 5718,
      "نقص": 5719,
      "انق": 5722,
      "##سيل": 5725,
      "##خلي": 5726,
      "طلع": 5727,
      "شوف": 5729,
      "##بقي": 5730,
      "غرب": 5734,
      "رشد": 5736,
      "ارد": 5737,
      "فس": 5739,
      "ومس": 5741,
      "##سطس": 5742,
      "##ورج": 5749,
      "##عيه": 5752,
      "45": 5755,
      "##وحة": 5763,
      "##اند": 5766,
      "##جير": 5768,
      "ملح": 5769,
      "##ثلة": 5773,
      "##نم": 5777,
      "##ائح": 5779,
      "##صاب": 5780,
      "دفع": 5781,
      "##32": 5782,
      "ينب": 5785,
      "أه": 5786,
      "##غان": 5787,
      "غال": 5789,
      "09": 5791,
      "صحة": 5794,
      "##سمى": 5795,
      "##ويج": 5798,
      "##fr": 5804,
      "بذ": 5805,
      "شن": 5806,
      "كا": 5807,
      "##ag": 5808,
      "مؤك": 5815,
      "ويش": 5816,
      "ديك": 5823,
      "قاد": 5824,
      "##وبا": 5825,
      "توك": 5827,
      "##طرة": 5831,
      "##سيا": 5832,
      "نط": 5833,
      "صب": 5835,
      "زمن": 5836,
      "##ألة": 5840,
      "ويا": 5843,
      "##ودا": 5847,
      "##وته": 5851,
      "##زاب": 5852,
      "##لرك": 5855,
      "##تش": 5858,
      "لمع": 5862,
      "##اعم": 5866,
      "هذي": 5867,
      "وتج": 5868,
      "##حده": 5869,
      "##ركم": 5879,
      "تصل": 5880,
      "##كته": 5881,
      "شو": 5885,
      "واق": 5888,
      "مدر": 5891,
      "حجم": 5893,
      "##ضير": 5897,
      "##واة": 5899,
      "عرش": 5901,
      "ربك": 5903,
      "##صيل": 5906,
      "يام": 5913,
      "##رز": 5915,
      "كلي": 5916,
      "متي": 5917,
      "مرس": 5925,
      "وقع": 5927,
      "قيل": 5929,
      "35": 5932,
      "##طح": 5934,
      "هام": 5935,
      "ذك": 5938,
      "07": 5941,
      "أنك": 5942,
      "02": 5943,
      "##ليش": 5944,
      "##شاف": 5950,
      "لتن": 5952,
      "لام": 5954,
      "فرق": 5956,
      "##الق": 5957,
      "وفا": 5959,
      "مقا": 5961,
      "اين": 5963,
      "بوت": 5965,
      "ورا": 5967,
      "يقت": 5971,
      "##صدر": 5974,
      "بحق": 5975,
      "فرج": 5976,
      "##ttp": 5979,
      "أك": 5983,
      "وتأ": 5985,
      "##خاذ": 5986,
      "60": 5992,
      "حفل": 5993,
      "الل": 5996,
      "بسي": 5998,
      "ممت": 6002,
      "08": 6006,
      "##خرا": 6007,
      "##غرب": 6008,
      "##يمه": 6010,
      "لاع": 6012,
      "##حيل": 6013,
      "بحي": 6016,
      "##شفت": 6017,
      "##جين": 6020,
      "ترت": 6021,
      "##ضيق": 6022,
      "##دون": 6024,
      "##لبه": 6027,
      "Re": 6028,
      "طا": 6031,
      "##15": 6032,
      "PM": 6033,
      "شرك": 6036,
      "فرض": 6038,
      "فب": 6039,
      "##سيم": 6042,
      "##احة": 6044,
      "##للو": 6046,
      "##per": 6047,
      "##us": 6048,
      "رضا": 6051,
      "عقب": 6056,
      "اجع": 6059,
      "برد": 6060,
      "rem": 6062,
      "##ch": 6071,
      "يخت": 6072,
      "##ظن": 6073,
      "جا": 6075,
      "سود": 6077,
      "قوة": 6080,
      "ودي": 6083,
      "06": 6084,
      "لعد": 6086,
      "نخ": 6093,
      "##ai": 6095,
      "##حيط": 6096,
      "ليش": 6097,
      "##مير": 6099,
      "يهم": 6104,
      "##فرك": 6107,
      "##os": 6119,
      "##راغ": 6120,
      "##لفت": 6122,
      "##18": 6124,
      "منع": 6129,
      "##يبة": 6130,
      "فج": 6132,
      "##قوط": 6133,
      "رض": 6134,
      "##حدد": 6135,
      "شات": 6136,
      "##بول": 6139,
      "إيج": 6143,
      "تاي": 6144,
      "مقت": 6146,
      "##ثمر": 6148,
      "إش": 6149,
      "دف": 6154,
      "##ay": 6156,
      "for": 6160,
      "مها": 6163,
      "##قاد": 6167,
      "ألا": 6169,
      "04": 6173,
      "نمو": 6175,
      "##رجو": 6179,
      "##ig": 6182,
      "سلس": 6189,
      "سبق": 6190,
      "##روق": 6191,
      "##لقي": 6192,
      "##انس": 6194,
      "##صبح": 6196,
      "##خره": 6198,
      "##برة": 6199,
      "ويح": 6203,
      "##باه": 6204,
      "##أت": 6207,
      "198": 6210,
      "خاط": 6212,
      "##لقه": 6216,
      "طائ": 6217,
      "بحب": 6218,
      "مرح": 6219,
      "##صا": 6224,
      "##اتم": 6238,
      "راف": 6240,
      "##وطن": 6241,
      "ونت": 6246,
      "##وجب": 6247,
      "##طط": 6250,
      "##عوا": 6251,
      "03": 6257,
      "بيد": 6258,
      "تعا": 6262,
      "##طلع": 6263,
      "شفت": 6267,
      "##ؤل": 6270,
      "##خم": 6273,
      "أز": 6274,
      "##ثق": 6278,
      "حبك": 6281,
      "32": 6288,
      "##طيب": 6289,
      "بعم": 6292,
      "سوء": 6295,
      "##منى": 6296,
      "ثنا": 6299,
      "رش": 6300,
      "##im": 6302,
      "##فذ": 6303,
      "##ذيب": 6304,
      "بدء": 6305,
      "##قلة": 6306,
      "جاز": 6308,
      "##عن": 6309,
      "تلا": 6312,
      "##ia": 6313,
      "##ياز": 6315,
      "##اجر": 6319,
      "زاد": 6320,
      "ذهب": 6324,
      "##فرق": 6325,
      "تتح": 6326,
      "##صلة": 6330,
      "##62": 6332,
      "##شطة": 6333,
      "مرو": 6339,
      "ويد": 6340,
      "تبي": 6341,
      "##عث": 6344,
      "##قتك": 6352,
      "##سبق": 6353,
      "احس": 6356,
      "نار": 6361,
      "بض": 6362,
      "واي": 6363,
      "##حاء": 6364,
      "بحر": 6365,
      "نبي": 6368,
      "##لوس": 6370,
      "##منة": 6374,
      "سيف": 6378,
      "##قس": 6379,
      "##سطة": 6383,
      "كده": 6388,
      "##وسع": 6389,
      "اثر": 6390,
      "حف": 6395,
      "##لوي": 6397,
      "عهد": 6398,
      "##اخذ": 6401,
      "##وفق": 6404,
      "##lam": 6408,
      "##65": 6409,
      "اجر": 6413,
      "سوى": 6414,
      "منظ": 6417,
      "فاز": 6421,
      "شبه": 6423,
      "ستي": 6426,
      "##ربت": 6427,
      "دعا": 6430,
      "شرف": 6431,
      "##فرد": 6435,
      "##ثال": 6436,
      "امل": 6439,
      "قصر": 6449,
      "وأع": 6453,
      "##نها": 6458,
      "خز": 6461,
      "أخذ": 6464,
      "نوم": 6465,
      "##rip": 6466,
      "اخذ": 6467,
      "فين": 6469,
      "ذي": 6470,
      "غرف": 6471,
      "##كرر": 6473,
      "##خيص": 6475,
      "##ضات": 6477,
      "يرد": 6478,
      "##زوج": 6484,
      "##رص": 6486,
      "هند": 6487,
      "##ئك": 6490,
      "يمت": 6491,
      "شاب": 6492,
      "##وعا": 6493,
      "##شرق": 6494,
      "##طل": 6496,
      "##رضا": 6499,
      "يار": 6502,
      "هون": 6505,
      "##خيل": 6512,
      "##صير": 6516,
      "##طاع": 6521,
      "يفت": 6529,
      "##خه": 6530,
      "##ng": 6531,
      "##نوب": 6536,
      "ومح": 6544,
      "تنس": 6548,
      "##ضل": 6551,
      "##37": 6553,
      "بتع": 6554,
      "سأ": 6556,
      "فص": 6558,
      "##جح": 6560,
      "##ائن": 6565,
      "فور": 6566,
      "تشت": 6567,
      "##ab": 6568,
      "موض": 6571,
      "##17": 6575,
      "شم": 6577,
      "##صات": 6579,
      "تسا": 6580,
      "نسب": 6583,
      "##ائة": 6584,
      "زع": 6585,
      "كره": 6587,
      "##ايل": 6592,
      "تمن": 6593,
      "جنا": 6598,
      "##لسي": 6606,
      "مكه": 6617,
      "##ماس": 6619,
      "عاص": 6621,
      "##حته": 6622,
      "##ظلم": 6626,
      "تخت": 6627,
      "موق": 6628,
      "##برت": 6630,
      "فري": 6632,
      "وذ": 6637,
      "سري": 6639,
      "إف": 6645,
      "##ارى": 6646,
      "فرص": 6647,
      "طرق": 6650,
      "نجم": 6651,
      "##روت": 6652,
      "سات": 6653,
      "##روه": 6654,
      "##ورى": 6656,
      "شكر": 6658,
      "يرج": 6665,
      "باع": 6666,
      "وبا": 6667,
      "للز": 6675,
      "36": 6676,
      "##ياط": 6678,
      "وتف": 6681,
      "لند": 6683,
      "##انع": 6684,
      "##زاز": 6686,
      "وأخ": 6687,
      "يلا": 6689,
      "بمح": 6693,
      "هما": 6695,
      "##est": 6696,
      "ترب": 6697,
      "قنا": 6700,
      "##خفض": 6701,
      "##فرج": 6702,
      "عا": 6703,
      "خش": 6704,
      "##بهة": 6706,
      "ناف": 6708,
      "فلن": 6715,
      "شأن": 6717,
      "##قاذ": 6718,
      "##ائك": 6719,
      "حقق": 6724,
      "وبد": 6726,
      "##قيب": 6728,
      "باي": 6729,
      "زيت": 6731,
      "طفل": 6732,
      "باس": 6736,
      "لفت": 6737,
      "ادم": 6744,
      "##كب": 6746,
      "وجل": 6748,
      "##35": 6749,
      "##ew": 6752,
      "سال": 6757,
      "##ظي": 6758,
      "##وست": 6759,
      "رمز": 6761,
      "فكر": 6762,
      "لغة": 6764,
      "##قلي": 6765,
      "47": 6768,
      "In": 6772,
      "##ضيف": 6776,
      "##وتك": 6779,
      "يمر": 6781,
      "عمي": 6782,
      "##فون": 6784,
      "ظلم": 6786,
      "هز": 6788,
      "مير": 6790,
      "أقل": 6794,
      "##قلت": 6795,
      "اقل": 6797,
      "امه": 6798,
      "AM": 6801,
      "##خال": 6802,
      "##غو": 6809,
      "##غار": 6810,
      "ذه": 6811,
      "##يخ": 6819,
      "##حقق": 6821,
      "نحب": 6825,
      "دير": 6827,
      "##يسى": 6829,
      "مجد": 6835,
      "##ياك": 6840,
      "شت": 6841,
      "جيد": 6842,
      "ماد": 6849,
      "##دخل": 6855,
      "منح": 6859,
      "عال": 6862,
      "##نيت": 6864,
      "##جال": 6867,
      "##طيط": 6871,
      "##وهم": 6874,
      "ورش": 6879,
      "##ئت": 6884,
      "هاش": 6885,
      "##للع": 6889,
      "33": 6897,
      "##اوي": 6899,
      "##يء": 6902,
      "شار": 6905,
      "##ir": 6906,
      "رأي": 6907,
      "is": 6908,
      "##ذل": 6911,
      "pro": 6915,
      "حنا": 6923,
      "ضبط": 6924,
      "##اضر": 6926,
      "مجه": 6929,
      "##فد": 6936,
      "##25": 6940,
      "##عها": 6943,
      "تعب": 6947,
      "##طى": 6950,
      "يشت": 6954,
      "##ويش": 6956,
      "انج": 6960,
      "بدي": 6962,
      "##واي": 6964,
      "##ضعف": 6966,
      "قصة": 6967,
      "197": 6973,
      "##تو": 6975,
      "##زان": 6977,
      "تفا": 6980,
      "نجد": 6986,
      "##باع": 6989,
      "يتح": 6992,
      "##وفا": 6994,
      "إح": 6997,
      "ويف": 7002,
      "ابد": 7003,
      "##AR": 7006,
      "##ox": 7008,
      "##og": 7012,
      "ليف": 7013,
      "ولق": 7014,
      "بكم": 7019,
      "##صرف": 7020,
      "34": 7028,
      "##سمه": 7029,
      "##ضى": 7030,
      "##بيا": 7038,
      "محل": 7040,
      "عون": 7044,
      "##خلص": 7046,
      "فصل": 7048,
      "حكا": 7054,
      "##حمة": 7055,
      "##ندا": 7057,
      "##عان": 7058,
      "For": 7059,
      "يون": 7060,
      "اكس": 7064,
      "شقق": 7066,
      "##اشق": 7067,
      "أى": 7068,
      "همس": 7070,
      "سان": 7076,
      "##صفح": 7077,
      "##لقا": 7080,
      "##ظبي": 7081,
      "مكة": 7083,
      "##16": 7086,
      "ضحك": 7092,
      "75": 7094,
      "##اشد": 7095,
      "ورو": 7097,
      "D8": 7099,
      "##هره": 7102,
      "نن": 7105,
      "##لاص": 7108,
      "##مره": 7114,
      "##جية": 7116,
      "وجع": 7134,
      "##ثه": 7135,
      "جون": 7138,
      "ولع": 7139,
      "جبل": 7141,
      "##شاب": 7143,
      "##تكم": 7145,
      "أر": 7150,
      "لض": 7153,
      "قوي": 7155,
      "شوق": 7156,
      "##اتل": 7158,
      "ضي": 7159,
      "فم": 7163,
      "##سع": 7165,
      "##ثيل": 7167,
      "ففي": 7173,
      "##سكر": 7175,
      "##وزي": 7176,
      "##لقت": 7177,
      "عود": 7178,
      "##اغ": 7180,
      "تحس": 7183,
      "St": 7185,
      "##ada": 7186,
      "##ليد": 7188,
      "زيد": 7191,
      "أست": 7192,
      "##24": 7197,
      "70": 7201,
      "500": 7202,
      "ناد": 7205,
      "80": 7209,
      "غا": 7210,
      "##نته": 7212,
      "بلو": 7214,
      "بوك": 7216,
      "برس": 7217,
      "حبا": 7218,
      "ارب": 7221,
      "لست": 7223,
      "يجع": 7225,
      "كفا": 7227,
      "##op": 7228,
      "جلب": 7229,
      "##ish": 7230,
      "##شين": 7232,
      "زم": 7233,
      "فش": 7235,
      "##Ad": 7237,
      "ويج": 7238,
      "##نيك": 7239,
      "علو": 7240,
      "##درس": 7242,
      "طرح": 7243,
      "##افا": 7246,
      "وتر": 7247,
      "حط": 7249,
      "##oc": 7250,
      "تور": 7255,
      "##ثور": 7256,
      "وتب": 7257,
      "##قرأ": 7263,
      "##داب": 7264,
      "حام": 7265,
      "يجد": 7270,
      "##ساط": 7272,
      "خطة": 7274,
      "##14": 7281,
      "اجن": 7284,
      "##قصى": 7287,
      "##نتي": 7290,
      "بوس": 7291,
      "مأ": 7303,
      "##جرد": 7311,
      "ذنب": 7312,
      "##زيا": 7313,
      "##اصل": 7314,
      "##38": 7315,
      "لحد": 7316,
      "حلب": 7318,
      "مبت": 7320,
      "##شى": 7321,
      "متر": 7325,
      "Ah": 7329,
      "##ناف": 7330,
      "##سى": 7331,
      "##أنه": 7333,
      "فاط": 7336,
      "قدي": 7337,
      "##لعة": 7342,
      "يبي": 7345,
      "##حط": 7349,
      "سوا": 7357,
      "أرد": 7359,
      "غلط": 7361,
      "بتن": 7368,
      "بام": 7371,
      "داي": 7377,
      "حزن": 7378,
      "##تان": 7383,
      "عطر": 7385,
      "صع": 7386,
      "##جاح": 7390,
      "##90": 7396,
      "جس": 7398,
      "##فرض": 7407,
      "فرع": 7410,
      "37": 7414,
      "##سمة": 7420,
      "لاج": 7421,
      "ضح": 7422,
      "ضغط": 7431,
      "##لقى": 7432,
      "##وقت": 7436,
      "فاج": 7438,
      "خطر": 7441,
      "ضيف": 7444,
      "##خير": 7446,
      "##ut": 7447,
      "##لتك": 7448,
      "##يدي": 7459,
      "##34": 7461,
      "مول": 7462,
      "##▬▬": 7463,
      "سبع": 7464,
      "##ليس": 7467,
      "وأش": 7468,
      "تاب": 7472,
      "سفر": 7474,
      "##قنا": 7477,
      "##ماك": 7479,
      "لمش": 7480,
      "##روة": 7481,
      "اعط": 7484,
      "050": 7485,
      "بوح": 7487,
      "##ul": 7488,
      "48": 7490,
      "حمل": 7493,
      "##حاد": 7498,
      "##ليت": 7499,
      "##تام": 7500,
      "هات": 7507,
      "ياع": 7509,
      "ورج": 7515,
      "##ER": 7527,
      "##بور": 7529,
      "and": 7537,
      "فهل": 7539,
      "أور": 7542,
      "##ويم": 7543,
      "##شيش": 7544,
      "##معه": 7547,
      "##ust": 7552,
      "ورس": 7557,
      "##صلي": 7558,
      "##ئل": 7559,
      "خا": 7562,
      "هش": 7569,
      "عجز": 7570,
      "38": 7574,
      "##اجي": 7578,
      "عيش": 7579,
      "يدي": 7580,
      "جر": 7582,
      "##اشة": 7584,
      "ترم": 7585,
      "جرح": 7587,
      "غرد": 7592,
      "تقع": 7595,
      "##وظ": 7597,
      "وشك": 7599,
      "حن": 7603,
      "##قوب": 7606,
      "##حام": 7607,
      "عوض": 7610,
      "طي": 7613,
      "حج": 7617,
      "اند": 7621,
      "خطا": 7623,
      "##68": 7624,
      "##حاق": 7625,
      "شمس": 7633,
      "قري": 7635,
      "##قها": 7637,
      "##تاب": 7638,
      "نمر": 7644,
      "##فير": 7646,
      "##وكي": 7647,
      "صرف": 7648,
      "وبح": 7649,
      "واغ": 7653,
      "##خرة": 7654,
      "##شوف": 7656,
      "رون": 7659,
      "ساح": 7661,
      "##يدر": 7669,
      "كوك": 7672,
      "قوم": 7675,
      "##لوه": 7677,
      "حك": 7678,
      "نبض": 7680,
      "مسب": 7681,
      "لمح": 7685,
      "##ers": 7686,
      "واه": 7693,
      "44": 7695,
      "أحب": 7699,
      "وهل": 7701,
      "صنع": 7703,
      "##حتك": 7705,
      "ليا": 7706,
      "مرك": 7707,
      "رام": 7709,
      "##فقة": 7711,
      "وفى": 7714,
      "##ظاه": 7716,
      "##ميت": 7719,
      "##طول": 7724,
      "##ايق": 7728,
      "##خط": 7730,
      "ذو": 7731,
      "##ورز": 7737,
      "ولذ": 7741,
      "90": 7742,
      "تعز": 7746,
      "##رحل": 7754,
      "مدة": 7757,
      "##جيع": 7758,
      "##وضة": 7759,
      "ماز": 7763,
      "Al": 7766,
      "يقع": 7772,
      "ناح": 7774,
      "تكت": 7777,
      "اري": 7781,
      "##تهي": 7783,
      "فيت": 7785,
      "ناق": 7786,
      "آدم": 7793,
      "##قوا": 7797,
      "##ارم": 7805,
      "pr": 7807,
      "##خد": 7815,
      "##لبة": 7816,
      "صحي": 7820,
      "##ئر": 7823,
      "##ced": 7824,
      "ريف": 7829,
      "سمو": 7833,
      "ذوي": 7836,
      "طن": 7841,
      "وأس": 7842,
      "##رون": 7851,
      "##ess": 7854,
      "##لوق": 7858,
      "ربه": 7864,
      "منش": 7870,
      "عصر": 7872,
      "##وذ": 7875,
      "##حبة": 7878,
      "مسئ": 7879,
      "سهل": 7883,
      "قصه": 7887,
      "بطل": 7894,
      "شحن": 7896,
      "كوم": 7900,
      "##لاع": 7906,
      "ضم": 7910,
      "##قيه": 7911,
      "ضيق": 7913,
      "##eb": 7914,
      "لقي": 7917,
      "##ابا": 7918,
      "فد": 7921,
      "##أل": 7924,
      "##ؤه": 7927,
      "هب": 7928,
      "##يرو": 7929,
      "بأي": 7931,
      "ثبت": 7932,
      "##ولف": 7938,
      "##un": 7942,
      "##67": 7944,
      "أبا": 7945,
      "##يص": 7947,
      "تل": 7953,
      "يرى": 7958,
      "غي": 7963,
      "##دار": 7970,
      "##ؤاد": 7972,
      "##الع": 7974,
      "##صرة": 7975,
      "تجع": 7976,
      "##مون": 7980,
      "##13": 7981,
      "وخص": 7982,
      "ضرب": 7984,
      "بمس": 7985,
      "وبي": 7986,
      "##ئيا": 7987,
      "##وعي": 7991,
      "مطر": 7993,
      "أخر": 7994,
      "سحب": 7995,
      "تبر": 7996,
      "##ناد": 8000,
      "ناش": 8001,
      "ترد": 8006,
      "تبت": 8010,
      "تاج": 8012,
      "زال": 8017,
      "##كنت": 8025,
      "فاس": 8028,
      "##28": 8030,
      "جنه": 8032,
      "##ah": 8040,
      "زر": 8044,
      "##هلك": 8046,
      "##وتا": 8050,
      "نصي": 8052,
      "ورق": 8054,
      "بيس": 8056,
      "يسر": 8061,
      "##هيل": 8068,
      "##بان": 8070,
      "فضل": 8071,
      "هاد": 8089,
      "قرا": 8092,
      "شوي": 8096,
      "##زون": 8097,
      "عذ": 8102,
      "وتخ": 8105,
      "##فف": 8110,
      "##ارئ": 8114,
      "عاف": 8117,
      "أصل": 8121,
      "تقت": 8128,
      "حلا": 8131,
      "علش": 8134,
      "##يزم": 8136,
      "##ماغ": 8138,
      "لقب": 8140,
      "أوب": 8141,
      "سيع": 8146,
      "مصط": 8149,
      "ماع": 8150,
      "صمت": 8152,
      "وها": 8154,
      "##ديت": 8158,
      "##داع": 8159,
      "ذاك": 8163,
      "يعط": 8164,
      "The": 8167,
      "للذ": 8170,
      "ليل": 8173,
      "جيت": 8174,
      "##لوع": 8175,
      "صبا": 8177,
      "يجي": 8186,
      "خري": 8188,
      "مبد": 8196,
      "##هدد": 8201,
      "##نز": 8203,
      "سقط": 8207,
      "هى": 8208,
      "ياح": 8209,
      "شج": 8211,
      "لمت": 8213,
      "حجر": 8216,
      "##ist": 8217,
      "سنت": 8220,
      "##ؤكد": 8221,
      "لبي": 8222,
      "ارس": 8223,
      "رزق": 8226,
      "##قلب": 8228,
      "تضم": 8232,
      "##جو": 8233,
      "وبم": 8239,
      "55": 8240,
      "##ويض": 8241,
      "أني": 8244,
      "##ساك": 8245,
      "##45": 8246,
      "ممث": 8252,
      "##تب": 8254,
      "##ine": 8257,
      "سكن": 8264,
      "مل": 8265,
      "حقا": 8266,
      "جدة": 8269,
      "حرم": 8277,
      "##عتك": 8288,
      "ونس": 8290,
      "##ure": 8291,
      "##تيح": 8292,
      "##لزم": 8293,
      "ومد": 8302,
      "ومؤ": 8303,
      "##عمه": 8304,
      "تفت": 8306,
      "39": 8308,
      "##لحه": 8312,
      "حت": 8313,
      "##وفه": 8314,
      "هدا": 8316,
      "قرر": 8326,
      "عار": 8327,
      "مدا": 8330,
      "##ob": 8335,
      "##رجي": 8345,
      "##عمة": 8347,
      "وكم": 8350,
      "##ئاس": 8353,
      "جيب": 8355,
      "حقي": 8356,
      "يكت": 8360,
      "##غوط": 8362,
      "##فز": 8367,
      "##كيك": 8372,
      "يلي": 8374,
      "وفد": 8379,
      "تسي": 8384,
      "يخص": 8385,
      "ومج": 8389,
      "ظن": 8393,
      "فقه": 8398,
      "##اجة": 8399,
      "تفض": 8400,
      "مدن": 8403,
      "هر": 8406,
      "تهم": 8408,
      "##دو": 8412,
      "ترى": 8416,
      "##ثرة": 8420,
      "al": 8421,
      "##لبك": 8423,
      "##مئن": 8425,
      "لبن": 8429,
      "##رأ": 8433,
      "كور": 8435,
      "حضر": 8444,
      "##ind": 8447,
      "##ma": 8448,
      "مسي": 8450,
      "لعل": 8461,
      "##يرك": 8463,
      "##طفل": 8469,
      "غد": 8472,
      "##شع": 8474,
      "شام": 8476,
      "42": 8483,
      "##زاء": 8484,
      "نيس": 8490,
      "خفي": 8493,
      "##عوه": 8494,
      "D9": 8495,
      "جلد": 8496,
      "ولأ": 8497,
      "تكر": 8499,
      "##ook": 8508,
      "جهد": 8513,
      "##اصي": 8514,
      "##بى": 8517,
      "##جري": 8518,
      "##عده": 8521,
      "عزي": 8528,
      "لذ": 8538,
      "Eng": 8539,
      "وأف": 8541,
      "##وجع": 8546,
      "##غت": 8551,
      "##طيل": 8556,
      "##جيب": 8562,
      "طبر": 8564,
      "تنز": 8566,
      "وأي": 8567,
      "wh": 8568,
      "تخص": 8572,
      "##طره": 8573,
      "ميد": 8577,
      "عدن": 8579,
      "##39": 8580,
      "##ابك": 8581,
      "##ue": 8583,
      "يان": 8585,
      "هجر": 8586,
      "ستة": 8589,
      "##للذ": 8591,
      "جسم": 8602,
      "وحب": 8610,
      "توص": 8611,
      "بوش": 8614,
      "وأم": 8617,
      "##ودع": 8618,
      "شاف": 8623,
      "##اقه": 8624,
      "بصف": 8627,
      "صفر": 8630,
      "##زت": 8631,
      "##ضاع": 8636,
      "##64": 8642,
      "the": 8643,
      "حيا": 8651,
      "##كمه": 8652,
      "عسي": 8660,
      "##ياع": 8663,
      "بتس": 8664,
      "##69": 8665,
      "سيب": 8666,
      "قس": 8674,
      "ره": 8676,
      "تشي": 8677,
      "##ائى": 8679,
      "##قار": 8690,
      "##فاس": 8700,
      "##تيل": 8702,
      "غس": 8708,
      "باخ": 8710,
      "ناج": 8711,
      "أثر": 8714,
      "كرم": 8715,
      "جنب": 8717,
      "لتس": 8725,
      "تث": 8726,
      "##عدة": 8727,
      "##رال": 8728,
      "##غني": 8729,
      "مور": 8732,
      "زرع": 8734,
      "##od": 8735,
      "##قاب": 8737,
      "ثمن": 8741,
      "فرد": 8742,
      "##هوه": 8743,
      "لون": 8745,
      "##خاب": 8750,
      "مقب": 8755,
      "##ack": 8759,
      "متع": 8760,
      "##ON": 8761,
      "##فيش": 8765,
      "##سته": 8768,
      "سحر": 8769,
      "اخي": 8770,
      "نض": 8771,
      "##وصل": 8772,
      "جاك": 8773,
      "هار": 8774,
      "##بيح": 8779,
      "طه": 8780,
      "##حني": 8781,
      "سكر": 8782,
      "##طون": 8785,
      "##رتك": 8792,
      "غني": 8800,
      "ضا": 8805,
      "بول": 8809,
      "جبر": 8814,
      "##ئون": 8818,
      "سرا": 8820,
      "##ووو": 8825,
      "##خين": 8827,
      "##يسر": 8831,
      "بدل": 8832,
      "لأي": 8833,
      "لاخ": 8836,
      "ذوق": 8838,
      "##وند": 8839,
      "##قن": 8840,
      "##ذير": 8845,
      "وبه": 8848,
      "ماج": 8852,
      "##عدد": 8855,
      "يدل": 8858,
      "إج": 8860,
      "متح": 8870,
      "وسب": 8874,
      "##48": 8877,
      "قيد": 8883,
      "غاب": 8894,
      "##فيت": 8896,
      "حذ": 8898,
      "##ap": 8902,
      "##27": 8903,
      "##ثاث": 8905,
      "##لطة": 8909,
      "300": 8910,
      "##افل": 8915,
      "##فيل": 8916,
      "عشق": 8918,
      "وبك": 8919,
      "بمر": 8923,
      "##ئذ": 8929,
      "##31": 8941,
      "##سيك": 8942,
      "فخر": 8944,
      "##جمة": 8945,
      "رأى": 8953,
      "بجد": 8956,
      "فاض": 8962,
      "##شيخ": 8963,
      "on": 8964,
      "##tr": 8971,
      "غض": 8974,
      "##لفا": 8975,
      "كرب": 8977,
      "##نص": 8979,
      "صي": 8980,
      "شرا": 8991,
      "لمس": 8992,
      "فائ": 9001,
      "##فهم": 9003,
      "شغ": 9007,
      "عل": 9008,
      "##ادن": 9009,
      "برم": 9012,
      "أدى": 9014,
      "فشل": 9015,
      "قرض": 9016,
      "##رور": 9018,
      "##49": 9021,
      "رز": 9025,
      "ضوء": 9032,
      "##طم": 9033,
      "غان": 9034,
      "يضع": 9036,
      "اكد": 9038,
      "##جمع": 9041,
      "تلت": 9044,
      "##كك": 9048,
      "منس": 9049,
      "##one": 9051,
      "##طيه": 9052,
      "##دب": 9055,
      "##حسن": 9065,
      "جسد": 9071,
      "##منت": 9072,
      "طر": 9073,
      "عوا": 9076,
      "##29": 9080,
      "##ريج": 9081,
      "43": 9086,
      "##ce": 9090,
      "##th": 9101,
      "##ذاك": 9102,
      "هلا": 9106,
      "قصف": 9108,
      "لدر": 9112,
      "##21": 9113,
      "لمر": 9121,
      "##اهو": 9125,
      "كسر": 9128,
      "فاي": 9132,
      "حاس": 9133,
      "ومص": 9135,
      "درب": 9139,
      "فاش": 9140,
      "##ech": 9143,
      "حذف": 9144,
      "نظم": 9146,
      "برب": 9148,
      "##قاق": 9151,
      "##راث": 9153,
      "صرت": 9157,
      "تقل": 9158,
      "قاب": 9159,
      "عزل": 9168,
      "لتش": 9169,
      "اوي": 9170,
      "اوب": 9174,
      "يده": 9176,
      "##أكد": 9180,
      "نغ": 9183,
      "##نق": 9189,
      "هذ": 9190,
      "خد": 9197,
      "كاب": 9199,
      "##اهي": 9205,
      "فاح": 9206,
      "حفر": 9207,
      "للث": 9214,
      "##وجل": 9217,
      "ترج": 9220,
      "طرد": 9222,
      "ميش": 9236,
      "جذ": 9237,
      "آن": 9238,
      "فني": 9240,
      "غفر": 9245,
      "فرا": 9255,
      "195": 9258,
      "فجر": 9259,
      "كول": 9260,
      "##لبس": 9261,
      "فسي": 9265,
      "طمو": 9271,
      "جوا": 9277,
      "راض": 9278,
      "امك": 9280,
      "##حلة": 9284,
      "##بن": 9285,
      "##وفة": 9287,
      "مضم": 9288,
      "ديم": 9291,
      "هوا": 9296,
      "##دل": 9297,
      "##فسي": 9301,
      "##لبا": 9306,
      "وتغ": 9308,
      "تقم": 9309,
      "##فيا": 9310,
      "للض": 9317,
      "قمة": 9319,
      "توب": 9321,
      "##عدل": 9329,
      "يقف": 9332,
      "كأ": 9333,
      "49": 9335,
      "لقط": 9336,
      "##جلة": 9337,
      "##rab": 9339,
      "نهر": 9341,
      "قبر": 9342,
      "150": 9344,
      "##يتد": 9345,
      "##47": 9349,
      "بلي": 9365,
      "##gle": 9367,
      "##ائط": 9368,
      "##فوق": 9369,
      "##نتك": 9371,
      "##فعة": 9374,
      "وكن": 9381,
      "بمش": 9382,
      "تذ": 9392,
      "أين": 9394,
      "باش": 9395,
      "بمت": 9396,
      "##صره": 9402,
      "مبر": 9403,
      "ينس": 9406,
      "درس": 9411,
      "##نيع": 9416,
      "##قون": 9421,
      "يري": 9425,
      "##36": 9430,
      "صر": 9440,
      "ميك": 9441,
      "##يعه": 9445,
      "تام": 9449,
      "ووا": 9450,
      "##مسك": 9451,
      "ربع": 9454,
      "009": 9455,
      "##أتي": 9457,
      "كاف": 9463,
      "##درج": 9474,
      "يبت": 9476,
      "##كنه": 9477,
      "كيم": 9478,
      "46": 9483,
      "##فين": 9487,
      "صبر": 9488,
      "مري": 9491,
      "##ووك": 9496,
      "##ww": 9499,
      "##هج": 9503,
      "##AT": 9507,
      "يضم": 9508,
      "##لذا": 9512,
      "مرف": 9514,
      "##ice": 9523,
      "روى": 9524,
      "إله": 9525,
      "شرط": 9527,
      "##قيف": 9531,
      "يات": 9541,
      "##بته": 9542,
      "موظ": 9543,
      "كوب": 9548,
      "خل": 9549,
      "رت": 9553,
      "روز": 9555,
      "##همه": 9557,
      "##حها": 9559,
      "لحم": 9564,
      "##ركي": 9565,
      "##اطئ": 9567,
      "##يير": 9577,
      "##box": 9581,
      "##فور": 9585,
      "لائ": 9590,
      "##كاة": 9592,
      "توق": 9595,
      "##طئ": 9596,
      "##iv": 9603,
      "عيب": 9610,
      "فكل": 9611,
      "عكس": 9616,
      "وسم": 9622,
      "##pl": 9629,
      "مدي": 9634,
      "##af": 9635,
      "##زية": 9639,
      "عفش": 9642,
      "##بال": 9646,
      "##دري": 9649,
      "##جهه": 9655,
      "رفي": 9658,
      "شري": 9659,
      "نتم": 9660,
      "##ort": 9662,
      "##سيت": 9669,
      "نك": 9675,
      "##صم": 9678,
      "58": 9684,
      "##آآ": 9691,
      "ريم": 9693,
      "##اءه": 9698,
      "إني": 9699,
      "##بها": 9701,
      "##ىء": 9705,
      "ST": 9706,
      "خوف": 9711,
      "ياج": 9712,
      "ياس": 9713,
      "خسر": 9715,
      "65": 9716,
      "##قش": 9717,
      "نكت": 9722,
      "##فيس": 9726,
      "57": 9728,
      "حبه": 9729,
      "آية": 9732,
      "##az": 9733,
      "قمه": 9734,
      "اتش": 9736,
      "ردا": 9739,
      "##نال": 9751,
      "##200": 9757,
      "خب": 9759,
      "##تيش": 9760,
      "ألب": 9763,
      "##عوض": 9766,
      "011": 9768,
      "##وتو": 9772,
      "##خصة": 9775,
      "##ثا": 9778,
      "ولت": 9784,
      "روي": 9790,
      "##شط": 9795,
      "##ثره": 9801,
      "##زرع": 9803,
      "##حوا": 9804,
      "راق": 9805,
      "غذ": 9807,
      "##خله": 9811,
      "غز": 9816,
      "أية": 9818,
      "##بعد": 9822,
      "تقف": 9827,
      "sp": 9831,
      "##شرت": 9833,
      "##عج": 9837,
      "قي": 9843,
      "نو": 9848,
      "وشر": 9853,
      "##فيز": 9854,
      "توح": 9855,
      "##لاط": 9856,
      "هج": 9860,
      "##ud": 9861,
      "##ضن": 9866,
      "##AM": 9867,
      "##خا": 9868,
      "نزل": 9872,
      "59": 9877,
      "صرح": 9883,
      "##زز": 9899,
      "ملخ": 9900,
      "##ابط": 9909,
      "روم": 9914,
      "وتك": 9916,
      "ماك": 9918,
      "##رط": 9926,
      "##ينو": 9929,
      "تضع": 9931,
      "غضب": 9932,
      "##صيب": 9937,
      "##دوز": 9938,
      "##ذان": 9942,
      "##ies": 9946,
      "حري": 9952,
      "##لاس": 9953,
      "عدا": 9955,
      "نفذ": 9957,
      "##بتك": 9961,
      "قوى": 9962,
      "سطح": 9963,
      "##out": 9967,
      "##ؤها": 9969,
      "ويق": 9976,
      "##حان": 9979,
      "##حار": 9983,
      "##رجل": 9984,
      "##برع": 9986,
      "##تيم": 9987,
      "##نهي": 9992,
      "إث": 9993,
      "www": 10003,
      "جوز": 10011,
      "لاس": 10013,
      "##بطة": 10015,
      "52": 10016,
      "تحم": 10019,
      "تيم": 10023,
      "باد": 10024,
      "لتع": 10030,
      "اوج": 10042,
      "وبن": 10045,
      "لث": 10046,
      "خام": 10048,
      "ليع": 10049,
      "##ينغ": 10052,
      "بيك": 10054,
      "شرب": 10055,
      "ويه": 10058,
      "لتأ": 10062,
      "##بض": 10066,
      "أون": 10068,
      "وبت": 10072,
      "لآ": 10073,
      "يرض": 10075,
      "##مح": 10079,
      "سبا": 10089,
      "اشد": 10091,
      "غر": 10093,
      "##ابق": 10100,
      "##وزع": 10102,
      "##لاغ": 10103,
      "شان": 10106,
      "ثلث": 10119,
      "مند": 10121,
      "##لفه": 10122,
      "متى": 10123,
      "ساع": 10124,
      "جرى": 10128,
      "999": 10130,
      "##شكل": 10135,
      "##بلغ": 10136,
      "st": 10140,
      "يحم": 10142,
      "جل": 10144,
      "بمث": 10145,
      "##متك": 10146,
      "منص": 10156,
      "كأن": 10157,
      "عاب": 10158,
      "##هار": 10160,
      "##AS": 10171,
      "##بعث": 10173,
      "اور": 10174,
      "##are": 10179,
      "إما": 10182,
      "فضي": 10185,
      "تجي": 10186,
      "##فاه": 10191,
      "250": 10192,
      "##رفت": 10194,
      "بتص": 10196,
      "حرة": 10198,
      "ولس": 10200,
      "شب": 10203,
      "يقل": 10205,
      "قن": 10208,
      "ليك": 10209,
      "41": 10212,
      "##ثيق": 10217,
      "كوا": 10219,
      "to": 10220,
      "رده": 10226,
      "##لفظ": 10230,
      "##شية": 10239,
      "##ith": 10242,
      "##وضه": 10243,
      "##ube": 10248,
      "ايد": 10258,
      "هيا": 10259,
      "بقا": 10262,
      "كات": 10265,
      "##وفت": 10266,
      "وهى": 10269,
      "##راط": 10271,
      "##ستي": 10278,
      "##23": 10280,
      "##يفك": 10287,
      "طبع": 10292,
      "##ناز": 10296,
      "اى": 10300,
      "##ظمه": 10314,
      "56": 10319,
      "رصد": 10323,
      "سد": 10325,
      "##نجر": 10333,
      "متك": 10342,
      "خطط": 10346,
      "٢٠": 10358,
      "ضخ": 10360,
      "pm": 10361,
      "400": 10365,
      "##الأ": 10366,
      "##أى": 10368,
      "##سير": 10373,
      "##ran": 10387,
      "آمن": 10388,
      "لل": 10391,
      "##عاة": 10392,
      "##عوة": 10394,
      "##بوت": 10395,
      "##مكن": 10398,
      "##if": 10399,
      "نقد": 10400,
      "##ددت": 10401,
      "آب": 10405,
      "سند": 10409,
      "طري": 10411,
      "نيج": 10413,
      "مرش": 10415,
      "لإن": 10418,
      "لمص": 10419,
      "سلو": 10420,
      "##ss": 10424,
      "54": 10427,
      "##لفي": 10433,
      "جاب": 10434,
      "وشع": 10439,
      "##اوى": 10447,
      "رمي": 10448,
      "درد": 10450,
      "قمت": 10457,
      "وسن": 10458,
      "خاف": 10460,
      "بعث": 10463,
      "##ST": 10467,
      "##صين": 10470,
      "am": 10474,
      "Ph": 10475,
      "صيد": 10476,
      "جنس": 10480,
      "##اخر": 10486,
      "##طنا": 10491,
      "سع": 10497,
      "حاف": 10504,
      "##جاد": 10513,
      "##بق": 10522,
      "##يجي": 10530,
      "##يئة": 10532,
      "85": 10534,
      "ولب": 10538,
      "##78": 10539,
      "عسل": 10540,
      "باف": 10541,
      "خان": 10546,
      "##فاد": 10547,
      "##شهد": 10554,
      "##05": 10555,
      "غلا": 10560,
      "ستت": 10561,
      "أذ": 10563,
      "بتو": 10566,
      "##ak": 10569,
      "تون": 10570,
      "##غبة": 10572,
      "##art": 10574,
      "جيل": 10575,
      "خلك": 10583,
      "##ial": 10588,
      "##our": 10590,
      "##AN": 10594,
      "وقل": 10596,
      "##لقب": 10597,
      "سنا": 10600,
      "خلو": 10601,
      "##فتح": 10602,
      "##ليج": 10604,
      "ثقة": 10605,
      "أض": 10606,
      "متأ": 10607,
      "ياص": 10612,
      "##ئها": 10614,
      "حلف": 10621,
      "##خاء": 10622,
      "##سلم": 10634,
      "باج": 10639,
      "##nl": 10642,
      "ديس": 10644,
      "##ئاب": 10647,
      "¤ô": 10653,
      "نسخ": 10662,
      "تعم": 10663,
      "سجن": 10665,
      "مضي": 10666,
      "ننت": 10669,
      "كذ": 10676,
      "ويخ": 10678,
      "##طوط": 10679,
      "فئة": 10685,
      "##مور": 10687,
      "ايش": 10688,
      "ظه": 10690,
      "51": 10693,
      "##أمل": 10700,
      "##قذ": 10704,
      "هول": 10705,
      "##OP": 10707,
      "أعم": 10742,
      "بيب": 10746,
      "##بون": 10749,
      "99": 10751,
      "##وكس": 10755,
      "رجع": 10763,
      "اعم": 10768,
      "##قان": 10769,
      "خلص": 10770,
      "اغت": 10772,
      "##ews": 10773,
      "ثق": 10774,
      "##شم": 10779,
      "صبح": 10792,
      "جال": 10804,
      "سهم": 10813,
      "##ياح": 10814,
      "##فله": 10816,
      "##غه": 10838,
      "##ex": 10854,
      "##75": 10857,
      "حقه": 10858,
      "##وقي": 10859,
      "روت": 10861,
      "إثر": 10863,
      "##غاف": 10866,
      "بكت": 10870,
      "53": 10871,
      "##يرن": 10872,
      "جاي": 10873,
      "##صلا": 10874,
      "##صرت": 10876,
      "انع": 10877,
      "Sp": 10880,
      "##هية": 10883,
      "ويك": 10891,
      "داف": 10893,
      "صحه": 10898,
      "غيب": 10901,
      "##ang": 10902,
      "أمل": 10904,
      "##ئن": 10908,
      "سيم": 10914,
      "خطأ": 10919,
      "##حيي": 10929,
      "أنس": 10937,
      "برق": 10939,
      "##صت": 10942,
      "سلا": 10947,
      "##حون": 10949,
      "Bl": 10952,
      "##ئله": 10953,
      "##كسل": 10956,
      "صم": 10957,
      "شئت": 10959,
      "##ظى": 10960,
      "ثقي": 10961,
      "وري": 10973,
      "Ch": 10982,
      "##عدا": 10987,
      "##درة": 10993,
      "سبي": 10998,
      "##فك": 11001,
      "##زنة": 11003,
      "##لجي": 11008,
      "##دات": 11009,
      "Sh": 11012,
      "ارج": 11015,
      "##وفى": 11016,
      "##all": 11018,
      "عقل": 11022,
      "أبر": 11024,
      "##26": 11025,
      "##الص": 11029,
      "قصد": 11038,
      "##جون": 11048,
      "علق": 11051,
      "اذن": 11054,
      "##علي": 11056,
      "##لوث": 11057,
      "##ئمة": 11060,
      "ساخ": 11067,
      "خاض": 11068,
      "##ميك": 11074,
      "##لحق": 11075,
      "كسب": 11080,
      "متط": 11082,
      "##جنب": 11084,
      "دوا": 11085,
      "يسي": 11089,
      "سار": 11091,
      "##زقه": 11092,
      "##79": 11094,
      "شير": 11095,
      "##عدت": 11097,
      "عبس": 11099,
      "مذه": 11103,
      "##حنا": 11116,
      "##شاط": 11117,
      "##بهه": 11119,
      "زان": 11121,
      "عه": 11125,
      "واث": 11132,
      "وحي": 11145,
      "جحف": 11150,
      "وأد": 11156,
      "##ارو": 11158,
      "##ate": 11162,
      "##ip": 11164,
      "ووف": 11170,
      "خصم": 11176,
      "##قده": 11179,
      "باه": 11180,
      "شقة": 11187,
      "فير": 11188,
      "##داة": 11198,
      "##ربا": 11200,
      "قمر": 11203,
      "وحم": 11206,
      "دمع": 11211,
      "##ht": 11213,
      "##age": 11218,
      "شد": 11221,
      "وظ": 11222,
      "##شيه": 11226,
      "##يقظ": 11227,
      "ô¤": 11228,
      "##سها": 11231,
      "طعم": 11235,
      "##قود": 11239,
      "تسم": 11243,
      "تصف": 11245,
      "##ok": 11246,
      "جاد": 11247,
      "##اير": 11249,
      "فيس": 11256,
      "زه": 11266,
      "ex": 11281,
      "##شير": 11282,
      "##جيه": 11286,
      "##لطه": 11288,
      "اصل": 11293,
      "##شب": 11294,
      "يحق": 11299,
      "شغل": 11302,
      "##داك": 11306,
      "##يقة": 11309,
      "##بدل": 11310,
      "وبس": 11315,
      "##فان": 11317,
      "##ياض": 11325,
      "##ائص": 11328,
      "يذ": 11337,
      "##يفو": 11338,
      "حظر": 11339,
      "سمي": 11345,
      "ونص": 11350,
      "ربط": 11353,
      "##قله": 11354,
      "وته": 11355,
      "##ax": 11359,
      "##ضت": 11393,
      "##and": 11399,
      "Pl": 11400,
      "ولج": 11403,
      "موز": 11405,
      "##رن": 11407,
      "ابا": 11408,
      "##IN": 11409,
      "اتح": 11415,
      "لير": 11416,
      "##ry": 11418,
      "كلب": 11421,
      "بقد": 11422,
      "حجز": 11439,
      "##طرا": 11446,
      "##انز": 11450,
      "##دع": 11451,
      "##ماق": 11456,
      "عتق": 11460,
      "كه": 11462,
      "##وطه": 11466,
      "دب": 11471,
      "رحي": 11478,
      "سخ": 11488,
      "##صن": 11494,
      "##ثى": 11498,
      "دو": 11500,
      "لنت": 11501,
      "ناب": 11502,
      "فلك": 11505,
      "لسه": 11507,
      "##حول": 11512,
      "نام": 11514,
      "ad": 11515,
      "ودك": 11516,
      "فز": 11519,
      "##وقة": 11521,
      "##ناع": 11522,
      "لفظ": 11523,
      "جدد": 11524,
      "##71": 11525,
      "كش": 11527,
      "##اجم": 11530,
      "##ديف": 11531,
      "كفي": 11537,
      "##اقم": 11543,
      "لحل": 11544,
      "##فرة": 11555,
      "##pt": 11574,
      "##وسى": 11585,
      "ملع": 11594,
      "اتي": 11600,
      "أرس": 11602,
      "##61": 11606,
      "##ائز": 11615,
      "برف": 11616,
      "##يبي": 11619,
      "ياا": 11627,
      "ايا": 11628,
      "##ph": 11634,
      "##شعر": 11635,
      "##ard": 11636,
      "##طرت": 11637,
      "##فعت": 11642,
      "##tor": 11644,
      "84": 11649,
      "##منا": 11650,
      "##لوج": 11651,
      "##زلت": 11656,
      "وكت": 11667,
      "##بز": 11668,
      "طبخ": 11670,
      "##عبه": 11674,
      "قله": 11676,
      "##لمك": 11685,
      "##غيث": 11689,
      "##ديس": 11697,
      "صال": 11705,
      "##OS": 11709,
      "##روز": 11710,
      "##رمى": 11719,
      "واز": 11720,
      "##قرب": 11725,
      "##اشي": 11739,
      "##of": 11750,
      "تبا": 11758,
      "##دود": 11762,
      "كبر": 11770,
      "شق": 11773,
      "لذه": 11776,
      "##اءة": 11780,
      "عطا": 11783,
      "##وكل": 11791,
      "##63": 11792,
      "فقر": 11794,
      "زرا": 11800,
      "##ED": 11806,
      "##غن": 11808,
      "##عال": 11812,
      "ويل": 11819,
      "بره": 11824,
      "##صيد": 11826,
      "هني": 11827,
      "مون": 11836,
      "سيس": 11841,
      "مرج": 11843,
      "جرت": 11845,
      "مشغ": 11846,
      "حاز": 11849,
      "غام": 11853,
      "نائ": 11856,
      "##ie": 11859,
      "لاد": 11862,
      "##وحه": 11863,
      "ديب": 11866,
      "كذب": 11869,
      "زب": 11871,
      "محر": 11879,
      "وأب": 11882,
      "بطن": 11885,
      "CN": 11887,
      "##94": 11888,
      "##ايه": 11890,
      "نحت": 11891,
      "ديف": 11896,
      "خض": 11897,
      "فحص": 11901,
      "##ديب": 11903,
      "##ران": 11918,
      "بآ": 11924,
      "##بس": 11925,
      "##ستغ": 11928,
      "##تيك": 11933,
      "بخط": 11936,
      "انو": 11946,
      "غم": 11953,
      "لتر": 11956,
      "##امع": 11968,
      "##وطة": 11971,
      "حدا": 11977,
      "##ضاة": 11979,
      "سئل": 11980,
      "لرب": 11983,
      "##ver": 11987,
      "كرا": 11988,
      "##مائ": 11991,
      "##شيء": 11992,
      "##نو": 11993,
      "##طت": 12005,
      "جوي": 12014,
      "شاح": 12016,
      "##OR": 12017,
      "إذن": 12019,
      "##عدك": 12029,
      "##شيط": 12034,
      "##TM": 12035,
      "متف": 12044,
      "##ونى": 12046,
      "يوف": 12048,
      "##عاف": 12057,
      "مذ": 12067,
      "وصح": 12076,
      "##ظره": 12077,
      "##اين": 12081,
      "جير": 12082,
      "##شون": 12083,
      "##ond": 12094,
      "بيض": 12096,
      "##فيظ": 12099,
      "##جعل": 12101,
      "##ازه": 12108,
      "##وسم": 12114,
      "لتت": 12116,
      "خفض": 12120,
      "قلق": 12122,
      "##صلت": 12125,
      "##درا": 12127,
      "بتف": 12133,
      "متس": 12134,
      "مفض": 12140,
      "##اعل": 12141,
      "نر": 12147,
      "##صاف": 12149,
      "قاط": 12150,
      "##بني": 12157,
      "##صفه": 12165,
      "تمه": 12166,
      "تقر": 12167,
      "##ماه": 12170,
      "##عبة": 12171,
      "بطر": 12177,
      "##هوة": 12178,
      "بتق": 12185,
      "##صام": 12191,
      "شين": 12196,
      "شيع": 12202,
      "##فعه": 12207,
      "##طبق": 12213,
      "##حبك": 12224,
      "##اكد": 12227,
      "##وضي": 12228,
      "عكا": 12233,
      "رجب": 12247,
      "فط": 12252,
      "سمه": 12253,
      "واط": 12254,
      "حرص": 12256,
      "يضر": 12258,
      "##ملة": 12259,
      "##يض": 12264,
      "##اها": 12265,
      "اهد": 12270,
      "لاه": 12272,
      "##قض": 12273,
      "جين": 12278,
      "تلف": 12282,
      "بغي": 12286,
      "بيه": 12301,
      "##فيك": 12305,
      "وأح": 12309,
      "سخر": 12312,
      "عدو": 12317,
      "##هرج": 12319,
      "##برك": 12320,
      "##ive": 12324,
      "##هلة": 12325,
      "وند": 12334,
      "600": 12335,
      "ثان": 12336,
      "مسم": 12337,
      "أرج": 12341,
      "حني": 12342,
      "كير": 12345,
      "طاع": 12354,
      "اا": 12355,
      "مرب": 12356,
      "ايس": 12368,
      "##دعي": 12369,
      "سو": 12374,
      "##ld": 12376,
      "ياخ": 12382,
      "تهن": 12385,
      "##وضى": 12386,
      "##اهة": 12388,
      "ونه": 12390,
      "باص": 12391,
      "##روك": 12396,
      "اكل": 12398,
      "زار": 12404,
      "##سيب": 12406,
      "جار": 12409,
      "بدم": 12420,
      "أجر": 12428,
      "سوم": 12436,
      "يحل": 12438,
      "##ئيل": 12441,
      "##pp": 12445,
      "غاز": 12446,
      "عظم": 12448,
      "شنو": 12451,
      "٢٠١": 12452,
      "##قك": 12453,
      "اير": 12465,
      "##قسم": 12468,
      "يصح": 12481,
      "##ge": 12483,
      "سلة": 12484,
      "##دن": 12487,
      "تدا": 12489,
      "##وون": 12492,
      "جها": 12495,
      "Pro": 12501,
      "راد": 12503,
      "نفت": 12505,
      "مفر": 12506,
      "وبأ": 12509,
      "##ذور": 12511,
      "##ows": 12515,
      "نون": 12519,
      "##كرت": 12525,
      "جرب": 12530,
      "ثقه": 12532,
      "##ذنب": 12534,
      "##نفس": 12536,
      "رحل": 12539,
      "##ااا": 12541,
      "يعم": 12553,
      "##ماش": 12556,
      "تلم": 12557,
      "سكا": 12564,
      "ثمة": 12575,
      "##حيم": 12577,
      "##غلب": 12587,
      "##صرح": 12590,
      "##فوا": 12591,
      "##AD": 12596,
      "##89": 12608,
      "هيك": 12628,
      "##داي": 12630,
      "##ماج": 12631,
      "##انم": 12636,
      "ببط": 12640,
      "وهب": 12644,
      "##ass": 12646,
      "##قطة": 12659,
      "متت": 12662,
      "ومي": 12665,
      "تفر": 12667,
      "##غاث": 12672,
      "##نود": 12673,
      "وسا": 12686,
      "يفس": 12687,
      "تفس": 12689,
      "جسر": 12690,
      "##ستا": 12697,
      "قا": 12698,
      "##ذاء": 12702,
      "توت": 12706,
      "شلن": 12711,
      "##قدة": 12712,
      "Ad": 12718,
      "معن": 12723,
      "يلد": 12725,
      "AL": 12732,
      "##يال": 12736,
      "وعز": 12737,
      "ومك": 12742,
      "ولح": 12751,
      "##كنة": 12753,
      "روب": 12754,
      "##قرة": 12755,
      "طع": 12758,
      "ودع": 12760,
      "واك": 12762,
      "And": 12765,
      "##فري": 12768,
      "بحد": 12769,
      "ماه": 12776,
      "##اقب": 12778,
      "##72": 12780,
      "054": 12789,
      "كدا": 12798,
      "##امح": 12799,
      "##ونغ": 12803,
      "مشد": 12814,
      "##تهد": 12815,
      "فلل": 12816,
      "نير": 12819,
      "##بلج": 12822,
      "##شرف": 12823,
      "##رود": 12827,
      "##يجا": 12828,
      "موك": 12829,
      "##ذى": 12836,
      "##ثف": 12842,
      "##انق": 12844,
      "ونظ": 12845,
      "##ian": 12848,
      "لتم": 12856,
      "##مص": 12863,
      "سلب": 12864,
      "##عدي": 12865,
      "لتق": 12866,
      "كنز": 12873,
      "##يتي": 12876,
      "##aw": 12878,
      "شعو": 12889,
      "An": 12899,
      "وحش": 12900,
      "وفع": 12901,
      "صدا": 12909,
      "##تس": 12917,
      "##ونج": 12921,
      "##وأ": 12923,
      "120": 12931,
      "iP": 12935,
      "##وود": 12936,
      "##iz": 12938,
      "كرد": 12940,
      "##سست": 12946,
      "بعي": 12952,
      "نرى": 12956,
      "ايم": 12962,
      "وقر": 12964,
      "##زح": 12966,
      "منف": 12973,
      "باز": 12974,
      "لبس": 12976,
      "##شأ": 12977,
      "كاز": 12980,
      "##ile": 12982,
      "موه": 12985,
      "##اوف": 12995,
      "##مدة": 12998,
      "نوا": 13003,
      "أمه": 13005,
      "ياق": 13011,
      "يصف": 13012,
      "##صرخ": 13017,
      "##LC": 13025,
      "##ide": 13026,
      "##فط": 13028,
      "فكن": 13030,
      "64": 13031,
      "88": 13033,
      "##EN": 13035,
      "ردد": 13037,
      "باح": 13044,
      "صام": 13048,
      "##رفي": 13051,
      "##مرت": 13052,
      "##حصل": 13055,
      "مخط": 13060,
      "##غيب": 13062,
      "انط": 13066,
      "فاص": 13068,
      "##طاف": 13073,
      "فأن": 13078,
      "##بغ": 13081,
      "##فرت": 13090,
      "سط": 13095,
      "ملم": 13096,
      "لطف": 13098,
      "##غرق": 13105,
      "fem": 13119,
      "وعق": 13128,
      "##قوه": 13137,
      "##بث": 13143,
      "##ES": 13148,
      "نعت": 13149,
      "بإن": 13153,
      "يسم": 13155,
      "##شو": 13158,
      "##ياق": 13162,
      "##دال": 13164,
      "إض": 13168,
      "منط": 13176,
      "قار": 13178,
      "تسع": 13179,
      "##فيض": 13183,
      "تهي": 13184,
      "خار": 13193,
      "جيم": 13205,
      "حاض": 13208,
      "ضاق": 13209,
      "Le": 13214,
      "ماس": 13216,
      "ياه": 13217,
      "وإس": 13221,
      "مده": 13223,
      "لمؤ": 13224,
      "##اكم": 13229,
      "هدي": 13240,
      "عاز": 13242,
      "ميس": 13252,
      "##ثله": 13257,
      "بتم": 13258,
      "ورف": 13262,
      "رمض": 13264,
      "حان": 13269,
      "سائ": 13271,
      "منو": 13274,
      "##خلت": 13277,
      "##حيه": 13280,
      "حيل": 13285,
      "قتي": 13286,
      "سق": 13291,
      "##صى": 13292,
      "de": 13308,
      "عرو": 13317,
      "مسج": 13326,
      "مصن": 13328,
      "PK": 13334,
      "##جام": 13336,
      "قرأ": 13337,
      "##دح": 13347,
      "##ثرت": 13351,
      "##end": 13352,
      "وخط": 13361,
      "##ترط": 13362,
      "لطب": 13367,
      "##زيل": 13368,
      "زام": 13381,
      "طاب": 13382,
      "انح": 13386,
      "##ash": 13395,
      "##تهر": 13409,
      "##YD": 13415,
      "##اضل": 13419,
      "##ime": 13421,
      "عذب": 13424,
      "مقص": 13425,
      "##فيع": 13431,
      "تسب": 13440,
      "شرم": 13443,
      "وكر": 13452,
      "حوا": 13453,
      "للآ": 13456,
      "##ضحك": 13458,
      "##RO": 13463,
      "##ويك": 13466,
      "##up": 13467,
      "إمت": 13470,
      "##طيك": 13477,
      "##عوث": 13478,
      "Pr": 13482,
      "تلو": 13483,
      "##الز": 13494,
      "يسب": 13495,
      "##يكو": 13510,
      "بائ": 13512,
      "هير": 13519,
      "##HD": 13527,
      "احا": 13528,
      "##برد": 13532,
      "##سرع": 13538,
      "معص": 13542,
      "لتخ": 13549,
      "خرو": 13552,
      "De": 13553,
      "##oad": 13554,
      "دلع": 13557,
      "سبل": 13562,
      "##سح": 13563,
      "ونح": 13574,
      "##بقى": 13582,
      "##ity": 13587,
      "##الن": 13592,
      "ستر": 13595,
      "وقص": 13596,
      "ودم": 13599,
      "##غرة": 13604,
      "##ضيه": 13605,
      "لتج": 13615,
      "##وجي": 13620,
      "لاز": 13624,
      "صفة": 13630,
      "اسي": 13631,
      "95": 13635,
      "##باي": 13649,
      "اوت": 13650,
      "حكي": 13654,
      "اشف": 13661,
      "##ادا": 13673,
      "##وسة": 13680,
      "مسح": 13682,
      "##لطف": 13692,
      "ادع": 13695,
      "عذر": 13710,
      "مزي": 13714,
      "أشد": 13720,
      "ترض": 13724,
      "غسل": 13726,
      "##iy": 13731,
      "ويؤ": 13750,
      "##اتا": 13752,
      "صدم": 13753,
      "وفت": 13754,
      "شيئ": 13756,
      "معم": 13770,
      "##صله": 13773,
      "##ركت": 13782,
      "##ايب": 13785,
      "ومه": 13786,
      "##85": 13787,
      "##زاق": 13790,
      "مهد": 13796,
      "بتج": 13807,
      "##جيج": 13811,
      "فول": 13813,
      "##ؤول": 13820,
      "160": 13830,
      "شده": 13831,
      "بتت": 13832,
      "ارح": 13836,
      "فاد": 13837,
      "بوف": 13841,
      "ريح": 13842,
      "ترق": 13847,
      "اجد": 13849,
      "##وتش": 13857,
      "وعي": 13869,
      "##SD": 13871,
      "جمه": 13872,
      "##uc": 13873,
      "##فاك": 13877,
      "عجل": 13884,
      "##وجة": 13889,
      "##ذيه": 13894,
      "ياد": 13899,
      "##منه": 13900,
      "##جهز": 13901,
      "صوم": 13904,
      "حذر": 13913,
      "ملء": 13922,
      "doc": 13927,
      "وسر": 13929,
      "لاف": 13936,
      "ممر": 13937,
      "بلس": 13940,
      "##لعه": 13943,
      "اصط": 13948,
      "رحب": 13951,
      "##ite": 13953,
      "be": 13954,
      "بلح": 13958,
      "ومخ": 13959,
      "ينص": 13960,
      "يتأ": 13965,
      "بتش": 13969,
      "##مث": 13974,
      "Ar": 13985,
      "ربح": 13986,
      "##46": 13994,
      "##عمر": 14000,
      "اخط": 14009,
      "اسر": 14020,
      "##لجأ": 14023,
      "##جيد": 14026,
      "##برم": 14031,
      "أسر": 14033,
      "رقص": 14035,
      "##مش": 14036,
      "pl": 14037,
      "##وعد": 14041,
      "أغس": 14042,
      "800": 14047,
      "قاس": 14051,
      "##زات": 14061,
      "##خلف": 14068,
      "ul": 14069,
      "نجح": 14070,
      "ياف": 14071,
      "##نن": 14073,
      "##شال": 14074,
      "إند": 14075,
      "شرع": 14077,
      "##ينت": 14086,
      "##man": 14090,
      "ايق": 14091,
      "##لود": 14093,
      "##ome": 14098,
      "همي": 14099,
      "̈°": 14104,
      "أعد": 14105,
      "##بعه": 14116,
      "تحط": 14117,
      "تدل": 14119,
      "##سنه": 14124,
      "ورؤ": 14130,
      "##بري": 14135,
      "برك": 14136,
      "شمو": 14142,
      "##ous": 14146,
      "##شري": 14151,
      "##جهل": 14165,
      "وني": 14167,
      "68": 14175,
      "##ill": 14197,
      "عده": 14201,
      "##MD": 14203,
      "تقي": 14210,
      "##تز": 14224,
      "طقم": 14225,
      "##ويع": 14229,
      "برض": 14234,
      "ورم": 14246,
      "72": 14252,
      "##oft": 14253,
      "لغه": 14255,
      "عرق": 14258,
      "سح": 14259,
      "##بدء": 14265,
      "عر": 14268,
      "##رخ": 14280,
      "سؤ": 14284,
      "##انغ": 14286,
      "اعز": 14287,
      "ناز": 14291,
      "قف": 14292,
      "##أه": 14294,
      "##اور": 14299,
      "##ساة": 14306,
      "قات": 14307,
      "ورض": 14316,
      "قلم": 14317,
      "##بغي": 14318,
      "حقك": 14321,
      "تنه": 14326,
      "إط": 14340,
      "ماا": 14363,
      "##نيد": 14368,
      "رات": 14369,
      "عمق": 14380,
      "ساد": 14381,
      "مكس": 14387,
      "تتج": 14389,
      "##جبت": 14390,
      "##للم": 14391,
      "053": 14392,
      "##فتر": 14395,
      "ستح": 14399,
      "مطب": 14400,
      "حرق": 14402,
      "يحس": 14403,
      "##ميص": 14404,
      "وبط": 14413,
      "##على": 14415,
      "مود": 14426,
      "67": 14427,
      "##هى": 14431,
      "تحد": 14445,
      "##اطب": 14451,
      "##اسب": 14453,
      "رع": 14455,
      "86": 14456,
      "##سيع": 14460,
      "##van": 14461,
      "##لعت": 14463,
      "كاش": 14472,
      "ويص": 14474,
      "أخي": 14483,
      "مبس": 14485,
      "كلف": 14491,
      "##دوا": 14492,
      "بسب": 14494,
      "##وقه": 14498,
      "##عبد": 14503,
      "##MT": 14505,
      "بوج": 14507,
      "##96": 14517,
      "##ختم": 14520,
      "##OX": 14522,
      "بقر": 14526,
      "زبد": 14529,
      "##اعب": 14531,
      "##ثث": 14536,
      "يرك": 14537,
      "an": 14539,
      "آلة": 14542,
      "أوغ": 14545,
      "##اهه": 14546,
      "فلس": 14548,
      "Com": 14550,
      "تشك": 14552,
      "مام": 14556,
      "كيد": 14559,
      "فرس": 14560,
      "##ium": 14561,
      "سقف": 14562,
      "##ien": 14566,
      "بيل": 14576,
      "مؤس": 14580,
      "##عاش": 14587,
      "اية": 14604,
      "##SL": 14609,
      "كو": 14611,
      "##RE": 14618,
      "##يتا": 14622,
      "بتأ": 14624,
      "##مك": 14628,
      "ناص": 14634,
      "سني": 14635,
      "صلة": 14638,
      "إلخ": 14646,
      "##ove": 14647,
      "مقه": 14650,
      "جوه": 14652,
      "##صيح": 14653,
      "يدك": 14654,
      "##حى": 14656,
      "وهن": 14660,
      "آي": 14667,
      "صاب": 14673,
      "##كى": 14675,
      "حصة": 14677,
      "وأت": 14681,
      "أدت": 14684,
      "محس": 14687,
      "لال": 14694,
      "##عبي": 14701,
      "##دها": 14702,
      "كرو": 14703,
      "حش": 14706,
      "##ey": 14716,
      "قيس": 14729,
      "وقي": 14732,
      "##جى": 14741,
      "دوم": 14748,
      "##جها": 14754,
      "يبد": 14762,
      "عدي": 14764,
      "##مثل": 14766,
      "بئر": 14769,
      "##غف": 14775,
      "##100": 14780,
      "prk": 14782,
      "فله": 14783,
      "دمت": 14786,
      "##كاك": 14788,
      "##عقد": 14789,
      "##لوف": 14793,
      "لور": 14795,
      "##pen": 14806,
      "##ثاق": 14809,
      "طيز": 14816,
      "صقر": 14817,
      "تضر": 14821,
      "ذبح": 14832,
      "##وعب": 14839,
      "ميل": 14843,
      "##هاا": 14844,
      "##طنة": 14848,
      "حمص": 14857,
      "يول": 14858,
      "بفر": 14867,
      "مضى": 14876,
      "##ئيه": 14878,
      "لوا": 14879,
      "سبأ": 14881,
      "You": 14892,
      "يث": 14896,
      "حظي": 14900,
      "##جبك": 14901,
      "ايف": 14905,
      "##اشه": 14909,
      "كح": 14911,
      "مكر": 14912,
      "##TV": 14913,
      "كرك": 14919,
      "كفو": 14924,
      "شح": 14925,
      "##زار": 14930,
      "لار": 14937,
      "يرب": 14950,
      "##رمه": 14951,
      "##بيك": 14958,
      "مسك": 14959,
      "##df": 14960,
      "بتك": 14961,
      "##خخ": 14965,
      "##055": 14967,
      "بوص": 14968,
      "##فقد": 14971,
      "حار": 14973,
      "أعط": 14980,
      "أسس": 14988,
      "طبق": 14994,
      "##زيغ": 14995,
      "إنك": 15023,
      "##بطي": 15035,
      "عات": 15041,
      "##ach": 15062,
      "كود": 15070,
      "##غوا": 15072,
      "وحق": 15077,
      "وجب": 15087,
      "##دور": 15090,
      "##888": 15097,
      "##يرت": 15099,
      "##ong": 15106,
      "##ايخ": 15113,
      "ربا": 15114,
      "##wit": 15124,
      "وزن": 15125,
      "ترش": 15129,
      "Cl": 15130,
      "بلب": 15136,
      "##IG": 15142,
      "##طلح": 15143,
      "بجن": 15147,
      "66": 15148,
      "جور": 15162,
      "##تهن": 15170,
      "اصد": 15187,
      "حدد": 15194,
      "بتر": 15197,
      "صيا": 15198,
      "##غات": 15203,
      "##رتب": 15204,
      "يظل": 15209,
      "69": 15212,
      "نمت": 15215,
      "كيك": 15219,
      "##فقه": 15223,
      "##دره": 15224,
      "##هنة": 15225,
      "##av": 15229,
      "لفر": 15231,
      "أقر": 15232,
      "بصد": 15237,
      "62": 15238,
      "بغض": 15244,
      "بوم": 15249,
      "كرر": 15255,
      "راك": 15256,
      "##ييد": 15258,
      "##وفك": 15259,
      "فبر": 15264,
      "قذ": 15265,
      "##ماح": 15266,
      "83": 15267,
      "تأش": 15270,
      "##زلة": 15271,
      "ساق": 15279,
      "##بطل": 15284,
      "توي": 15298,
      "##اصد": 15306,
      "لاش": 15313,
      "##عش": 15314,
      "ثوب": 15315,
      "##ib": 15324,
      "ووص": 15325,
      "قوت": 15332,
      "ديز": 15337,
      "حجة": 15346,
      "عبي": 15349,
      "بصي": 15350,
      "or": 15351,
      "فاق": 15352,
      "وحض": 15353,
      "وفض": 15356,
      "سهر": 15363,
      "##اسر": 15375,
      "يتع": 15377,
      "##ata": 15387,
      "##انو": 15392,
      "##DR": 15394,
      "خضر": 15402,
      "تلب": 15404,
      "##قصي": 15415,
      "##42": 15417,
      "منى": 15421,
      "توف": 15422,
      "لحن": 15428,
      "خاد": 15435,
      "##ؤنا": 15438,
      "مشا": 15442,
      "##أخذ": 15443,
      "حضن": 15444,
      "##خام": 15445,
      "63": 15448,
      "by": 15455,
      "##يتس": 15458,
      "خطي": 15463,
      "##41": 15467,
      "تاخ": 15468,
      "عمه": 15470,
      "89": 15471,
      "##الش": 15472,
      "عاط": 15476,
      "##ts": 15480,
      "##اعا": 15489,
      "طهر": 15492,
      "##زول": 15496,
      "##ئتم": 15504,
      "##نوا": 15505,
      "اسط": 15508,
      "دلي": 15513,
      "##تيت": 15520,
      "لوك": 15524,
      "صا": 15527,
      "##قيد": 15532,
      "سخط": 15533,
      "شوا": 15538,
      "حرك": 15539,
      "##۩۞۩": 15541,
      "يظن": 15544,
      "##فنا": 15549,
      "بيا": 15556,
      "لوت": 15557,
      "وطب": 15569,
      "سعي": 15570,
      "TR": 15579,
      "##ملف": 15580,
      "##ضار": 15583,
      "دري": 15584,
      "سلف": 15586,
      "تاك": 15587,
      "##els": 15588,
      "فوج": 15589,
      "sh": 15594,
      "فرب": 15596,
      "##خان": 15598,
      "سوس": 15601,
      "دعت": 15602,
      "احم": 15605,
      "لرؤ": 15607,
      "همه": 15608,
      "##مى": 15609,
      "##لغي": 15620,
      "بوع": 15625,
      "##ليح": 15626,
      "##قدس": 15627,
      "##ودك": 15628,
      "##اجل": 15630,
      "##غض": 15632,
      "وكي": 15637,
      "نهج": 15640,
      "لأب": 15641,
      "##ery": 15643,
      "##فجر": 15647,
      "رقي": 15649,
      "بنس": 15656,
      "##AC": 15658,
      "##فني": 15659,
      "##خذه": 15662,
      "##ign": 15668,
      "قلة": 15676,
      "##لئ": 15687,
      "##يدس": 15689,
      "##طير": 15691,
      "##ضحى": 15695,
      "##TL": 15701,
      "يتج": 15705,
      "ضاع": 15707,
      "98": 15715,
      "اكر": 15716,
      "##زيق": 15720,
      "##تية": 15724,
      "##افئ": 15728,
      "##بأ": 15730,
      "بود": 15731,
      "##نسى": 15732,
      "DV": 15738,
      "كسل": 15744,
      "بتخ": 15747,
      "Is": 15750,
      "أتى": 15766,
      "همك": 15769,
      "عبا": 15773,
      "##ff": 15774,
      "##راي": 15777,
      "##xx": 15786,
      "##ly": 15794,
      "إير": 15798,
      "لذي": 15808,
      "##ams": 15809,
      "LLC": 15812,
      "##طبخ": 15814,
      "get": 15821,
      "غزه": 15829,
      "أوت": 15832,
      "كلو": 15834,
      "##منع": 15835,
      "شيف": 15836,
      "و6": 15842,
      "##زوي": 15844,
      "Be": 15846,
      "Hot": 15847,
      "صوب": 15855,
      "لوح": 15865,
      "##SS": 15870,
      "أبى": 15873,
      "##رقم": 15874,
      "نات": 15876,
      "سنن": 15880,
      "##یة": 15881,
      "فست": 15884,
      "78": 15890,
      "##EL": 15891,
      "##ark": 15898,
      "أرى": 15899,
      "وور": 15901,
      "لوس": 15903,
      "سدي": 15905,
      "77": 15908,
      "##ؤدي": 15910,
      "##43": 15912,
      "##روا": 15914,
      "##راخ": 15923,
      "دى": 15930,
      "نصب": 15931,
      "دني": 15937,
      "pdf": 15938,
      "إنا": 15951,
      "##وبع": 15953,
      "71": 15962,
      "##قلا": 15969,
      "بقط": 15975,
      "عثر": 15979,
      "ومف": 15981,
      "##p3": 15986,
      "بكي": 15987,
      "##كند": 15988,
      "وإد": 15994,
      "راه": 15996,
      "يمه": 15997,
      "لأم": 16008,
      "هدم": 16014,
      "##95": 16015,
      "تتع": 16019,
      "تتأ": 16021,
      "بنى": 16031,
      "ادب": 16032,
      "حمي": 16034,
      "##صون": 16037,
      "مئة": 16045,
      "##خات": 16046,
      "بلق": 16049,
      "ودر": 16051,
      "how": 16055,
      "##وسا": 16058,
      "باق": 16060,
      "نوح": 16063,
      "##غام": 16065,
      "##وكم": 16067,
      "وده": 16068,
      "وعش": 16070,
      "سرق": 16073,
      "فدي": 16080,
      "مشر": 16081,
      "أمي": 16083,
      "فيا": 16090,
      "صيف": 16093,
      "كع": 16102,
      "##بله": 16104,
      "سيء": 16105,
      "غصب": 16106,
      "كيس": 16109,
      "تكس": 16110,
      "Ex": 16123,
      "##زله": 16126,
      "##ناي": 16127,
      "لتف": 16143,
      "##صنة": 16144,
      "##ييل": 16161,
      "##ظا": 16162,
      "سور": 16168,
      "##لعن": 16176,
      "##شتي": 16179,
      "بنص": 16180,
      "##قدت": 16188,
      "منق": 16194,
      "كين": 16198,
      "حلي": 16202,
      "قرى": 16203,
      "##ايم": 16209,
      "##طها": 16210,
      "تما": 16213,
      "##نقل": 16215,
      "##ازن": 16216,
      "بست": 16219,
      "شمر": 16223,
      "وأج": 16233,
      "ليد": 16239,
      "##ارن": 16241,
      "عاق": 16242,
      "##ire": 16247,
      "##ork": 16249,
      "أخت": 16253,
      "هاج": 16261,
      "كمن": 16262,
      "أمة": 16268,
      "##احه": 16273,
      "ينه": 16274,
      "##فاح": 16278,
      "can": 16287,
      "##جبه": 16288,
      "##afe": 16289,
      "##وخة": 16290,
      "إيه": 16291,
      "بأم": 16301,
      "مرد": 16302,
      "إخت": 16310,
      "##ost": 16314,
      "لاغ": 16321,
      "بزي": 16328,
      "##ast": 16329,
      "##ons": 16334,
      "81": 16338,
      "اود": 16342,
      "غيم": 16343,
      "طاح": 16345,
      "كوي": 16346,
      "دست": 16350,
      "Ac": 16354,
      "يفر": 16355,
      "140": 16368,
      "طقس": 16369,
      "موف": 16378,
      "##هله": 16379,
      "##يزه": 16380,
      "##درك": 16391,
      "حسم": 16397,
      "##زف": 16398,
      "مزا": 16399,
      "بيم": 16403,
      "وسع": 16405,
      "خطف": 16419,
      "دل": 16421,
      "##نعه": 16423,
      "فلت": 16440,
      "##صنع": 16441,
      "أحر": 16442,
      "اقر": 16445,
      "##ky": 16448,
      "##ئم": 16451,
      "##sp": 16460,
      "حاب": 16469,
      "عدل": 16471,
      "جزا": 16472,
      "##HP": 16483,
      "وتز": 16493,
      "وحل": 16495,
      "حدة": 16496,
      "##طاق": 16498,
      "ونش": 16511,
      "##for": 16513,
      "##توث": 16526,
      "ودا": 16527,
      "##لاش": 16534,
      "يفض": 16535,
      "بإس": 16539,
      "عمن": 16540,
      "##ain": 16544,
      "##999": 16555,
      "##طفي": 16557,
      "سدد": 16559,
      "توج": 16568,
      "##ياف": 16570,
      "ch": 16572,
      "##جور": 16573,
      "##صيه": 16580,
      "تدر": 16581,
      "##عكس": 16587,
      "##ne": 16590,
      "ولغ": 16601,
      "##وثي": 16603,
      "أجد": 16608,
      "SP": 16609,
      "##anc": 16612,
      "##لند": 16613,
      "##شش": 16614,
      "##آء": 16616,
      "##780": 16624,
      "laz": 16626,
      "وعب": 16635,
      "##سكي": 16638,
      "اتس": 16640,
      "MP": 16641,
      "صاف": 16642,
      "عري": 16645,
      "##عمد": 16653,
      "كوت": 16659,
      "##ئى": 16665,
      "##طنه": 16669,
      "##وفو": 16671,
      "كد": 16673,
      "##يرى": 16674,
      "61": 16677,
      "##بوا": 16684,
      "##ls": 16691,
      "##جله": 16695,
      "##med": 16696,
      "ومق": 16698,
      "##ساق": 16708,
      "AR": 16722,
      "re": 16727,
      "##فره": 16728,
      "شبك": 16729,
      "##قبة": 16735,
      "يور": 16737,
      "##رجة": 16756,
      "لمه": 16764,
      "##جيا": 16767,
      "صدى": 16770,
      "دن": 16780,
      "افك": 16782,
      "A7": 16789,
      "87": 16792,
      "##حله": 16801,
      "وشي": 16804,
      "##طبة": 16805,
      "##عق": 16808,
      "يأت": 16812,
      "##ايك": 16818,
      "تدع": 16820,
      "هان": 16822,
      "CF": 16836,
      "اشك": 16838,
      "##نيش": 16839,
      "عدت": 16842,
      "##دمة": 16845,
      "جات": 16846,
      "ar": 16849,
      "فنج": 16850,
      "74": 16856,
      "##هود": 16867,
      "Sy": 16868,
      "##ump": 16873,
      "موث": 16874,
      "أنج": 16876,
      "##سره": 16878,
      "##اصه": 16883,
      "بند": 16896,
      "##الإ": 16898,
      "##جوز": 16904,
      "##روء": 16915,
      "سكت": 16917,
      "82": 16920,
      "##ؤهم": 16927,
      "دوت": 16933,
      "059": 16943,
      "راع": 16951,
      "73": 16967,
      "##MA": 16972,
      "##اهم": 16979,
      "زلت": 16983,
      "توس": 16985,
      "##طيح": 16993,
      "يوص": 16999,
      "##ord": 17003,
      "جمل": 17004,
      "عزم": 17016,
      "أدب": 17025,
      "##ND": 17026,
      "##لتا": 17029,
      "صلو": 17033,
      "حرا": 17035,
      "110": 17043,
      "CL": 17044,
      "يتس": 17046,
      "نيت": 17050,
      "##هك": 17054,
      "يوح": 17055,
      "##qu": 17057,
      "##بحر": 17061,
      "##ana": 17066,
      "ابر": 17068,
      "مزد": 17069,
      "##ؤك": 17071,
      "هلي": 17074,
      "رغب": 17076,
      "قسي": 17082,
      "79": 17087,
      "كيب": 17095,
      "##ريغ": 17099,
      "##غى": 17117,
      "##لكي": 17119,
      "##ell": 17121,
      "##BD": 17130,
      "ღღ": 17151,
      "مرغ": 17158,
      "بلن": 17162,
      "IP": 17163,
      "##طو": 17166,
      "##هاي": 17169,
      "كاذ": 17173,
      "##حح": 17176,
      "##عدى": 17179,
      "بون": 17181,
      "ماح": 17186,
      "تحل": 17194,
      "وبخ": 17195,
      "برت": 17206,
      "##tra": 17217,
      "##ix": 17223,
      "شاك": 17225,
      "##لخص": 17226,
      "مضت": 17229,
      "700": 17236,
      "##لسل": 17237,
      "حظك": 17240,
      "تظل": 17246,
      "تثق": 17251,
      "##غرس": 17252,
      "ضده": 17255,
      "شفا": 17263,
      "فرش": 17264,
      "اوز": 17268,
      "ليم": 17272,
      "لإس": 17273,
      "نبت": 17274,
      "هيف": 17278,
      "##ree": 17280,
      "##نغ": 17281,
      "آله": 17286,
      "يقر": 17300,
      "##ذين": 17302,
      "##قبض": 17305,
      "غبت": 17311,
      "##طري": 17313,
      "##ربك": 17314,
      "ورز": 17315,
      "##خن": 17318,
      "احص": 17331,
      "شاي": 17337,
      "Sec": 17347,
      "اثي": 17350,
      "##بنى": 17351,
      "##قور": 17354,
      "حاص": 17367,
      "hd": 17369,
      "92": 17376,
      "##عاث": 17378,
      "تات": 17379,
      "##223": 17384,
      "##رنا": 17389,
      "##شرا": 17392,
      "##سمك": 17404,
      "##طأ": 17406,
      "ثور": 17413,
      "##شاد": 17417,
      "جثة": 17418,
      "##فها": 17422,
      "بيف": 17423,
      "##BC": 17426,
      "##ثوذ": 17430,
      "##ترى": 17442,
      "##موح": 17450,
      "قنب": 17455,
      "##ظرة": 17462,
      "كعب": 17466,
      "يلق": 17470,
      "نيه": 17471,
      "قدا": 17474,
      "##وسه": 17475,
      "جوف": 17481,
      "سلع": 17490,
      "يدا": 17492,
      "بدو": 17495,
      "متش": 17496,
      "ستن": 17500,
      "##ais": 17501,
      "##GN": 17502,
      "مدف": 17509,
      "فوت": 17513,
      "بضم": 17514,
      "إحت": 17520,
      "لأس": 17527,
      "قرن": 17528,
      "##ئنا": 17531,
      "##آم": 17537,
      "دان": 17539,
      "لتغ": 17545,
      "76": 17547,
      "##ادى": 17549,
      "##ms": 17559,
      "جود": 17561,
      "##ريز": 17565,
      "بوب": 17567,
      "لى": 17568,
      "مجز": 17569,
      "##واص": 17572,
      "كني": 17579,
      "##شرع": 17584,
      "##كنا": 17588,
      "##ug": 17589,
      "إنج": 17591,
      "بفض": 17593,
      "يظ": 17594,
      "خطب": 17599,
      "محظ": 17600,
      "تها": 17605,
      "تظن": 17609,
      "##حاث": 17610,
      "ويغ": 17613,
      "هيب": 17618,
      "##واس": 17625,
      "##ant": 17628,
      "لوز": 17631,
      "##رول": 17632,
      "بنز": 17634,
      "و5": 17635,
      "##IP": 17638,
      "نال": 17646,
      "مقط": 17650,
      "##MS": 17651,
      "##ؤلؤ": 17652,
      "##تال": 17653,
      "ساج": 17677,
      "##ET": 17684,
      "per": 17691,
      "بنج": 17692,
      "##وحد": 17697,
      "توم": 17710,
      "تنص": 17711,
      "دق": 17713,
      "##لمت": 17720,
      "##خوا": 17727,
      "ريب": 17730,
      "لعي": 17733,
      "##كاف": 17742,
      "130": 17745,
      "قهر": 17750,
      "##عور": 17769,
      "##558": 17776,
      "بتد": 17779,
      "أكل": 17780,
      "##قرر": 17791,
      "بذل": 17795,
      "دكت": 17801,
      "##بوط": 17812,
      "غف": 17813,
      "تبع": 17815,
      "سمح": 17820,
      "جت": 17823,
      "بقت": 17825,
      "##DF": 17826,
      "مذا": 17828,
      "عظ": 17830,
      "يفع": 17837,
      "##ect": 17847,
      "##جره": 17852,
      "ووق": 17857,
      "##بئ": 17861,
      "##انج": 17865,
      "أود": 17868,
      "ماش": 17882,
      "طار": 17883,
      "##رقص": 17886,
      "وول": 17887,
      "مآ": 17891,
      "إيم": 17892,
      "##ace": 17898,
      "وخذ": 17903,
      "نقي": 17907,
      "##73": 17910,
      "رود": 17913,
      "##موت": 17917,
      "يلم": 17920,
      "##LL": 17926,
      "يتق": 17935,
      "فون": 17939,
      "mp3": 17940,
      "ساف": 17941,
      "mot": 17943,
      "درر": 17949,
      "محي": 17955,
      "##BOX": 17956,
      "رحت": 17957,
      "خر": 17963,
      "##ore": 17973,
      "ألي": 17983,
      "##شاق": 17990,
      "قضى": 17992,
      "سدر": 17994,
      "##EC": 18003,
      "مبك": 18005,
      "خدي": 18011,
      "بوق": 18016,
      "##جمه": 18019,
      "ومز": 18027,
      "##كز": 18035,
      "وهد": 18038,
      "##OM": 18043,
      "جح": 18045,
      "مله": 18049,
      "##تيز": 18053,
      "##الو": 18058,
      "##ويف": 18059,
      "##يله": 18064,
      "فوك": 18068,
      "##vel": 18081,
      "##ذجا": 18083,
      "سمر": 18096,
      "##IF": 18100,
      "هوي": 18103,
      "بوز": 18118,
      "VU": 18120,
      "دكة": 18126,
      "ياك": 18128,
      "اضف": 18132,
      "انص": 18145,
      "جند": 18148,
      "##يها": 18151,
      "ياش": 18155,
      "##ear": 18157,
      "مدح": 18168,
      "ريش": 18182,
      "TV": 18185,
      "##YR": 18186,
      "##بوه": 18187,
      "##oh": 18193,
      "تبد": 18199,
      "##نكر": 18200,
      "##ans": 18204,
      "##صرا": 18227,
      "th": 18232,
      "ذمه": 18233,
      "عشت": 18234,
      "##احف": 18236,
      "##سيخ": 18237,
      "انب": 18240,
      "عفو": 18243,
      "Th": 18253,
      "##كشف": 18255,
      "حوض": 18271,
      "وأق": 18272,
      "صفا": 18274,
      "رفا": 18278,
      "##54": 18281,
      "اسف": 18285,
      "##جزء": 18296,
      "يبق": 18299,
      "نفي": 18300,
      "قير": 18307,
      "فكم": 18345,
      "حلق": 18347,
      "نري": 18348,
      "##رحة": 18351,
      "أبد": 18364,
      "تير": 18373,
      "خاب": 18374,
      "لصح": 18379,
      "متخ": 18381,
      "##غاز": 18382,
      "زود": 18391,
      "ظنك": 18395,
      "مكن": 18406,
      "3D": 18408,
      "GX": 18410,
      "IS": 18414,
      "##DL": 18419,
      "##فاج": 18438,
      "##UR": 18441,
      "وفج": 18446,
      "نيب": 18447,
      "نعي": 18457,
      "ليو": 18459,
      "متج": 18469,
      "و3": 18493,
      "##IT": 18501,
      "##ومن": 18502,
      "##غش": 18519,
      "ذم": 18535,
      "##ورغ": 18538,
      "انز": 18541,
      "ككل": 18546,
      "بدع": 18556,
      "واذ": 18573,
      "ترف": 18583,
      "وسأ": 18589,
      "##يتو": 18593,
      "نية": 18595,
      "أنط": 18597,
      "##ثين": 18611,
      "وون": 18619,
      "فل": 18620,
      "هدى": 18621,
      "اذك": 18623,
      "ركز": 18626,
      "PL": 18634,
      "فحل": 18638,
      "عنف": 18650,
      "ماخ": 18653,
      "##أم": 18656,
      "اهت": 18669,
      "##riv": 18670,
      "##ييس": 18672,
      "غاض": 18675,
      "##اضى": 18676,
      "كاد": 18679,
      "97": 18683,
      "ميم": 18684,
      "App": 18699,
      "##AB": 18701,
      "ناع": 18702,
      "##قاس": 18716,
      "190": 18719,
      "##لوش": 18720,
      "ظبي": 18724,
      "سوز": 18742,
      "ممد": 18746,
      "180": 18751,
      "مشج": 18752,
      "##حس": 18759,
      "##ber": 18762,
      "##ازي": 18766,
      "##IC": 18769,
      "##واط": 18781,
      "اظن": 18783,
      "##ary": 18786,
      "شفي": 18793,
      "أيا": 18796,
      "##US": 18799,
      "##ستن": 18802,
      "##سيج": 18806,
      "##فوذ": 18811,
      "نفط": 18818,
      "بفت": 18834,
      "مصم": 18835,
      "##دك": 18838,
      "شتى": 18844,
      "##ثني": 18851,
      "لزم": 18854,
      "##قطت": 18859,
      "ومط": 18881,
      "وحز": 18898,
      "يتخ": 18905,
      "حزم": 18910,
      "افع": 18912,
      "ومث": 18914,
      "##la": 18920,
      "مكث": 18921,
      "هيد": 18929,
      "وأص": 18936,
      "##يشن": 18942,
      "حطت": 18948,
      "اعي": 18956,
      "مشه": 18963,
      "org": 18965,
      "##98": 18969,
      "ورك": 18972,
      "##ثيف": 18973,
      "##ism": 18993,
      "ناه": 18996,
      "عوف": 18998,
      "لقا": 18999,
      "تعط": 19029,
      "إحص": 19035,
      "##ادق": 19038,
      "لتد": 19047,
      "##KK": 19050,
      "عيا": 19057,
      "فغ": 19068,
      "##old": 19076,
      "بلع": 19079,
      "جف": 19089,
      "يبر": 19090,
      "سول": 19094,
      "أعت": 19115,
      "درو": 19116,
      "US": 19118,
      "##ren": 19119,
      "##io": 19128,
      "ps": 19132,
      "ونب": 19142,
      "ووض": 19149,
      "##صان": 19151,
      "ادي": 19154,
      "خم": 19157,
      "##فرغ": 19158,
      "أند": 19164,
      "##cam": 19166,
      "##ماط": 19169,
      "تحق": 19177,
      "##ult": 19184,
      "##ودو": 19189,
      "آلم": 19193,
      "قح": 19200,
      "##ولز": 19204,
      "خرب": 19228,
      "حصر": 19230,
      "حقل": 19235,
      "تهد": 19236,
      "96": 19239,
      "##قوف": 19242,
      "PC": 19250,
      "ناط": 19256,
      "##كتك": 19257,
      "##زوق": 19261,
      "افا": 19267,
      "إك": 19271,
      "##تة": 19279,
      "جرا": 19295,
      "##RD": 19306,
      "اوف": 19307,
      "GMT": 19312,
      "##IS": 19313,
      "تفك": 19314,
      "##خور": 19325,
      "##OL": 19328,
      "##وبى": 19330,
      "##طوي": 19331,
      "ويز": 19334,
      "##IM": 19335,
      "##فلي": 19346,
      "##ليغ": 19350,
      "SE": 19351,
      "##زعه": 19353,
      "تود": 19358,
      "##خلة": 19363,
      "جى": 19364,
      "رعب": 19386,
      "للظ": 19392,
      "وإع": 19394,
      "بعق": 19402,
      "##زما": 19417,
      "##وقا": 19422,
      "##اوب": 19426,
      "ردي": 19437,
      "##دمت": 19443,
      "جرو": 19444,
      "زا": 19448,
      "##طوا": 19456,
      "شاع": 19461,
      "##درب": 19463,
      "يمل": 19468,
      "##خسر": 19476,
      "##فقت": 19477,
      "لاص": 19482,
      "وضح": 19496,
      "شدد": 19497,
      "أرب": 19503,
      "##MK": 19504,
      "##برج": 19512,
      "##ئس": 19515,
      "غلب": 19516,
      "En": 19517,
      "##جيم": 19521,
      "##ZN": 19522,
      "©¤": 19525,
      "طق": 19527,
      "معز": 19529,
      "ووز": 19533,
      "##sh": 19535,
      "يمس": 19536,
      "اسب": 19538,
      "يهد": 19540,
      "Ab": 19546,
      "اتم": 19549,
      "زعم": 19554,
      "##صية": 19570,
      "زعل": 19571,
      "أجن": 19574,
      "##وتة": 19586,
      "قه": 19602,
      "وضم": 19603,
      "حرس": 19604,
      "##رقى": 19605,
      "شوك": 19607,
      "##OK": 19613,
      "هوب": 19617,
      "##ath": 19626,
      "##سيد": 19638,
      "vs": 19646,
      "عك": 19656,
      "##قضي": 19660,
      "ونج": 19662,
      "بمص": 19663,
      "فاب": 19664,
      "SD": 19670,
      "##ae": 19671,
      "##حاح": 19679,
      "##لمب": 19683,
      "خات": 19689,
      "##لدة": 19691,
      "غزل": 19693,
      "##نيل": 19697,
      "##اسل": 19700,
      "ادى": 19707,
      "يتي": 19712,
      "قبض": 19718,
      "net": 19720,
      "##زمه": 19727,
      "##120": 19732,
      "صغ": 19733,
      "##كيه": 19736,
      "نفع": 19748,
      "##ايا": 19765,
      "وبص": 19773,
      "ذر": 19775,
      "زمي": 19779,
      "غرق": 19780,
      "وحر": 19790,
      "CH": 19791,
      "كلك": 19799,
      "¤©": 19807,
      "بحم": 19808,
      "##صفة": 19813,
      "ذل": 19814,
      "Su": 19818,
      "##موش": 19825,
      "ختم": 19832,
      "مسن": 19837,
      "طور": 19839,
      "تمث": 19840,
      "نان": 19846,
      "كلن": 19854,
      "94": 19864,
      "تمس": 19865,
      "مدع": 19869,
      "ثر": 19885,
      "##327": 19887,
      "##ZD": 19894,
      "طير": 19905,
      "91": 19915,
      "##ازر": 19917,
      "##ram": 19918,
      "نطق": 19923,
      "اوس": 19926,
      "بنو": 19929,
      "##int": 19935,
      "##جف": 19943,
      "سلك": 19945,
      "##طرق": 19950,
      "بضع": 19961,
      "93": 19964,
      "##اطا": 19971,
      "حبس": 19977,
      "نمط": 19996,
      "##ere": 19998,
      "##يتش": 20000,
      "Qu": 20011,
      "##ريخ": 20021,
      "يود": 20022,
      "##ZS": 20040,
      "##osh": 20042,
      "##58": 20043,
      "ظلت": 20047,
      "##389": 20050,
      "##رحي": 20052,
      "##فاذ": 20055,
      "تره": 20058,
      "سلي": 20069,
      "ديا": 20073,
      "##مها": 20088,
      "##بده": 20089,
      "حبل": 20096,
      "##سطه": 20097,
      "##غله": 20099,
      "تتخ": 20105,
      "تحض": 20109,
      "##دنا": 20112,
      "حاط": 20114,
      "بعب": 20120,
      "##eg": 20123,
      "##ألك": 20128,
      "##59": 20137,
      "داء": 20141,
      "##ION": 20144,
      "فتن": 20154,
      "##اان": 20172,
      "ترس": 20177,
      "ارم": 20184,
      "##ضرب": 20198,
      "جلي": 20203,
      "##ونز": 20213,
      "اسك": 20221,
      "شىء": 20229,
      "بشي": 20232,
      "قاع": 20235,
      "##que": 20238,
      "##ؤوس": 20240,
      "ظني": 20247,
      "فلق": 20250,
      "يدر": 20260,
      "##ادف": 20262,
      "##ناث": 20269,
      "##للط": 20273,
      "ضخم": 20282,
      "مشي": 20284,
      "جذب": 20287,
      "ألق": 20288,
      "##ung": 20296,
      "ومب": 20298,
      "##وبل": 20299,
      "##غيم": 20306,
      "##ويح": 20308,
      "صحف": 20309,
      "##ذوق": 20312,
      "لمي": 20319,
      "##وشن": 20322,
      "سيح": 20329,
      "##يتم": 20333,
      "نفى": 20346,
      "##♥ღ": 20347,
      "##اكه": 20349,
      "##لسة": 20351,
      "جيف": 20359,
      "سيئ": 20361,
      "##يدز": 20365,
      "وقب": 20373,
      "رآ": 20398,
      "##282": 20415,
      "##ale": 20427,
      "##se": 20440,
      "بدت": 20448,
      "شدة": 20451,
      "نزع": 20461,
      "ذمة": 20465,
      "##اهن": 20466,
      "أير": 20469,
      "حث": 20470,
      "حرج": 20473,
      "ذكي": 20474,
      "ومغ": 20476,
      "350": 20491,
      "نضع": 20492,
      "##فضه": 20493,
      "##شغل": 20498,
      "خبي": 20508,
      "إل": 20509,
      "##اشا": 20516,
      "##AH": 20528,
      "دما": 20540,
      "##ics": 20544,
      "لوج": 20546,
      "اجم": 20547,
      "Tr": 20549,
      "Sc": 20552,
      "تعي": 20567,
      "يحد": 20576,
      "حقد": 20578,
      "##صص": 20585,
      "##erv": 20587,
      "##وشة": 20595,
      "إكس": 20599,
      "إعت": 20607,
      "مبي": 20610,
      "##118": 20620,
      "##قطه": 20629,
      "##طفئ": 20635,
      "باغ": 20639,
      "##أسم": 20646,
      "نين": 20648,
      "رعد": 20654,
      "##تار": 20656,
      "##بكي": 20657,
      "##ink": 20658,
      "##دمه": 20670,
      "##ظري": 20673,
      "غار": 20677,
      "##ناش": 20680,
      "##76": 20684,
      "كق": 20701,
      "لاا": 20715,
      "##NG": 20728,
      "درع": 20731,
      "تغي": 20741,
      "##وشي": 20742,
      "##ail": 20751,
      "وبإ": 20754,
      "Un": 20757,
      "CNH": 20759,
      "##شان": 20762,
      "دقة": 20765,
      "PKG": 20767,
      "Am": 20792,
      "لجل": 20796,
      "##روش": 20798,
      "##NT": 20803,
      "##ومك": 20805,
      "##سمت": 20808,
      "حشد": 20816,
      "170": 20825,
      "##برغ": 20828,
      "##جهد": 20831,
      "لحظ": 20832,
      "ضرر": 20836,
      "ظاه": 20839,
      "ارك": 20841,
      "##ثلا": 20847,
      "ماض": 20856,
      "شقه": 20857,
      "##عني": 20858,
      "متق": 20859,
      "##زيه": 20860,
      "##جرى": 20869,
      "##أته": 20872,
      "##لجا": 20877,
      "هه": 20879,
      "كمب": 20882,
      "رين": 20887,
      "اوص": 20893,
      "##سبت": 20898,
      "حصد": 20899,
      "اسد": 20911,
      "El": 20913,
      "بؤ": 20918,
      "وكف": 20921,
      "محذ": 20926,
      "##ااك": 20939,
      "##AG": 20950,
      "##غور": 20962,
      "خلل": 20967,
      "اقد": 20971,
      "##جزة": 21002,
      "##ئام": 21008,
      "##ys": 21009,
      "##فوك": 21016,
      "ثقل": 21018,
      "##53": 21020,
      "دمر": 21026,
      "جوع": 21032,
      "##ptv": 21040,
      "##لده": 21046,
      "صلب": 21049,
      "أمم": 21061,
      "رعا": 21063,
      "اوق": 21064,
      "خت": 21071,
      "##الخ": 21079,
      "##جرت": 21090,
      "طعن": 21092,
      "حاد": 21093,
      "هلك": 21095,
      "اكن": 21098,
      "##٠٠": 21117,
      "احن": 21118,
      "##ury": 21123,
      "لوف": 21126,
      "فيض": 21134,
      "##هده": 21138,
      "##ريش": 21146,
      "vb": 21152,
      "هرم": 21161,
      "LG": 21162,
      "##لبن": 21170,
      "أبل": 21184,
      "شوب": 21187,
      "##ورط": 21199,
      "##زاع": 21204,
      "نوي": 21214,
      "شطر": 21227,
      "##آة": 21236,
      "جهل": 21238,
      "##هرة": 21249,
      "##let": 21252,
      "##يمر": 21256,
      "هاك": 21257,
      "##وحش": 21260,
      "لرس": 21269,
      "##اثر": 21273,
      "TM": 21274,
      "##ct": 21280,
      "ايت": 21282,
      "طوا": 21283,
      "عجب": 21300,
      "##ثرا": 21303,
      "##شهر": 21316,
      "##ese": 21324,
      "ابل": 21331,
      "##زى": 21333,
      "##لحف": 21334,
      "قوس": 21346,
      "أيد": 21362,
      "##سوم": 21365,
      "##ood": 21371,
      "##جزه": 21373,
      "فسب": 21377,
      "##عاه": 21395,
      "خطه": 21397,
      "##رقب": 21401,
      "وإح": 21402,
      "##جج": 21409,
      "##ثية": 21415,
      "قرط": 21439,
      "##حهم": 21447,
      "##ؤم": 21448,
      "##نوك": 21458,
      "##93": 21468,
      "باط": 21476,
      "##ock": 21481,
      "شال": 21496,
      "##بب": 21511,
      "زكي": 21514,
      "##سيح": 21523,
      "##طاب": 21527,
      "##فلت": 21531,
      "##ee": 21532,
      "##ظرك": 21533,
      "صنف": 21535,
      "##ml": 21542,
      "أنش": 21547,
      "يدع": 21554,
      "رفح": 21565,
      "لهن": 21566,
      "##دان": 21567,
      "ساس": 21573,
      "سجد": 21575,
      "##oth": 21579,
      "بمؤ": 21582,
      "##بطت": 21584,
      "ملز": 21593,
      "##gy": 21600,
      "يقد": 21611,
      "شره": 21614,
      "##اكي": 21617,
      "900": 21619,
      "عاا": 21634,
      "خله": 21636,
      "عفا": 21641,
      "##بيو": 21645,
      "##خار": 21653,
      "شيب": 21678,
      "en": 21682,
      "##عمق": 21693,
      "هود": 21696,
      "فاف": 21701,
      "كرس": 21709,
      "أعض": 21712,
      "##فضة": 21716,
      "جاذ": 21728,
      "تاه": 21733,
      "لسي": 21734,
      "##فتي": 21738,
      "نيو": 21739,
      "##ین": 21741,
      "هين": 21742,
      "بى": 21744,
      "##عله": 21750,
      "##لفل": 21757,
      "خلع": 21768,
      "لئ": 21771,
      "طفو": 21787,
      "##ئح": 21788,
      "##آر": 21797,
      "MP3": 21801,
      "##غلق": 21805,
      "##وشه": 21815,
      "تحذ": 21817,
      "يلح": 21820,
      "##كبة": 21822,
      "حصن": 21832,
      "##ولن": 21836,
      "خوض": 21839,
      "فلب": 21843,
      "##oun": 21849,
      "##جما": 21856,
      "مخي": 21866,
      "كنه": 21877,
      "##خاف": 21884,
      "##uch": 21892,
      "##دلة": 21898,
      "فيج": 21913,
      "##AL": 21917,
      "غو": 21919,
      "##وصف": 21927,
      "اتع": 21931,
      "360": 21937,
      "##حيى": 21941,
      "رشا": 21945,
      "فوض": 21961,
      "##UB": 21962,
      "##هاش": 21966,
      "اهو": 21974,
      "جئت": 21987,
      "##GD": 21989,
      "تاس": 21992,
      "##نئ": 22006,
      "##يلي": 22008,
      "##ئته": 22021,
      "افر": 22023,
      "قان": 22024,
      "##راة": 22037,
      "HT": 22046,
      "طلق": 22052,
      "إغ": 22057,
      "حقن": 22060,
      "مجن": 22064,
      "##360": 22069,
      "##دته": 22072,
      "ويط": 22077,
      "ونع": 22093,
      "بإد": 22097,
      "عبق": 22108,
      "حفص": 22127,
      "##فاة": 22138,
      "روك": 22139,
      "ونق": 22148,
      "##ييه": 22171,
      "توه": 22191,
      "##ins": 22194,
      "وإذ": 22203,
      "##تف": 22204,
      "ماق": 22211,
      "##الط": 22224,
      "ردت": 22228,
      "فمع": 22230,
      "و4": 22234,
      "صاح": 22235,
      "يله": 22249,
      "##لمس": 22255,
      "ونف": 22270,
      "##ذبه": 22273,
      "##زني": 22276,
      "EC": 22278,
      "##ثوم": 22284,
      "ليح": 22285,
      "شيك": 22295,
      "لحق": 22297,
      "وسج": 22299,
      "اتب": 22304,
      "##أله": 22305,
      "جنة": 22310,
      "##نهم": 22311,
      "ظرف": 22314,
      "##سنة": 22319,
      "##ضيء": 22320,
      "يمث": 22327,
      "أوز": 22328,
      "يجر": 22338,
      "##فظة": 22340,
      "دوس": 22358,
      "دفن": 22359,
      "Fl": 22361,
      "##ثان": 22362,
      "يؤذ": 22370,
      "##خيم": 22371,
      "##vue": 22381,
      "عسر": 22388,
      "##ويب": 22410,
      "##IA": 22414,
      "##St": 22418,
      "ضيع": 22429,
      "حاش": 22437,
      "بمق": 22440,
      "Sm": 22451,
      "##OT": 22452,
      "سقي": 22469,
      "وجز": 22475,
      "##راش": 22479,
      "##نور": 22485,
      "##حرص": 22489,
      "Tra": 22496,
      "##ؤوا": 22499,
      "##KP": 22519,
      "جني": 22524,
      "نرت": 22528,
      "ab": 22533,
      "اشر": 22535,
      "يتك": 22554,
      "##ony": 22555,
      "ولط": 22559,
      "بتغ": 22564,
      "##ههه": 22567,
      "غن": 22577,
      "##87": 22593,
      "كيا": 22594,
      "كلش": 22599,
      "##زقك": 22604,
      "##EF": 22609,
      "أكس": 22620,
      "عزه": 22623,
      "ركب": 22633,
      "##ذات": 22643,
      "يهو": 22646,
      "PHP": 22647,
      "محو": 22654,
      "كج": 22683,
      "##نعت": 22686,
      "Gu": 22690,
      "##ef": 22703,
      "##او": 22704,
      "o°": 22705,
      "صبي": 22730,
      "SC": 22749,
      "##غون": 22751,
      "##شور": 22757,
      "كوس": 22771,
      "مهر": 22772,
      "فقل": 22773,
      "##أيت": 22775,
      "##ars": 22779,
      "##بدع": 22781,
      "##ame": 22796,
      "##سكس": 22800,
      "##خلا": 22801,
      "125": 22803,
      "قاض": 22810,
      "واو": 22815,
      "##رقي": 22817,
      "##طفه": 22820,
      "حده": 22822,
      "##199": 22824,
      "شمل": 22826,
      "تصب": 22827,
      "##تج": 22832,
      "Con": 22836,
      "##max": 22838,
      "آبل": 22839,
      "##86": 22871,
      "طلي": 22874,
      "##وجا": 22879,
      "ووج": 22894,
      "##ويز": 22900,
      "هيت": 22904,
      "##آب": 22906,
      "وجن": 22907,
      "##ايز": 22918,
      "##معي": 22922,
      "ينج": 22925,
      "##als": 22929,
      "مكي": 22931,
      "كرت": 22936,
      "سرك": 22942,
      "010": 22943,
      "وصد": 22953,
      "##هين": 22957,
      "##74": 22968,
      "##للد": 22973,
      "يجز": 22978,
      "عسا": 22985,
      "##وزن": 22991,
      "و2": 22992,
      "##كوا": 22996,
      "##ومو": 23009,
      "##OA": 23012,
      "ذري": 23021,
      "وخر": 23048,
      "فتم": 23052,
      "ظفر": 23059,
      "أوس": 23064,
      "ساو": 23065,
      "ليص": 23073,
      "رشح": 23077,
      "روج": 23079,
      "وبش": 23082,
      "##حدر": 23083,
      "ملغ": 23086,
      "##رقت": 23087,
      "##حرر": 23089,
      "عبث": 23098,
      "تظ": 23100,
      "##عدم": 23120,
      "جثث": 23124,
      "AF": 23125,
      "##TML": 23130,
      "##ااح": 23139,
      "##اطي": 23141,
      "طفي": 23142,
      "ديو": 23147,
      "غبي": 23151,
      "des": 23159,
      "يثق": 23174,
      "LA": 23182,
      "أسم": 23183,
      "يحط": 23190,
      "##tl": 23194,
      "##جود": 23198,
      "Te": 23205,
      "ستس": 23206,
      "##iew": 23207,
      "ضو": 23214,
      "##لوت": 23217,
      "##سوا": 23225,
      "##عري": 23228,
      "زح": 23244,
      "Em": 23251,
      "##زنه": 23255,
      "ورث": 23260,
      "لسر": 23278,
      "##رث": 23281,
      "برؤ": 23285,
      "فو": 23287,
      "##كاو": 23309,
      "ماغ": 23319,
      "##ina": 23321,
      "ضجة": 23323,
      "كسي": 23326,
      "##500": 23327,
      "نرج": 23330,
      "برأ": 23333,
      "شقي": 23342,
      "تحي": 23355,
      "بيج": 23360,
      "##عاج": 23374,
      "##خرط": 23390,
      "fr": 23394,
      "##ندس": 23395,
      "برن": 23397,
      "ألح": 23401,
      "##خري": 23409,
      "نصل": 23414,
      "##منح": 23416,
      "##ايح": 23419,
      "##نوع": 23436,
      "450": 23446,
      "مصد": 23447,
      "##صوص": 23450,
      "##امس": 23461,
      "اجي": 23467,
      "##ext": 23472,
      "تذك": 23475,
      "CA": 23478,
      "##روى": 23490,
      "ديل": 23498,
      "##حنة": 23500,
      "كإ": 23503,
      "##ملت": 23504,
      "ضلو": 23510,
      "يحن": 23514,
      "##555": 23515,
      "فدا": 23525,
      "قضت": 23527,
      "بمد": 23534,
      "يمد": 23542,
      "شجع": 23545,
      "جث": 23546,
      "##ضوا": 23554,
      "ياز": 23556,
      "##است": 23562,
      "##ux": 23572,
      "ولف": 23573,
      "##لست": 23579,
      "خصي": 23588,
      "##ool": 23595,
      "ساك": 23599,
      "ღ♥ღ": 23606,
      "##ملك": 23610,
      "طرب": 23616,
      "GT": 23620,
      "وتض": 23630,
      "##شاه": 23657,
      "SV": 23669,
      "إيف": 23681,
      "خاش": 23696,
      "psd": 23698,
      "زن": 23703,
      "Se": 23705,
      "##شوا": 23712,
      "خفا": 23718,
      "رخي": 23732,
      "##وقل": 23740,
      "بوغ": 23750,
      "##زور": 23751,
      "RT": 23752,
      "HU": 23764,
      "##زج": 23767,
      "##فتك": 23768,
      "##زيم": 23769,
      "دمج": 23772,
      "بإح": 23776,
      "##رحه": 23778,
      "##سول": 23779,
      "نيل": 23786,
      "وعط": 23802,
      "محف": 23811,
      "بحض": 23813,
      "هبة": 23823,
      "##Sat": 23828,
      "ملل": 23832,
      "وبق": 23839,
      "رنا": 23844,
      "لقر": 23858,
      "حسد": 23862,
      "شرو": 23863,
      "حيز": 23876,
      "New": 23877,
      "##ئتي": 23888,
      "mod": 23893,
      "##ya": 23894,
      "##UP": 23902,
      "##جده": 23905,
      "##شح": 23917,
      "##أنف": 23920,
      "##ارث": 23925,
      "##تن": 23929,
      "##سما": 23930,
      "##orn": 23944,
      "##كور": 23952,
      "إحد": 23964,
      "يتغ": 23967,
      "وإي": 23968,
      "##دهن": 23975,
      "cl": 23978,
      "##ينج": 23987,
      "صيغ": 23988,
      "##ps": 23999,
      "دمي": 24003,
      "مغر": 24005,
      "##وزو": 24007,
      "##yle": 24011,
      "##غمض": 24012,
      "اال": 24015,
      "سيؤ": 24023,
      "##ودج": 24025,
      "##min": 24027,
      "فؤ": 24043,
      "عرس": 24055,
      "جزي": 24059,
      "لمد": 24066,
      "ورح": 24069,
      "سكك": 24071,
      "My": 24072,
      "سره": 24076,
      "يلب": 24085,
      "غائ": 24089,
      "ZW": 24094,
      "حبة": 24100,
      "بلج": 24111,
      "لفض": 24114,
      "جرم": 24120,
      "إنش": 24124,
      "بعت": 24135,
      "خوي": 24136,
      "كتر": 24138,
      "صحب": 24147,
      "عيت": 24150,
      "##82": 24161,
      "off": 24163,
      "##NL": 24167,
      "ادخ": 24178,
      "يصب": 24184,
      "LED": 24191,
      "تطل": 24208,
      "سفن": 24216,
      "##للى": 24217,
      "ووك": 24221,
      "##VB": 24226,
      "يتر": 24227,
      "سأل": 24229,
      "جول": 24232,
      "##جمل": 24235,
      "احي": 24239,
      "##هيد": 24241,
      "ارق": 24244,
      "##ich": 24247,
      "رأت": 24250,
      "يشك": 24252,
      "tr": 24266,
      "FR": 24271,
      "##جوب": 24279,
      "محق": 24298,
      "شوط": 24306,
      "لصف": 24315,
      "105": 24316,
      "مهت": 24320,
      "##قاظ": 24321,
      "طيف": 24327,
      "وأه": 24328,
      "١٩": 24334,
      "بته": 24339,
      "TH": 24342,
      "تبث": 24347,
      "##موا": 24349,
      "##روي": 24353,
      "دره": 24365,
      "قطب": 24371,
      "تبك": 24373,
      "أذن": 24374,
      "##رغم": 24380,
      "##تت": 24382,
      "اذي": 24392,
      "do": 24398,
      "##رقة": 24399,
      "شوت": 24410,
      "##لتس": 24418,
      "خرق": 24425,
      "مفخ": 24445,
      "تاف": 24447,
      "##لعي": 24448,
      "##its": 24453,
      "##ثري": 24458,
      "##ؤؤ": 24462,
      "##حش": 24474,
      "رخص": 24480,
      "##دني": 24488,
      "حجب": 24492,
      "BO": 24494,
      "012": 24498,
      "ريد": 24503,
      "سطر": 24509,
      "لئن": 24512,
      "افب": 24514,
      "فهر": 24517,
      "##83": 24525,
      "روق": 24529,
      "غصن": 24532,
      "متب": 24534,
      "##شخص": 24536,
      "##81": 24537,
      "سعه": 24539,
      "##نكم": 24541,
      "لكى": 24547,
      "لوم": 24553,
      "باض": 24556,
      "##رفا": 24559,
      "ألأ": 24560,
      "##84": 24563,
      "##ساح": 24567,
      "##شيت": 24572,
      "##ild": 24575,
      "dm": 24580,
      "##درت": 24581,
      "##وبك": 24588,
      "فی": 24591,
      "جيه": 24595,
      "كجم": 24597,
      "طلا": 24602,
      "##بوب": 24604,
      "شنت": 24606,
      "لإح": 24607,
      "محط": 24620,
      "ومض": 24621,
      "اقص": 24624,
      "تند": 24629,
      "خج": 24630,
      "##ll": 24636,
      "##كرز": 24649,
      "حور": 24652,
      "##اطع": 24655,
      "##فلة": 24668,
      "##oy": 24673,
      "حره": 24674,
      "سوب": 24688,
      "##احت": 24701,
      "عزف": 24702,
      "##توا": 24709,
      "AD": 24712,
      "بيق": 24739,
      "قيا": 24744,
      "##نعة": 24747,
      "##اطس": 24750,
      "##بنا": 24754,
      "قدس": 24763,
      "شيم": 24764,
      "##داس": 24771,
      "101": 24774,
      "##عظ": 24776,
      "##شوق": 24779,
      "حلت": 24781,
      "##دس": 24784,
      "يبا": 24791,
      "##RK": 24808,
      "##جزت": 24812,
      "##TD": 24819,
      "sa": 24821,
      "PS": 24827,
      "١٠": 24828,
      "هاه": 24833,
      "##OC": 24836,
      "زور": 24843,
      "##كف": 24849,
      "بظ": 24860,
      "يجه": 24866,
      "##هاج": 24869,
      "##bc": 24876,
      "##عط": 24889,
      "لاو": 24892,
      "بحه": 24893,
      "سيل": 24901,
      "بيش": 24905,
      "لقت": 24906,
      "LC": 24908,
      "220": 24916,
      "تتك": 24920,
      "كمل": 24922,
      "##يفر": 24923,
      "##ضون": 24924,
      "##غاه": 24930,
      "ونز": 24940,
      "##obe": 24942,
      "##لوح": 24945,
      "زغ": 24946,
      "ضل": 24947,
      "##سيو": 24959,
      "##مله": 24965,
      "يقط": 24978,
      "##GA": 24979,
      "##مأن": 24983,
      "يته": 24984,
      "اتق": 24991,
      "بلم": 24998,
      "و7": 25007,
      "##IO": 25011,
      "##خف": 25013,
      "قو": 25019,
      "##عنا": 25023,
      "##101": 25025,
      "لرو": 25032,
      "##97": 25038,
      "وخل": 25040,
      "سيه": 25042,
      "##ory": 25053,
      "fil": 25058,
      "DM": 25071,
      "ann": 25072,
      "##غاء": 25078,
      "بحل": 25090,
      "لعض": 25094,
      "##ذرت": 25104,
      "##فته": 25105,
      "##مرا": 25112,
      "دح": 25115,
      "اقب": 25118,
      "##قدا": 25124,
      "نهى": 25148,
      "ميه": 25158,
      "هرب": 25162,
      "أفك": 25174,
      "rec": 25178,
      "لاق": 25180,
      "رضى": 25182,
      "أفر": 25186,
      "بصح": 25202,
      "ليث": 25208,
      "##ann": 25214,
      "قضي": 25218,
      "##أر": 25224,
      "تيس": 25229,
      "يرف": 25238,
      "نجل": 25242,
      "##بطه": 25247,
      "##ودى": 25250,
      "بتب": 25252,
      "ac": 25257,
      "خبز": 25267,
      "فخذ": 25279,
      "صلح": 25280,
      "##EM": 25281,
      "##iss": 25287,
      "يكر": 25300,
      "®¤": 25305,
      "##RL": 25343,
      "جلو": 25350,
      "Sun": 25356,
      "بلص": 25359,
      "دلو": 25366,
      "##شام": 25372,
      "حجه": 25373,
      "bl": 25386,
      "##مدن": 25388,
      "زخ": 25392,
      "سئ": 25398,
      "لعن": 25405,
      "لبك": 25408,
      "وإخ": 25415,
      "##كوك": 25420,
      "MK": 25424,
      "115": 25432,
      "نقف": 25451,
      "##400": 25470,
      "##افح": 25492,
      "##ضحت": 25514,
      "اضم": 25517,
      "أكن": 25521,
      "بعز": 25524,
      "هلو": 25526,
      "فرو": 25530,
      "##باخ": 25534,
      "##كهة": 25550,
      "Des": 25553,
      "كفت": 25562,
      "تخي": 25564,
      "##ade": 25565,
      "##زعة": 25566,
      "آر": 25575,
      "##ميق": 25581,
      "##VR": 25590,
      "سته": 25597,
      "بله": 25599,
      "صفه": 25613,
      "##ظور": 25615,
      "qu": 25625,
      "خصص": 25654,
      "ورغ": 25661,
      "ومو": 25662,
      "##زس": 25665,
      "KM": 25671,
      "رهن": 25673,
      "باذ": 25674,
      "##حوذ": 25676,
      "كاي": 25686,
      "غمر": 25695,
      "عصب": 25699,
      "##EP": 25709,
      "##air": 25714,
      "Net": 25715,
      "##mb": 25724,
      "##تمت": 25744,
      "##les": 25745,
      "وفك": 25746,
      "تتس": 25747,
      "حية": 25765,
      "##امو": 25772,
      "##ازم": 25774,
      "سيخ": 25785,
      "°°": 25791,
      "##ئهم": 25793,
      "##طيس": 25794,
      "خن": 25797,
      "ass": 25804,
      "تأك": 25805,
      "##ote": 25806,
      "##للص": 25811,
      "شنط": 25815,
      "ed": 25816,
      "##آلم": 25820,
      "اوغ": 25825,
      "##جوا": 25832,
      "ينف": 25839,
      "##بدة": 25845,
      "##ثاء": 25848,
      "EG": 25850,
      "زله": 25854,
      "يصد": 25856,
      "دوب": 25860,
      "يسد": 25865,
      "##معة": 25892,
      "مخر": 25896,
      "نفر": 25897,
      "##ائس": 25906,
      "##MW": 25909,
      "##فكر": 25917,
      "Ed": 25933,
      "لود": 25942,
      "قمع": 25944,
      "AB": 25951,
      "111": 25962,
      "##BP": 25968,
      "يتب": 25970,
      "سكع": 25979,
      "فمه": 25982,
      "تله": 25987,
      "يعز": 26002,
      "آم": 26011,
      "يره": 26012,
      "##رشي": 26013,
      "موب": 26021,
      "لته": 26027,
      "##ull": 26033,
      "طوق": 26038,
      "##عوى": 26039,
      "بلط": 26040,
      "##212": 26056,
      "##ID": 26063,
      "##RR": 26065,
      "ضمه": 26066,
      "ضيا": 26067,
      "شلل": 26082,
      "##حيا": 26084,
      "Wh": 26087,
      "مزع": 26093,
      "فرك": 26094,
      "##اعف": 26095,
      "##أجر": 26098,
      "##لاي": 26104,
      "غش": 26106,
      "لتك": 26107,
      "جبت": 26137,
      "##تبع": 26138,
      "TOP": 26141,
      "يشع": 26146,
      "معط": 26150,
      "آلآ": 26156,
      "يرا": 26162,
      "غلي": 26163,
      "بطب": 26180,
      "ياغ": 26183,
      "ادا": 26185,
      "عنق": 26191,
      "ارا": 26201,
      "##RC": 26210,
      "مكم": 26218,
      "دقه": 26220,
      "##رضى": 26222,
      "##VE": 26223,
      "##صاح": 26228,
      "102": 26229,
      "وتؤ": 26232,
      "لرا": 26234,
      "Sky": 26235,
      "نجا": 26238,
      "ساي": 26250,
      "##ازى": 26251,
      "سرد": 26252,
      "HK": 26260,
      "كيت": 26261,
      "##iel": 26263,
      "نتح": 26272,
      "Mar": 26303,
      "وكس": 26306,
      "ht": 26325,
      "أسد": 26327,
      "وسك": 26330,
      "us": 26332,
      "##غيت": 26337,
      "##قبه": 26350,
      "et": 26361,
      "##خلل": 26370,
      "##603": 26372,
      "تمد": 26373,
      "##آل": 26376,
      "هدد": 26377,
      "##ستم": 26389,
      "##ناا": 26401,
      "##عته": 26415,
      "##ثنى": 26417,
      "وحس": 26419,
      "فوا": 26425,
      "103": 26437,
      "##قهم": 26444,
      "gu": 26447,
      "##همك": 26458,
      "##حقه": 26468,
      "هوت": 26474,
      "وظل": 26477,
      "تفع": 26482,
      "مهي": 26484,
      "صغر": 26493,
      "##دمج": 26495,
      "علئ": 26501,
      "دفا": 26506,
      "##زهة": 26535,
      "BD": 26537,
      "KH": 26542,
      "نود": 26543,
      "فأخ": 26545,
      "##ورن": 26548,
      "متل": 26562,
      "ثمه": 26590,
      "نتج": 26591,
      "##WG": 26593,
      "##SAT": 26598,
      "##كاه": 26600,
      "##حمت": 26604,
      "##ضره": 26606,
      "##سفي": 26612,
      "##811": 26629,
      "إلت": 26633,
      "##قني": 26643,
      "##زئة": 26652,
      "##ضج": 26655,
      "خفف": 26667,
      "##فش": 26668,
      "وأغ": 26675,
      "##طرب": 26681,
      "##ضول": 26686,
      "##غره": 26690,
      "آت": 26691,
      "شجن": 26692,
      "بتي": 26694,
      "¤®": 26695,
      "AMD": 26701,
      "##92": 26705,
      "غنى": 26713,
      "عوز": 26715,
      "وجي": 26718,
      "سرت": 26721,
      "##زيج": 26723,
      "فرغ": 26731,
      "##زقة": 26744,
      "بشك": 26755,
      "ارف": 26760,
      "##قلل": 26764,
      "أدم": 26767,
      "طحن": 26768,
      "اسس": 26774,
      "##شقي": 26782,
      "117": 26784,
      "##وخي": 26785,
      "##فعش": 26791,
      "MS": 26794,
      "خلط": 26801,
      "BW": 26804,
      "حيه": 26810,
      "ذره": 26813,
      "ندم": 26820,
      "قيف": 26821,
      "ag": 26839,
      "و20": 26842,
      "##ضرر": 26843,
      "إلح": 26851,
      "##ini": 26859,
      "##ize": 26880,
      "NOK": 26883,
      "##ديز": 26884,
      "ترو": 26889,
      "وود": 26891,
      "##زها": 26896,
      "##INE": 26903,
      "##وطي": 26906,
      "لنس": 26915,
      "جهه": 26916,
      "##نتا": 26917,
      "أوف": 26925,
      "سيش": 26926,
      "لوي": 26935,
      "##ثون": 26939,
      "اها": 26961,
      "سعة": 26975,
      "##كما": 26976,
      "ابش": 26979,
      "عو": 26982,
      "خائ": 26985,
      "مخز": 26987,
      "##ick": 26990,
      "##ens": 26995,
      "##سنى": 26999,
      "ep": 27002,
      "##ern": 27005,
      "سى": 27007,
      "لنه": 27009,
      "لسم": 27017,
      "وبج": 27023,
      "##😂😂": 27024,
      "اخو": 27027,
      "##سار": 27037,
      "تال": 27049,
      "غدر": 27052,
      "ملو": 27054,
      "##هات": 27067,
      "##مود": 27095,
      "##يزو": 27101,
      "SZ": 27102,
      "لمخ": 27107,
      "مذك": 27113,
      "##وصي": 27121,
      "ذاه": 27125,
      "نشأ": 27126,
      "##خون": 27131,
      "##هري": 27160,
      "لصد": 27161,
      "##رسه": 27164,
      "##tv": 27174,
      "##700": 27177,
      "ثرو": 27185,
      "وبع": 27197,
      "مصح": 27208,
      "##ضعة": 27211,
      "##حمن": 27214,
      "##PS": 27224,
      "##ووه": 27226,
      "##ايغ": 27232,
      "##اعش": 27251,
      "Web": 27252,
      "119": 27255,
      "بمخ": 27263,
      "۩۩": 27264,
      "Av": 27275,
      "##MAX": 27276,
      "غب": 27285,
      "ستد": 27288,
      "هذة": 27307,
      "8A": 27311,
      "بحت": 27315,
      "لبر": 27317,
      "##رتس": 27325,
      "فنا": 27328,
      "بيح": 27329,
      "BT": 27336,
      "##جزر": 27341,
      "كبد": 27348,
      "##نفذ": 27351,
      "##هرت": 27352,
      "نؤ": 27353,
      "ضاح": 27356,
      "مفه": 27358,
      "ناخ": 27367,
      "حدي": 27393,
      "##ساه": 27399,
      "##افق": 27403,
      "هيل": 27404,
      "خلت": 27405,
      "سمك": 27416,
      "Box": 27417,
      "Res": 27424,
      "غطي": 27438,
      "رتب": 27443,
      "نكن": 27451,
      "##طرح": 27457,
      "##und": 27461,
      "بمه": 27464,
      "##اسه": 27466,
      "١٤": 27473,
      "اوك": 27477,
      "##اام": 27480,
      "يقي": 27482,
      "فاخ": 27485,
      "##صلح": 27495,
      "##جلي": 27501,
      "تعق": 27504,
      "##مته": 27508,
      "أحق": 27519,
      "تلع": 27521,
      "ستع": 27524,
      "آلي": 27525,
      "كئ": 27534,
      "قاص": 27537,
      "##ضاح": 27549,
      "##امد": 27561,
      "Mus": 27575,
      "ظله": 27587,
      "ضمت": 27623,
      "##باش": 27626,
      "##سمي": 27629,
      "سحق": 27633,
      "##غلت": 27634,
      "فرط": 27638,
      "ثقب": 27654,
      "لخص": 27660,
      "##باغ": 27669,
      "##ماي": 27679,
      "نيف": 27698,
      "تار": 27704,
      "##آإ": 27707,
      "##RA": 27710,
      "##مجة": 27720,
      "يتف": 27721,
      "وعت": 27723,
      "MX": 27729,
      "ثع": 27738,
      "##شني": 27743,
      "##ستك": 27746,
      "اثق": 27750,
      "عان": 27754,
      "##زنك": 27771,
      "##جته": 27781,
      "ذها": 27783,
      "افض": 27785,
      "new": 27792,
      "فيف": 27804,
      "##ؤكم": 27809,
      "عتي": 27814,
      "Fr": 27834,
      "##com": 27836,
      "##يسا": 27837,
      "##ثت": 27848,
      "غيث": 27859,
      "##يلا": 27861,
      "جرج": 27866,
      "##عوب": 27868,
      "##YP": 27869,
      "بحس": 27883,
      "ونن": 27885,
      "لفي": 27890,
      "يتد": 27904,
      "و1": 27910,
      "عتب": 27912,
      "محض": 27921,
      "تنح": 27923,
      "104": 27940,
      "طاج": 27941,
      "دمه": 27952,
      "##ينز": 27954,
      "طمع": 27955,
      "##WD": 27966,
      "##ats": 27969,
      "١٢": 27980,
      "حسي": 27995,
      "قفز": 28004,
      "##صاد": 28008,
      "ألو": 28014,
      "##وثه": 28016,
      "##EX": 28023,
      "سرح": 28026,
      "ألس": 28028,
      "لوب": 28038,
      "فهى": 28041,
      "تخر": 28050,
      "##ECH": 28053,
      "Rec": 28057,
      "ALL": 28068,
      "يزل": 28070,
      "شط": 28089,
      "قسط": 28113,
      "All": 28120,
      "̈°o": 28123,
      "غص": 28140,
      "اضل": 28141,
      "نعد": 28147,
      "يرق": 28157,
      "كنع": 28167,
      "خيب": 28181,
      "##BA": 28206,
      "0A": 28208,
      "Fri": 28213,
      "تصد": 28216,
      "##amp": 28220,
      "##صعب": 28224,
      "أتم": 28227,
      "##زنا": 28243,
      "##تحت": 28252,
      "عطف": 28273,
      "حبر": 28290,
      "NT": 28295,
      "وثق": 28301,
      "UF": 28303,
      "كمد": 28307,
      "سله": 28312,
      "##شآت": 28325,
      "صعد": 28328,
      "اضع": 28332,
      "##bl": 28343,
      "مغت": 28345,
      "lat": 28364,
      "فقت": 28370,
      "##نني": 28372,
      "##آمر": 28376,
      "##رفش": 28377,
      "##ساي": 28379,
      "COM": 28383,
      "صوف": 28387,
      "##رمز": 28394,
      "شتي": 28413,
      "خفت": 28419,
      "Sa": 28427,
      "عزك": 28429,
      "●●": 28433,
      "##91": 28444,
      "دعي": 28472,
      "112": 28475,
      "##بؤ": 28479,
      "وطف": 28485,
      "##فوف": 28494,
      "تنف": 28497,
      "وزع": 28498,
      "تشا": 28501,
      "##sn": 28510,
      "##لتر": 28511,
      "لوق": 28520,
      "0D": 28527,
      "##نيس": 28538,
      "IQ": 28578,
      "##دهم": 28579,
      "وثم": 28583,
      "درك": 28584,
      "ميخ": 28589,
      "اكي": 28591,
      "خف": 28596,
      "im": 28603,
      "##ضين": 28605,
      "##600": 28611,
      "ملق": 28616,
      "راش": 28621,
      "##حور": 28632,
      "##ختر": 28634,
      "##RN": 28636,
      "##yp": 28637,
      "يصر": 28647,
      "URL": 28650,
      "و10": 28652,
      "128": 28653,
      "##قاو": 28657,
      "##ضعه": 28674,
      "لغز": 28681,
      "240": 28686,
      "##اال": 28687,
      "بوي": 28700,
      "##افت": 28714,
      "135": 28734,
      "شور": 28739,
      "MAD": 28746,
      "##ode": 28750,
      "##بعك": 28752,
      "طاز": 28753,
      "##حكم": 28757,
      "تمل": 28765,
      "جذي": 28766,
      "فتت": 28768,
      "دفء": 28779,
      "وحط": 28802,
      "##اثه": 28804,
      "##YN": 28809,
      "##فسر": 28816,
      "زيف": 28822,
      "أفق": 28836,
      "##ZT": 28844,
      "##موم": 28849,
      "بخت": 28850,
      "قره": 28852,
      "آلت": 28866,
      "ريك": 28872,
      "١١": 28873,
      "فتي": 28887,
      "##وتن": 28897,
      "B1": 28902,
      "قرص": 28904,
      "E2": 28913,
      "550": 28922,
      "وثي": 28924,
      "ET": 28928,
      "لسا": 28929,
      "ret": 28935,
      "انض": 28936,
      "107": 28937,
      "لتط": 28938,
      "وفن": 28941,
      "##ذاذ": 28954,
      "ندي": 28956,
      "يرس": 28957,
      "فاك": 28961,
      "##800": 28963,
      "قرآ": 28969,
      "لبا": 28982,
      "خذا": 28985,
      "##ثنا": 28993,
      "أشك": 28995,
      "يبك": 29001,
      "##ساخ": 29020,
      "دش": 29029,
      "شجر": 29036,
      "##مط": 29042,
      "##PR": 29049,
      "Air": 29056,
      "IDR": 29057,
      "##اءل": 29060,
      "وذا": 29069,
      "##وهن": 29076,
      "عكر": 29077,
      "تجب": 29082,
      "هزت": 29086,
      "توض": 29087,
      "##YG": 29095,
      "إبن": 29114,
      "##كش": 29120,
      "##وول": 29127,
      "##ank": 29131,
      "تجن": 29160,
      "مرم": 29178,
      "شتم": 29195,
      "تهب": 29200,
      "##رحى": 29202,
      "تكف": 29206,
      "Man": 29216,
      "غزو": 29221,
      "هيه": 29223,
      "##ماة": 29224,
      "Fil": 29226,
      "غط": 29229,
      "وزم": 29230,
      "أظن": 29231,
      "##NF": 29250,
      "فيد": 29258,
      "بنغ": 29314,
      "##nxx": 29320,
      "دجن": 29341,
      "##GK": 29342,
      "##خبة": 29343,
      "عزت": 29348,
      "##rim": 29365,
      "فئه": 29370,
      "غاف": 29378,
      "وضد": 29381,
      "BHD": 29388,
      "روو": 29400,
      "SAT": 29412,
      "احط": 29420,
      "برز": 29427,
      "مرق": 29429,
      "ينق": 29431,
      "بزع": 29432,
      "##ياي": 29440,
      "##HS": 29443,
      "##وسل": 29445,
      "##ااه": 29451,
      "اشع": 29455,
      "##مدت": 29475,
      "##52": 29480,
      "OM": 29484,
      "LK": 29486,
      "css": 29499,
      "##بيس": 29503,
      "ذب": 29505,
      "##قاص": 29506,
      "##oot": 29513,
      "PEN": 29521,
      "وهج": 29524,
      "قفل": 29528,
      "##اوا": 29532,
      "No": 29548,
      "106": 29550,
      "Ag": 29551,
      "ألك": 29554,
      "فود": 29556,
      "يضح": 29560,
      "##عجل": 29563,
      "##نر": 29568,
      "##كوت": 29569,
      "V2": 29583,
      "##رقل": 29596,
      "بلف": 29605,
      "108": 29615,
      "##eal": 29620,
      "شغب": 29627,
      "##لتم": 29630,
      "con": 29639,
      "فام": 29643,
      "##JF": 29651,
      "سدا": 29663,
      "##هاض": 29669,
      "يعا": 29678,
      "¤°": 29681,
      "خور": 29687,
      "##تبة": 29688,
      "لهي": 29691,
      "##na": 29703,
      "لاط": 29726,
      "##عهم": 29727,
      "##EB": 29729,
      "##vol": 29731,
      "MDL": 29734,
      "##صوت": 29743,
      "SLL": 29746,
      "ارش": 29755,
      "##ملي": 29756,
      "CM": 29764,
      "GYD": 29771,
      "##طبع": 29773,
      "آلع": 29777,
      "##فسد": 29779,
      "HRK": 29780,
      "##اكو": 29784,
      "##مضي": 29805,
      "##fo": 29812,
      "وحا": 29813,
      "##سلي": 29822,
      "Ak": 29830,
      "650": 29833,
      "##itt": 29839,
      "تنغ": 29841,
      "##حتي": 29842,
      "Ap": 29843,
      "##یر": 29849,
      "اره": 29852,
      "قبح": 29866,
      "صان": 29871,
      "رشو": 29883,
      "أفت": 29900,
      "خشب": 29901,
      "دعس": 29902,
      "بأص": 29903,
      "##وكه": 29908,
      "عنب": 29912,
      "##مول": 29913,
      "IC": 29931,
      "rtl": 29936,
      "##شئ": 29942,
      "إسم": 29946,
      "##vb": 29963,
      "ناض": 29967,
      "##con": 29969,
      "##وحي": 29981,
      "##110": 29983,
      "##جرا": 29985
    }
  }
}