[PAD]
[UNK]
[CLS]
[SEP]
[MASK]
!
"
#
$
%
&
'
(
)
*
+
,
-
.
/
0
1
2
3
4
5
6
7
8
9
:
;
<
=
>
?
@
A
B
C
D
E
F
G
H
I
J
K
L
M
N
O
P
Q
R
S
T
U
V
W
X
Y
Z
[
\
]
^
_
`
a
b
c
d
e
f
g
h
i
j
k
l
m
n
o
p
q
r
s
t
u
v
w
x
y
z
{
|
}
~
¡
¢
£
¤
¥
¦
§
©
«
¬
®
°
±
¶
·
»
¿
Â
Ã
Å
Ç
É
Ê
Ï
Ð
Ñ
Ö
×
Ø
Ù
Ü
Þ
ß
à
á
â
ã
ä
å
æ
ç
è
é
ê
ë
í
î
ï
ñ
ò
ó
ô
õ
ö
÷
ø
ù
ú
û
ü
ā
ă
Ą
ą
ć
ĉ
Č
č
ď
Đ
đ
ę
ğ
Ģ
ī
į
İ
ı
ĸ
Ļ
Ľ
Ł
ł
ŋ
ō
ő
Œ
œ
Ŗ
Ś
ś
ŝ
Ş
ş
Š
š
ţ
Ť
Ŧ
ū
ŷ
ž
ƒ
ư
Ʒ
Ƹ
ƽ
ǁ
ǿ
ȫ
ə
ɪ
ɱ
ʁ
ʃ
ʋ
ʘ
ʽ
ʾ
ʿ
ˆ
ˉ
ˮ
́
̃
̄
̅
̇
̈
̊
̡
̧
̨
̲
̳
̴
̵
̶
̷
̸
͡
ͼ
Θ
Μ
Ξ
Σ
Ψ
Ω
ά
έ
ή
ί
α
β
γ
ε
ζ
η
θ
ι
κ
λ
μ
ν
ξ
ο
π
ρ
ς
σ
τ
υ
φ
ψ
ω
ό
ώ
Ϡ
Є
А
Б
В
Г
Д
И
Й
К
М
Н
О
П
Р
С
Т
Ф
Я
а
б
в
г
д
е
ж
з
и
й
к
л
м
н
о
п
р
с
т
у
ф
х
ц
ч
ш
ъ
ы
ь
я
ё
є
ѕ
і
ї
ѽ
҈
҉
Ғ
Җ
Ҳ
ҳ
һ
ա
խ
մ
վ
֝
ִ
ַ
ָ
ּ
־
ֿ
א
ב
ג
ד
ה
ו
ז
ח
ט
י
ך
כ
ל
ם
מ
ן
נ
ס
ע
ף
פ
ץ
צ
ק
ר
ש
ת
װ
״
׼
،
؛
؟
ء
آ
أ
ؤ
إ
ئ
ا
ب
ة
ت
ث
ج
ح
خ
د
ذ
ر
ز
س
ش
ص
ض
ط
ظ
ع
غ
ػ
ف
ق
ك
ل
م
ن
ه
و
ى
ي
ٓ
ٔ
٠
١
٢
٣
٤
٥
٦
٧
٨
٩
٪
٫
٬
٭
ٱ
ٲ
ٳ
ٴ
ٹ
ٺ
ٻ
ټ
پ
ٿ
چ
ڈ
ڊ
ڑ
ړ
ڔ
ڕ
ږ
ژ
ڙ
ڛ
ڠ
ڤ
ڦ
ڨ
ک
ڪ
ڬ
ڭ
گ
ڲ
ڳ
ڵ
ڶ
ڷ
ڸ
ڹ
ں
ڼ
ڽ
ھ
ۀ
ہ
ۂ
ۃ
ۅ
ۆ
ۇ
ۈ
ۉ
ۋ
ی
ێ
ې
ۑ
ے
ۓ
۔
ە
ۖ
ۗ
ۚ
ۜ
۞
ۡ
ۣ
ۤ
ۧ
ۨ
۩
۪
۫
۰
۱
۲
۳
۴
۵
۶
۷
۸
۹
۾
ܐ
ܓ
ܔ
ܕ
ܘ
ܝ
ܠ
ܡ
ܢ
ܨ
ܪ
ܬ
ށ
ँ
ऊ
ऋ
ख
द
न
र
़
ा
ी
ॐ
ঔ
া
ৣ
৲
৴
৵
ਿ
ੀ
ઇ
હ
ஃ
இ
ஊ
ஐ
ஓ
ஜ
ண
ஷ
ஹ
ಏ
ಞ
ೋ
್
്
ก
ง
ฒ
ด
ท
น
บ
ม
ย
ร
ล
ว
ส
ห
อ
ะ
ั
า
ิ
ี
฿
เ
แ
ไ
็
่
้
๏
๐
๑
๘
༄
ཡ
დ
ო
რ
ღ
წ
ჲ
჻
ᅠ
ᴍ
ᴥ
ḋ
Ḥ
ḥ
Ḿ
ṭ
ả
ị
‐
–
—
‘
’
‚
“
”
„
†
‡
•
‰
′
‹
›
※
‿
⁄
₡
₩
₪
₫
€
₹
⃣
←
↑
→
↓
↔
↕
↡
↵
⇐
∂
∑
−
∙
√
∞
∥
∫
≈
≡
≽
⊰
⊱
⋘
⋙
⋰
⋱
⌐
─
━
│
┈
┣
┨
┫
═
║
╔
╗
╚
╝
╠
╣
╬
╭
╯
▂
▃
▅
▆
▇
█
▌
▏
▐
░
▒
▓
■
□
▣
▧
▪
▫
▬
▲
▶
▷
▸
►
▼
▽
◀
◁
◂
◄
◆
◇
◊
○
●
◐
◑
◕
◘
◙
◢
◣
◤
◥
◦
◾
☀
☂
☃
★
☆
☎
☏
☕
☜
☝
☞
☰
☹
☺
☻
☼
♀
♂
♔
♕
♛
♞
♠
♡
♢
♣
♥
♦
♨
♩
♪
♫
♬
♭
⚐
⚑
⚛
⚜
⚠
⚡
⚫
⚽
✅
✈
✉
✋
✌
✍
✎
✒
✓
✔
✖
✣
✦
✨
✪
✲
✽
✿
❀
❄
❊
❌
❖
❝
❞
❣
❤
❥
❦
❧
➖
➞
➽
⟰
⠀
⦁
⬇
⭐
⭕
ⴰ
ⴳ
ⴷ
ⴼ
ⵉ
ⵍ
ⵎ
ⵏ
ⵓ
ⵔ
ⵖ
ⵙ
ⵜ
ⵡ
ⵣ
、
。
《
》
『
』
【
】
〖
〗
あ
の
゚
ア
イ
ウ
グ
ジ
ッ
ツ
ト
ド
ビ
フ
ブ
ベ
ミ
ム
メ
モ
ョ
ラ
ロ
ン
・
ー
ㄨ
中
乀
乂
二
優
国
备
彡
文
日
本
語
设
국
스
어
한
﴾
﴿
️
￼
🇦
🇧
🇩
🇪
🇬
🇮
🇰
🇲
🇴
🇶
🇷
🇸
🇹
🇼
🌚
🌞
🌟
🌷
🌸
🌹
🌺
🌻
🌼
🌿
🍃
🎁
🎈
🎉
🎶
🏃
🏻
🏼
🏽
👀
👆
👇
👈
👉
👊
👌
👍
👏
👑
💃
💋
💐
💓
💔
💕
💖
💗
💘
💙
💚
💛
💜
💞
💥
💪
💫
💭
💯
📌
📍
🔥
🔴
🔵
🔹
🔻
🕊
🕔
🖤
😀
😁
😂
😃
😄
😅
😆
😇
😉
😊
😋
😌
😍
😎
😏
😐
😑
😒
😔
😕
😘
😜
😡
😢
😩
😪
😭
😱
😳
😴
😹
😻
🙁
🙂
🙃
🙄
🙈
🙊
🙌
🙏
🚶
🤔
🤗
🤣
🤦
🤷
🧡
##ت
##ن
##ا
##ز
##ع
##ل
##ق
##و
##ي
##ك
##م
##د
##ر
##8
##S
##q
##M
##F
##e
##c
##g
##y
##ض
##ه
##1
##5
##ص
##ح
##س
##ش
##ذ
##خ
##ف
##ؤ
##ث
##ط
##ج
##ئ
##ة
##غ
##ب
##أ
##d
##t
##a
##i
##o
##n
##ء
##آ
##ٲ
##ھ
##ظ
##7
##2
##b
##L
##I
##A
##H
##K
##k
##٠
##x
##4
##Y
##0
##E
##v
##G
##Z
##3
##9
##پ
##6
##إ
##ک
##N
##u
##C
##P
##f
##p
##U
##J
##w
##r
##s
##€
##h
##j
##l
##ñ
##O
##R
##D
##ے
##ى
##m
##е
##з
##м
##😂
##ִ
##ז
##ּ
##י
##ר
##ָ
##ה
##T
##X
##B
##z
##🏼
##ی
##🚶
##🏻
##ê
##ٹ
##Q
##£
##■
##V
##W
##😇
##🤔
##ڷ
##ü
##ˆ
##μ
##ڑ
##ڈ
##١
##٦
##😉
##❤
##️
##گ
##🎁
##🎈
##🎉
##🤗
##😘
##ۈ
##ە
##×
##ں
##🤦
##🏽
##♂
##٧
##٨
##٥
##💔
##ä
##ہ
##چ
##ʁ
##̃
##ρ
##γ
##υ
##ό
##κ
##α
##σ
##τ
##ο
##р
##ё
##н
##ы
##ڳ
##ٱ
##ͼ
##̳
##٢
##é
##✋
##😭
##😩
##т
##а
##ۃ
##â
##😹
##٤
##♀
##Ù
##Š
##Ø
##😊
##👏
##и
##٩
##с
##п
##у
##́
##б
##л
##к
##🔥
##👌
##♥
##è
##®
##ٔ
##ã
##😎
##🌹
##🍃
##ػ
##в
##о
##й
##д
##ۡ
##۰
##ڤ
##є
##💚
##ٓ
##ۆ
##ڨ
##✌
##🇸
##🇦
##¬
##ו
##ע
##ץ
##▓
##█
##ς
##٣
##💘
##Ã
##©
##ч
##ٺ
##Ф
##💖
##Œ
##¥
##💗
##●
##☼
##○
##ټ
##ó
##ڵ
##ۅ
##🙂
##🏃
##ç
##х
##🙃
##🙄
##ン
##ラ
##イ
##ж
##я
##¤
##۪
##۫
##✈
##😀
##💛
##💭
##û
##°
##ۋ
##ù
##😢
##ć
##ı
##í
##ν
##į
##👍
##🙌
##ô
##✔
##😒
##ל
##ⵎ
##ⴰ
##ⵜ
##۱
##💕
##☕
##✨
##İ
##😆
##ี
##่
##🙏
##Ƹ
##נ
##ט
##ק
##۶
##۸
##👀
##⚠
##ι
##💙
##±
##۹
##ö
##۳
##۴
##۷
##š
##★
##ד
##ם
##😌
##∞
##ڛ
##ێ
##🌚
##ژ
##🇰
##🇼
##🇴
##🇲
##ٴ
##ā
##│
##π
##г
##⚫
##ร
##ั
##ง
##ก
##ว
##า
##อ
##ห
##บ
##💋
##🌷
##É
##😋
##۵
##א
##ٻ
##ۧ
##ڙ
##ې
##ڸ
##😃
##😁
##¦
##√
##Ś
##ь
##ח
##😕
##ō
##😍
##ڬ
##ڠ
##😏
##⁄
##ס
##פ
##ڪ
##ַ
##☺
##ę
##ी
##😑
##რ
##ڕ
##น
##ด
##̴
##̵
##❌
##║
##❀
##۲
##ा
##æ
##ת
##ğ
##ש
##✍
##ī
##β
##ʽ
##ڽ
##￼
##ן
##η
##ε
##ღ
##ø
##🇧
##đ
##ٿ
##ド
##フ
##ト
##ə
##ɪ
##ц
##🌸
##ú
##◦
##à
##₪
##λ
##έ
##╭
##━
##🙈
##ṭ
##ƒ
##🌺
##œ
##◄
##á
##î
##ï
##ڼ
##ۓ
##ա
##צ
##כ
##💓
##💜
##С
##ܐ
##ܠ
##🇶
##ۂ
##☆
##ʿ
##╔
##Â
##ž
##♫
##♪
##ë
##😳
##🤣
##ъ
##❝
##😐
##🙊
##👊
##ş
##💐
##Ş
##ۉ
##ஐ
##र
##ˮ
##😪
##۩
##ʾ
##↓
##ー
##ム
##ۚ
##ܘ
##ܪ
##ܝ
##ܢ
##Г
##♡
##💃
##🇹
##া
##😅
##어
##👇
##😔
##🇪
##å
##⃣
##ш
##🌿
##מ
##ג
##🌼
##👈
##💞
##😡
##ܬ
##Д
##❊
##←
##😄
##і
##ѕ
##இ
##̈
##🖤
##💪
##ά
##ⴳ
##ⵏ
##👉
##♠
##🤷
##ξ
##ב
##ڊ
##̶
##ω
##ί
##ū
##ڹ
##ۗ
##🌻
##̨
##ٳ
##θ
##ܕ
##ܡ
##һ
##А
##ţ
##🕊
##დ
##φ
##ή
##ツ
##õ
##☻
##ڦ
##ண
##ò
##ڔ
##้
##เ
##ย
##็
##ڭ
##÷
##ŋ
##☝
##О
##Я
##В
##И
##♛
##💥
##վ
##✿
##🌟
##≡
##✅
##ッ
##ブ
##մ
##̄
##▬
##☹
##ł
##Ö
##۞
##ۤ
##แ
##😜
##ア
##モ
##¢
##⚽
##̇
##Н
##Й
##ώ
##☞
##ख
##✒
##⭐
##द
##⠀
##┈
##🇮
##ă
##͡
##ۀ
##č
##═
##Р
##ۖ
##−
##ζ
##🇩
##Б
##ɱ
##😴
##ß
##ⵉ
##ⵍ
##ⵡ
##🧡
##̧
##✎
##̲
##ロ
##▪
##Ł
##Đ
##ǿ
##ś
##Μ
##░
##▒
##🌞
##►
##П
##̷
##스
##❥
##ミ
##ۑ
##ۨ
##ँ
##♨
##ۣ
##ⴷ
##ล
##ф
##☜
##ą
##🎶
##♩
##▌
##👑
##🔴
##❄
##😻
##╠
##न
##😱
##Ľ
##Ą
##Ç
##✓
##✦
##🇷
##💫
##⚡
##ď
##📍
##ۜ
##ڶ
##↔
##➖
##ږ
##ḥ
##Ð
##Å
##あ
##խ
##👆
##◣
##◆
##❖
##メ
##๑
##Ω
##ᅠ
##ї
##の
##→
##Ϡ
##☏
##М
##ƽ
##🇬
##◊
##ⵓ
##ⵣ
##⬇
##≈
##К
##☀
##ړ
##♦
##✽
##🙁
##ʃ
##ő
##🔵
##़
##↑
##ⵔ
##ȫ
##∙
##💯
##ะ
##ิ
##ท
##ף
##국
##❣
##ܓ
##Θ
##Ļ
##☂
##Ü
##☃
##ŝ
##Č
##ҳ
##─
##Ḥ
##ョ
##Σ
##▲
##Т
##ך
##ĸ
##ψ
##Ξ
##╚
##ジ
##׼
##⋰
##ウ
##한
##ო
##ส
##Ï
##ܔ
##🔹
##ۇ
##ả
##ஓ
##წ
##∂
##۾
##ŷ
##Є
##Ñ
##ม
##Ŗ
##ஜ
##ܨ
##̸
##Ҳ
##Ê
##್
##്
##⊰
##♕
##⊱
##∫
##ֿ
##◾
##ށ
##̅
##Ŧ
##▶
##♣
##✲
##♢
##ビ
##ڲ
##▸
##Ť
##✉
##◘
##ઇ
##ไ
##⚜
##ੀ
##҉
##▃
##▅
##▆
##▇
##▷
##✖
##৲
##♔
##◇
##□
##ĉ
##⦁
##Ғ
##グ
##◀
##🔻
##▐
##̡
##ベ
##ị
##₡
##Ψ
##⭕
##◕
##☰
##╬
##▫
##ⵖ
##Ʒ
##ஃ
##📌
##̊
##▂
##ѽ
##ⵙ
##ⴼ
##▼
##┨
##╝
##๘
##╣
##ೋ
##ਿ
##▽
##װ
##Ḿ
##฿
##ḋ
##⋙
##Җ
##♬
##ư
##ஹ
##∑
##ǁ
##₩
##◤
##☎
##▣
##ฒ
##↕
##ॐ
##╗
##⇐
##◁
##◙
##↵
##ಞ
##◐
##ʋ
##҈
##Þ
##ˉ
##▏
##╯
##ᴍ
##ऋ
##હ
##ஊ
##⚛
##✪
##ㄨ
##Ģ
##❧
##ৣ
##◂
##ஷ
##৵
##゚
##৴
##↡
##₹
##₫
##❦
##🕔
##ঔ
##♭
##๐
##◢
##ऊ
##ʘ
##❞
##▧
##┣
##⚑
##♞
##◑
##⋱
##ჲ
##֝
##┫
##◥
##∥
##⋘
##ᴥ
##➽
##ال
##لم
##لا
##ات
الم
##ان
##لي
من
##ار
##ية
##ين
في
##ها
##نا
الا
##ير
##له
وال
##لت
##لع
##ام
##ون
##ري
الع
##را
##لى
الت
##وا
##لس
##دي
##ما
##ست
##اب
##لك
##لب
##ور
##يا
##لح
ان
##ول
##لق
##لأ
الس
الح
الأ
##لف
##بي
##لو
##هم
##اد
بال
##لله
##اء
عن
##لد
##لج
علي
##لش
##مي
على
##لن
لا
الق
##ائ
الش
##وم
الب
##عد
الج
##وي
ما
مع
##ني
##رب
##ذا
الن
الد
أن
الف
##رو
##اف
##يد
##سم
##رك
##من
##لص
##يه
وا
##لخ
##حد
##نت
##ود
الك
الخ
الص
##بر
##حم
##سي
##اع
وت
الي
##لإ
##قي
##تي
##لر
##في
##قد
الو
الإ
##عم
##دى
##با
##كر
##وق
##لط
الر
##كم
##يم
##رف
##حت
##اني
##لذ
##سب
##لام
##مر
##يل
منت
##عة
##اه
الذ
##يف
##كن
##يت
##لة
##يس
##رة
كل
##قت
بن
##بد
##خر
لم
تع
إلى
##لال
##جه
##لغ
##مع
##اص
##فر
است
##كت
##وت
كان
20
الط
##وب
##قة
##دا
##يب
##دة
##سا
##صر
##يات
##بار
مت
##لث
##حمد
##شر
وأ
##حب
أو
##ته
##دم
##اج
مج
##رض
وم
##لية
##ذه
الث
هذا
ولا
##وف
بعد
اله
##عت
##اض
اب
##فس
##وع
مش
يت
##كل
##در
##الم
وه
عم
##كون
يا
##يع
##حة
##صل
##بل
##وس
##نه
##للي
ام
##مة
##خت
##ارة
بين
وب
##حي
##هر
قسم
##عب
##ده
تح
201
##لنا
##وج
مس
##عو
##ثر
##تح
لي
وق
قال
##خص
وس
هو
##اري
وع
##عض
##قا
##قه
##الي
##هد
##راء
##رت
##لز
##نة
##مه
##رد
له
##رج
با
##رح
##وري
هذه
##لات
تق
وي
##بح
انت
مد
##رق
##فا
يع
اس
تم
الغ
##وات
##وض
##ويت
##بت
وان
##كان
مح
##مل
##وز
##ئيس
##عا
الى
##اح
اج
للم
##سة
##فض
عند
الز
عبد
##ند
##ره
##قط
##كي
وج
تت
##عي
##به
##زي
بت
بر
##يرة
##فت
يق
##ديد
او
تج
##بة
اي
لت
##ورة
##er
تص
غير
بم
##عه
##نس
شي
##ريق
فى
##ولي
يوم
##اس
##طن
أي
##ظر
أم
##فع
يم
لو
تن
##قل
هي
##طر
به
بد
قد
ات
##وى
##وان
##ارك
مست
##كثر
إن
بي
##كس
##يني
ون
##ولة
سي
##ميع
عام
اخ
وح
ذلك
##اي
مط
##از
##رائ
##ركة
لك
اح
اع
##يون
##دد
##وه
تش
##ربي
حس
##مال
##ليم
قبل
##وقع
##أن
##دين
##جل
##لري
##00
##طف
ومن
##ياه
وز
##قر
بح
##قات
تس
كما
##زة
##كا
##بك
يج
اش
انا
##ديه
##وال
##ضا
##مت
حي
##ثل
مص
##خل
##نان
##عر
##وية
##عل
##نية
بش
ست
##ثير
##وله
##يش
نفس
##افة
وك
##صف
##الة
##رم
##طة
بعض
وش
##تك
هنا
##غير
##رام
##ذلك
##باح
##وك
بس
وإ
##راق
للت
##لوا
قلب
##وار
كت
فيه
##ولا
##مد
موا
##فضل
ثم
##روب
##رس
##حدة
##ريد
##عاد
##تها
##حه
##لض
##لآ
##راف
للا
##مو
##ئة
##غفر
اذا
ين
##ناء
وف
##جر
أب
##مات
بك
##اق
##قال
##وني
وهو
##رات
اص
الض
لن
للع
##بير
##ميل
##اش
الآ
يح
##ينا
##ضي
##رش
يست
##تى
يس
وص
##اره
##تم
##ماع
##هي
##لرا
##اط
##لاث
لكن
وفي
##بات
##لان
##ديث
تط
##ارب
##يك
للد
يش
احد
##وره
##ذكر
مؤ
##بية
##اصة
##جد
##سية
##عود
رس
##ابع
ولك
حيث
تد
##هل
بها
##ظيم
فر
##بط
19
##ياء
##كوم
تو
##حر
حد
لأ
##قب
##ضع
يد
##عيد
أس
##حن
##مان
مو
##امل
##كري
اد
##on
شخص
حتى
##كد
قر
##زر
بق
بأ
تب
##ادي
##سات
لح
##شف
##حات
##نام
##قدم
##قع
##شي
##ضر
رب
##سن
آخر
##عمل
##وح
لما
لب
##صال
بط
مخ
##اخ
##ائل
##ارج
اخت
حول
##لوب
##at
خط
##انا
##ur
اق
تحت
##فة
كلم
##يان
##اك
##نيا
مثل
##جت
عدد
ابن
لان
سبح
لها
##ركز
##اله
ود
تست
مصر
##لاح
تف
وما
##ديم
##هما
##باب
##يز
دون
فت
##ماء
فقط
حق
##حدث
##راج
سن
##بع
##تر
##ينة
##ضاء
وقد
##راه
##وة
##صد
##افظ
أنه
أخ
##طي
##ابة
##زل
##الك
مق
##ادة
##هه
##لاء
##ظام
##خدم
مب
##جة
##خرى
عش
##فه
ملي
##كبر
##فل
انه
اعت
إذا
ليس
##طقة
شيء
فإ
##ليل
##وص
##ar
##وير
حتي
##جم
دي
خير
##مس
##لين
##as
##لاق
##فاع
##جي
##قم
##لسط
##واء
##ليه
صور
##ائر
##اث
##الب
تك
وات
##حيح
##صول
##سبة
تخ
##غي
##راك
##زك
##يام
10
اف
ولي
لج
جن
كنت
وخ
##الف
نت
بل
##عار
##رها
##ارس
علم
ور
احت
##صة
اني
##عاء
##سام
##فظ
أع
بلا
##ديو
بع
##قيق
##كتب
مك
##حا
##ريم
فان
##قتص
تأ
##دام
##ريف
دا
يو
إلا
##ضيع
##يري
##لها
##وط
##قول
##نين
##حك
##سر
##جن
مم
##ابه
منه
ري
##زم
ترك
ولم
احب
##روع
كيف
##ger
##ضاف
##اته
##نيه
وقت
##امج
##ذي
##عية
sur
##لظ
##سبب
حال
بان
##الح
##نى
##ظم
##روض
للح
##قبل
رج
لنا
##قى
حز
##in
11
##شت
تر
##ريك
لله
200
صح
##لقة
نف
##هلي
##ادر
##or
لق
##جز
##زيد
محت
##لاج
اغ
##لاب
وط
الظ
للب
##ولى
أص
##فق
يص
05
بج
حين
##سه
##كو
هل
فلا
عبر
##الث
##ويه
##وقف
منذ
##ريب
هم
##لون
##لوم
وهي
##وائ
حم
##اضي
عمر
##يج
##ودة
قص
ضع
##غم
##ظيف
##اهد
سب
##هو
##بيه
##يره
##زيز
يخ
##ارت
##اا
##قص
وجه
##الد
جدا
##ميز
تغ
يب
##واب
las
عنه
##داد
##اعة
صد
##بيب
لهم
##اذ
فقد
أبو
بص
##جيل
##اتب
أحد
بما
نص
##وث
##es
مي
##an
للس
12
##اتي
##راض
طلب
##نك
##راد
قط
##وء
##حق
##تمع
##ئي
فع
بإ
##كره
##وش
##للغ
للأ
##يرا
لع
##روف
##ئا
نس
ربي
##ائق
14
يتم
##احب
##ميم
لات
##لرو
اط
##ينه
انك
مر
بيت
لس
للج
حا
اسم
صلى
اه
عمل
شر
سيا
##ac
##لاف
15
##عين
ار
فال
دائ
أش
##en
إس
كم
##أس
##سين
##فاق
نح
نج
##ياة
##أة
##اة
##حاب
بأن
يط
##وبي
##ائي
مات
عد
##ذن
شك
##عات
فإن
لإ
##لاد
##وسط
فا
لأن
##مام
##خذ
##زه
تلك
صف
لمن
##al
##داء
##طية
##باد
ضد
##للا
عق
##طني
##ويل
##لهم
اث
##وو
مث
ير
خاص
##خول
##ساب
رحم
##مبر
اخر
مما
يف
خدم
أف
##انب
##وتر
اول
##رفة
للش
##جات
##الى
##شار
ذكر
##نع
##اما
##زن
##لاه
##صار
##حث
##قاف
##اعه
##جب
نها
سلم
##حمل
بنا
##امة
بخ
بدا
##زا
رقم
##ريه
##قاط
##الت
##ونه
##ذر
ارت
رم
##is
##بيض
##لكة
##نج
##طار
ضعف
##دف
حب
باب
##زق
شع
ey
##خرج
يجب
لكل
ماي
قائ
##ساس
##يدة
##فار
##اعر
يؤ
##om
##لل
##يين
للق
##للب
كن
مكت
##روس
##بدا
##لعب
ومع
صوت
لش
كتب
##هب
##وفي
مغ
##ضم
جز
##وجد
ابت
##يده
##راب
##سط
##واج
##ساء
##ناه
عدم
طب
خلق
أبي
##ذك
##ونة
إلي
eye
##تين
سنة
##ثم
##هاب
جه
##قف
13
##ضة
جمي
##طق
##ظهر
##شد
نحن
زي
##فاء
##ائف
عرض
##طيع
##am
وين
##ديل
بكل
##ئه
وحد
روا
##ياد
ولو
عز
شهر
واب
##باء
ريت
##امي
##مين
رص
نب
##وتي
أد
##قق
##ولو
##غط
##اعد
##فو
##ائب
عشر
لد
وأن
نظ
حسن
يحت
علا
##قدر
##ذب
##شاء
##راح
##جا
18
##اكل
نعم
فأ
عين
نوف
##انه
##ion
جمع
##يق
نق
قام
مه
##طا
وإن
را
##خب
حدث
##تنا
##بيل
فض
كي
دين
16
##كرة
##ظمة
##كية
##ئية
بلد
##يدك
عس
ينا
##تهم
عاد
نش
##ورد
ابو
##صي
##ديك
##ريط
##تمر
قت
##يفة
##شق
ويت
أول
##رير
واس
يعت
##حبه
لكم
وتح
ته
قب
كب
##ورا
##ياب
يك
HD
##دق
مف
وعد
بار
##فيذ
أق
##واد
##ic
أما
انس
##مية
##طال
##خاص
نشر
##طه
وث
وكل
##ابل
رح
##لحة
##وما
##هلا
وضع
##شة
##جع
##ميس
##كمة
##شن
##act
##واع
##بلي
زد
##مني
خلف
##باس
##ضو
للن
نحو
راح
ذات
حما
انف
ههه
##صور
بغ
منا
مره
##رنت
##يدا
##باط
مرت
##يمة
##هدف
##ميه
مبا
##ضح
##روح
بو
سا
17
##ابت
عائ
25
##آن
وتع
##زين
##رين
رأ
رد
##اتف
##ليا
جاء
##ضور
##بيق
##صب
##طاء
أغ
##جاز
##يبه
للف
اكت
مز
##افي
مض
##امن
ينت
وار
##ورو
عاج
##ربة
##وعة
##هاد
##ضية
##لول
يغ
مسؤ
اشت
##برا
##ارا
فوق
##جاه
دور
دعم
##قاء
بنت
##موع
أح
لغ
30
حزب
##ed
##سك
##شرة
##ظه
##زال
خص
##ركه
##قتل
نا
اجت
وض
##وبر
نع
ضمن
##نسي
قدر
سوف
تنا
##ادم
للر
كام
##وده
حسب
##زمة
cat
للط
##هرب
محا
##خي
##لني
##امه
##ضان
سر
##عى
منك
اك
قدم
حص
رغم
##11
##وبة
تؤ
سوق
للك
امر
رائ
##it
ني
در
##طلب
سيد
##ائج
##يته
وسي
##ومة
##ليز
عنا
فن
##رى
##ادث
##حية
##ارف
##لاة
##هير
ملت
##هاز
##وها
##em
حلو
ريا
##ابي
##رفع
خلي
إت
##لته
##20
##للج
##الا
##سل
##نب
أهم
##همة
داع
توا
##علق
نور
ملك
##لوك
##ونا
##طان
از
وغ
بير
##للق
##نف
##شا
##رجع
24
##ريح
##ؤال
##اهر
فهو
##غب
اهم
##ارع
##ik
##ستر
جد
يكن
##ربع
سم
##زب
##st
إع
للإ
##جهة
بب
رجل
حبي
##ولد
##ونس
##لما
شه
##ائد
أث
##فعل
##غل
##بحث
ألف
بلغ
ابي
معه
للص
لقد
##ro
يحب
100
يه
معا
##انى
##جاج
أج
كال
##ديق
أجل
##لائ
##بيع
##يلة
##وخ
نقل
سير
روح
أنا
دعو
##ad
##بدأ
سلط
حكم
اض
اما
ند
لدى
##طب
مسا
واج
أمس
جع
عقد
تض
##وين
بوا
##انت
حر
##طلق
تعت
بني
##قطع
ول
##ويد
##سد
زوج
##شات
##اهل
##ذهب
##اده
##خصص
21
##سسة
موج
تحب
##لمه
ناس
شعب
اقت
ساب
##روج
##ؤون
##ومي
لز
قطر
##انة
##شه
صل
سمع
بات
جما
اهل
محم
عرف
قلت
##يار
دم
##وسف
وسط
وهم
نز
تنت
سعد
##ناة
مرة
فيك
دول
للو
فرح
درا
##ثي
سكس
##ميد
##ولك
##ont
واح
##ومه
لعب
انش
قول
##ابر
رؤ
##le
22
##سمع
##عيم
##99
ph
##ديا
موس
##اقة
##ماد
##فات
##كار
سنه
بقي
##ريض
صلي
نوع
ولد
##ربه
##روط
##ولت
##جان
وير
مان
##نون
وام
##رر
##راع
##ليق
صار
لص
يأ
بيع
لتح
لدي
##عوذ
##وضع
واف
##واق
هدف
فتح
يض
مال
ليت
امن
##بتد
ايه
افت
تكن
تز
محد
روس
##هاء
أهل
##عرض
com
##اول
إب
##ent
##اعت
##يط
فق
##سبه
php
##ادل
##علم
طيب
##رع
##BB
مار
##ve
تا
##ئات
لاب
مشك
##قية
##لكه
##re
##وبه
00
بمن
##ظة
##لفة
##قيم
##ليف
طال
كون
##شك
شاء
هال
##ri
دع
##ذاب
سف
##كات
##بره
##جاب
##جار
كله
##عام
إد
##ارض
وآ
##55
حاج
##كه
##قرا
##رضي
##راس
##تا
##دية
##لدي
طبي
لاي
بدأ
ويس
##افع
##حل
##ec
23
ملا
##ويا
##دت
فه
بف
رضي
نتي
##لرب
رسم
##ويس
##وضح
أمر
وعن
ركن
كر
سيت
##هام
##ينك
بث
##ئب
##شفى
وتم
عب
##ارق
##صه
راب
##بخ
إذ
##ريا
وصف
##وجه
تلق
كشف
بور
سبب
##سيط
##كتر
امي
أنت
##50
أكد
##ائه
سك
##ناك
ده
عط
سام
##الغ
رفع
##بكة
مني
ترا
فك
##وغ
وتش
دبي
##يوم
##عون
عدة
أكت
دار
##لبي
##ليك
رك
##ائم
امس
عص
درج
اجل
##نسا
كثر
##et
حرب
للخ
مفت
عني
##oo
نظر
حل
سبت
##طات
##ارد
وطن
##افه
واص
##ing
لف
قل
للي
إنه
برو
غدا
199
رو
##اتك
معت
وتن
عي
##عرف
فمن
##ياس
ظهر
شئ
##الج
##ساد
راس
##يفه
شعر
مقد
##قيت
تري
##ou
يعد
نقط
26
عنك
معك
##اصر
ذن
##هور
##كة
##حف
هاي
كث
##10
حض
##خة
##ردد
جدي
##جوم
مشت
معد
اعد
سعر
co
طوي
ويع
نسي
جري
فهد
##شفي
أت
يصل
تعد
##طلا
50
##لمة
##شره
##كذا
##مم
ويم
جام
خلا
صدر
##ذار
ليب
##بدو
##فرح
##نات
##واز
##il
رغ
وتق
ذا
مرض
مهم
لط
##كيل
##قين
##كين
شا
خي
ممن
##حمر
##وصا
27
عج
لاح
قيم
##للح
28
تمت
فعل
فلو
وتت
نست
##زام
سج
##he
وست
##ot
##رفه
##حمه
حفظ
##متع
##واف
##ايد
فما
##ظف
##امر
يز
##ضب
##66
ومت
واخ
غزة
##ندي
للغ
##افر
صنا
##اية
##ناب
##ريع
برا
##حين
##فيد
هد
##ثة
ولن
##ليب
##۞۩
بهم
##um
نصف
##ra
##ضمن
عيد
يمن
##كلم
واع
خبر
راج
بشر
جزء
ورد
##لور
##عك
##قيل
قرب
سما
نه
##يح
##كال
دخ
##حص
##ردن
وصل
ظل
##شيد
شكل
##ظار
قتل
##ريل
##غر
جعل
بري
##سان
##كرم
ويب
##سيه
مين
سجل
##سمح
قض
##بيد
وفق
##هن
عضو
##el
جده
سوي
لخ
وتط
فهم
جي
##اسم
##77
##غيل
دخل
إست
رفض
إي
باك
##شل
##سون
ونا
##جلس
##ثار
جم
مخت
جلس
##فاف
##30
##كير
##ورك
##طع
##لاك
بمع
كف
##ol
ضر
##برز
of
##غال
ها
##يتك
##ورت
يال
طول
##قاش
##صدق
اذ
بدر
فهي
##12
##فيق
عاش
واد
وله
مظ
40
##id
سين
##لمي
بنك
##امت
##ضه
##رجم
##ذة
متن
##عاب
##ندق
##nd
نصر
##عيش
##وعه
امت
وفر
سعو
معي
##رسل
##انك
وعم
نم
##يفا
##واك
##ub
29
##فاظ
ليه
بز
##ئين
ارض
كذا
قوه
##سيس
##سف
فلي
##ائع
##دير
تجد
##60
##وفر
##يور
##آت
وتس
تي
قم
##واه
هت
##تاح
##أي
##33
##باك
وقف
##جرة
##88
لين
اون
قصص
##ادت
لكي
راي
##اوز
##نيف
##فيف
##تيب
##اطر
##قته
##وسي
##ذف
##غة
##باق
عاي
لر
موت
فوز
خمس
بتح
آل
كأس
##ريس
##بحت
ماء
##كيم
۩۞۩
##40
منز
بسم
لتص
ومش
أط
كلا
تقد
خس
##رفض
##لكم
##صح
##شرح
##رية
##يي
##زو
كرة
##ناق
##ov
##رار
##تني
نيك
##ويق
قلي
##طور
بكر
##اطق
##مرة
##ودي
##لتي
شهد
##ظات
##نائ
فات
##الس
##فن
جب
##وام
##ter
حظ
##قوق
مقر
إم
##سس
خال
##اعي
يحي
##صري
إنت
##كسر
كار
##80
##زع
##برى
##سو
داخ
تمر
تتم
##قيع
##مئ
وبر
##مار
قطع
رأس
صعب
عت
واش
##واح
كس
##بيت
##ريت
##ناس
ألم
##حو
خذ
##صاص
يلت
##راز
##ئلة
دام
ورب
حمد
رف
جهة
بأس
##فيه
واض
فخ
لذا
ميز
ماب
وجد
شرق
ياب
##ذية
سه
##غا
ميت
عف
##بو
يرت
##22
01
أمن
جيش
طرف
كفر
صاد
خرج
شرح
##ذج
وتد
##19
فاع
كنا
##اجه
##فاض
##44
قبي
055
جو
شيخ
حلم
##000
حصل
##vis
جان
بحث
زين
##حدى
جزر
محب
##ow
##كمل
##كام
ملف
##ياج
##ونت
##بين
##ave
طف
وتص
حرف
إخ
فلم
وو
##فى
صن
##قوم
##ؤمن
عما
كري
أرض
in
صدي
هن
##فال
شاه
31
##مسة
فح
مدى
##70
بسر
فار
##كيد
000
##ونك
برج
عرب
شف
##ثبت
##قام
لعم
##حتى
كاس
##tt
##ظل
##فية
مرا
صدق
##طقه
رق
ومر
##طين
جاه
##رشح
##طفى
عض
نقص
انق
##سيل
##خلي
طلع
شوف
##بقي
غرب
رشد
ارد
فس
ومس
##سطس
##ورج
##عيه
45
##وحة
##اند
##جير
ملح
##ثلة
##نم
##ائح
##صاب
دفع
##32
ينب
أه
##غان
غال
09
صحة
##سمى
##ويج
##fr
بذ
شن
كا
##ag
مؤك
ويش
ديك
قاد
##وبا
توك
##طرة
##سيا
نط
صب
زمن
##ألة
ويا
##ودا
##وته
##زاب
##لرك
##تش
لمع
##اعم
هذي
وتج
##حده
##ركم
تصل
##كته
شو
واق
مدر
حجم
##ضير
##واة
عرش
ربك
##صيل
يام
##رز
كلي
متي
مرس
وقع
قيل
35
##طح
هام
ذك
07
أنك
02
##ليش
##شاف
لتن
لام
فرق
##الق
وفا
مقا
اين
بوت
ورا
يقت
##صدر
بحق
فرج
##ttp
أك
وتأ
##خاذ
60
حفل
الل
بسي
ممت
08
##خرا
##غرب
##يمه
لاع
##حيل
بحي
##شفت
##جين
ترت
##ضيق
##دون
##لبه
Re
طا
##15
PM
شرك
فرض
فب
##سيم
##احة
##للو
##per
##us
رضا
عقب
اجع
برد
rem
##ch
يخت
##ظن
جا
سود
قوة
ودي
06
لعد
نخ
##ai
##حيط
ليش
##مير
يهم
##فرك
##os
##راغ
##لفت
##18
منع
##يبة
فج
##قوط
رض
##حدد
شات
##بول
إيج
تاي
مقت
##ثمر
إش
دف
##ay
for
مها
##قاد
ألا
04
نمو
##رجو
##ig
سلس
سبق
##روق
##لقي
##انس
##صبح
##خره
##برة
ويح
##باه
##أت
198
خاط
##لقه
طائ
بحب
مرح
##صا
##اتم
راف
##وطن
ونت
##وجب
##طط
##عوا
03
بيد
تعا
##طلع
شفت
##ؤل
##خم
أز
##ثق
حبك
32
##طيب
بعم
سوء
##منى
ثنا
رش
##im
##فذ
##ذيب
بدء
##قلة
جاز
##عن
تلا
##ia
##ياز
##اجر
زاد
ذهب
##فرق
تتح
##صلة
##62
##شطة
مرو
ويد
تبي
##عث
##قتك
##سبق
احس
نار
بض
واي
##حاء
بحر
نبي
##لوس
##منة
سيف
##قس
##سطة
كده
##وسع
اثر
حف
##لوي
عهد
##اخذ
##وفق
##lam
##65
اجر
سوى
منظ
فاز
شبه
ستي
##ربت
دعا
شرف
##فرد
##ثال
امل
قصر
وأع
##نها
خز
أخذ
نوم
##rip
اخذ
فين
ذي
غرف
##كرر
##خيص
##ضات
يرد
##زوج
##رص
هند
##ئك
يمت
شاب
##وعا
##شرق
##طل
##رضا
يار
هون
##خيل
##صير
##طاع
يفت
##خه
##ng
##نوب
ومح
تنس
##ضل
##37
بتع
سأ
فص
##جح
##ائن
فور
تشت
##ab
موض
##17
شم
##صات
تسا
نسب
##ائة
زع
كره
##ايل
تمن
جنا
##لسي
مكه
##ماس
عاص
##حته
##ظلم
تخت
موق
##برت
فري
وذ
سري
إف
##ارى
فرص
طرق
نجم
##روت
سات
##روه
##ورى
شكر
يرج
باع
وبا
للز
36
##ياط
وتف
لند
##انع
##زاز
وأخ
يلا
بمح
هما
##est
ترب
قنا
##خفض
##فرج
عا
خش
##بهة
ناف
فلن
شأن
##قاذ
##ائك
حقق
وبد
##قيب
باي
زيت
طفل
باس
لفت
ادم
##كب
وجل
##35
##ew
سال
##ظي
##وست
رمز
فكر
لغة
##قلي
47
In
##ضيف
##وتك
يمر
عمي
##فون
ظلم
هز
مير
أقل
##قلت
اقل
امه
AM
##خال
##غو
##غار
ذه
##يخ
##حقق
نحب
دير
##يسى
مجد
##ياك
شت
جيد
ماد
##دخل
منح
عال
##نيت
##جال
##طيط
##وهم
ورش
##ئت
هاش
##للع
33
##اوي
##يء
شار
##ir
رأي
is
##ذل
pro
حنا
ضبط
##اضر
مجه
##فد
##25
##عها
تعب
##طى
يشت
##ويش
انج
بدي
##واي
##ضعف
قصة
197
##تو
##زان
تفا
نجد
##باع
يتح
##وفا
إح
ويف
ابد
##AR
##ox
##og
ليف
ولق
بكم
##صرف
34
##سمه
##ضى
##بيا
محل
عون
##خلص
فصل
حكا
##حمة
##ندا
##عان
For
يون
اكس
شقق
##اشق
أى
همس
سان
##صفح
##لقا
##ظبي
مكة
##16
ضحك
75
##اشد
ورو
D8
##هره
نن
##لاص
##مره
##جية
وجع
##ثه
جون
ولع
جبل
##شاب
##تكم
أر
لض
قوي
شوق
##اتل
ضي
فم
##سع
##ثيل
ففي
##سكر
##وزي
##لقت
عود
##اغ
تحس
St
##ada
##ليد
زيد
أست
##24
70
500
ناد
80
غا
##نته
بلو
بوك
برس
حبا
ارب
لست
يجع
كفا
##op
جلب
##ish
##شين
زم
فش
##Ad
ويج
##نيك
علو
##درس
طرح
##افا
وتر
حط
##oc
تور
##ثور
وتب
##قرأ
##داب
حام
يجد
##ساط
خطة
##14
اجن
##قصى
##نتي
بوس
مأ
##جرد
ذنب
##زيا
##اصل
##38
لحد
حلب
مبت
##شى
متر
Ah
##ناف
##سى
##أنه
فاط
قدي
##لعة
يبي
##حط
سوا
أرد
غلط
بتن
بام
داي
حزن
##تان
عطر
صع
##جاح
##90
جس
##فرض
فرع
37
##سمة
لاج
ضح
ضغط
##لقى
##وقت
فاج
خطر
ضيف
##خير
##ut
##لتك
##يدي
##34
مول
##▬▬
سبع
##ليس
وأش
تاب
سفر
##قنا
##ماك
لمش
##روة
اعط
050
بوح
##ul
48
حمل
##حاد
##ليت
##تام
هات
ياع
ورج
##ER
##بور
and
فهل
أور
##ويم
##شيش
##معه
##ust
ورس
##صلي
##ئل
خا
هش
عجز
38
##اجي
عيش
يدي
جر
##اشة
ترم
جرح
غرد
تقع
##وظ
وشك
حن
##قوب
##حام
عوض
طي
حج
اند
خطا
##68
##حاق
شمس
قري
##قها
##تاب
نمر
##فير
##وكي
صرف
وبح
واغ
##خرة
##شوف
رون
ساح
##يدر
كوك
قوم
##لوه
حك
نبض
مسب
لمح
##ers
واه
44
أحب
وهل
صنع
##حتك
ليا
مرك
رام
##فقة
وفى
##ظاه
##ميت
##طول
##ايق
##خط
ذو
##ورز
ولذ
90
تعز
##رحل
مدة
##جيع
##وضة
ماز
Al
يقع
ناح
تكت
اري
##تهي
فيت
ناق
آدم
##قوا
##ارم
pr
##خد
##لبة
صحي
##ئر
##ced
ريف
سمو
ذوي
طن
وأس
##رون
##ess
##لوق
ربه
منش
عصر
##وذ
##حبة
مسئ
سهل
قصه
بطل
شحن
كوم
##لاع
ضم
##قيه
ضيق
##eb
لقي
##ابا
فد
##أل
##ؤه
هب
##يرو
بأي
ثبت
##ولف
##un
##67
أبا
##يص
تل
يرى
غي
##دار
##ؤاد
##الع
##صرة
تجع
##مون
##13
وخص
ضرب
بمس
وبي
##ئيا
##وعي
مطر
أخر
سحب
تبر
##ناد
ناش
ترد
تبت
تاج
زال
##كنت
فاس
##28
جنه
##ah
زر
##هلك
##وتا
نصي
ورق
بيس
يسر
##هيل
##بان
فضل
هاد
قرا
شوي
##زون
عذ
وتخ
##فف
##ارئ
عاف
أصل
تقت
حلا
علش
##يزم
##ماغ
لقب
أوب
سيع
مصط
ماع
صمت
وها
##ديت
##داع
ذاك
يعط
The
للذ
ليل
جيت
##لوع
صبا
يجي
خري
مبد
##هدد
##نز
سقط
هى
ياح
شج
لمت
حجر
##ist
سنت
##ؤكد
لبي
ارس
رزق
##قلب
تضم
##جو
وبم
55
##ويض
أني
##ساك
##45
ممث
##تب
##ine
سكن
مل
حقا
جدة
حرم
##عتك
ونس
##ure
##تيح
##لزم
ومد
ومؤ
##عمه
تفت
39
##لحه
حت
##وفه
هدا
قرر
عار
مدا
##ob
##رجي
##عمة
وكم
##ئاس
جيب
حقي
يكت
##غوط
##فز
##كيك
يلي
وفد
تسي
يخص
ومج
ظن
فقه
##اجة
تفض
مدن
هر
تهم
##دو
ترى
##ثرة
al
##لبك
##مئن
لبن
##رأ
كور
حضر
##ind
##ma
مسي
لعل
##يرك
##طفل
غد
##شع
شام
42
##زاء
نيس
خفي
##عوه
D9
جلد
ولأ
تكر
##ook
جهد
##اصي
##بى
##جري
##عده
عزي
لذ
Eng
وأف
##وجع
##غت
##طيل
##جيب
طبر
تنز
وأي
wh
تخص
##طره
ميد
عدن
##39
##ابك
##ue
يان
هجر
ستة
##للذ
جسم
وحب
توص
بوش
وأم
##ودع
شاف
##اقه
بصف
صفر
##زت
##ضاع
##64
the
حيا
##كمه
عسي
##ياع
بتس
##69
سيب
قس
ره
تشي
##ائى
##قار
##فاس
##تيل
غس
باخ
ناج
أثر
كرم
جنب
لتس
تث
##عدة
##رال
##غني
مور
زرع
##od
##قاب
ثمن
فرد
##هوه
لون
##خاب
مقب
##ack
متع
##ON
##فيش
##سته
سحر
اخي
نض
##وصل
جاك
هار
##بيح
طه
##حني
سكر
##طون
##رتك
غني
ضا
بول
جبر
##ئون
سرا
##ووو
##خين
##يسر
بدل
لأي
لاخ
ذوق
##وند
##قن
##ذير
وبه
ماج
##عدد
يدل
إج
متح
وسب
##48
قيد
غاب
##فيت
حذ
##ap
##27
##ثاث
##لطة
300
##افل
##فيل
عشق
وبك
بمر
##ئذ
##31
##سيك
فخر
##جمة
رأى
بجد
فاض
##شيخ
on
##tr
غض
##لفا
كرب
##نص
صي
شرا
لمس
فائ
##فهم
شغ
عل
##ادن
برم
أدى
فشل
قرض
##رور
##49
رز
ضوء
##طم
غان
يضع
اكد
##جمع
تلت
##كك
منس
##one
##طيه
##دب
##حسن
جسد
##منت
طر
عوا
##29
##ريج
43
##ce
##th
##ذاك
هلا
قصف
لدر
##21
لمر
##اهو
كسر
فاي
حاس
ومص
درب
فاش
##ech
حذف
نظم
برب
##قاق
##راث
صرت
تقل
قاب
عزل
لتش
اوي
اوب
يده
##أكد
نغ
##نق
هذ
خد
كاب
##اهي
فاح
حفر
للث
##وجل
ترج
طرد
ميش
جذ
آن
فني
غفر
فرا
195
فجر
كول
##لبس
فسي
طمو
جوا
راض
امك
##حلة
##بن
##وفة
مضم
ديم
هوا
##دل
##فسي
##لبا
وتغ
تقم
##فيا
للض
قمة
توب
##عدل
يقف
كأ
49
لقط
##جلة
##rab
نهر
قبر
150
##يتد
##47
بلي
##gle
##ائط
##فوق
##نتك
##فعة
وكن
بمش
تذ
أين
باش
بمت
##صره
مبر
ينس
درس
##نيع
##قون
يري
##36
صر
ميك
##يعه
تام
ووا
##مسك
ربع
009
##أتي
كاف
##درج
يبت
##كنه
كيم
46
##فين
صبر
مري
##ووك
##ww
##هج
##AT
يضم
##لذا
مرف
##ice
روى
إله
شرط
##قيف
يات
##بته
موظ
كوب
خل
رت
روز
##همه
##حها
لحم
##ركي
##اطئ
##يير
##box
##فور
لائ
##كاة
توق
##طئ
##iv
عيب
فكل
عكس
وسم
##pl
مدي
##af
##زية
عفش
##بال
##دري
##جهه
رفي
شري
نتم
##ort
##سيت
نك
##صم
58
##آآ
ريم
##اءه
إني
##بها
##ىء
ST
خوف
ياج
ياس
خسر
65
##قش
نكت
##فيس
57
حبه
آية
##az
قمه
اتش
ردا
##نال
##200
خب
##تيش
ألب
##عوض
011
##وتو
##خصة
##ثا
ولت
روي
##شط
##ثره
##زرع
##حوا
راق
غذ
##خله
غز
أية
##بعد
تقف
sp
##شرت
##عج
قي
نو
وشر
##فيز
توح
##لاط
هج
##ud
##ضن
##AM
##خا
نزل
59
صرح
##زز
ملخ
##ابط
روم
وتك
ماك
##رط
##ينو
تضع
غضب
##صيب
##دوز
##ذان
##ies
حري
##لاس
عدا
نفذ
##بتك
قوى
سطح
##out
##ؤها
ويق
##حان
##حار
##رجل
##برع
##تيم
##نهي
إث
www
جوز
لاس
##بطة
52
تحم
تيم
باد
لتع
اوج
وبن
لث
خام
ليع
##ينغ
بيك
شرب
ويه
لتأ
##بض
أون
وبت
لآ
يرض
##مح
سبا
اشد
غر
##ابق
##وزع
##لاغ
شان
ثلث
مند
##لفه
متى
ساع
جرى
999
##شكل
##بلغ
st
يحم
جل
بمث
##متك
منص
كأن
عاب
##هار
##AS
##بعث
اور
##are
إما
فضي
تجي
##فاه
250
##رفت
بتص
حرة
ولس
شب
يقل
قن
ليك
41
##ثيق
كوا
to
رده
##لفظ
##شية
##ith
##وضه
##ube
ايد
هيا
بقا
كات
##وفت
وهى
##راط
##ستي
##23
##يفك
طبع
##ناز
اى
##ظمه
56
رصد
سد
##نجر
متك
خطط
٢٠
ضخ
pm
400
##الأ
##أى
##سير
##ran
آمن
لل
##عاة
##عوة
##بوت
##مكن
##if
نقد
##ددت
آب
سند
طري
نيج
مرش
لإن
لمص
سلو
##ss
54
##لفي
جاب
وشع
##اوى
رمي
درد
قمت
وسن
خاف
بعث
##ST
##صين
am
Ph
صيد
جنس
##اخر
##طنا
سع
حاف
##جاد
##بق
##يجي
##يئة
85
ولب
##78
عسل
باف
خان
##فاد
##شهد
##05
غلا
ستت
أذ
بتو
##ak
تون
##غبة
##art
جيل
خلك
##ial
##our
##AN
وقل
##لقب
سنا
خلو
##فتح
##ليج
ثقة
أض
متأ
ياص
##ئها
حلف
##خاء
##سلم
باج
##nl
ديس
##ئاب
¤ô
نسخ
تعم
سجن
مضي
ننت
كذ
ويخ
##طوط
فئة
##مور
ايش
ظه
51
##أمل
##قذ
هول
##OP
أعم
بيب
##بون
99
##وكس
رجع
اعم
##قان
خلص
اغت
##ews
ثق
##شم
صبح
جال
سهم
##ياح
##فله
##غه
##ex
##75
حقه
##وقي
روت
إثر
##غاف
بكت
53
##يرن
جاي
##صلا
##صرت
انع
Sp
##هية
ويك
داف
صحه
غيب
##ang
أمل
##ئن
سيم
خطأ
##حيي
أنس
برق
##صت
سلا
##حون
Bl
##ئله
##كسل
صم
شئت
##ظى
ثقي
وري
Ch
##عدا
##درة
سبي
##فك
##زنة
##لجي
##دات
Sh
ارج
##وفى
##all
عقل
أبر
##26
##الص
قصد
##جون
علق
اذن
##علي
##لوث
##ئمة
ساخ
خاض
##ميك
##لحق
كسب
متط
##جنب
دوا
يسي
سار
##زقه
##79
شير
##عدت
عبس
مذه
##حنا
##شاط
##بهه
زان
عه
واث
وحي
جحف
وأد
##ارو
##ate
##ip
ووف
خصم
##قده
باه
شقة
فير
##داة
##ربا
قمر
وحم
دمع
##ht
##age
شد
وظ
##شيه
##يقظ
ô¤
##سها
طعم
##قود
تسم
تصف
##ok
جاد
##اير
فيس
زه
ex
##شير
##جيه
##لطه
اصل
##شب
يحق
شغل
##داك
##يقة
##بدل
وبس
##فان
##ياض
##ائص
يذ
##يفو
حظر
سمي
ونص
ربط
##قله
وته
##ax
##ضت
##and
Pl
ولج
موز
##رن
ابا
##IN
اتح
لير
##ry
كلب
بقد
حجز
##طرا
##انز
##دع
##ماق
عتق
كه
##وطه
دب
رحي
سخ
##صن
##ثى
دو
لنت
ناب
فلك
لسه
##حول
نام
ad
ودك
فز
##وقة
##ناع
لفظ
جدد
##71
كش
##اجم
##ديف
كفي
##اقم
لحل
##فرة
##pt
##وسى
ملع
اتي
أرس
##61
##ائز
برف
##يبي
ياا
ايا
##ph
##شعر
##ard
##طرت
##فعت
##tor
84
##منا
##لوج
##زلت
وكت
##بز
طبخ
##عبه
قله
##لمك
##غيث
##ديس
صال
##OS
##روز
##رمى
واز
##قرب
##اشي
##of
تبا
##دود
كبر
شق
لذه
##اءة
عطا
##وكل
##63
فقر
زرا
##ED
##غن
##عال
ويل
بره
##صيد
هني
مون
سيس
مرج
جرت
مشغ
حاز
غام
نائ
##ie
لاد
##وحه
ديب
كذب
زب
محر
وأب
بطن
CN
##94
##ايه
نحت
ديف
خض
فحص
##ديب
##ران
بآ
##بس
##ستغ
##تيك
بخط
انو
غم
لتر
##امع
##وطة
حدا
##ضاة
سئل
لرب
##ver
كرا
##مائ
##شيء
##نو
##طت
جوي
شاح
##OR
إذن
##عدك
##شيط
##TM
متف
##ونى
يوف
##عاف
مذ
وصح
##ظره
##اين
جير
##شون
##ond
بيض
##فيظ
##جعل
##ازه
##وسم
لتت
خفض
قلق
##صلت
##درا
بتف
متس
مفض
##اعل
نر
##صاف
قاط
##بني
##صفه
تمه
تقر
##ماه
##عبة
بطر
##هوة
بتق
##صام
شين
شيع
##فعه
##طبق
##حبك
##اكد
##وضي
عكا
رجب
فط
سمه
واط
حرص
يضر
##ملة
##يض
##اها
اهد
لاه
##قض
جين
تلف
بغي
بيه
##فيك
وأح
سخر
عدو
##هرج
##برك
##ive
##هلة
وند
600
ثان
مسم
أرج
حني
كير
طاع
اا
مرب
ايس
##دعي
سو
##ld
ياخ
تهن
##وضى
##اهة
ونه
باص
##روك
اكل
زار
##سيب
جار
بدم
أجر
سوم
يحل
##ئيل
##pp
غاز
عظم
شنو
٢٠١
##قك
اير
##قسم
يصح
##ge
سلة
##دن
تدا
##وون
جها
Pro
راد
نفت
مفر
وبأ
##ذور
##ows
نون
##كرت
جرب
ثقه
##ذنب
##نفس
رحل
##ااا
يعم
##ماش
تلم
سكا
ثمة
##حيم
##غلب
##صرح
##فوا
##AD
##89
هيك
##داي
##ماج
##انم
ببط
وهب
##ass
##قطة
متت
ومي
تفر
##غاث
##نود
وسا
يفس
تفس
جسر
##ستا
قا
##ذاء
توت
شلن
##قدة
Ad
معن
يلد
AL
##يال
وعز
ومك
ولح
##كنة
روب
##قرة
طع
ودع
واك
And
##فري
بحد
ماه
##اقب
##72
054
كدا
##امح
##ونغ
مشد
##تهد
فلل
نير
##بلج
##شرف
##رود
##يجا
موك
##ذى
##ثف
##انق
ونظ
##ian
لتم
##مص
سلب
##عدي
لتق
كنز
##يتي
##aw
شعو
An
وحش
وفع
صدا
##تس
##ونج
##وأ
120
iP
##وود
##iz
كرد
##سست
بعي
نرى
ايم
وقر
##زح
منف
باز
لبس
##شأ
كاز
##ile
موه
##اوف
##مدة
نوا
أمه
ياق
يصف
##صرخ
##LC
##ide
##فط
فكن
64
88
##EN
ردد
باح
صام
##رفي
##مرت
##حصل
مخط
##غيب
انط
فاص
##طاف
فأن
##بغ
##فرت
سط
ملم
لطف
##غرق
fem
وعق
##قوه
##بث
##ES
نعت
بإن
يسم
##شو
##ياق
##دال
إض
منط
قار
تسع
##فيض
تهي
خار
جيم
حاض
ضاق
Le
ماس
ياه
وإس
مده
لمؤ
##اكم
هدي
عاز
ميس
##ثله
بتم
ورف
رمض
حان
سائ
منو
##خلت
##حيه
حيل
قتي
سق
##صى
de
عرو
مسج
مصن
PK
##جام
قرأ
##دح
##ثرت
##end
وخط
##ترط
لطب
##زيل
زام
طاب
انح
##ash
##تهر
##YD
##اضل
##ime
عذب
مقص
##فيع
تسب
شرم
وكر
حوا
للآ
##ضحك
##RO
##ويك
##up
إمت
##طيك
##عوث
Pr
تلو
##الز
يسب
##يكو
بائ
هير
##HD
احا
##برد
##سرع
معص
لتخ
خرو
De
##oad
دلع
سبل
##سح
ونح
##بقى
##ity
##الن
ستر
وقص
ودم
##غرة
##ضيه
لتج
##وجي
لاز
صفة
اسي
95
##باي
اوت
حكي
اشف
##ادا
##وسة
مسح
##لطف
ادع
عذر
مزي
أشد
ترض
غسل
##iy
ويؤ
##اتا
صدم
وفت
شيئ
معم
##صله
##ركت
##ايب
ومه
##85
##زاق
مهد
بتج
##جيج
فول
##ؤول
160
شده
بتت
ارح
فاد
بوف
ريح
ترق
اجد
##وتش
وعي
##SD
جمه
##uc
##فاك
عجل
##وجة
##ذيه
ياد
##منه
##جهز
صوم
حذر
ملء
doc
وسر
لاف
ممر
بلس
##لعه
اصط
رحب
##ite
be
بلح
ومخ
ينص
يتأ
بتش
##مث
Ar
ربح
##46
##عمر
اخط
اسر
##لجأ
##جيد
##برم
أسر
رقص
##مش
pl
##وعد
أغس
800
قاس
##زات
##خلف
ul
نجح
ياف
##نن
##شال
إند
شرع
##ينت
##man
ايق
##لود
##ome
همي
̈°
أعد
##بعه
تحط
تدل
##سنه
ورؤ
##بري
برك
شمو
##ous
##شري
##جهل
وني
68
##ill
عده
##MD
تقي
##تز
طقم
##ويع
برض
ورم
72
##oft
لغه
عرق
سح
##بدء
عر
##رخ
سؤ
##انغ
اعز
ناز
قف
##أه
##اور
##ساة
قات
ورض
قلم
##بغي
حقك
تنه
إط
ماا
##نيد
رات
عمق
ساد
مكس
تتج
##جبت
##للم
053
##فتر
ستح
مطب
حرق
يحس
##ميص
وبط
##على
مود
67
##هى
تحد
##اطب
##اسب
رع
86
##سيع
##van
##لعت
كاش
ويص
أخي
مبس
كلف
##دوا
بسب
##وقه
##عبد
##MT
بوج
##96
##ختم
##OX
بقر
زبد
##اعب
##ثث
يرك
an
آلة
أوغ
##اهه
فلس
Com
تشك
مام
كيد
فرس
##ium
سقف
##ien
بيل
مؤس
##عاش
اية
##SL
كو
##RE
##يتا
بتأ
##مك
ناص
سني
صلة
إلخ
##ove
مقه
جوه
##صيح
يدك
##حى
وهن
آي
صاب
##كى
حصة
وأت
أدت
محس
لال
##عبي
##دها
كرو
حش
##ey
قيس
وقي
##جى
دوم
##جها
يبد
عدي
##مثل
بئر
##غف
##100
prk
فله
دمت
##كاك
##عقد
##لوف
لور
##pen
##ثاق
طيز
صقر
تضر
ذبح
##وعب
ميل
##هاا
##طنة
حمص
يول
بفر
مضى
##ئيه
لوا
سبأ
You
يث
حظي
##جبك
ايف
##اشه
كح
مكر
##TV
كرك
كفو
شح
##زار
لار
يرب
##رمه
##بيك
مسك
##df
بتك
##خخ
##055
بوص
##فقد
حار
أعط
أسس
طبق
##زيغ
إنك
##بطي
عات
##ach
كود
##غوا
وحق
وجب
##دور
##888
##يرت
##ong
##ايخ
ربا
##wit
وزن
ترش
Cl
بلب
##IG
##طلح
بجن
66
جور
##تهن
اصد
حدد
بتر
صيا
##غات
##رتب
يظل
69
نمت
كيك
##فقه
##دره
##هنة
##av
لفر
أقر
بصد
62
بغض
بوم
كرر
راك
##ييد
##وفك
فبر
قذ
##ماح
83
تأش
##زلة
ساق
##بطل
توي
##اصد
لاش
##عش
ثوب
##ib
ووص
قوت
ديز
حجة
عبي
بصي
or
فاق
وحض
وفض
سهر
##اسر
يتع
##ata
##انو
##DR
خضر
تلب
##قصي
##42
منى
توف
لحن
خاد
##ؤنا
مشا
##أخذ
حضن
##خام
63
by
##يتس
خطي
##41
تاخ
عمه
89
##الش
عاط
##ts
##اعا
طهر
##زول
##ئتم
##نوا
اسط
دلي
##تيت
لوك
صا
##قيد
سخط
شوا
حرك
##۩۞۩
يظن
##فنا
بيا
لوت
وطب
سعي
TR
##ملف
##ضار
دري
سلف
تاك
##els
فوج
sh
فرب
##خان
سوس
دعت
احم
لرؤ
همه
##مى
##لغي
بوع
##ليح
##قدس
##ودك
##اجل
##غض
وكي
نهج
لأب
##ery
##فجر
رقي
بنس
##AC
##فني
##خذه
##ign
قلة
##لئ
##يدس
##طير
##ضحى
##TL
يتج
ضاع
98
اكر
##زيق
##تية
##افئ
##بأ
بود
##نسى
DV
كسل
بتخ
Is
أتى
همك
عبا
##ff
##راي
##xx
##ly
إير
لذي
##ams
LLC
##طبخ
get
غزه
أوت
كلو
##منع
شيف
و6
##زوي
Be
Hot
صوب
لوح
##SS
أبى
##رقم
نات
سنن
##یة
فست
78
##EL
##ark
أرى
وور
لوس
سدي
77
##ؤدي
##43
##روا
##راخ
دى
نصب
دني
pdf
إنا
##وبع
71
##قلا
بقط
عثر
ومف
##p3
بكي
##كند
وإد
راه
يمه
لأم
هدم
##95
تتع
تتأ
بنى
ادب
حمي
##صون
مئة
##خات
بلق
ودر
how
##وسا
باق
نوح
##غام
##وكم
وده
وعش
سرق
فدي
مشر
أمي
فيا
صيف
كع
##بله
سيء
غصب
كيس
تكس
Ex
##زله
##ناي
لتف
##صنة
##ييل
##ظا
سور
##لعن
##شتي
بنص
##قدت
منق
كين
حلي
قرى
##ايم
##طها
تما
##نقل
##ازن
بست
شمر
وأج
ليد
##ارن
عاق
##ire
##ork
أخت
هاج
كمن
أمة
##احه
ينه
##فاح
can
##جبه
##afe
##وخة
إيه
بأم
مرد
إخت
##ost
لاغ
بزي
##ast
##ons
81
اود
غيم
طاح
كوي
دست
Ac
يفر
140
طقس
موف
##هله
##يزه
##درك
حسم
##زف
مزا
بيم
وسع
خطف
دل
##نعه
فلت
##صنع
أحر
اقر
##ky
##ئم
##sp
حاب
عدل
جزا
##HP
وتز
وحل
حدة
##طاق
ونش
##for
##توث
ودا
##لاش
يفض
بإس
عمن
##ain
##999
##طفي
سدد
توج
##ياف
ch
##جور
##صيه
تدر
##عكس
##ne
ولغ
##وثي
أجد
SP
##anc
##لند
##شش
##آء
##780
laz
وعب
##سكي
اتس
MP
صاف
عري
##عمد
كوت
##ئى
##طنه
##وفو
كد
##يرى
61
##بوا
##ls
##جله
##med
ومق
##ساق
AR
re
##فره
شبك
##قبة
يور
##رجة
لمه
##جيا
صدى
دن
افك
A7
87
##حله
وشي
##طبة
##عق
يأت
##ايك
تدع
هان
CF
اشك
##نيش
عدت
##دمة
جات
ar
فنج
74
##هود
Sy
##ump
موث
أنج
##سره
##اصه
بند
##الإ
##جوز
##روء
سكت
82
##ؤهم
دوت
059
راع
73
##MA
##اهم
زلت
توس
##طيح
يوص
##ord
جمل
عزم
أدب
##ND
##لتا
صلو
حرا
110
CL
يتس
نيت
##هك
يوح
##qu
##بحر
##ana
ابر
مزد
##ؤك
هلي
رغب
قسي
79
كيب
##ريغ
##غى
##لكي
##ell
##BD
ღღ
مرغ
بلن
IP
##طو
##هاي
كاذ
##حح
##عدى
بون
ماح
تحل
وبخ
برت
##tra
##ix
شاك
##لخص
مضت
700
##لسل
حظك
تظل
تثق
##غرس
ضده
شفا
فرش
اوز
ليم
لإس
نبت
هيف
##ree
##نغ
آله
يقر
##ذين
##قبض
غبت
##طري
##ربك
ورز
##خن
احص
شاي
Sec
اثي
##بنى
##قور
حاص
hd
92
##عاث
تات
##223
##رنا
##شرا
##سمك
##طأ
ثور
##شاد
جثة
##فها
بيف
##BC
##ثوذ
##ترى
##موح
قنب
##ظرة
كعب
يلق
نيه
قدا
##وسه
جوف
سلع
يدا
بدو
متش
ستن
##ais
##GN
مدف
فوت
بضم
إحت
لأس
قرن
##ئنا
##آم
دان
لتغ
76
##ادى
##ms
جود
##ريز
بوب
لى
مجز
##واص
كني
##شرع
##كنا
##ug
إنج
بفض
يظ
خطب
محظ
تها
تظن
##حاث
ويغ
هيب
##واس
##ant
لوز
##رول
بنز
و5
##IP
نال
مقط
##MS
##ؤلؤ
##تال
ساج
##ET
per
بنج
##وحد
توم
تنص
دق
##لمت
##خوا
ريب
لعي
##كاف
130
قهر
##عور
##558
بتد
أكل
##قرر
بذل
دكت
##بوط
غف
تبع
سمح
جت
بقت
##DF
مذا
عظ
يفع
##ect
##جره
ووق
##بئ
##انج
أود
ماش
طار
##رقص
وول
مآ
إيم
##ace
وخذ
نقي
##73
رود
##موت
يلم
##LL
يتق
فون
mp3
ساف
mot
درر
محي
##BOX
رحت
خر
##ore
ألي
##شاق
قضى
سدر
##EC
مبك
خدي
بوق
##جمه
ومز
##كز
وهد
##OM
جح
مله
##تيز
##الو
##ويف
##يله
فوك
##vel
##ذجا
سمر
##IF
هوي
بوز
VU
دكة
ياك
اضف
انص
جند
##يها
ياش
##ear
مدح
ريش
TV
##YR
##بوه
##oh
تبد
##نكر
##ans
##صرا
th
ذمه
عشت
##احف
##سيخ
انب
عفو
Th
##كشف
حوض
وأق
صفا
رفا
##54
اسف
##جزء
يبق
نفي
قير
فكم
حلق
نري
##رحة
أبد
تير
خاب
لصح
متخ
##غاز
زود
ظنك
مكن
3D
GX
IS
##DL
##فاج
##UR
وفج
نيب
نعي
ليو
متج
و3
##IT
##ومن
##غش
ذم
##ورغ
انز
ككل
بدع
واذ
ترف
وسأ
##يتو
نية
أنط
##ثين
وون
فل
هدى
اذك
ركز
PL
فحل
عنف
ماخ
##أم
اهت
##riv
##ييس
غاض
##اضى
كاد
97
ميم
App
##AB
ناع
##قاس
190
##لوش
ظبي
سوز
ممد
180
مشج
##حس
##ber
##ازي
##IC
##واط
اظن
##ary
شفي
أيا
##US
##ستن
##سيج
##فوذ
نفط
بفت
مصم
##دك
شتى
##ثني
لزم
##قطت
ومط
وحز
يتخ
حزم
افع
ومث
##la
مكث
هيد
وأص
##يشن
حطت
اعي
مشه
org
##98
ورك
##ثيف
##ism
ناه
عوف
لقا
تعط
إحص
##ادق
لتد
##KK
عيا
فغ
##old
بلع
جف
يبر
سول
أعت
درو
US
##ren
##io
ps
ونب
ووض
##صان
ادي
خم
##فرغ
أند
##cam
##ماط
تحق
##ult
##ودو
آلم
قح
##ولز
خرب
حصر
حقل
تهد
96
##قوف
PC
ناط
##كتك
##زوق
افا
إك
##تة
جرا
##RD
اوف
GMT
##IS
تفك
##خور
##OL
##وبى
##طوي
ويز
##IM
##فلي
##ليغ
SE
##زعه
تود
##خلة
جى
رعب
للظ
وإع
بعق
##زما
##وقا
##اوب
ردي
##دمت
جرو
زا
##طوا
شاع
##درب
يمل
##خسر
##فقت
لاص
وضح
شدد
أرب
##MK
##برج
##ئس
غلب
En
##جيم
##ZN
©¤
طق
معز
ووز
##sh
يمس
اسب
يهد
Ab
اتم
زعم
##صية
زعل
أجن
##وتة
قه
وضم
حرس
##رقى
شوك
##OK
هوب
##ath
##سيد
vs
عك
##قضي
ونج
بمص
فاب
SD
##ae
##حاح
##لمب
خات
##لدة
غزل
##نيل
##اسل
ادى
يتي
قبض
net
##زمه
##120
صغ
##كيه
نفع
##ايا
وبص
ذر
زمي
غرق
وحر
CH
كلك
¤©
بحم
##صفة
ذل
Su
##موش
ختم
مسن
طور
تمث
نان
كلن
94
تمس
مدع
ثر
##327
##ZD
طير
91
##ازر
##ram
نطق
اوس
بنو
##int
##جف
سلك
##طرق
بضع
93
##اطا
حبس
نمط
##ere
##يتش
Qu
##ريخ
يود
##ZS
##osh
##58
ظلت
##389
##رحي
##فاذ
تره
سلي
ديا
##مها
##بده
حبل
##سطه
##غله
تتخ
تحض
##دنا
حاط
بعب
##eg
##ألك
##59
داء
##ION
فتن
##اان
ترس
ارم
##ضرب
جلي
##ونز
اسك
شىء
بشي
قاع
##que
##ؤوس
ظني
فلق
يدر
##ادف
##ناث
##للط
ضخم
مشي
جذب
ألق
##ung
ومب
##وبل
##غيم
##ويح
صحف
##ذوق
لمي
##وشن
سيح
##يتم
نفى
##♥ღ
##اكه
##لسة
جيف
سيئ
##يدز
وقب
رآ
##282
##ale
##se
بدت
شدة
نزع
ذمة
##اهن
أير
حث
حرج
ذكي
ومغ
350
نضع
##فضه
##شغل
خبي
إل
##اشا
##AH
دما
##ics
لوج
اجم
Tr
Sc
تعي
يحد
حقد
##صص
##erv
##وشة
إكس
إعت
مبي
##118
##قطه
##طفئ
باغ
##أسم
نين
رعد
##تار
##بكي
##ink
##دمه
##ظري
غار
##ناش
##76
كق
لاا
##NG
درع
تغي
##وشي
##ail
وبإ
Un
CNH
##شان
دقة
PKG
Am
لجل
##روش
##NT
##ومك
##سمت
حشد
170
##برغ
##جهد
لحظ
ضرر
ظاه
ارك
##ثلا
ماض
شقه
##عني
متق
##زيه
##جرى
##أته
##لجا
هه
كمب
رين
اوص
##سبت
حصد
اسد
El
بؤ
وكف
محذ
##ااك
##AG
##غور
خلل
اقد
##جزة
##ئام
##ys
##فوك
ثقل
##53
دمر
جوع
##ptv
##لده
صلب
أمم
رعا
اوق
خت
##الخ
##جرت
طعن
حاد
هلك
اكن
##٠٠
احن
##ury
لوف
فيض
##هده
##ريش
vb
هرم
LG
##لبن
أبل
شوب
##ورط
##زاع
نوي
شطر
##آة
جهل
##هرة
##let
##يمر
هاك
##وحش
لرس
##اثر
TM
##ct
ايت
طوا
عجب
##ثرا
##شهر
##ese
ابل
##زى
##لحف
قوس
أيد
##سوم
##ood
##جزه
فسب
##عاه
خطه
##رقب
وإح
##جج
##ثية
قرط
##حهم
##ؤم
##نوك
##93
باط
##ock
شال
##بب
زكي
##سيح
##طاب
##فلت
##ee
##ظرك
صنف
##ml
أنش
يدع
رفح
لهن
##دان
ساس
سجد
##oth
بمؤ
##بطت
ملز
##gy
يقد
شره
##اكي
900
عاا
خله
عفا
##بيو
##خار
شيب
en
##عمق
هود
فاف
كرس
أعض
##فضة
جاذ
تاه
لسي
##فتي
نيو
##ین
هين
بى
##عله
##لفل
خلع
لئ
طفو
##ئح
##آر
MP3
##غلق
##وشه
تحذ
يلح
##كبة
حصن
##ولن
خوض
فلب
##oun
##جما
مخي
كنه
##خاف
##uch
##دلة
فيج
##AL
غو
##وصف
اتع
360
##حيى
رشا
فوض
##UB
##هاش
اهو
جئت
##GD
تاس
##نئ
##يلي
##ئته
افر
قان
##راة
HT
طلق
إغ
حقن
مجن
##360
##دته
ويط
ونع
بإد
عبق
حفص
##فاة
روك
ونق
##ييه
توه
##ins
وإذ
##تف
ماق
##الط
ردت
فمع
و4
صاح
يله
##لمس
ونف
##ذبه
##زني
EC
##ثوم
ليح
شيك
لحق
وسج
اتب
##أله
جنة
##نهم
ظرف
##سنة
##ضيء
يمث
أوز
يجر
##فظة
دوس
دفن
Fl
##ثان
يؤذ
##خيم
##vue
عسر
##ويب
##IA
##St
ضيع
حاش
بمق
Sm
##OT
سقي
وجز
##راش
##نور
##حرص
Tra
##ؤوا
##KP
جني
نرت
ab
اشر
يتك
##ony
ولط
بتغ
##ههه
غن
##87
كيا
كلش
##زقك
##EF
أكس
عزه
ركب
##ذات
يهو
PHP
محو
كج
##نعت
Gu
##ef
##او
o°
صبي
SC
##غون
##شور
كوس
مهر
فقل
##أيت
##ars
##بدع
##ame
##سكس
##خلا
125
قاض
واو
##رقي
##طفه
حده
##199
شمل
تصب
##تج
Con
##max
آبل
##86
طلي
##وجا
ووج
##ويز
هيت
##آب
وجن
##ايز
##معي
ينج
##als
مكي
كرت
سرك
010
وصد
##هين
##74
##للد
يجز
عسا
##وزن
و2
##كوا
##ومو
##OA
ذري
وخر
فتم
ظفر
أوس
ساو
ليص
رشح
روج
وبش
##حدر
ملغ
##رقت
##حرر
عبث
تظ
##عدم
جثث
AF
##TML
##ااح
##اطي
طفي
ديو
غبي
des
يثق
LA
أسم
يحط
##tl
##جود
Te
ستس
##iew
ضو
##لوت
##سوا
##عري
زح
Em
##زنه
ورث
لسر
##رث
برؤ
فو
##كاو
ماغ
##ina
ضجة
كسي
##500
نرج
برأ
شقي
تحي
بيج
##عاج
##خرط
fr
##ندس
برن
ألح
##خري
نصل
##منح
##ايح
##نوع
450
مصد
##صوص
##امس
اجي
##ext
تذك
CA
##روى
ديل
##حنة
كإ
##ملت
ضلو
يحن
##555
فدا
قضت
بمد
يمد
شجع
جث
##ضوا
ياز
##است
##ux
ولف
##لست
خصي
##ool
ساك
ღ♥ღ
##ملك
طرب
GT
وتض
##شاه
SV
إيف
خاش
psd
زن
Se
##شوا
خفا
رخي
##وقل
بوغ
##زور
RT
HU
##زج
##فتك
##زيم
دمج
بإح
##رحه
##سول
نيل
وعط
محف
بحض
هبة
##Sat
ملل
وبق
رنا
لقر
حسد
شرو
حيز
New
##ئتي
mod
##ya
##UP
##جده
##شح
##أنف
##ارث
##تن
##سما
##orn
##كور
إحد
يتغ
وإي
##دهن
cl
##ينج
صيغ
##ps
دمي
مغر
##وزو
##yle
##غمض
اال
سيؤ
##ودج
##min
فؤ
عرس
جزي
لمد
ورح
سكك
My
سره
يلب
غائ
ZW
حبة
بلج
لفض
جرم
إنش
بعت
خوي
كتر
صحب
عيت
##82
off
##NL
ادخ
يصب
LED
تطل
سفن
##للى
ووك
##VB
يتر
سأل
جول
##جمل
احي
##هيد
ارق
##ich
رأت
يشك
tr
FR
##جوب
محق
شوط
لصف
105
مهت
##قاظ
طيف
وأه
١٩
بته
TH
تبث
##موا
##روي
دره
قطب
تبك
أذن
##رغم
##تت
اذي
do
##رقة
شوت
##لتس
خرق
مفخ
تاف
##لعي
##its
##ثري
##ؤؤ
##حش
رخص
##دني
حجب
BO
012
ريد
سطر
لئن
افب
فهر
##83
روق
غصن
متب
##شخص
##81
سعه
##نكم
لكى
لوم
باض
##رفا
ألأ
##84
##ساح
##شيت
##ild
dm
##درت
##وبك
فی
جيه
كجم
طلا
##بوب
شنت
لإح
محط
ومض
اقص
تند
خج
##ll
##كرز
حور
##اطع
##فلة
##oy
حره
سوب
##احت
عزف
##توا
AD
بيق
قيا
##نعة
##اطس
##بنا
قدس
شيم
##داس
101
##عظ
##شوق
حلت
##دس
يبا
##RK
##جزت
##TD
sa
PS
١٠
هاه
##OC
زور
##كف
بظ
يجه
##هاج
##bc
##عط
لاو
بحه
سيل
بيش
لقت
LC
220
تتك
كمل
##يفر
##ضون
##غاه
ونز
##obe
##لوح
زغ
ضل
##سيو
##مله
يقط
##GA
##مأن
يته
اتق
بلم
و7
##IO
##خف
قو
##عنا
##101
لرو
##97
وخل
سيه
##ory
fil
DM
ann
##غاء
بحل
لعض
##ذرت
##فته
##مرا
دح
اقب
##قدا
نهى
ميه
هرب
أفك
rec
لاق
رضى
أفر
بصح
ليث
##ann
قضي
##أر
تيس
يرف
نجل
##بطه
##ودى
بتب
ac
خبز
فخذ
صلح
##EM
##iss
يكر
®¤
##RL
جلو
Sun
بلص
دلو
##شام
حجه
bl
##مدن
زخ
سئ
لعن
لبك
وإخ
##كوك
MK
115
نقف
##400
##افح
##ضحت
اضم
أكن
بعز
هلو
فرو
##باخ
##كهة
Des
كفت
تخي
##ade
##زعة
آر
##ميق
##VR
سته
بله
صفه
##ظور
qu
خصص
ورغ
ومو
##زس
KM
رهن
باذ
##حوذ
كاي
غمر
عصب
##EP
##air
Net
##mb
##تمت
##les
وفك
تتس
حية
##امو
##ازم
سيخ
°°
##ئهم
##طيس
خن
ass
تأك
##ote
##للص
شنط
ed
##آلم
اوغ
##جوا
ينف
##بدة
##ثاء
EG
زله
يصد
دوب
يسد
##معة
مخر
نفر
##ائس
##MW
##فكر
Ed
لود
قمع
AB
111
##BP
يتب
سكع
فمه
تله
يعز
آم
يره
##رشي
موب
لته
##ull
طوق
##عوى
بلط
##212
##ID
##RR
ضمه
ضيا
شلل
##حيا
Wh
مزع
فرك
##اعف
##أجر
##لاي
غش
لتك
جبت
##تبع
TOP
يشع
معط
آلآ
يرا
غلي
بطب
ياغ
ادا
عنق
ارا
##RC
مكم
دقه
##رضى
##VE
##صاح
102
وتؤ
لرا
Sky
نجا
ساي
##ازى
سرد
HK
كيت
##iel
نتح
Mar
وكس
ht
أسد
وسك
us
##غيت
##قبه
et
##خلل
##603
تمد
##آل
هدد
##ستم
##ناا
##عته
##ثنى
وحس
فوا
103
##قهم
gu
##همك
##حقه
هوت
وظل
تفع
مهي
صغر
##دمج
علئ
دفا
##زهة
BD
KH
نود
فأخ
##ورن
متل
ثمه
نتج
##WG
##SAT
##كاه
##حمت
##ضره
##سفي
##811
إلت
##قني
##زئة
##ضج
خفف
##فش
وأغ
##طرب
##ضول
##غره
آت
شجن
بتي
¤®
AMD
##92
غنى
عوز
وجي
سرت
##زيج
فرغ
##زقة
بشك
ارف
##قلل
أدم
طحن
اسس
##شقي
117
##وخي
##فعش
MS
خلط
BW
حيه
ذره
ندم
قيف
ag
و20
##ضرر
إلح
##ini
##ize
NOK
##ديز
ترو
وود
##زها
##INE
##وطي
لنس
جهه
##نتا
أوف
سيش
لوي
##ثون
اها
سعة
##كما
ابش
عو
خائ
مخز
##ick
##ens
##سنى
ep
##ern
سى
لنه
لسم
وبج
##😂😂
اخو
##سار
تال
غدر
ملو
##هات
##مود
##يزو
SZ
لمخ
مذك
##وصي
ذاه
نشأ
##خون
##هري
لصد
##رسه
##tv
##700
ثرو
وبع
مصح
##ضعة
##حمن
##PS
##ووه
##ايغ
##اعش
Web
119
بمخ
۩۩
Av
##MAX
غب
ستد
هذة
8A
بحت
لبر
##رتس
فنا
بيح
BT
##جزر
كبد
##نفذ
##هرت
نؤ
ضاح
مفه
ناخ
حدي
##ساه
##افق
هيل
خلت
سمك
Box
Res
غطي
رتب
نكن
##طرح
##und
بمه
##اسه
١٤
اوك
##اام
يقي
فاخ
##صلح
##جلي
تعق
##مته
أحق
تلع
ستع
آلي
كئ
قاص
##ضاح
##امد
Mus
ظله
ضمت
##باش
##سمي
سحق
##غلت
فرط
ثقب
لخص
##باغ
##ماي
نيف
تار
##آإ
##RA
##مجة
يتف
وعت
MX
ثع
##شني
##ستك
اثق
عان
##زنك
##جته
ذها
افض
new
فيف
##ؤكم
عتي
Fr
##com
##يسا
##ثت
غيث
##يلا
جرج
##عوب
##YP
بحس
ونن
لفي
يتد
و1
عتب
محض
تنح
104
طاج
دمه
##ينز
طمع
##WD
##ats
١٢
حسي
قفز
##صاد
ألو
##وثه
##EX
سرح
ألس
لوب
فهى
تخر
##ECH
Rec
ALL
يزل
شط
قسط
All
̈°o
غص
اضل
نعد
يرق
كنع
خيب
##BA
0A
Fri
تصد
##amp
##صعب
أتم
##زنا
##تحت
عطف
حبر
NT
وثق
UF
كمد
سله
##شآت
صعد
اضع
##bl
مغت
lat
فقت
##نني
##آمر
##رفش
##ساي
COM
صوف
##رمز
شتي
خفت
Sa
عزك
●●
##91
دعي
112
##بؤ
وطف
##فوف
تنف
وزع
تشا
##sn
##لتر
لوق
0D
##نيس
IQ
##دهم
وثم
درك
ميخ
اكي
خف
im
##ضين
##600
ملق
راش
##حور
##ختر
##RN
##yp
يصر
URL
و10
128
##قاو
##ضعه
لغز
240
##اال
بوي
##افت
135
شور
MAD
##ode
##بعك
طاز
##حكم
تمل
جذي
فتت
دفء
وحط
##اثه
##YN
##فسر
زيف
أفق
##ZT
##موم
بخت
قره
آلت
ريك
١١
فتي
##وتن
B1
قرص
E2
550
وثي
ET
لسا
ret
انض
107
لتط
وفن
##ذاذ
ندي
يرس
فاك
##800
قرآ
لبا
خذا
##ثنا
أشك
يبك
##ساخ
دش
شجر
##مط
##PR
Air
IDR
##اءل
وذا
##وهن
عكر
تجب
هزت
توض
##YG
إبن
##كش
##وول
##ank
تجن
مرم
شتم
تهب
##رحى
تكف
Man
غزو
هيه
##ماة
Fil
غط
وزم
أظن
##NF
فيد
بنغ
##nxx
دجن
##GK
##خبة
عزت
##rim
فئه
غاف
وضد
BHD
روو
SAT
احط
برز
مرق
ينق
بزع
##ياي
##HS
##وسل
##ااه
اشع
##مدت
##52
OM
LK
css
##بيس
ذب
##قاص
##oot
PEN
وهج
قفل
##اوا
No
106
Ag
ألك
فود
يضح
##عجل
##نر
##كوت
V2
##رقل
بلف
108
##eal
شغب
##لتم
con
فام
##JF
سدا
##هاض
يعا
¤°
خور
##تبة
لهي
##na
لاط
##عهم
##EB
##vol
MDL
##صوت
SLL
ارش
##ملي
CM
GYD
##طبع
آلع
##فسد
HRK
##اكو
##مضي
##fo
وحا
##سلي
Ak
650
##itt
تنغ
##حتي
Ap
##یر
اره
قبح
صان
رشو
أفت
خشب
دعس
بأص
##وكه
عنب
##مول
IC
rtl
##شئ
إسم
##vb
ناض
##con
##وحي
##110
##جرا
