{
  "version": "1.0",
  "truncation": null,
  "padding": null,
  "added_tokens": [
    {
      "id": 0,
      "content": "[PAD]",
      "single_word": false,
      "lstrip": false,
      "rstrip": false,
      "normalized": false,
      "special": true
    },
    {
      "id": 1,
      "content": "[UNK]",
      "single_word": false,
      "lstrip": false,
      "rstrip": false,
      "normalized": false,
      "special": true
    },
    {
      "id": 2,
      "content": "[CLS]",
      "single_word": false,
      "lstrip": false,
      "rstrip": false,
      "normalized": false,
      "special": true
    },
    {
      "id": 3,
      "content": "[SEP]",
      "single_word": false,
      "lstrip": false,
      "rstrip": false,
      "normalized": false,
      "special": true
    },
    {
      "id": 4,
      "content": "[MASK]",
      "single_word": false,
      "lstrip": false,
      "rstrip": false,
      "normalized": false,
      "special": true
    }
  ],
  "normalizer": {
    "type": "BertNormalizer",
    "clean_text": true,
    "handle_chinese_chars": true,
    "strip_accents": null,
    "lowercase": false
  },
  "pre_tokenizer": {
    "type": "BertPreTokenizer"
  },
  "post_processor": {
    "type": "TemplateProcessing",
    "single": [
      {
        "SpecialToken": {
          "id": "[CLS]",
          "type_id": 0
        }
      },
      {
        "Sequence": {
          "id": "A",
          "type_id": 0
        }
      },
      {
        "SpecialToken": {
          "id": "[SEP]",
          "type_id": 0
        }
      }
    ],
    "pair": [
      {
        "SpecialToken": {
          "id": "[CLS]",
          "type_id": 0
        }
      },
      {
        "Sequence": {
          "id": "A",
          "type_id": 0
        }
      },
      {
        "SpecialToken": {
          "id": "[SEP]",
          "type_id": 0
        }
      },
      {
        "Sequence": {
          "id": "B",
          "type_id": 1
        }
      },
      {
        "SpecialToken": {
          "id": "[SEP]",
          "type_id": 1
        }
      }
    ],
    "special_tokens": {
      "[CLS]": {
        "id": "[CLS]",
        "ids": [
          2
        ],
        "tokens": [
          "[CLS]"
        ]
      },
      "[SEP]": {
        "id": "[SEP]",
        "ids": [
          3
        ],
        "tokens": [
          "[SEP]"
        ]
      }
    }
  },
  "decoder": {
    "type": "WordPiece",
    "prefix": "##",
    "cleanup": true
  },
  "model": {
    "type": "WordPiece",
    "unk_token": "[UNK]",
    "continuing_subword_prefix": "##",
    "max_input_chars_per_word": 100,
    "vocab": {
      "[PAD]": 0,
      "[UNK]": 1,
      "[CLS]": 2,
      "[SEP]": 3,
      "[MASK]": 4,
      "!": 5,
      "\"": 6,
      "#": 7,
      "$": 8,
      "%": 9,
      "&": 10,
      "'": 11,
      "(": 12,
      ")": 13,
      "*": 14,
      "+": 15,
      ",": 16,
      "-": 17,
      ".": 18,
      "/": 19,
      "0": 20,
      "1": 21,
      "2": 22,
      "3": 23,
      "4": 24,
      "5": 25,
      "6": 26,
      "7": 27,
      "8": 28,
      "9": 29,
      ":": 30,
      ";": 31,
      "<": 32,
      "=": 33,
      ">": 34,
      "?": 35,
      "@": 36,
      "A": 37,
      "B": 38,
      "C": 39,
      "D": 40,
      "E": 41,
      "F": 42,
      "G": 43,
      "H": 44,
      "I": 45,
      "J": 46,
      "K": 47,
      "L": 48,
      "M": 49,
      "N": 50,
      "O": 51,
      "P": 52,
      "Q": 53,
      "R": 54,
      "S": 55,
      "T": 56,
      "U": 57,
      "V": 58,
      "W": 59,
      "X": 60,
      "Y": 61,
      "Z": 62,
      "[": 63,
      "\\": 64,
      "]": 65,
      "^": 66,
      "_": 67,
      "`": 68,
      "a": 69,
      "b": 70,
      "c": 71,
      "d": 72,
      "e": 73,
      "f": 74,
      "g": 75,
      "h": 76,
      "i": 77,
      "j": 78,
      "k": 79,
      "l": 80,
      "m": 81,
      "n": 82,
      "o": 83,
      "p": 84,
      "q": 85,
      "r": 86,
      "s": 87,
      "t": 88,
      "u": 89,
      "v": 90,
      "w": 91,
      "x": 92,
      "y": 93,
      "z": 94,
      "{": 95,
      "|": 96,
      "}": 97,
      "~": 98,
      "¡": 99,
      "¢": 100,
      "£": 101,
      "¤": 102,
      "¥": 103,
      "¦": 104,
      "§": 105,
      "©": 106,
      "«": 107,
      "¬": 108,
      "®": 109,
      "°": 110,
      "±": 111,
      "¶": 112,
      "·": 113,
      "»": 114,
      "¿": 115,
      "Â": 116,
      "Ã": 117,
      "Å": 118,
      "Ç": 119,
      "É": 120,
      "Ê": 121,
      "Ï": 122,
      "Ð": 123,
      "Ñ": 124,
      "Ö": 125,
      "×": 126,
      "Ø": 127,
      "Ù": 128,
      "Ü": 129,
      "Þ": 130,
      "ß": 131,
      "à": 132,
      "á": 133,
      "â": 134,
      "ã": 135,
      "ä": 136,
      "å": 137,
      "æ": 138,
      "ç": 139,
      "è": 140,
      "é": 141,
      "ê": 142,
      "ë": 143,
      "í": 144,
      "î": 145,
      "ï": 146,
      "ñ": 147,
      "ò": 148,
      "ó": 149,
      "ô": 150,
      "õ": 151,
      "ö": 152,
      "÷": 153,
      "ø": 154,
      "ù": 155,
      "ú": 156,
      "û": 157,
      "ü": 158,
      "ā": 159,
      "ă": 160,
      "Ą": 161,
      "ą": 162,
      "ć": 163,
      "ĉ": 164,
      "Č": 165,
      "č": 166,
      "ď": 167,
      "Đ": 168,
      "đ": 169,
      "ę": 170,
      "ğ": 171,
      "Ģ": 172,
      "ī": 173,
      "į": 174,
      "İ": 175,
      "ı": 176,
      "ĸ": 177,
      "Ļ": 178,
      "Ľ": 179,
      "Ł": 180,
      "ł": 181,
      "ŋ": 182,
      "ō": 183,
      "ő": 184,
      "Œ": 185,
      "œ": 186,
      "Ŗ": 187,
      "Ś": 188,
      "ś": 189,
      "ŝ": 190,
      "Ş": 191,
      "ş": 192,
      "Š": 193,
      "š": 194,
      "ţ": 195,
      "Ť": 196,
      "Ŧ": 197,
      "ū": 198,
      "ŷ": 199,
      "ž": 200,
      "ƒ": 201,
      "ư": 202,
      "Ʒ": 203,
      "Ƹ": 204,
      "ƽ": 205,
      "ǁ": 206,
      "ǿ": 207,
      "ȫ": 208,
      "ə": 209,
      "ɪ": 210,
      "ɱ": 211,
      "ʁ": 212,
      "ʃ": 213,
      "ʋ": 214,
      "ʘ": 215,
      "ʽ": 216,
      "ʾ": 217,
      "ʿ": 218,
      "ˆ": 219,
      "ˉ": 220,
      "ˮ": 221,
      "́": 222,
      "̃": 223,
      "̄": 224,
      "̅": 225,
      "̇": 226,
      "̈": 227,
      "̊": 228,
      "̡": 229,
      "̧": 230,
      "̨": 231,
      "̲": 232,
      "̳": 233,
      "̴": 234,
      "̵": 235,
      "̶": 236,
      "̷": 237,
      "̸": 238,
      "͡": 239,
      "ͼ": 240,
      "Θ": 241,
      "Μ": 242,
      "Ξ": 243,
      "Σ": 244,
      "Ψ": 245,
      "Ω": 246,
      "ά": 247,
      "έ": 248,
      "ή": 249,
      "ί": 250,
      "α": 251,
      "β": 252,
      "γ": 253,
      "ε": 254,
      "ζ": 255,
      "η": 256,
      "θ": 257,
      "ι": 258,
      "κ": 259,
      "λ": 260,
      "μ": 261,
      "ν": 262,
      "ξ": 263,
      "ο": 264,
      "π": 265,
      "ρ": 266,
      "ς": 267,
      "σ": 268,
      "τ": 269,
      "υ": 270,
      "φ": 271,
      "ψ": 272,
      "ω": 273,
      "ό": 274,
      "ώ": 275,
      "Ϡ": 276,
      "Є": 277,
      "А": 278,
      "Б": 279,
      "В": 280,
      "Г": 281,
      "Д": 282,
      "И": 283,
      "Й": 284,
      "К": 285,
      "М": 286,
      "Н": 287,
      "О": 288,
      "П": 289,
      "Р": 290,
      "С": 291,
      "Т": 292,
      "Ф": 293,
      "Я": 294,
      "а": 295,
      "б": 296,
      "в": 297,
      "г": 298,
      "д": 299,
      "е": 300,
      "ж": 301,
      "з": 302,
      "и": 303,
      "й": 304,
      "к": 305,
      "л": 306,
      "м": 307,
      "н": 308,
      "о": 309,
      "п": 310,
      "р": 311,
      "с": 312,
      "т": 313,
      "у": 314,
      "ф": 315,
      "х": 316,
      "ц": 317,
      "ч": 318,
      "ш": 319,
      "ъ": 320,
      "ы": 321,
      "ь": 322,
      "я": 323,
      "ё": 324,
      "є": 325,
      "ѕ": 326,
      "і": 327,
      "ї": 328,
      "ѽ": 329,
      "҈": 330,
      "҉": 331,
      "Ғ": 332,
      "Җ": 333,
      "Ҳ": 334,
      "ҳ": 335,
      "һ": 336,
      "ա": 337,
      "խ": 338,
      "մ": 339,
      "վ": 340,
      "֝": 341,
      "ִ": 342,
      "ַ": 343,
      "ָ": 344,
      "ּ": 345,
      "־": 346,
      "ֿ": 347,
      "א": 348,
      "ב": 349,
      "ג": 350,
      "ד": 351,
      "ה": 352,
      "ו": 353,
      "ז": 354,
      "ח": 355,
      "ט": 356,
      "י": 357,
      "ך": 358,
      "כ": 359,
      "ל": 360,
      "ם": 361,
      "מ": 362,
      "ן": 363,
      "נ": 364,
      "ס": 365,
      "ע": 366,
      "ף": 367,
      "פ": 368,
      "ץ": 369,
      "צ": 370,
      "ק": 371,
      "ר": 372,
      "ש": 373,
      "ת": 374,
      "װ": 375,
      "״": 376,
      "׼": 377,
      "،": 378,
      "؛": 379,
      "؟": 380,
      "ء": 381,
      "آ": 382,
      "أ": 383,
      "ؤ": 384,
      "إ": 385,
      "ئ": 386,
      "ا": 387,
      "ب": 388,
      "ة": 389,
      "ت": 390,
      "ث": 391,
      "ج": 392,
      "ح": 393,
      "خ": 394,
      "د": 395,
      "ذ": 396,
      "ر": 397,
      "ز": 398,
      "س": 399,
      "ش": 400,
      "ص": 401,
      "ض": 402,
      "ط": 403,
      "ظ": 404,
      "ع": 405,
      "غ": 406,
      "ػ": 407,
      "ف": 408,
      "ق": 409,
      "ك": 410,
      "ل": 411,
      "م": 412,
      "ن": 413,
      "ه": 414,
      "و": 415,
      "ى": 416,
      "ي": 417,
      "ٓ": 418,
      "ٔ": 419,
      "٠": 420,
      "١": 421,
      "٢": 422,
      "٣": 423,
      "٤": 424,
      "٥": 425,
      "٦": 426,
      "٧": 427,
      "٨": 428,
      "٩": 429,
      "٪": 430,
      "٫": 431,
      "٬": 432,
      "٭": 433,
      "ٱ": 434,
      "ٲ": 435,
      "ٳ": 436,
      "ٴ": 437,
      "ٹ": 438,
      "ٺ": 439,
      "ٻ": 440,
      "ټ": 441,
      "پ": 442,
      "ٿ": 443,
      "چ": 444,
      "ڈ": 445,
      "ڊ": 446,
      "ڑ": 447,
      "ړ": 448,
      "ڔ": 449,
      "ڕ": 450,
      "ږ": 451,
      "ژ": 452,
      "ڙ": 453,
      "ڛ": 454,
      "ڠ": 455,
      "ڤ": 456,
      "ڦ": 457,
      "ڨ": 458,
      "ک": 459,
      "ڪ": 460,
      "ڬ": 461,
      "ڭ": 462,
      "گ": 463,
      "ڲ": 464,
      "ڳ": 465,
      "ڵ": 466,
      "ڶ": 467,
      "ڷ": 468,
      "ڸ": 469,
      "ڹ": 470,
      "ں": 471,
      "ڼ": 472,
      "ڽ": 473,
      "ھ": 474,
      "ۀ": 475,
      "ہ": 476,
      "ۂ": 477,
      "ۃ": 478,
      "ۅ": 479,
      "ۆ": 480,
      "ۇ": 481,
      "ۈ": 482,
      "ۉ": 483,
      "ۋ": 484,
      "ی": 485,
      "ێ": 486,
      "ې": 487,
      "ۑ": 488,
      "ے": 489,
      "ۓ": 490,
      "۔": 491,
      "ە": 492,
      "ۖ": 493,
      "ۗ": 494,
      "ۚ": 495,
      "ۜ": 496,
      "۞": 497,
      "ۡ": 498,
      "ۣ": 499,
      "ۤ": 500,
      "ۧ": 501,
      "ۨ": 502,
      "۩": 503,
      "۪": 504,
      "۫": 505,
      "۰": 506,
      "۱": 507,
      "۲": 508,
      "۳": 509,
      "۴": 510,
      "۵": 511,
      "۶": 512,
      "۷": 513,
      "۸": 514,
      "۹": 515,
      "۾": 516,
      "ܐ": 517,
      "ܓ": 518,
      "ܔ": 519,
      "ܕ": 520,
      "ܘ": 521,
      "ܝ": 522,
      "ܠ": 523,
      "ܡ": 524,
      "ܢ": 525,
      "ܨ": 526,
      "ܪ": 527,
      "ܬ": 528,
      "ށ": 529,
      "ँ": 530,
      "ऊ": 531,
      "ऋ": 532,
      "ख": 533,
      "द": 534,
      "न": 535,
      "र": 536,
      "़": 537,
      "ा": 538,
      "ी": 539,
      "ॐ": 540,
      "ঔ": 541,
      "া": 542,
      "ৣ": 543,
      "৲": 544,
      "৴": 545,
      "৵": 546,
      "ਿ": 547,
      "ੀ": 548,
      "ઇ": 549,
      "હ": 550,
      "ஃ": 551,
      "இ": 552,
      "ஊ": 553,
      "ஐ": 554,
      "ஓ": 555,
      "ஜ": 556,
      "ண": 557,
      "ஷ": 558,
      "ஹ": 559,
      "ಏ": 560,
      "ಞ": 561,
      "ೋ": 562,
      "್": 563,
      "്": 564,
      "ก": 565,
      "ง": 566,
      "ฒ": 567,
      "ด": 568,
      "ท": 569,
      "น": 570,
      "บ": 571,
      "ม": 572,
      "ย": 573,
      "ร": 574,
      "ล": 575,
      "ว": 576,
      "ส": 577,
      "ห": 578,
      "อ": 579,
      "ะ": 580,
      "ั": 581,
      "า": 582,
      "ิ": 583,
      "ี": 584,
      "฿": 585,
      "เ": 586,
      "แ": 587,
      "ไ": 588,
      "็": 589,
      "่": 590,
      "้": 591,
      "๏": 592,
      "๐": 593,
      "๑": 594,
      "๘": 595,
      "༄": 596,
      "ཡ": 597,
      "დ": 598,
      "ო": 599,
      "რ": 600,
      "ღ": 601,
      "წ": 602,
      "ჲ": 603,
      "჻": 604,
      "ᅠ": 605,
      "ᴍ": 606,
      "ᴥ": 607,
      "ḋ": 608,
      "Ḥ": 609,
      "ḥ": 610,
      "Ḿ": 611,
      "ṭ": 612,
      "ả": 613,
      "ị": 614,
      "‐": 615,
      "–": 616,
      "—": 617,
      "‘": 618,
      "’": 619,
      "‚": 620,
      "“": 621,
      "”": 622,
      "„": 623,
      "†": 624,
      "‡": 625,
      "•": 626,
      "‰": 627,
      "′": 628,
      "‹": 629,
      "›": 630,
      "※": 631,
      "‿": 632,
      "⁄": 633,
      "₡": 634,
      "₩": 635,
      "₪": 636,
      "₫": 637,
      "€": 638,
      "₹": 639,
      "⃣": 640,
      "←": 641,
      "↑": 642,
      "→": 643,
      "↓": 644,
      "↔": 645,
      "↕": 646,
      "↡": 647,
      "↵": 648,
      "⇐": 649,
      "∂": 650,
      "∑": 651,
      "−": 652,
      "∙": 653,
      "√": 654,
      "∞": 655,
      "∥": 656,
      "∫": 657,
      "≈": 658,
      "≡": 659,
      "≽": 660,
      "⊰": 661,
      "⊱": 662,
      "⋘": 663,
      "⋙": 664,
      "⋰": 665,
      "⋱": 666,
      "⌐": 667,
      "─": 668,
      "━": 669,
      "│": 670,
      "┈": 671,
      "┣": 672,
      "┨": 673,
      "┫": 674,
      "═": 675,
      "║": 676,
      "╔": 677,
      "╗": 678,
      "╚": 679,
      "╝": 680,
      "╠": 681,
      "╣": 682,
      "╬": 683,
      "╭": 684,
      "╯": 685,
      "▂": 686,
      "▃": 687,
      "▅": 688,
      "▆": 689,
      "▇": 690,
      "█": 691,
      "▌": 692,
      "▏": 693,
      "▐": 694,
      "░": 695,
      "▒": 696,
      "▓": 697,
      "■": 698,
      "□": 699,
      "▣": 700,
      "▧": 701,
      "▪": 702,
      "▫": 703,
      "▬": 704,
      "▲": 705,
      "▶": 706,
      "▷": 707,
      "▸": 708,
      "►": 709,
      "▼": 710,
      "▽": 711,
      "◀": 712,
      "◁": 713,
      "◂": 714,
      "◄": 715,
      "◆": 716,
      "◇": 717,
      "◊": 718,
      "○": 719,
      "●": 720,
      "◐": 721,
      "◑": 722,
      "◕": 723,
      "◘": 724,
      "◙": 725,
      "◢": 726,
      "◣": 727,
      "◤": 728,
      "◥": 729,
      "◦": 730,
      "◾": 731,
      "☀": 732,
      "☂": 733,
      "☃": 734,
      "★": 735,
      "☆": 736,
      "☎": 737,
      "☏": 738,
      "☕": 739,
      "☜": 740,
      "☝": 741,
      "☞": 742,
      "☰": 743,
      "☹": 744,
      "☺": 745,
      "☻": 746,
      "☼": 747,
      "♀": 748,
      "♂": 749,
      "♔": 750,
      "♕": 751,
      "♛": 752,
      "♞": 753,
      "♠": 754,
      "♡": 755,
      "♢": 756,
      "♣": 757,
      "♥": 758,
      "♦": 759,
      "♨": 760,
      "♩": 761,
      "♪": 762,
      "♫": 763,
      "♬": 764,
      "♭": 765,
      "⚐": 766,
      "⚑": 767,
      "⚛": 768,
      "⚜": 769,
      "⚠": 770,
      "⚡": 771,
      "⚫": 772,
      "⚽": 773,
      "✅": 774,
      "✈": 775,
      "✉": 776,
      "✋": 777,
      "✌": 778,
      "✍": 779,
      "✎": 780,
      "✒": 781,
      "✓": 782,
      "✔": 783,
      "✖": 784,
      "✣": 785,
      "✦": 786,
      "✨": 787,
      "✪": 788,
      "✲": 789,
      "✽": 790,
      "✿": 791,
      "❀": 792,
      "❄": 793,
      "❊": 794,
      "❌": 795,
      "❖": 796,
      "❝": 797,
      "❞": 798,
      "❣": 799,
      "❤": 800,
      "❥": 801,
      "❦": 802,
      "❧": 803,
      "➖": 804,
      "➞": 805,
      "➽": 806,
      "⟰": 807,
      "⠀": 808,
      "⦁": 809,
      "⬇": 810,
      "⭐": 811,
      "⭕": 812,
      "ⴰ": 813,
      "ⴳ": 814,
      "ⴷ": 815,
      "ⴼ": 816,
      "ⵉ": 817,
      "ⵍ": 818,
      "ⵎ": 819,
      "ⵏ": 820,
      "ⵓ": 821,
      "ⵔ": 822,
      "ⵖ": 823,
      "ⵙ": 824,
      "ⵜ": 825,
      "ⵡ": 826,
      "ⵣ": 827,
      "、": 828,
      "。": 829,
      "《": 830,
      "》": 831,
      "『": 832,
      "』": 833,
      "【": 834,
      "】": 835,
      "〖": 836,
      "〗": 837,
      "あ": 838,
      "の": 839,
      "゚": 840,
      "ア": 841,
      "イ": 842,
      "ウ": 843,
      "グ": 844,
      "ジ": 845,
      "ッ": 846,
      "ツ": 847,
      "ト": 848,
      "ド": 849,
      "ビ": 850,
      "フ": 851,
      "ブ": 852,
      "ベ": 853,
      "ミ": 854,
      "ム": 855,
      "メ": 856,
      "モ": 857,
      "ョ": 858,
      "ラ": 859,
      "ロ": 860,
      "ン": 861,
      "・": 862,
      "ー": 863,
      "ㄨ": 864,
      "中": 865,
      "乀": 866,
      "乂": 867,
      "二": 868,
      "優": 869,
      "国": 870,
      "备": 871,
      "彡": 872,
      "文": 873,
      "日": 874,
      "本": 875,
      "語": 876,
      "设": 877,
      "국": 878,
      "스": 879,
      "어": 880,
      "한": 881,
      "﴾": 882,
      "﴿": 883,
      "️": 884,
      "￼": 885,
      "🇦": 886,
      "🇧": 887,
      "🇩": 888,
      "🇪": 889,
      "🇬": 890,
      "🇮": 891,
      "🇰": 892,
      "🇲": 893,
      "🇴": 894,
      "🇶": 895,
      "🇷": 896,
      "🇸": 897,
      "🇹": 898,
      "🇼": 899,
      "🌚": 900,
      "🌞": 901,
      "🌟": 902,
      "🌷": 903,
      "🌸": 904,
      "🌹": 905,
      "🌺": 906,
      "🌻": 907,
      "🌼": 908,
      "🌿": 909,
      "🍃": 910,
      "🎁": 911,
      "🎈": 912,
      "🎉": 913,
      "🎶": 914,
      "🏃": 915,
      "🏻": 916,
      "🏼": 917,
      "🏽": 918,
      "👀": 919,
      "👆": 920,
      "👇": 921,
      "👈": 922,
      "👉": 923,
      "👊": 924,
      "👌": 925,
      "👍": 926,
      "👏": 927,
      "👑": 928,
      "💃": 929,
      "💋": 930,
      "💐": 931,
      "💓": 932,
      "💔": 933,
      "💕": 934,
      "💖": 935,
      "💗": 936,
      "💘": 937,
      "💙": 938,
      "💚": 939,
      "💛": 940,
      "💜": 941,
      "💞": 942,
      "💥": 943,
      "💪": 944,
      "💫": 945,
      "💭": 946,
      "💯": 947,
      "📌": 948,
      "📍": 949,
      "🔥": 950,
      "🔴": 951,
      "🔵": 952,
      "🔹": 953,
      "🔻": 954,
      "🕊": 955,
      "🕔": 956,
      "🖤": 957,
      "😀": 958,
      "😁": 959,
      "😂": 960,
      "😃": 961,
      "😄": 962,
      "😅": 963,
      "😆": 964,
      "😇": 965,
      "😉": 966,
      "😊": 967,
      "😋": 968,
      "😌": 969,
      "😍": 970,
      "😎": 971,
      "😏": 972,
      "😐": 973,
      "😑": 974,
      "😒": 975,
      "😔": 976,
      "😕": 977,
      "😘": 978,
      "😜": 979,
      "😡": 980,
      "😢": 981,
      "😩": 982,
      "😪": 983,
      "😭": 984,
      "😱": 985,
      "😳": 986,
      "😴": 987,
      "😹": 988,
      "😻": 989,
      "🙁": 990,
      "🙂": 991,
      "🙃": 992,
      "🙄": 993,
      "🙈": 994,
      "🙊": 995,
      "🙌": 996,
      "🙏": 997,
      "🚶": 998,
      "🤔": 999,
      "🤗": 1000,
      "🤣": 1001,
      "🤦": 1002,
      "🤷": 1003,
      "🧡": 1004,
      "##ت": 1005,
      "##ن": 1006,
      "##ا": 1007,
      "##ز": 1008,
      "##ع": 1009,
      "##ل": 1010,
      "##ق": 1011,
      "##و": 1012,
      "##ي": 1013,
      "##ك": 1014,
      "##م": 1015,
      "##د": 1016,
      "##ر": 1017,
      "##8": 1018,
      "##S": 1019,
      "##q": 1020,
      "##M": 1021,
      "##F": 1022,
      "##e": 1023,
      "##c": 1024,
      "##g": 1025,
      "##y": 1026,
      "##ض": 1027,
      "##ه": 1028,
      "##1": 1029,
      "##5": 1030,
      "##ص": 1031,
      "##ح": 1032,
      "##س": 1033,
      "##ش": 1034,
      "##ذ": 1035,
      "##خ": 1036,
      "##ف": 1037,
      "##ؤ": 1038,
      "##ث": 1039,
      "##ط": 1040,
      "##ج": 1041,
      "##ئ": 1042,
      "##ة": 1043,
      "##غ": 1044,
      "##ب": 1045,
      "##أ": 1046,
      "##d": 1047,
      "##t": 1048,
      "##a": 1049,
      "##i": 1050,
      "##o": 1051,
      "##n": 1052,
      "##ء": 1053,
      "##آ": 1054,
      "##ٲ": 1055,
      "##ھ": 1056,
      "##ظ": 1057,
      "##7": 1058,
      "##2": 1059,
      "##b": 1060,
      "##L": 1061,
      "##I": 1062,
      "##A": 1063,
      "##H": 1064,
      "##K": 1065,
      "##k": 1066,
      "##٠": 1067,
      "##x": 1068,
      "##4": 1069,
      "##Y": 1070,
      "##0": 1071,
      "##E": 1072,
      "##v": 1073,
      "##G": 1074,
      "##Z": 1075,
      "##3": 1076,
      "##9": 1077,
      "##پ": 1078,
      "##6": 1079,
      "##إ": 1080,
      "##ک": 1081,
      "##N": 1082,
      "##u": 1083,
      "##C": 1084,
      "##P": 1085,
      "##f": 1086,
      "##p": 1087,
      "##U": 1088,
      "##J": 1089,
      "##w": 1090,
      "##r": 1091,
      "##s": 1092,
      "##€": 1093,
      "##h": 1094,
      "##j": 1095,
      "##l": 1096,
      "##ñ": 1097,
      "##O": 1098,
      "##R": 1099,
      "##D": 1100,
      "##ے": 1101,
      "##ى": 1102,
      "##m": 1103,
      "##е": 1104,
      "##з": 1105,
      "##м": 1106,
      "##😂": 1107,
      "##ִ": 1108,
      "##ז": 1109,
      "##ּ": 1110,
      "##י": 1111,
      "##ר": 1112,
      "##ָ": 1113,
      "##ה": 1114,
      "##T": 1115,
      "##X": 1116,
      "##B": 1117,
      "##z": 1118,
      "##🏼": 1119,
      "##ی": 1120,
      "##🚶": 1121,
      "##🏻": 1122,
      "##ê": 1123,
      "##ٹ": 1124,
      "##Q": 1125,
      "##£": 1126,
      "##■": 1127,
      "##V": 1128,
      "##W": 1129,
      "##😇": 1130,
      "##🤔": 1131,
      "##ڷ": 1132,
      "##ü": 1133,
      "##ˆ": 1134,
      "##μ": 1135,
      "##ڑ": 1136,
      "##ڈ": 1137,
      "##١": 1138,
      "##٦": 1139,
      "##😉": 1140,
      "##❤": 1141,
      "##️": 1142,
      "##گ": 1143,
      "##🎁": 1144,
      "##🎈": 1145,
      "##🎉": 1146,
      "##🤗": 1147,
      "##😘": 1148,
      "##ۈ": 1149,
      "##ە": 1150,
      "##×": 1151,
      "##ں": 1152,
      "##🤦": 1153,
      "##🏽": 1154,
      "##♂": 1155,
      "##٧": 1156,
      "##٨": 1157,
      "##٥": 1158,
      "##💔": 1159,
      "##ä": 1160,
      "##ہ": 1161,
      "##چ": 1162,
      "##ʁ": 1163,
      "##̃": 1164,
      "##ρ": 1165,
      "##γ": 1166,
      "##υ": 1167,
      "##ό": 1168,
      "##κ": 1169,
      "##α": 1170,
      "##σ": 1171,
      "##τ": 1172,
      "##ο": 1173,
      "##р": 1174,
      "##ё": 1175,
      "##н": 1176,
      "##ы": 1177,
      "##ڳ": 1178,
      "##ٱ": 1179,
      "##ͼ": 1180,
      "##̳": 1181,
      "##٢": 1182,
      "##é": 1183,
      "##✋": 1184,
      "##😭": 1185,
      "##😩": 1186,
      "##т": 1187,
      "##а": 1188,
      "##ۃ": 1189,
      "##â": 1190,
      "##😹": 1191,
      "##٤": 1192,
      "##♀": 1193,
      "##Ù": 1194,
      "##Š": 1195,
      "##Ø": 1196,
      "##😊": 1197,
      "##👏": 1198,
      "##и": 1199,
      "##٩": 1200,
      "##с": 1201,
      "##п": 1202,
      "##у": 1203,
      "##́": 1204,
      "##б": 1205,
      "##л": 1206,
      "##к": 1207,
      "##🔥": 1208,
      "##👌": 1209,
      "##♥": 1210,
      "##è": 1211,
      "##®": 1212,
      "##ٔ": 1213,
      "##ã": 1214,
      "##😎": 1215,
      "##🌹": 1216,
      "##🍃": 1217,
      "##ػ": 1218,
      "##в": 1219,
      "##о": 1220,
      "##й": 1221,
      "##д": 1222,
      "##ۡ": 1223,
      "##۰": 1224,
      "##ڤ": 1225,
      "##є": 1226,
      "##💚": 1227,
      "##ٓ": 1228,
      "##ۆ": 1229,
      "##ڨ": 1230,
      "##✌": 1231,
      "##🇸": 1232,
      "##🇦": 1233,
      "##¬": 1234,
      "##ו": 1235,
      "##ע": 1236,
      "##ץ": 1237,
      "##▓": 1238,
      "##█": 1239,
      "##ς": 1240,
      "##٣": 1241,
      "##💘": 1242,
      "##Ã": 1243,
      "##©": 1244,
      "##ч": 1245,
      "##ٺ": 1246,
      "##Ф": 1247,
      "##💖": 1248,
      "##Œ": 1249,
      "##¥": 1250,
      "##💗": 1251,
      "##●": 1252,
      "##☼": 1253,
      "##○": 1254,
      "##ټ": 1255,
      "##ó": 1256,
      "##ڵ": 1257,
      "##ۅ": 1258,
      "##🙂": 1259,
      "##🏃": 1260,
      "##ç": 1261,
      "##х": 1262,
      "##🙃": 1263,
      "##🙄": 1264,
      "##ン": 1265,
      "##ラ": 1266,
      "##イ": 1267,
      "##ж": 1268,
      "##я": 1269,
      "##¤": 1270,
      "##۪": 1271,
      "##۫": 1272,
      "##✈": 1273,
      "##😀": 1274,
      "##💛": 1275,
      "##💭": 1276,
      "##û": 1277,
      "##°": 1278,
      "##ۋ": 1279,
      "##ù": 1280,
      "##😢": 1281,
      "##ć": 1282,
      "##ı": 1283,
      "##í": 1284,
      "##ν": 1285,
      "##į": 1286,
      "##👍": 1287,
      "##🙌": 1288,
      "##ô": 1289,
      "##✔": 1290,
      "##😒": 1291,
      "##ל": 1292,
      "##ⵎ": 1293,
      "##ⴰ": 1294,
      "##ⵜ": 1295,
      "##۱": 1296,
      "##💕": 1297,
      "##☕": 1298,
      "##✨": 1299,
      "##İ": 1300,
      "##😆": 1301,
      "##ี": 1302,
      "##่": 1303,
      "##🙏": 1304,
      "##Ƹ": 1305,
      "##נ": 1306,
      "##ט": 1307,
      "##ק": 1308,
      "##۶": 1309,
      "##۸": 1310,
      "##👀": 1311,
      "##⚠": 1312,
      "##ι": 1313,
      "##💙": 1314,
      "##±": 1315,
      "##۹": 1316,
      "##ö": 1317,
      "##۳": 1318,
      "##۴": 1319,
      "##۷": 1320,
      "##š": 1321,
      "##★": 1322,
      "##ד": 1323,
      "##ם": 1324,
      "##😌": 1325,
      "##∞": 1326,
      "##ڛ": 1327,
      "##ێ": 1328,
      "##🌚": 1329,
      "##ژ": 1330,
      "##🇰": 1331,
      "##🇼": 1332,
      "##🇴": 1333,
      "##🇲": 1334,
      "##ٴ": 1335,
      "##ā": 1336,
      "##│": 1337,
      "##π": 1338,
      "##г": 1339,
      "##⚫": 1340,
      "##ร": 1341,
      "##ั": 1342,
      "##ง": 1343,
      "##ก": 1344,
      "##ว": 1345,
      "##า": 1346,
      "##อ": 1347,
      "##ห": 1348,
      "##บ": 1349,
      "##💋": 1350,
      "##🌷": 1351,
      "##É": 1352,
      "##😋": 1353,
      "##۵": 1354,
      "##א": 1355,
      "##ٻ": 1356,
      "##ۧ": 1357,
      "##ڙ": 1358,
      "##ې": 1359,
      "##ڸ": 1360,
      "##😃": 1361,
      "##😁": 1362,
      "##¦": 1363,
      "##√": 1364,
      "##Ś": 1365,
      "##ь": 1366,
      "##ח": 1367,
      "##😕": 1368,
      "##ō": 1369,
      "##😍": 1370,
      "##ڬ": 1371,
      "##ڠ": 1372,
      "##😏": 1373,
      "##⁄": 1374,
      "##ס": 1375,
      "##פ": 1376,
      "##ڪ": 1377,
      "##ַ": 1378,
      "##☺": 1379,
      "##ę": 1380,
      "##ी": 1381,
      "##😑": 1382,
      "##რ": 1383,
      "##ڕ": 1384,
      "##น": 1385,
      "##ด": 1386,
      "##̴": 1387,
      "##̵": 1388,
      "##❌": 1389,
      "##║": 1390,
      "##❀": 1391,
      "##۲": 1392,
      "##ा": 1393,
      "##æ": 1394,
      "##ת": 1395,
      "##ğ": 1396,
      "##ש": 1397,
      "##✍": 1398,
      "##ī": 1399,
      "##β": 1400,
      "##ʽ": 1401,
      "##ڽ": 1402,
      "##￼": 1403,
      "##ן": 1404,
      "##η": 1405,
      "##ε": 1406,
      "##ღ": 1407,
      "##ø": 1408,
      "##🇧": 1409,
      "##đ": 1410,
      "##ٿ": 1411,
      "##ド": 1412,
      "##フ": 1413,
      "##ト": 1414,
      "##ə": 1415,
      "##ɪ": 1416,
      "##ц": 1417,
      "##🌸": 1418,
      "##ú": 1419,
      "##◦": 1420,
      "##à": 1421,
      "##₪": 1422,
      "##λ": 1423,
      "##έ": 1424,
      "##╭": 1425,
      "##━": 1426,
      "##🙈": 1427,
      "##ṭ": 1428,
      "##ƒ": 1429,
      "##🌺": 1430,
      "##œ": 1431,
      "##◄": 1432,
      "##á": 1433,
      "##î": 1434,
      "##ï": 1435,
      "##ڼ": 1436,
      "##ۓ": 1437,
      "##ա": 1438,
      "##צ": 1439,
      "##כ": 1440,
      "##💓": 1441,
      "##💜": 1442,
      "##С": 1443,
      "##ܐ": 1444,
      "##ܠ": 1445,
      "##🇶": 1446,
      "##ۂ": 1447,
      "##☆": 1448,
      "##ʿ": 1449,
      "##╔": 1450,
      "##Â": 1451,
      "##ž": 1452,
      "##♫": 1453,
      "##♪": 1454,
      "##ë": 1455,
      "##😳": 1456,
      "##🤣": 1457,
      "##ъ": 1458,
      "##❝": 1459,
      "##😐": 1460,
      "##🙊": 1461,
      "##👊": 1462,
      "##ş": 1463,
      "##💐": 1464,
      "##Ş": 1465,
      "##ۉ": 1466,
      "##ஐ": 1467,
      "##र": 1468,
      "##ˮ": 1469,
      "##😪": 1470,
      "##۩": 1471,
      "##ʾ": 1472,
      "##↓": 1473,
      "##ー": 1474,
      "##ム": 1475,
      "##ۚ": 1476,
      "##ܘ": 1477,
      "##ܪ": 1478,
      "##ܝ": 1479,
      "##ܢ": 1480,
      "##Г": 1481,
      "##♡": 1482,
      "##💃": 1483,
      "##🇹": 1484,
      "##া": 1485,
      "##😅": 1486,
      "##어": 1487,
      "##👇": 1488,
      "##😔": 1489,
      "##🇪": 1490,
      "##å": 1491,
      "##⃣": 1492,
      "##ш": 1493,
      "##🌿": 1494,
      "##מ": 1495,
      "##ג": 1496,
      "##🌼": 1497,
      "##👈": 1498,
      "##💞": 1499,
      "##😡": 1500,
      "##ܬ": 1501,
      "##Д": 1502,
      "##❊": 1503,
      "##←": 1504,
      "##😄": 1505,
      "##і": 1506,
      "##ѕ": 1507,
      "##இ": 1508,
      "##̈": 1509,
      "##🖤": 1510,
      "##💪": 1511,
      "##ά": 1512,
      "##ⴳ": 1513,
      "##ⵏ": 1514,
      "##👉": 1515,
      "##♠": 1516,
      "##🤷": 1517,
      "##ξ": 1518,
      "##ב": 1519,
      "##ڊ": 1520,
      "##̶": 1521,
      "##ω": 1522,
      "##ί": 1523,
      "##ū": 1524,
      "##ڹ": 1525,
      "##ۗ": 1526,
      "##🌻": 1527,
      "##̨": 1528,
      "##ٳ": 1529,
      "##θ": 1530,
      "##ܕ": 1531,
      "##ܡ": 1532,
      "##һ": 1533,
      "##А": 1534,
      "##ţ": 1535,
      "##🕊": 1536,
      "##დ": 1537,
      "##φ": 1538,
      "##ή": 1539,
      "##ツ": 1540,
      "##õ": 1541,
      "##☻": 1542,
      "##ڦ": 1543,
      "##ண": 1544,
      "##ò": 1545,
      "##ڔ": 1546,
      "##้": 1547,
      "##เ": 1548,
      "##ย": 1549,
      "##็": 1550,
      "##ڭ": 1551,
      "##÷": 1552,
      "##ŋ": 1553,
      "##☝": 1554,
      "##О": 1555,
      "##Я": 1556,
      "##В": 1557,
      "##И": 1558,
      "##♛": 1559,
      "##💥": 1560,
      "##վ": 1561,
      "##✿": 1562,
      "##🌟": 1563,
      "##≡": 1564,
      "##✅": 1565,
      "##ッ": 1566,
      "##ブ": 1567,
      "##մ": 1568,
      "##̄": 1569,
      "##▬": 1570,
      "##☹": 1571,
      "##ł": 1572,
      "##Ö": 1573,
      "##۞": 1574,
      "##ۤ": 1575,
      "##แ": 1576,
      "##😜": 1577,
      "##ア": 1578,
      "##モ": 1579,
      "##¢": 1580,
      "##⚽": 1581,
      "##̇": 1582,
      "##Н": 1583,
      "##Й": 1584,
      "##ώ": 1585,
      "##☞": 1586,
      "##ख": 1587,
      "##✒": 1588,
      "##⭐": 1589,
      "##द": 1590,
      "##⠀": 1591,
      "##┈": 1592,
      "##🇮": 1593,
      "##ă": 1594,
      "##͡": 1595,
      "##ۀ": 1596,
      "##č": 1597,
      "##═": 1598,
      "##Р": 1599,
      "##ۖ": 1600,
      "##−": 1601,
      "##ζ": 1602,
      "##🇩": 1603,
      "##Б": 1604,
      "##ɱ": 1605,
      "##😴": 1606,
      "##ß": 1607,
      "##ⵉ": 1608,
      "##ⵍ": 1609,
      "##ⵡ": 1610,
      "##🧡": 1611,
      "##̧": 1612,
      "##✎": 1613,
      "##̲": 1614,
      "##ロ": 1615,
      "##▪": 1616,
      "##Ł": 1617,
      "##Đ": 1618,
      "##ǿ": 1619,
      "##ś": 1620,
      "##Μ": 1621,
      "##░": 1622,
      "##▒": 1623,
      "##🌞": 1624,
      "##►": 1625,
      "##П": 1626,
      "##̷": 1627,
      "##스": 1628,
      "##❥": 1629,
      "##ミ": 1630,
      "##ۑ": 1631,
      "##ۨ": 1632,
      "##ँ": 1633,
      "##♨": 1634,
      "##ۣ": 1635,
      "##ⴷ": 1636,
      "##ล": 1637,
      "##ф": 1638,
      "##☜": 1639,
      "##ą": 1640,
      "##🎶": 1641,
      "##♩": 1642,
      "##▌": 1643,
      "##👑": 1644,
      "##🔴": 1645,
      "##❄": 1646,
      "##😻": 1647,
      "##╠": 1648,
      "##न": 1649,
      "##😱": 1650,
      "##Ľ": 1651,
      "##Ą": 1652,
      "##Ç": 1653,
      "##✓": 1654,
      "##✦": 1655,
      "##🇷": 1656,
      "##💫": 1657,
      "##⚡": 1658,
      "##ď": 1659,
      "##📍": 1660,
      "##ۜ": 1661,
      "##ڶ": 1662,
      "##↔": 1663,
      "##➖": 1664,
      "##ږ": 1665,
      "##ḥ": 1666,
      "##Ð": 1667,
      "##Å": 1668,
      "##あ": 1669,
      "##խ": 1670,
      "##👆": 1671,
      "##◣": 1672,
      "##◆": 1673,
      "##❖": 1674,
      "##メ": 1675,
      "##๑": 1676,
      "##Ω": 1677,
      "##ᅠ": 1678,
      "##ї": 1679,
      "##の": 1680,
      "##→": 1681,
      "##Ϡ": 1682,
      "##☏": 1683,
      "##М": 1684,
      "##ƽ": 1685,
      "##🇬": 1686,
      "##◊": 1687,
      "##ⵓ": 1688,
      "##ⵣ": 1689,
      "##⬇": 1690,
      "##≈": 1691,
      "##К": 1692,
      "##☀": 1693,
      "##ړ": 1694,
      "##♦": 1695,
      "##✽": 1696,
      "##🙁": 1697,
      "##ʃ": 1698,
      "##ő": 1699,
      "##🔵": 1700,
      "##़": 1701,
      "##↑": 1702,
      "##ⵔ": 1703,
      "##ȫ": 1704,
      "##∙": 1705,
      "##💯": 1706,
      "##ะ": 1707,
      "##ิ": 1708,
      "##ท": 1709,
      "##ף": 1710,
      "##국": 1711,
      "##❣": 1712,
      "##ܓ": 1713,
      "##Θ": 1714,
      "##Ļ": 1715,
      "##☂": 1716,
      "##Ü": 1717,
      "##☃": 1718,
      "##ŝ": 1719,
      "##Č": 1720,
      "##ҳ": 1721,
      "##─": 1722,
      "##Ḥ": 1723,
      "##ョ": 1724,
      "##Σ": 1725,
      "##▲": 1726,
      "##Т": 1727,
      "##ך": 1728,
      "##ĸ": 1729,
      "##ψ": 1730,
      "##Ξ": 1731,
      "##╚": 1732,
      "##ジ": 1733,
      "##׼": 1734,
      "##⋰": 1735,
      "##ウ": 1736,
      "##한": 1737,
      "##ო": 1738,
      "##ส": 1739,
      "##Ï": 1740,
      "##ܔ": 1741,
      "##🔹": 1742,
      "##ۇ": 1743,
      "##ả": 1744,
      "##ஓ": 1745,
      "##წ": 1746,
      "##∂": 1747,
      "##۾": 1748,
      "##ŷ": 1749,
      "##Є": 1750,
      "##Ñ": 1751,
      "##ม": 1752,
      "##Ŗ": 1753,
      "##ஜ": 1754,
      "##ܨ": 1755,
      "##̸": 1756,
      "##Ҳ": 1757,
      "##Ê": 1758,
      "##್": 1759,
      "##്": 1760,
      "##⊰": 1761,
      "##♕": 1762,
      "##⊱": 1763,
      "##∫": 1764,
      "##ֿ": 1765,
      "##◾": 1766,
      "##ށ": 1767,
      "##̅": 1768,
      "##Ŧ": 1769,
      "##▶": 1770,
      "##♣": 1771,
      "##✲": 1772,
      "##♢": 1773,
      "##ビ": 1774,
      "##ڲ": 1775,
      "##▸": 1776,
      "##Ť": 1777,
      "##✉": 1778,
      "##◘": 1779,
      "##ઇ": 1780,
      "##ไ": 1781,
      "##⚜": 1782,
      "##ੀ": 1783,
      "##҉": 1784,
      "##▃": 1785,
      "##▅": 1786,
      "##▆": 1787,
      "##▇": 1788,
      "##▷": 1789,
      "##✖": 1790,
      "##৲": 1791,
      "##♔": 1792,
      "##◇": 1793,
      "##□": 1794,
      "##ĉ": 1795,
      "##⦁": 1796,
      "##Ғ": 1797,
      "##グ": 1798,
      "##◀": 1799,
      "##🔻": 1800,
      "##▐": 1801,
      "##̡": 1802,
      "##ベ": 1803,
      "##ị": 1804,
      "##₡": 1805,
      "##Ψ": 1806,
      "##⭕": 1807,
      "##◕": 1808,
      "##☰": 1809,
      "##╬": 1810,
      "##▫": 1811,
      "##ⵖ": 1812,
      "##Ʒ": 1813,
      "##ஃ": 1814,
      "##📌": 1815,
      "##̊": 1816,
      "##▂": 1817,
      "##ѽ": 1818,
      "##ⵙ": 1819,
      "##ⴼ": 1820,
      "##▼": 1821,
      "##┨": 1822,
      "##╝": 1823,
      "##๘": 1824,
      "##╣": 1825,
      "##ೋ": 1826,
      "##ਿ": 1827,
      "##▽": 1828,
      "##װ": 1829,
      "##Ḿ": 1830,
      "##฿": 1831,
      "##ḋ": 1832,
      "##⋙": 1833,
      "##Җ": 1834,
      "##♬": 1835,
      "##ư": 1836,
      "##ஹ": 1837,
      "##∑": 1838,
      "##ǁ": 1839,
      "##₩": 1840,
      "##◤": 1841,
      "##☎": 1842,
      "##▣": 1843,
      "##ฒ": 1844,
      "##↕": 1845,
      "##ॐ": 1846,
      "##╗": 1847,
      "##⇐": 1848,
      "##◁": 1849,
      "##◙": 1850,
      "##↵": 1851,
      "##ಞ": 1852,
      "##◐": 1853,
      "##ʋ": 1854,
      "##҈": 1855,
      "##Þ": 1856,
      "##ˉ": 1857,
      "##▏": 1858,
      "##╯": 1859,
      "##ᴍ": 1860,
      "##ऋ": 1861,
      "##હ": 1862,
      "##ஊ": 1863,
      "##⚛": 1864,
      "##✪": 1865,
      "##ㄨ": 1866,
      "##Ģ": 1867,
      "##❧": 1868,
      "##ৣ": 1869,
      "##◂": 1870,
      "##ஷ": 1871,
      "##৵": 1872,
      "##゚": 1873,
      "##৴": 1874,
      "##↡": 1875,
      "##₹": 1876,
      "##₫": 1877,
      "##❦": 1878,
      "##🕔": 1879,
      "##ঔ": 1880,
      "##♭": 1881,
      "##๐": 1882,
      "##◢": 1883,
      "##ऊ": 1884,
      "##ʘ": 1885,
      "##❞": 1886,
      "##▧": 1887,
      "##┣": 1888,
      "##⚑": 1889,
      "##♞": 1890,
      "##◑": 1891,
      "##⋱": 1892,
      "##ჲ": 1893,
      "##֝": 1894,
      "##┫": 1895,
      "##◥": 1896,
      "##∥": 1897,
      "##⋘": 1898,
      "##ᴥ": 1899,
      "##➽": 1900,
      "##ال": 1901,
      "##لم": 1902,
      "##لا": 1903,
      "##ات": 1904,
      "الم": 1905,
      "##ان": 1906,
      "##لي": 1907,
      "من": 1908,
      "##ار": 1909,
      "##ية": 1910,
      "##ين": 1911,
      "في": 1912,
      "##ها": 1913,
      "##نا": 1914,
      "الا": 1915,
      "##ير": 1916,
      "##له": 1917,
      "وال": 1918,
      "##لت": 1919,
      "##لع": 1920,
      "##ام": 1921,
      "##ون": 1922,
      "##ري": 1923,
      "الع": 1924,
      "##را": 1925,
      "##لى": 1926,
      "الت": 1927,
      "##وا": 1928,
      "##لس": 1929,
      "##دي": 1930,
      "##ما": 1931,
      "##ست": 1932,
      "##اب": 1933,
      "##لك": 1934,
      "##لب": 1935,
      "##ور": 1936,
      "##يا": 1937,
      "##لح": 1938,
      "ان": 1939,
      "##ول": 1940,
      "##لق": 1941,
      "##لأ": 1942,
      "الس": 1943,
      "الح": 1944,
      "الأ": 1945,
      "##لف": 1946,
      "##بي": 1947,
      "##لو": 1948,
      "##هم": 1949,
      "##اد": 1950,
      "بال": 1951,
      "##لله": 1952,
      "الله": 1953,
      "##اء": 1954,
      "عن": 1955,
      "##لد": 1956,
      "##لج": 1957,
      "علي": 1958,
      "##لش": 1959,
      "##مي": 1960,
      "على": 1961,
      "##لن": 1962,
      "لا": 1963,
      "الق": 1964,
      "##ائ": 1965,
      "الش": 1966,
      "##وم": 1967,
      "الب": 1968,
      "##عد": 1969,
      "الج": 1970,
      "##وي": 1971,
      "ما": 1972,
      "مع": 1973,
      "##ني": 1974,
      "##رب": 1975,
      "##ذا": 1976,
      "الن": 1977,
      "الد": 1978,
      "أن": 1979,
      "الف": 1980,
      "##رو": 1981,
      "##اف": 1982,
      "##يد": 1983,
      "##سم": 1984,
      "##رك": 1985,
      "##من": 1986,
      "##لص": 1987,
      "##يه": 1988,
      "وا": 1989,
      "##لخ": 1990,
      "##حد": 1991,
      "##نت": 1992,
      "##ود": 1993,
      "الك": 1994,
      "الخ": 1995,
      "الص": 1996,
      "##بر": 1997,
      "##حم": 1998,
      "##سي": 1999,
      "##اع": 2000,
      "وت": 2001,
      "الي": 2002,
      "##لإ": 2003,
      "##قي": 2004,
      "##تي": 2005,
      "##لر": 2006,
      "##في": 2007,
      "##قد": 2008,
      "الو": 2009,
      "الإ": 2010,
      "##عم": 2011,
      "##دى": 2012,
      "##با": 2013,
      "##كر": 2014,
      "##وق": 2015,
      "##لط": 2016,
      "الر": 2017,
      "##كم": 2018,
      "##يم": 2019,
      "##رف": 2020,
      "##حت": 2021,
      "##اني": 2022,
      "##لذ": 2023,
      "##سب": 2024,
      "##لام": 2025,
      "##مر": 2026,
      "##يل": 2027,
      "منت": 2028,
      "##عة": 2029,
      "##اه": 2030,
      "الذ": 2031,
      "##يف": 2032,
      "##كن": 2033,
      "##يت": 2034,
      "##لة": 2035,
      "##يس": 2036,
      "##رة": 2037,
      "كل": 2038,
      "##قت": 2039,
      "بن": 2040,
      "##بد": 2041,
      "##خر": 2042,
      "لم": 2043,
      "تع": 2044,
      "إلى": 2045,
      "##لال": 2046,
      "##جه": 2047,
      "##لغ": 2048,
      "##مع": 2049,
      "##اص": 2050,
      "##فر": 2051,
      "است": 2052,
      "##كت": 2053,
      "##وت": 2054,
      "كان": 2055,
      "20": 2056,
      "الط": 2057,
      "##وب": 2058,
      "##قة": 2059,
      "##دا": 2060,
      "التي": 2061,
      "##يب": 2062,
      "##دة": 2063,
      "##سا": 2064,
      "##صر": 2065,
      "##يات": 2066,
      "##بار": 2067,
      "مت": 2068,
      "##لث": 2070,
      "##حمد": 2071,
      "##شر": 2072,
      "وأ": 2073,
      "##حب": 2074,
      "أو": 2075,
      "##ته": 2076,
      "##دم": 2077,
      "##اج": 2078,
      "مج": 2079,
      "##رض": 2080,
      "وم": 2081,
      "##لية": 2082,
      "##ذه": 2083,
      "الث": 2084,
      "هذا": 2085,
      "ولا": 2086,
      "المت": 2087,
      "##وف": 2088,
      "بعد": 2089,
      "اله": 2090,
      "##عت": 2091,
      "##اض": 2092,
      "اب": 2093,
      "##فس": 2094,
      "##وع": 2095,
      "مش": 2096,
      "يت": 2097,
      "##كل": 2098,
      "##در": 2099,
      "##الم": 2100,
      "وه": 2101,
      "عم": 2102,
      "##كون": 2103,
      "يا": 2104,
      "##يع": 2105,
      "##حة": 2106,
      "##صل": 2107,
      "##بل": 2108,
      "##وس": 2109,
      "##نه": 2110,
      "##للي": 2111,
      "ام": 2112,
      "##مة": 2113,
      "##خت": 2114,
      "اللي": 2115,
      "##ارة": 2116,
      "بين": 2117,
      "وب": 2118,
      "والم": 2119,
      "##حي": 2120,
      "##هر": 2121,
      "قسم": 2122,
      "##عب": 2123,
      "##ده": 2124,
      "تح": 2125,
      "201": 2126,
      "##لنا": 2127,
      "##وج": 2128,
      "مس": 2129,
      "الذي": 2130,
      "##عو": 2131,
      "##ثر": 2132,
      "##تح": 2133,
      "لي": 2134,
      "وق": 2135,
      "قال": 2136,
      "##خص": 2137,
      "وس": 2138,
      "هو": 2139,
      "##اري": 2140,
      "وع": 2141,
      "##عض": 2142,
      "##قا": 2143,
      "##قه": 2144,
      "##الي": 2145,
      "##هد": 2146,
      "##راء": 2147,
      "##رت": 2148,
      "##لز": 2149,
      "##ارات": 2150,
      "##نة": 2151,
      "##مه": 2152,
      "##رد": 2153,
      "له": 2154,
      "##رج": 2155,
      "با": 2156,
      "##رح": 2157,
      "##وري": 2158,
      "هذه": 2159,
      "##لات": 2160,
      "تق": 2161,
      "وي": 2162,
      "##بح": 2163,
      "انت": 2164,
      "مد": 2165,
      "##رق": 2166,
      "##فا": 2167,
      "يع": 2170,
      "اس": 2171,
      "تم": 2172,
      "الغ": 2173,
      "##وات": 2174,
      "##وض": 2175,
      "##ويت": 2176,
      "##بت": 2177,
      "وان": 2178,
      "##كان": 2179,
      "مح": 2180,
      "عليه": 2181,
      "##مل": 2182,
      "##وز": 2183,
      "##ئيس": 2184,
      "##عا": 2185,
      "الى": 2186,
      "##اح": 2187,
      "اج": 2188,
      "للم": 2189,
      "##سة": 2190,
      "##فض": 2191,
      "عند": 2192,
      "النا": 2193,
      "الز": 2194,
      "عبد": 2195,
      "##ند": 2196,
      "##ره": 2197,
      "##قط": 2198,
      "##كي": 2199,
      "وج": 2200,
      "تت": 2201,
      "محمد": 2202,
      "##عي": 2203,
      "##به": 2204,
      "##زي": 2205,
      "بت": 2206,
      "بر": 2207,
      "##يرة": 2208,
      "##فت": 2209,
      "يق": 2210,
      "والت": 2211,
      "##ديد": 2212,
      "او": 2213,
      "تج": 2214,
      "##بة": 2215,
      "المس": 2216,
      "اي": 2218,
      "لت": 2219,
      "##ورة": 2220,
      "##er": 2221,
      "##انية": 2222,
      "تص": 2223,
      "غير": 2224,
      "بم": 2225,
      "##عه": 2226,
      "##نس": 2227,
      "شي": 2228,
      "##ريق": 2229,
      "فى": 2230,
      "##ولي": 2231,
      "يوم": 2232,
      "##اس": 2233,
      "##طن": 2234,
      "أي": 2235,
      "##ظر": 2236,
      "##ربية": 2238,
      "أم": 2239,
      "المع": 2240,
      "##فع": 2241,
      "المش": 2242,
      "يم": 2243,
      "لو": 2244,
      "تن": 2245,
      "##قل": 2246,
      "هي": 2247,
      "##طر": 2248,
      "به": 2249,
      "بد": 2250,
      "قد": 2251,
      "المن": 2252,
      "ات": 2253,
      "##وى": 2254,
      "##وان": 2255,
      "##ارك": 2256,
      "مست": 2257,
      "##كثر": 2258,
      "إن": 2259,
      "بي": 2260,
      "##كس": 2261,
      "##يني": 2262,
      "ون": 2263,
      "##ولة": 2264,
      "المج": 2265,
      "سي": 2266,
      "##ميع": 2267,
      "عام": 2268,
      "اخ": 2269,
      "وح": 2270,
      "ذلك": 2271,
      "##اي": 2272,
      "مط": 2274,
      "##از": 2275,
      "##رائ": 2276,
      "##ركة": 2277,
      "لك": 2278,
      "اح": 2279,
      "اع": 2280,
      "##يون": 2281,
      "##دد": 2282,
      "##وه": 2283,
      "تش": 2284,
      "##ربي": 2285,
      "حس": 2286,
      "##مال": 2287,
      "##ليم": 2288,
      "قبل": 2289,
      "##وقع": 2290,
      "##أن": 2291,
      "##دين": 2292,
      "##جل": 2293,
      "##لري": 2294,
      "الاس": 2295,
      "##00": 2296,
      "##طف": 2297,
      "ومن": 2298,
      "##ياه": 2299,
      "وز": 2300,
      "##قر": 2301,
      "بح": 2302,
      "##قات": 2303,
      "تس": 2304,
      "الري": 2305,
      "كما": 2306,
      "##زة": 2307,
      "##كا": 2308,
      "##بك": 2309,
      "يج": 2310,
      "الان": 2311,
      "اش": 2312,
      "الام": 2313,
      "المح": 2314,
      "انا": 2315,
      "##ديه": 2316,
      "خلال": 2317,
      "##وال": 2318,
      "##ضا": 2319,
      "##مت": 2321,
      "حي": 2322,
      "##ثل": 2323,
      "مص": 2324,
      "##خل": 2325,
      "##نان": 2326,
      "##عر": 2327,
      "##وية": 2328,
      "##عل": 2329,
      "##نية": 2330,
      "بش": 2331,
      "القر": 2332,
      "ست": 2333,
      "##ثير": 2334,
      "##وله": 2335,
      "##يش": 2336,
      "نفس": 2339,
      "##افة": 2340,
      "وك": 2341,
      "##صف": 2342,
      "##الة": 2343,
      "##رم": 2344,
      "##طة": 2345,
      "بعض": 2346,
      "وش": 2347,
      "##تك": 2348,
      "هنا": 2349,
      "##غير": 2351,
      "##رام": 2352,
      "##ذلك": 2353,
      "الأم": 2354,
      "##باح": 2355,
      "##وك": 2356,
      "بس": 2357,
      "وإ": 2358,
      "##راق": 2359,
      "للت": 2360,
      "##لوا": 2361,
      "قلب": 2362,
      "التع": 2363,
      "##وار": 2364,
      "كت": 2365,
      "فيه": 2366,
      "##ولا": 2367,
      "##مد": 2368,
      "موا": 2369,
      "##فضل": 2370,
      "ثم": 2371,
      "##روب": 2372,
      "##رس": 2373,
      "##حدة": 2374,
      "##ريد": 2375,
      "##عاد": 2376,
      "##تها": 2377,
      "المص": 2378,
      "##حه": 2379,
      "##لض": 2380,
      "##لآ": 2381,
      "##راف": 2382,
      "للا": 2383,
      "##مو": 2384,
      "##ئة": 2385,
      "##غفر": 2386,
      "اذا": 2387,
      "ين": 2388,
      "##ناء": 2389,
      "وف": 2390,
      "##جر": 2391,
      "أب": 2393,
      "##مات": 2394,
      "بك": 2395,
      "##اق": 2396,
      "##قال": 2398,
      "##وني": 2399,
      "وهو": 2400,
      "##رات": 2401,
      "اص": 2402,
      "الض": 2403,
      "لن": 2404,
      "للع": 2405,
      "##بير": 2406,
      "##ميل": 2407,
      "##اش": 2408,
      "الآ": 2409,
      "يح": 2410,
      "##ينا": 2411,
      "##ضي": 2412,
      "##رش": 2413,
      "يست": 2414,
      "##تى": 2415,
      "يس": 2416,
      "وص": 2417,
      "##اره": 2418,
      "##تم": 2419,
      "##ماع": 2420,
      "##هي": 2421,
      "##لرا": 2422,
      "##اط": 2423,
      "##لاث": 2424,
      "لكن": 2425,
      "رئيس": 2426,
      "وفي": 2427,
      "##بات": 2428,
      "##لان": 2429,
      "##ديث": 2430,
      "كانت": 2431,
      "تط": 2432,
      "##ارب": 2433,
      "##يك": 2434,
      "##ديات": 2435,
      "##اريخ": 2436,
      "للد": 2437,
      "يش": 2438,
      "احد": 2439,
      "##وره": 2440,
      "##ذكر": 2441,
      "مؤ": 2442,
      "فيها": 2443,
      "##بية": 2444,
      "##اصة": 2445,
      "الرا": 2446,
      "##جد": 2448,
      "##يران": 2449,
      "##سية": 2450,
      "##عود": 2451,
      "رس": 2452,
      "##ابع": 2453,
      "ولك": 2454,
      "حيث": 2455,
      "الشي": 2456,
      "تد": 2457,
      "##هل": 2458,
      "بها": 2459,
      "##ظيم": 2460,
      "يكون": 2461,
      "فر": 2462,
      "##بط": 2463,
      "19": 2464,
      "##ياء": 2465,
      "##كوم": 2466,
      "تو": 2467,
      "##حر": 2468,
      "##الية": 2469,
      "حد": 2470,
      "لأ": 2471,
      "##قب": 2472,
      "##ضع": 2473,
      "يد": 2474,
      "##عيد": 2475,
      "أس": 2476,
      "##حن": 2478,
      "المد": 2479,
      "##مان": 2480,
      "مو": 2481,
      "##امل": 2482,
      "##كري": 2483,
      "وقال": 2484,
      "اد": 2485,
      "الإس": 2486,
      "##on": 2487,
      "شخص": 2489,
      "يمكن": 2490,
      "والأ": 2491,
      "##الله": 2492,
      "بالم": 2493,
      "حتى": 2494,
      "##كد": 2495,
      "قر": 2496,
      "##زر": 2497,
      "بق": 2498,
      "بأ": 2499,
      "تب": 2500,
      "##ادي": 2501,
      "##سات": 2502,
      "لح": 2503,
      "##شف": 2504,
      "##حات": 2505,
      "والع": 2506,
      "##نام": 2507,
      "##قدم": 2508,
      "##قع": 2509,
      "##شي": 2510,
      "##ضر": 2511,
      "رب": 2512,
      "##سن": 2513,
      "آخر": 2514,
      "##لامي": 2515,
      "##عمل": 2516,
      "##وح": 2517,
      "لما": 2518,
      "لب": 2519,
      "##صال": 2520,
      "##ساعد": 2521,
      "بط": 2522,
      "مخ": 2523,
      "##اخ": 2524,
      "##ائل": 2525,
      "##ارج": 2526,
      "اخت": 2527,
      "حول": 2528,
      "##لوب": 2529,
      "##at": 2530,
      "##طفال": 2531,
      "خط": 2533,
      "##انا": 2534,
      "##ur": 2535,
      "اق": 2536,
      "تحت": 2538,
      "##فة": 2539,
      "كلم": 2540,
      "التح": 2541,
      "##يان": 2542,
      "قروب": 2543,
      "##اك": 2544,
      "##نيا": 2545,
      "مثل": 2546,
      "##جت": 2547,
      "عدد": 2548,
      "ابن": 2549,
      "المؤ": 2550,
      "لان": 2551,
      "سبح": 2552,
      "لها": 2553,
      "##ركز": 2555,
      "##اله": 2556,
      "ود": 2557,
      "تست": 2558,
      "مصر": 2559,
      "##لاح": 2560,
      "جميع": 2561,
      "تف": 2562,
      "واحد": 2563,
      "وما": 2564,
      "وسلم": 2565,
      "##ديم": 2566,
      "##هما": 2567,
      "##باب": 2568,
      "##يز": 2569,
      "صباح": 2570,
      "دون": 2571,
      "فت": 2572,
      "##ماء": 2573,
      "فقط": 2574,
      "حق": 2576,
      "##حدث": 2577,
      "##راج": 2578,
      "سن": 2579,
      "##ورية": 2580,
      "##بع": 2581,
      "##تر": 2582,
      "##ينة": 2583,
      "##ضاء": 2584,
      "وقد": 2585,
      "##راه": 2586,
      "##وة": 2587,
      "##صد": 2588,
      "##افظ": 2589,
      "أنه": 2590,
      "أخ": 2591,
      "##تحاد": 2593,
      "##طي": 2594,
      "##ابة": 2595,
      "##زل": 2596,
      "##الك": 2597,
      "مجلس": 2598,
      "مق": 2599,
      "##ادة": 2600,
      "##هه": 2601,
      "##لاء": 2602,
      "الأس": 2603,
      "والس": 2604,
      "##ظام": 2605,
      "##خدم": 2606,
      "مب": 2607,
      "##جة": 2608,
      "##خرى": 2609,
      "عش": 2610,
      "##فه": 2611,
      "ملي": 2612,
      "##كبر": 2613,
      "##فل": 2614,
      "انه": 2615,
      "اعت": 2616,
      "إذا": 2617,
      "ليس": 2618,
      "بالت": 2619,
      "##طقة": 2620,
      "شيء": 2621,
      "فإ": 2622,
      "##ليل": 2623,
      "##وص": 2624,
      "##ar": 2625,
      "##وير": 2626,
      "حتي": 2627,
      "##جم": 2629,
      "دي": 2630,
      "خير": 2631,
      "##مس": 2632,
      "##لين": 2633,
      "##as": 2634,
      "2018": 2635,
      "##لاق": 2636,
      "ولكن": 2637,
      "##انون": 2638,
      "مطار": 2639,
      "##ارية": 2640,
      "##فاع": 2641,
      "##ديدة": 2642,
      "##جي": 2643,
      "##قم": 2644,
      "##لسط": 2645,
      "##واء": 2646,
      "##ليه": 2647,
      "وكان": 2648,
      "صور": 2649,
      "##ائر": 2650,
      "##اث": 2651,
      "تكون": 2652,
      "##الب": 2653,
      "تك": 2654,
      "وات": 2655,
      "##حيح": 2656,
      "##عمال": 2657,
      "##صول": 2658,
      "##سبة": 2660,
      "تخ": 2661,
      "##غي": 2662,
      "##راك": 2663,
      "##زك": 2665,
      "##يام": 2666,
      "10": 2667,
      "اف": 2668,
      "##ابات": 2669,
      "ولي": 2670,
      "هناك": 2671,
      "لج": 2672,
      "جن": 2673,
      "والح": 2674,
      "كنت": 2678,
      "وخ": 2680,
      "##الف": 2681,
      "نت": 2682,
      "بل": 2683,
      "الوا": 2684,
      "##عار": 2685,
      "##رها": 2686,
      "##ارس": 2688,
      "علم": 2689,
      "ور": 2690,
      "احت": 2691,
      "##صة": 2692,
      "والا": 2693,
      "اني": 2694,
      "اكثر": 2695,
      "##عاء": 2696,
      "##سام": 2697,
      "##فظ": 2698,
      "أع": 2699,
      "##ختلف": 2700,
      "بلا": 2701,
      "##ديو": 2703,
      "بع": 2704,
      "##قيق": 2705,
      "##كتب": 2707,
      "مك": 2708,
      "##حا": 2709,
      "##ريم": 2710,
      "التج": 2711,
      "فان": 2712,
      "##قتص": 2713,
      "المخ": 2714,
      "تأ": 2715,
      "المغ": 2716,
      "##دام": 2718,
      "##ريف": 2719,
      "دا": 2720,
      "يقول": 2722,
      "##تويت": 2723,
      "يو": 2724,
      "إلا": 2725,
      "##ضيع": 2726,
      "##يري": 2727,
      "##لها": 2728,
      "##وط": 2729,
      "##قول": 2730,
      "##نين": 2731,
      "الصح": 2732,
      "##حك": 2733,
      "##سر": 2734,
      "##كومة": 2735,
      "##جن": 2736,
      "مم": 2737,
      "##ابه": 2738,
      "منه": 2739,
      "ري": 2740,
      "##زم": 2741,
      "ترك": 2742,
      "ولم": 2743,
      "احب": 2744,
      "##روع": 2745,
      "كيف": 2746,
      "الال": 2747,
      "##عضاء": 2748,
      "##ger": 2750,
      "##وضوع": 2751,
      "##ضاف": 2752,
      "شركة": 2753,
      "##اته": 2755,
      "الجز": 2756,
      "##نيه": 2757,
      "وقت": 2758,
      "##امج": 2759,
      "##ذي": 2760,
      "##عية": 2761,
      "##نامج": 2762,
      "المو": 2763,
      "sur": 2764,
      "##لظ": 2765,
      "##سبب": 2766,
      "حال": 2767,
      "بان": 2768,
      "##الح": 2769,
      "##نى": 2770,
      "##ظم": 2771,
      "##روض": 2772,
      "للح": 2773,
      "##قبل": 2774,
      "رج": 2775,
      "لنا": 2776,
      "##قى": 2777,
      "حز": 2778,
      "##in": 2779,
      "11": 2780,
      "##شت": 2781,
      "تر": 2782,
      "##ريك": 2783,
      "لله": 2784,
      "200": 2785,
      "صح": 2786,
      "##لقة": 2787,
      "الاخ": 2788,
      "نف": 2790,
      "##هلي": 2791,
      "##ادر": 2792,
      "##or": 2793,
      "لق": 2794,
      "##جز": 2796,
      "المط": 2797,
      "مبار": 2798,
      "##زيد": 2799,
      "محت": 2800,
      "البي": 2801,
      "##لاج": 2802,
      "اغ": 2803,
      "##لاب": 2804,
      "وط": 2806,
      "الظ": 2808,
      "للب": 2809,
      "##ولى": 2810,
      "##gery": 2811,
      "المم": 2812,
      "منها": 2813,
      "الفر": 2814,
      "أص": 2815,
      "##فق": 2817,
      "يص": 2818,
      "05": 2819,
      "بج": 2821,
      "الأخ": 2822,
      "حين": 2823,
      "##سه": 2824,
      "##كو": 2826,
      "هل": 2827,
      "فلا": 2828,
      "السي": 2829,
      "عبر": 2830,
      "##الث": 2832,
      "الرس": 2833,
      "##ولية": 2834,
      "##ويه": 2835,
      "##وقف": 2836,
      "منذ": 2837,
      "##ريب": 2838,
      "هم": 2839,
      "##لون": 2840,
      "##لوم": 2841,
      "##دارة": 2842,
      "وهي": 2843,
      "##وائ": 2844,
      "العم": 2845,
      "المر": 2846,
      "حم": 2848,
      "##اضي": 2849,
      "الوز": 2850,
      "##نسان": 2851,
      "عمر": 2852,
      "##يج": 2853,
      "##ودة": 2855,
      "يارب": 2856,
      "##وريا": 2857,
      "قص": 2858,
      "##انيا": 2860,
      "والش": 2861,
      "ضع": 2862,
      "##غم": 2863,
      "##ظيف": 2864,
      "##اهد": 2866,
      "موقع": 2867,
      "##واصل": 2868,
      "سب": 2869,
      "##هو": 2871,
      "##بيه": 2872,
      "##يره": 2873,
      "##زيز": 2874,
      "يخ": 2875,
      "##ارت": 2876,
      "##اا": 2877,
      "##قص": 2878,
      "وجه": 2879,
      "##الد": 2880,
      "الكت": 2881,
      "جدا": 2882,
      "##ميز": 2883,
      "حيات": 2884,
      "##جهزة": 2885,
      "كثير": 2886,
      "تغ": 2887,
      "يب": 2888,
      "##واب": 2889,
      "las": 2890,
      "عنه": 2891,
      "##داد": 2892,
      "##اعة": 2893,
      "صد": 2894,
      "##بيب": 2895,
      "عالم": 2896,
      "##كتور": 2897,
      "عليك": 2898,
      "لهم": 2899,
      "##اذ": 2900,
      "فقد": 2901,
      "أبو": 2902,
      "بص": 2903,
      "##جيل": 2904,
      "##اتب": 2905,
      "أحد": 2907,
      "بما": 2908,
      "نص": 2909,
      "التص": 2910,
      "##وث": 2911,
      "##يادة": 2912,
      "##es": 2913,
      "مي": 2914,
      "##an": 2915,
      "للس": 2916,
      "ثلاث": 2917,
      "التن": 2918,
      "12": 2919,
      "##اتي": 2920,
      "##راض": 2921,
      "طلب": 2922,
      "##نك": 2923,
      "##راد": 2924,
      "قط": 2925,
      "##وء": 2926,
      "##حق": 2927,
      "##تمع": 2929,
      "##ئي": 2930,
      "افضل": 2931,
      "##ركات": 2932,
      "فع": 2933,
      "كبير": 2934,
      "بإ": 2935,
      "##كره": 2936,
      "##وش": 2937,
      "##للغ": 2938,
      "للأ": 2939,
      "##يرا": 2940,
      "لع": 2941,
      "##روف": 2942,
      "##ئا": 2944,
      "الصف": 2945,
      "نس": 2946,
      "اللغ": 2947,
      "##ليات": 2948,
      "ربي": 2949,
      "##ائق": 2950,
      "14": 2951,
      "يتم": 2952,
      "##احب": 2953,
      "##ميم": 2954,
      "لات": 2955,
      "##لرو": 2956,
      "##ولار": 2957,
      "والإ": 2958,
      "اط": 2959,
      "##ينه": 2960,
      "الجن": 2961,
      "##خدام": 2962,
      "انك": 2963,
      "مر": 2964,
      "والد": 2965,
      "بيت": 2967,
      "لس": 2968,
      "بشكل": 2969,
      "للج": 2970,
      "حا": 2971,
      "##اركة": 2972,
      "الرو": 2973,
      "اسم": 2974,
      "##ائية": 2975,
      "أكثر": 2976,
      "صلى": 2977,
      "اه": 2978,
      "عمل": 2979,
      "شر": 2980,
      "##لمين": 2981,
      "سيا": 2982,
      "واست": 2983,
      "##ac": 2984,
      "##لاف": 2985,
      "15": 2986,
      "##عين": 2987,
      "ار": 2988,
      "فال": 2989,
      "دائ": 2991,
      "أش": 2992,
      "##en": 2993,
      "إس": 2994,
      "كم": 2995,
      "##أس": 2996,
      "##سين": 2998,
      "##فاق": 2999,
      "نح": 3000,
      "نج": 3001,
      "##بكية": 3002,
      "##ياة": 3003,
      "##أة": 3004,
      "عيون": 3005,
      "والن": 3006,
      "##اة": 3007,
      "##حاب": 3008,
      "بأن": 3010,
      "والص": 3011,
      "يط": 3012,
      "##وبي": 3015,
      "رسول": 3016,
      "##ائي": 3017,
      "قلبي": 3018,
      "مات": 3019,
      "عد": 3020,
      "##ذن": 3022,
      "شك": 3023,
      "##عات": 3024,
      "التس": 3025,
      "فإن": 3027,
      "لإ": 3028,
      "##لاد": 3029,
      "##وسط": 3030,
      "فا": 3031,
      "الشر": 3033,
      "لأن": 3034,
      "##مام": 3035,
      "وانت": 3036,
      "##خذ": 3039,
      "##زه": 3040,
      "تلك": 3041,
      "صف": 3042,
      "لمن": 3043,
      "جديد": 3044,
      "##ضافة": 3045,
      "##al": 3046,
      "##داء": 3047,
      "##طية": 3048,
      "##باد": 3050,
      "ضد": 3051,
      "##امعة": 3052,
      "##للا": 3053,
      "عق": 3054,
      "اليه": 3055,
      "العق": 3056,
      "والج": 3057,
      "##طني": 3060,
      "##ويل": 3061,
      "##لهم": 3062,
      "اث": 3064,
      "##وو": 3065,
      "مث": 3066,
      "ير": 3067,
      "خاص": 3068,
      "##خول": 3069,
      "##ساب": 3070,
      "الخط": 3071,
      "رحم": 3072,
      "##مبر": 3073,
      "وزير": 3075,
      "اخر": 3076,
      "مما": 3077,
      "يف": 3078,
      "خدم": 3079,
      "أف": 3080,
      "نفسه": 3081,
      "##انب": 3082,
      "##وتر": 3083,
      "##دينة": 3084,
      "اول": 3085,
      "##رفة": 3087,
      "الحب": 3088,
      "للش": 3091,
      "##سبوع": 3092,
      "##جات": 3094,
      "##الى": 3095,
      "##شار": 3096,
      "ذكر": 3097,
      "##انات": 3098,
      "الاع": 3099,
      "المه": 3100,
      "##نع": 3102,
      "##اما": 3103,
      "##زن": 3104,
      "##لاه": 3107,
      "ريال": 3108,
      "##صار": 3109,
      "##حث": 3110,
      "##قاف": 3111,
      "أيضا": 3112,
      "##اعه": 3113,
      "##جب": 3116,
      "نها": 3117,
      "سلم": 3118,
      "اللا": 3120,
      "##حمل": 3121,
      "بنا": 3122,
      "##امة": 3124,
      "بخ": 3125,
      "بدا": 3126,
      "##زا": 3127,
      "رقم": 3128,
      "##ريه": 3129,
      "##قاط": 3131,
      "القص": 3132,
      "وذلك": 3133,
      "##الت": 3134,
      "##ونه": 3135,
      "##ذر": 3136,
      "ارت": 3137,
      "رم": 3139,
      "##is": 3140,
      "##بيض": 3141,
      "##لكة": 3142,
      "حساب": 3144,
      "##نج": 3145,
      "##موعة": 3146,
      "##رائي": 3147,
      "##طار": 3148,
      "ضعف": 3149,
      "##دف": 3150,
      "حب": 3151,
      "التق": 3152,
      "باب": 3153,
      "الات": 3154,
      "##زق": 3155,
      "شع": 3156,
      "الفي": 3158,
      "ey": 3159,
      "طريق": 3160,
      "##خرج": 3161,
      "البر": 3162,
      "يجب": 3163,
      "لكل": 3164,
      "ماي": 3165,
      "قائ": 3166,
      "##ساس": 3167,
      "##يدة": 3168,
      "##فار": 3169,
      "##اعر": 3170,
      "يؤ": 3172,
      "##om": 3174,
      "##لل": 3175,
      "##يين": 3176,
      "للق": 3178,
      "بسبب": 3179,
      "##للب": 3180,
      "كن": 3181,
      "مكت": 3182,
      "##روس": 3183,
      "والخ": 3184,
      "##بدا": 3186,
      "##ورات": 3187,
      "##لعب": 3188,
      "ومع": 3191,
      "مكان": 3192,
      "##الات": 3194,
      "صوت": 3195,
      "##المي": 3196,
      "لش": 3198,
      "كتب": 3199,
      "فيما": 3200,
      "##هب": 3201,
      "##وفي": 3202,
      "مغ": 3203,
      "##ضم": 3204,
      "جز": 3205,
      "##وجد": 3206,
      "اللب": 3207,
      "ابت": 3209,
      "##يده": 3210,
      "##راب": 3211,
      "##سط": 3212,
      "##واج": 3213,
      "##ساء": 3214,
      "##ناه": 3215,
      "عدم": 3216,
      "طب": 3217,
      "##عاده": 3218,
      "أحمد": 3219,
      "الحر": 3220,
      "خلق": 3222,
      "أبي": 3223,
      "داخل": 3224,
      "##ذك": 3225,
      "##ونة": 3226,
      "والف": 3227,
      "إلي": 3228,
      "بالن": 3229,
      "eye": 3230,
      "مركز": 3231,
      "##تين": 3232,
      "سنة": 3234,
      "##ثم": 3235,
      "يعني": 3236,
      "##هاب": 3237,
      "جه": 3238,
      "الرح": 3239,
      "##نوات": 3240,
      "##قف": 3241,
      "13": 3243,
      "اجمل": 3244,
      "##عداد": 3245,
      "##ضة": 3246,
      "##انيه": 3247,
      "جمي": 3248,
      "##طق": 3249,
      "##ظهر": 3250,
      "##شد": 3251,
      "نحن": 3252,
      "زي": 3253,
      "##فاء": 3254,
      "##ائف": 3256,
      "وانا": 3257,
      "الحد": 3259,
      "الإع": 3260,
      "عرض": 3261,
      "##طيع": 3262,
      "##am": 3263,
      "وهذا": 3265,
      "وين": 3266,
      "##ديل": 3267,
      "بكل": 3268,
      "##ئه": 3269,
      "وحد": 3272,
      "روا": 3275,
      "وجود": 3276,
      "##ياد": 3277,
      "ولو": 3278,
      "بدون": 3279,
      "عز": 3280,
      "العس": 3281,
      "شهر": 3282,
      "واب": 3283,
      "##باء": 3284,
      "ريت": 3285,
      "أخرى": 3286,
      "##امي": 3287,
      "الفت": 3288,
      "##مين": 3289,
      "رص": 3290,
      "نب": 3291,
      "##وتي": 3292,
      "أد": 3293,
      "اكبر": 3294,
      "##قق": 3295,
      "##ولو": 3296,
      "##غط": 3297,
      "##اعد": 3298,
      "##فو": 3301,
      "##ائب": 3302,
      "الآن": 3303,
      "عشر": 3304,
      "لد": 3305,
      "مساء": 3308,
      "والق": 3309,
      "وأن": 3310,
      "فقال": 3312,
      "نظ": 3313,
      "حسن": 3314,
      "يحت": 3315,
      "علا": 3317,
      "الشع": 3318,
      "##قدر": 3319,
      "صاحب": 3320,
      "##ذب": 3322,
      "##اعات": 3323,
      "##شاء": 3324,
      "##عاون": 3325,
      "##راح": 3326,
      "##جا": 3327,
      "18": 3328,
      "##اكل": 3330,
      "نعم": 3331,
      "فأ": 3332,
      "الحق": 3333,
      "عين": 3334,
      "نوف": 3335,
      "##انه": 3336,
      "##ion": 3339,
      "جمع": 3341,
      "##يق": 3343,
      "الاد": 3344,
      "نق": 3345,
      "قام": 3347,
      "العد": 3348,
      "مه": 3349,
      "##طا": 3350,
      "وإن": 3352,
      "را": 3353,
      "##لفات": 3354,
      "##خب": 3355,
      "حدث": 3356,
      "الاش": 3358,
      "##تنا": 3359,
      "##بيل": 3360,
      "فض": 3361,
      "التش": 3363,
      "كي": 3364,
      "دين": 3365,
      "16": 3367,
      "##كرة": 3368,
      "##ظمة": 3369,
      "##كية": 3370,
      "##ئية": 3371,
      "بلد": 3373,
      "##يدك": 3374,
      "عس": 3376,
      "ينا": 3377,
      "##تهم": 3378,
      "عاد": 3381,
      "نش": 3382,
      "##ورد": 3383,
      "وغير": 3387,
      "ابو": 3388,
      "##صي": 3389,
      "##ديك": 3390,
      "##ريط": 3391,
      "##تمر": 3392,
      "قت": 3393,
      "حديث": 3395,
      "##يفة": 3396,
      "##شق": 3397,
      "ويت": 3398,
      "أول": 3399,
      "2016": 3400,
      "##رير": 3401,
      "واس": 3402,
      "يعت": 3404,
      "##حبه": 3405,
      "لكم": 3406,
      "الأن": 3407,
      "وتح": 3408,
      "ته": 3410,
      "التى": 3411,
      "قب": 3412,
      "كب": 3413,
      "##ورا": 3415,
      "##ياب": 3416,
      "##عادة": 3417,
      "الطب": 3418,
      "##ونية": 3419,
      "##قيقة": 3420,
      "يك": 3422,
      "HD": 3424,
      "القط": 3426,
      "##دق": 3427,
      "مف": 3430,
      "وعد": 3431,
      "بار": 3434,
      "##فيذ": 3435,
      "أق": 3436,
      "كتاب": 3437,
      "الاح": 3439,
      "##اهرة": 3440,
      "منهم": 3441,
      "##واد": 3442,
      "##ic": 3443,
      "أما": 3444,
      "انس": 3445,
      "##مية": 3446,
      "##طال": 3447,
      "##خاص": 3448,
      "نشر": 3449,
      "##طه": 3450,
      "وث": 3452,
      "وكل": 3453,
      "التد": 3454,
      "##ابل": 3456,
      "رح": 3457,
      "##لحة": 3458,
      "##وما": 3459,
      "والب": 3460,
      "##هلا": 3461,
      "وضع": 3462,
      "##شة": 3463,
      "##جع": 3464,
      "##صرية": 3466,
      "##ميس": 3467,
      "##كمة": 3468,
      "##شن": 3470,
      "قلوب": 3471,
      "##act": 3473,
      "##واع": 3474,
      "##افظة": 3475,
      "##بلي": 3476,
      "زد": 3477,
      "##مني": 3478,
      "خلف": 3479,
      "خاصة": 3481,
      "##باس": 3482,
      "##ضو": 3483,
      "للن": 3484,
      "نحو": 3487,
      "2015": 3488,
      "##يانة": 3489,
      "راح": 3490,
      "ذات": 3492,
      "حما": 3493,
      "انف": 3494,
      "ههه": 3495,
      "##صور": 3496,
      "الرج": 3498,
      "بغ": 3499,
      "أمام": 3500,
      "منا": 3501,
      "مره": 3502,
      "##رنت": 3503,
      "##يدا": 3504,
      "##مهور": 3505,
      "##باط": 3506,
      "مرت": 3508,
      "##يمة": 3509,
      "##هدف": 3510,
      "##ميه": 3511,
      "مبا": 3512,
      "##ضح": 3514,
      "##روح": 3516,
      "بو": 3517,
      "سا": 3518,
      "17": 3519,
      "##ابت": 3520,
      "عائ": 3521,
      "##ضايا": 3522,
      "25": 3525,
      "##آن": 3526,
      "وتع": 3527,
      "##زين": 3528,
      "##رين": 3529,
      "رأ": 3530,
      "رد": 3535,
      "##اتف": 3536,
      "##ليا": 3538,
      "جاء": 3539,
      "##ضور": 3540,
      "##بيق": 3541,
      "##صب": 3542,
      "الجم": 3543,
      "##طاء": 3544,
      "أغ": 3545,
      "##ريقة": 3547,
      "الأد": 3548,
      "انها": 3550,
      "##جاز": 3551,
      "كلام": 3552,
      "##يبه": 3553,
      "للف": 3554,
      "اكت": 3555,
      "مز": 3556,
      "نادي": 3557,
      "امام": 3558,
      "فريق": 3559,
      "بالإ": 3560,
      "##افي": 3561,
      "مض": 3562,
      "##امن": 3563,
      "ينت": 3564,
      "وار": 3565,
      "##ورو": 3567,
      "عاج": 3568,
      "##ربة": 3569,
      "##لكتر": 3570,
      "##وعة": 3571,
      "##هاد": 3572,
      "عشان": 3573,
      "##ضية": 3575,
      "##لول": 3576,
      "يغ": 3579,
      "##ويتر": 3581,
      "مسؤ": 3582,
      "اشت": 3583,
      "##برا": 3585,
      "المق": 3586,
      "التف": 3587,
      "##ارا": 3588,
      "فوق": 3589,
      "##جاه": 3590,
      "دور": 3591,
      "دعم": 3592,
      "الحي": 3593,
      "##وبية": 3595,
      "##قاء": 3596,
      "بنت": 3597,
      "بالع": 3598,
      "##موع": 3601,
      "أح": 3603,
      "قوله": 3604,
      "##ماعي": 3605,
      "لغ": 3606,
      "وليس": 3607,
      "##ابعة": 3609,
      "الاث": 3610,
      "30": 3612,
      "حزب": 3614,
      "مدير": 3615,
      "##ed": 3616,
      "##سك": 3617,
      "##شرة": 3619,
      "##ظه": 3620,
      "##ياده": 3621,
      "##زال": 3622,
      "خص": 3624,
      "احمد": 3625,
      "حلقة": 3626,
      "خالد": 3627,
      "##ركه": 3628,
      "##قتل": 3629,
      "نا": 3630,
      "اجت": 3631,
      "وض": 3632,
      "##وبر": 3633,
      "نع": 3634,
      "الاف": 3635,
      "##حراف": 3636,
      "ضمن": 3637,
      "##نسي": 3638,
      "لاعب": 3639,
      "قدر": 3640,
      "سوف": 3641,
      "تنا": 3643,
      "##ادم": 3645,
      "المب": 3646,
      "للر": 3647,
      "كام": 3648,
      "##وده": 3649,
      "حسب": 3650,
      "##زمة": 3651,
      "cat": 3652,
      "للط": 3655,
      "##رياض": 3656,
      "##هرب": 3657,
      "والث": 3660,
      "##ولوج": 3663,
      "سعيد": 3664,
      "نفسك": 3665,
      "محا": 3666,
      "##خي": 3667,
      "##لني": 3668,
      "##امه": 3669,
      "##ضان": 3670,
      "سر": 3672,
      "##هداف": 3674,
      "##عى": 3675,
      "##رحلة": 3676,
      "منك": 3677,
      "اك": 3678,
      "قدم": 3681,
      "جمال": 3682,
      "مسلس": 3683,
      "حص": 3684,
      "رغم": 3685,
      "##11": 3686,
      "##وبة": 3687,
      "تؤ": 3688,
      "سوق": 3689,
      "##ولات": 3690,
      "للك": 3691,
      "##قيقه": 3692,
      "امر": 3693,
      "رائ": 3694,
      "##it": 3695,
      "مجال": 3697,
      "تعلم": 3698,
      "2017": 3700,
      "نظام": 3701,
      "##سباب": 3702,
      "ني": 3703,
      "التو": 3704,
      "در": 3705,
      "##طلب": 3706,
      "سيد": 3708,
      "##ائج": 3709,
      "##يته": 3710,
      "##اصيل": 3711,
      "بالح": 3712,
      "وسي": 3713,
      "##ومة": 3714,
      "##ليز": 3715,
      "عنا": 3717,
      "فن": 3718,
      "##رى": 3719,
      "وعلى": 3720,
      "ليست": 3721,
      "##ادث": 3722,
      "##حية": 3723,
      "الكم": 3724,
      "##جراء": 3725,
      "##ارف": 3726,
      "##لاة": 3729,
      "التط": 3730,
      "##ستان": 3731,
      "##هير": 3732,
      "نفسي": 3733,
      "ملت": 3734,
      "##هاز": 3735,
      "##وها": 3736,
      "بالق": 3738,
      "##em": 3739,
      "حلو": 3740,
      "فولو": 3741,
      "##هيله": 3744,
      "ريا": 3746,
      "##ابي": 3748,
      "##رفع": 3749,
      "خلي": 3750,
      "إت": 3751,
      "##لته": 3753,
      "##20": 3755,
      "##للج": 3756,
      "##الا": 3757,
      "##سل": 3758,
      "##نب": 3759,
      "أهم": 3760,
      "##همة": 3761,
      "##رامج": 3763,
      "والك": 3764,
      "النج": 3765,
      "داع": 3767,
      "توا": 3769,
      "##علق": 3770,
      "نور": 3772,
      "صالح": 3774,
      "تعرف": 3775,
      "ملك": 3776,
      "##لوك": 3777,
      "##ونا": 3778,
      "##طان": 3779,
      "از": 3780,
      "وغ": 3781,
      "بير": 3782,
      "##للق": 3783,
      "النف": 3784,
      "##نف": 3785,
      "##شا": 3786,
      "##رجع": 3787,
      "24": 3789,
      "باست": 3790,
      "##ريح": 3791,
      "##اتها": 3793,
      "##ؤال": 3795,
      "##اهر": 3797,
      "اللج": 3798,
      "فهو": 3799,
      "##غب": 3801,
      "اهم": 3802,
      "##ارع": 3803,
      "##ik": 3805,
      "##ستر": 3806,
      "وبعد": 3807,
      "جد": 3809,
      "أنها": 3811,
      "يكن": 3812,
      "##ربع": 3813,
      "جميل": 3814,
      "أفضل": 3815,
      "##رهاب": 3816,
      "سم": 3817,
      "##زب": 3818,
      "##st": 3819,
      "إع": 3820,
      "للإ": 3822,
      "بعيد": 3823,
      "يعرف": 3825,
      "##جهة": 3826,
      "بب": 3827,
      "بالس": 3828,
      "رجل": 3829,
      "خارج": 3830,
      "##نسية": 3831,
      "الها": 3832,
      "حبي": 3833,
      "##بليغ": 3834,
      "اللق": 3836,
      "##ولد": 3837,
      "##ونس": 3838,
      "السف": 3840,
      "##لما": 3841,
      "##ضرار": 3843,
      "شه": 3844,
      "##ائد": 3845,
      "أث": 3846,
      "##فعل": 3847,
      "##غل": 3848,
      "رحمه": 3849,
      "##بحث": 3850,
      "عنها": 3851,
      "البن": 3852,
      "ألف": 3853,
      "بلغ": 3854,
      "ابي": 3855,
      "معه": 3860,
      "##غيير": 3861,
      "للص": 3862,
      "لقد": 3863,
      "مهما": 3864,
      "##ro": 3865,
      "يحب": 3866,
      "تقدم": 3868,
      "100": 3869,
      "مبرو": 3870,
      "اختر": 3872,
      "يه": 3873,
      "معا": 3874,
      "##قائق": 3875,
      "بالأ": 3876,
      "##انى": 3877,
      "##طلاق": 3878,
      "##جاج": 3879,
      "أج": 3880,
      "كال": 3881,
      "##ديق": 3882,
      "أجل": 3883,
      "##لائ": 3884,
      "##بيع": 3885,
      "##يلة": 3886,
      "##وخ": 3887,
      "نقل": 3890,
      "سير": 3892,
      "##كرية": 3893,
      "روح": 3894,
      "أنا": 3897,
      "دعو": 3898,
      "##ad": 3899,
      "##بدأ": 3900,
      "سلط": 3901,
      "حقوق": 3902,
      "حكم": 3904,
      "بالك": 3906,
      "اض": 3907,
      "##لعاب": 3908,
      "حاجه": 3909,
      "اما": 3910,
      "ند": 3911,
      "لدى": 3912,
      "دولة": 3913,
      "##طب": 3916,
      "القد": 3918,
      "مسا": 3920,
      "المف": 3921,
      "واج": 3923,
      "أمس": 3924,
      "التأ": 3925,
      "##اهدة": 3927,
      "##رشيف": 3928,
      "جع": 3929,
      "عقد": 3931,
      "تض": 3932,
      "##تمام": 3933,
      "##وين": 3934,
      "بوا": 3935,
      "باسم": 3936,
      "##انت": 3937,
      "حر": 3938,
      "##طلق": 3940,
      "تعت": 3941,
      "بني": 3942,
      "##قطع": 3943,
      "وبين": 3944,
      "ول": 3945,
      "##ويد": 3946,
      "بالد": 3947,
      "شكرا": 3948,
      "##سد": 3949,
      "زوج": 3950,
      "##شات": 3951,
      "تقوم": 3952,
      "##اهل": 3953,
      "##ذهب": 3955,
      "##اده": 3956,
      "##خصص": 3958,
      "21": 3960,
      "##سسة": 3962,
      "موج": 3964,
      "تحب": 3965,
      "قلبك": 3966,
      "##لمه": 3967,
      "ناس": 3970,
      "شعب": 3972,
      "اقت": 3973,
      "ساب": 3974,
      "##روج": 3975,
      "##ؤون": 3977,
      "##ومي": 3978,
      "حالة": 3979,
      "لز": 3983,
      "قطر": 3984,
      "##انة": 3987,
      "الأش": 3988,
      "##شه": 3990,
      "صل": 3991,
      "سمع": 3993,
      "بات": 3994,
      "جما": 3995,
      "اهل": 3997,
      "محم": 4000,
      "عرف": 4001,
      "قلت": 4002,
      "##يار": 4003,
      "دم": 4006,
      "##وسف": 4007,
      "وسط": 4008,
      "وهم": 4009,
      "نز": 4011,
      "تنت": 4013,
      "سعد": 4014,
      "##ناة": 4015,
      "مرة": 4016,
      "فيك": 4017,
      "تقول": 4018,
      "##قافة": 4019,
      "##درسة": 4020,
      "البط": 4021,
      "دول": 4022,
      "للو": 4023,
      "عاما": 4024,
      "فرح": 4025,
      "يريد": 4026,
      "الهي": 4027,
      "درا": 4028,
      "##ثي": 4029,
      "سكس": 4031,
      "##ميد": 4033,
      "##ولك": 4035,
      "المك": 4036,
      "يوما": 4038,
      "الإم": 4039,
      "##ont": 4041,
      "واح": 4042,
      "##ومه": 4044,
      "لعب": 4046,
      "الشه": 4047,
      "بالخ": 4048,
      "ممكن": 4050,
      "انش": 4051,
      "قول": 4052,
      "صحيح": 4053,
      "الجه": 4055,
      "##ابر": 4056,
      "بنفس": 4058,
      "عاجل": 4059,
      "رؤ": 4060,
      "##le": 4061,
      "22": 4063,
      "##سمع": 4064,
      "##عيم": 4065,
      "##99": 4066,
      "ph": 4067,
      "##ديا": 4068,
      "يقوم": 4070,
      "موس": 4071,
      "##اقة": 4072,
      "##ماد": 4073,
      "##فات": 4074,
      "##كار": 4075,
      "سنه": 4076,
      "رجال": 4077,
      "بقي": 4078,
      "##ريض": 4079,
      "صلي": 4082,
      "نوع": 4083,
      "ولد": 4084,
      "الوح": 4086,
      "##ربه": 4087,
      "##روط": 4088,
      "##ولت": 4089,
      "##جان": 4090,
      "وير": 4092,
      "مان": 4093,
      "##نون": 4095,
      "تجمع": 4098,
      "وام": 4100,
      "إليه": 4101,
      "سليم": 4102,
      "##رر": 4103,
      "##راع": 4104,
      "والر": 4105,
      "##ولين": 4106,
      "##ليق": 4107,
      "##راقي": 4108,
      "صار": 4109,
      "لص": 4110,
      "إتصل": 4111,
      "يأ": 4112,
      "##ريقه": 4115,
      "بيع": 4116,
      "لتح": 4117,
      "لدي": 4118,
      "الفض": 4119,
      "الاب": 4120,
      "##عوذ": 4121,
      "##وضع": 4122,
      "مسلم": 4123,
      "واف": 4124,
      "وعلي": 4126,
      "##قرار": 4127,
      "##واق": 4129,
      "هدف": 4130,
      "فتح": 4131,
      "يض": 4132,
      "مال": 4133,
      "ليت": 4134,
      "امن": 4135,
      "##بتد": 4137,
      "ايه": 4138,
      "المز": 4139,
      "الاص": 4140,
      "##ريكي": 4141,
      "افت": 4142,
      "##لمات": 4144,
      "تكن": 4146,
      "تز": 4147,
      "محد": 4148,
      "روس": 4149,
      "##هاء": 4150,
      "أهل": 4151,
      "##ريده": 4152,
      "##عرض": 4153,
      "com": 4154,
      "##اول": 4155,
      "إب": 4156,
      "##ent": 4157,
      "##اعت": 4159,
      "##شرين": 4160,
      "##يط": 4161,
      "فق": 4162,
      "##سبه": 4163,
      "##سسات": 4165,
      "##قبال": 4166,
      "##عزيز": 4169,
      "يوجد": 4170,
      "php": 4171,
      "استغ": 4172,
      "##ادل": 4173,
      "شيئا": 4174,
      "##علم": 4176,
      "طيب": 4177,
      "##رع": 4178,
      "##BB": 4179,
      "##يمان": 4182,
      "مار": 4183,
      "##ميزة": 4184,
      "##ve": 4185,
      "تا": 4186,
      "صوره": 4187,
      "##ئات": 4188,
      "لاب": 4189,
      "مشك": 4190,
      "##قية": 4192,
      "##تيار": 4193,
      "##لكه": 4194,
      "##re": 4195,
      "##وبه": 4199,
      "00": 4200,
      "بمن": 4201,
      "##ظة": 4202,
      "##لفة": 4203,
      "##قيم": 4204,
      "##ليف": 4205,
      "طال": 4206,
      "كون": 4207,
      "##شك": 4208,
      "##قسام": 4213,
      "لذلك": 4216,
      "شاء": 4217,
      "هال": 4218,
      "بيان": 4219,
      "##ri": 4220,
      "خدمة": 4221,
      "دع": 4222,
      "لقاء": 4223,
      "##ذاب": 4224,
      "بناء": 4225,
      "سف": 4226,
      "##كات": 4228,
      "اليك": 4230,
      "##بره": 4231,
      "##جاب": 4232,
      "##جار": 4233,
      "كله": 4236,
      "##عام": 4239,
      "القب": 4240,
      "إد": 4241,
      "##ارض": 4242,
      "وآ": 4243,
      "##55": 4244,
      "حاج": 4245,
      "##كه": 4246,
      "##انوي": 4248,
      "##قرا": 4250,
      "##رضي": 4252,
      "##ريبا": 4253,
      "##اليه": 4255,
      "##راس": 4256,
      "##تا": 4258,
      "##دية": 4259,
      "##لدي": 4260,
      "طبي": 4261,
      "ايام": 4264,
      "##ظائف": 4265,
      "الأف": 4267,
      "لاي": 4269,
      "بدأ": 4272,
      "حسين": 4273,
      "ويس": 4274,
      "##افع": 4277,
      "##حل": 4278,
      "##ec": 4279,
      "سلام": 4280,
      "جانب": 4282,
      "23": 4287,
      "ملا": 4288,
      "##افيه": 4291,
      "باذن": 4292,
      "##ويا": 4293,
      "كافة": 4294,
      "2014": 4296,
      "جنوب": 4297,
      "قرار": 4298,
      "دوري": 4299,
      "##دت": 4300,
      "فه": 4301,
      "##هداء": 4302,
      "النص": 4303,
      "بف": 4304,
      "##يرات": 4306,
      "يوسف": 4307,
      "رضي": 4309,
      "نتي": 4310,
      "النب": 4311,
      "##ؤلاء": 4312,
      "##لرب": 4314,
      "رسم": 4315,
      "##ويس": 4316,
      "##وضح": 4317,
      "##ويات": 4318,
      "أمر": 4319,
      "قوات": 4320,
      "وعن": 4321,
      "ركن": 4322,
      "كر": 4323,
      "##ينما": 4324,
      "الحا": 4325,
      "سيت": 4326,
      "##هام": 4327,
      "##ينك": 4328,
      "بث": 4329,
      "##ئب": 4332,
      "##شفى": 4336,
      "وتم": 4338,
      "عب": 4340,
      "##رفيه": 4341,
      "##ريات": 4342,
      "##ارق": 4343,
      "##صه": 4344,
      "سواء": 4345,
      "راب": 4346,
      "##بخ": 4347,
      "إذ": 4348,
      "بالش": 4349,
      "##ريا": 4351,
      "أيام": 4354,
      "##بداع": 4355,
      "وصف": 4356,
      "##وجه": 4358,
      "أعلن": 4359,
      "تلق": 4360,
      "كشف": 4361,
      "بور": 4362,
      "سبب": 4364,
      "عباس": 4365,
      "الاج": 4366,
      "##سيط": 4368,
      "##كتر": 4369,
      "الذى": 4370,
      "امي": 4372,
      "ارحم": 4373,
      "أنت": 4374,
      "##50": 4375,
      "أكد": 4378,
      "##ائه": 4379,
      "سك": 4380,
      "##ناك": 4381,
      "ده": 4382,
      "عط": 4384,
      "سام": 4387,
      "##الغ": 4390,
      "رفع": 4391,
      "والط": 4392,
      "سعود": 4393,
      "بالج": 4394,
      "##بكة": 4395,
      "##املة": 4396,
      "مني": 4397,
      "ترا": 4398,
      "فك": 4399,
      "##وغ": 4400,
      "وتش": 4402,
      "دبي": 4403,
      "الاغ": 4404,
      "##يوم": 4405,
      "##عون": 4406,
      "السر": 4407,
      "2013": 4411,
      "عدة": 4412,
      "أكت": 4413,
      "##راضي": 4415,
      "##وفيق": 4416,
      "دار": 4417,
      "##لبي": 4418,
      "##ليك": 4420,
      "رك": 4422,
      "بهذا": 4423,
      "##ائم": 4424,
      "تدري": 4425,
      "امس": 4426,
      "عص": 4427,
      "الأع": 4429,
      "علاج": 4430,
      "##اصمة": 4432,
      "درج": 4433,
      "اجل": 4434,
      "وحده": 4435,
      "##نسا": 4436,
      "كثر": 4438,
      "الرب": 4442,
      "##et": 4444,
      "حرب": 4445,
      "للخ": 4446,
      "مفت": 4448,
      "عني": 4449,
      "المث": 4451,
      "##oo": 4452,
      "صلاح": 4454,
      "طالب": 4458,
      "شاهد": 4459,
      "نظر": 4461,
      "أكبر": 4462,
      "حل": 4463,
      "سبت": 4464,
      "كلها": 4465,
      "##طات": 4466,
      "شمال": 4470,
      "يعمل": 4471,
      "##عاية": 4472,
      "##ارد": 4474,
      "بنات": 4476,
      "ربنا": 4477,
      "كلمه": 4478,
      "الدم": 4479,
      "وطن": 4482,
      "##افه": 4484,
      "واص": 4485,
      "احبك": 4486,
      "##ing": 4487,
      "لف": 4488,
      "##سجيل": 4489,
      "قل": 4491,
      "للي": 4492,
      "إنه": 4493,
      "برو": 4494,
      "غدا": 4496,
      "199": 4498,
      "رو": 4499,
      "والغ": 4500,
      "##اتك": 4501,
      "معت": 4502,
      "النه": 4503,
      "وتن": 4504,
      "عي": 4505,
      "##عرف": 4506,
      "فمن": 4507,
      "قالت": 4508,
      "##ياس": 4509,
      "##ئاسة": 4510,
      "شباب": 4511,
      "ظهر": 4512,
      "شئ": 4513,
      "يعلم": 4515,
      "##حداث": 4516,
      "الحم": 4517,
      "الأح": 4518,
      "##الج": 4520,
      "##ساد": 4522,
      "كامل": 4523,
      "##رحيب": 4527,
      "راس": 4528,
      "لجنة": 4529,
      "ايضا": 4530,
      "لأنه": 4531,
      "##يفه": 4532,
      "كذلك": 4533,
      "شعر": 4537,
      "مقد": 4538,
      "##قيت": 4539,
      "تري": 4542,
      "##ou": 4543,
      "يعد": 4544,
      "نقط": 4546,
      "26": 4547,
      "عنك": 4548,
      "معك": 4549,
      "##اصر": 4550,
      "ذن": 4552,
      "##دينا": 4553,
      "##مرار": 4554,
      "لهذا": 4555,
      "عروض": 4559,
      "##هور": 4560,
      "##كة": 4561,
      "عربي": 4563,
      "##حف": 4565,
      "##فسير": 4566,
      "هاي": 4568,
      "كث": 4570,
      "##10": 4571,
      "حض": 4572,
      "##خة": 4573,
      "##ردد": 4574,
      "جدي": 4575,
      "##جوم": 4577,
      "##شرات": 4579,
      "مشت": 4580,
      "بالا": 4581,
      "معد": 4582,
      "اعد": 4583,
      "سعر": 4584,
      "داعش": 4585,
      "##عليم": 4586,
      "co": 4587,
      "##راءة": 4589,
      "طوي": 4591,
      "##رافي": 4592,
      "ويع": 4594,
      "نسي": 4596,
      "جري": 4597,
      "##لديم": 4598,
      "فهد": 4599,
      "##شفي": 4600,
      "أت": 4602,
      "##ادرة": 4603,
      "يصل": 4604,
      "مساب": 4605,
      "عيني": 4606,
      "اجعل": 4608,
      "تعد": 4613,
      "##طلا": 4615,
      "50": 4616,
      "##لمة": 4617,
      "##شره": 4618,
      "##كذا": 4619,
      "##مم": 4621,
      "ويم": 4622,
      "جام": 4623,
      "وبال": 4624,
      "خلا": 4627,
      "صدر": 4628,
      "##ذار": 4629,
      "ليب": 4630,
      "لاست": 4631,
      "##بدو": 4632,
      "##فرح": 4634,
      "##واطر": 4635,
      "##نات": 4637,
      "##واز": 4638,
      "##il": 4639,
      "رغ": 4641,
      "##رمين": 4643,
      "وتق": 4646,
      "ذا": 4647,
      "مرض": 4648,
      "مهم": 4649,
      "لط": 4651,
      "##كيل": 4652,
      "الإد": 4654,
      "ابدا": 4655,
      "##قين": 4657,
      "##كين": 4659,
      "شا": 4660,
      "مرات": 4661,
      "خي": 4662,
      "ممن": 4663,
      "##حمر": 4664,
      "التخ": 4665,
      "##وصا": 4667,
      "2012": 4670,
      "27": 4672,
      "عج": 4674,
      "لاح": 4678,
      "قيم": 4679,
      "##للح": 4680,
      "ساعه": 4681,
      "ماذا": 4682,
      "28": 4683,
      "##اميم": 4684,
      "##قامة": 4686,
      "##يتها": 4689,
      "تمت": 4690,
      "##ريكا": 4692,
      "##راحة": 4694,
      "فعل": 4695,
      "فلو": 4696,
      "وتت": 4697,
      "اللح": 4698,
      "##يفون": 4699,
      "مدون": 4701,
      "نست": 4702,
      "##زام": 4703,
      "سج": 4704,
      "فيلم": 4705,
      "استش": 4706,
      "##he": 4707,
      "وست": 4709,
      "##ot": 4710,
      "##رفه": 4711,
      "##حمه": 4712,
      "حفظ": 4713,
      "##متع": 4715,
      "##واف": 4717,
      "##ايد": 4719,
      "##ابعه": 4720,
      "فما": 4721,
      "تعرض": 4722,
      "العن": 4723,
      "##ظف": 4724,
      "##امر": 4726,
      "يز": 4727,
      "##ضب": 4728,
      "##66": 4729,
      "ومت": 4730,
      "##وبات": 4731,
      "واخ": 4734,
      "غزة": 4735,
      "##ندي": 4739,
      "للغ": 4740,
      "##افر": 4742,
      "صنا": 4743,
      "##اية": 4744,
      "##امين": 4745,
      "##والي": 4746,
      "##ناب": 4747,
      "##ريع": 4749,
      "برا": 4751,
      "##حين": 4754,
      "##فيد": 4756,
      "هد": 4758,
      "##ثة": 4759,
      "##غيرة": 4760,
      "ولن": 4763,
      "##ليب": 4764,
      "##اريع": 4765,
      "##۞۩": 4766,
      "قطاع": 4767,
      "اصبح": 4768,
      "بهم": 4769,
      "##um": 4770,
      "نصف": 4771,
      "##ra": 4772,
      "##ضمن": 4775,
      "عيد": 4776,
      "##ثمار": 4777,
      "يمن": 4778,
      "##كلم": 4779,
      "واع": 4780,
      "خبر": 4781,
      "تجاه": 4782,
      "##واجد": 4783,
      "راج": 4784,
      "بشر": 4785,
      "انته": 4786,
      "جزء": 4787,
      "ورد": 4788,
      "##لور": 4789,
      "##عك": 4790,
      "##قيل": 4792,
      "##سمبر": 4793,
      "قرب": 4795,
      "سما": 4797,
      "معنا": 4798,
      "نه": 4799,
      "##يح": 4803,
      "##كال": 4804,
      "دخ": 4805,
      "##حص": 4807,
      "البا": 4808,
      "##ردن": 4809,
      "وصل": 4810,
      "تعمل": 4811,
      "ظل": 4812,
      "##شيد": 4813,
      "شكل": 4814,
      "##نيات": 4816,
      "2011": 4817,
      "كلمة": 4819,
      "تريد": 4821,
      "##ظار": 4822,
      "##رفين": 4823,
      "قتل": 4824,
      "الاز": 4825,
      "حركة": 4826,
      "##ريل": 4827,
      "التم": 4829,
      "##غر": 4830,
      "السب": 4831,
      "غياب": 4832,
      "جنيه": 4833,
      "جعل": 4835,
      "بري": 4836,
      "##وجيه": 4837,
      "##سان": 4838,
      "##كرم": 4839,
      "ويب": 4840,
      "##سيه": 4841,
      "مين": 4842,
      "##افحة": 4845,
      "سجل": 4846,
      "الأص": 4847,
      "بذلك": 4850,
      "##سمح": 4851,
      "مالي": 4852,
      "يذكر": 4853,
      "تذكر": 4855,
      "قض": 4856,
      "##بيد": 4858,
      "السن": 4859,
      "##راجع": 4861,
      "##ئيات": 4862,
      "وفق": 4863,
      "حبيب": 4864,
      "##هن": 4865,
      "عضو": 4866,
      "##el": 4867,
      "جده": 4868,
      "سوي": 4871,
      "لخ": 4872,
      "التغ": 4873,
      "وتط": 4875,
      "واذا": 4876,
      "فهم": 4881,
      "ونحن": 4882,
      "##لفزي": 4883,
      "جي": 4885,
      "مارس": 4887,
      "البد": 4890,
      "##اسم": 4891,
      "النس": 4893,
      "##77": 4894,
      "##غيل": 4895,
      "دخل": 4896,
      "إست": 4897,
      "رفض": 4898,
      "هاتف": 4900,
      "إي": 4901,
      "باك": 4904,
      "##شل": 4908,
      "التر": 4911,
      "##سون": 4912,
      "##فاوض": 4914,
      "ونا": 4916,
      "##جلس": 4918,
      "##ثار": 4920,
      "جم": 4923,
      "مخت": 4926,
      "جلس": 4928,
      "##فاف": 4929,
      "##لمان": 4930,
      "##30": 4931,
      "لاين": 4932,
      "##كير": 4933,
      "##ورك": 4935,
      "##طع": 4936,
      "بلاد": 4938,
      "##لاك": 4939,
      "##سبات": 4941,
      "الفق": 4942,
      "بمع": 4943,
      "الدي": 4944,
      "كف": 4946,
      "##ol": 4947,
      "ضر": 4948,
      "##رائب": 4949,
      "##برز": 4950,
      "of": 4954,
      "##غال": 4956,
      "ها": 4958,
      "الشت": 4960,
      "##يتك": 4961,
      "بالب": 4963,
      "##ورت": 4964,
      "يال": 4965,
      "النق": 4966,
      "طول": 4968,
      "##قاش": 4969,
      "##راعة": 4971,
      "##صدق": 4972,
      "الأط": 4973,
      "اذ": 4974,
      "بدر": 4975,
      "فهي": 4976,
      "##12": 4977,
      "##فيق": 4978,
      "مالك": 4979,
      "دورة": 4980,
      "عاش": 4981,
      "واد": 4982,
      "وله": 4983,
      "##قيقي": 4984,
      "مظ": 4985,
      "40": 4986,
      "##ربعة": 4987,
      "##id": 4988,
      "سين": 4991,
      "معرض": 4992,
      "احسن": 4994,
      "##لمي": 4995,
      "بنك": 4996,
      "##امت": 4999,
      "##درات": 5002,
      "##ضه": 5003,
      "##رجم": 5004,
      "##ذة": 5005,
      "متن": 5006,
      "##وشوب": 5007,
      "##عاب": 5008,
      "عندي": 5009,
      "##وفير": 5010,
      "##ندق": 5011,
      "كلية": 5012,
      "بالص": 5013,
      "##nd": 5014,
      "##ماية": 5016,
      "ستار": 5017,
      "مصدر": 5019,
      "نصر": 5023,
      "##رجمة": 5026,
      "##عيش": 5027,
      "سبيل": 5029,
      "##وعه": 5030,
      "##ونيو": 5031,
      "امت": 5033,
      "وفر": 5035,
      "##رسال": 5036,
      "دليل": 5038,
      "سعو": 5039,
      "معي": 5040,
      "##رسل": 5041,
      "##انك": 5042,
      "وعم": 5046,
      "مادة": 5050,
      "##داول": 5052,
      "يزيد": 5053,
      "نم": 5055,
      "الرد": 5056,
      "##يفا": 5057,
      "##واك": 5058,
      "الأز": 5060,
      "##ub": 5061,
      "29": 5064,
      "##فاظ": 5066,
      "ليه": 5067,
      "بز": 5069,
      "##ئين": 5071,
      "واعت": 5072,
      "وعلا": 5073,
      "ارض": 5075,
      "##اتهم": 5076,
      "##لرائ": 5077,
      "كذا": 5078,
      "قوه": 5079,
      "##ائرة": 5080,
      "##سيس": 5082,
      "##سف": 5084,
      "وذكر": 5085,
      "فلي": 5086,
      "لهذه": 5087,
      "##ائع": 5088,
      "##دير": 5089,
      "دخول": 5090,
      "تجد": 5091,
      "##60": 5092,
      "صلاه": 5094,
      "##وفر": 5095,
      "##يور": 5096,
      "##آت": 5098,
      "سؤال": 5099,
      "وتس": 5102,
      "تي": 5103,
      "##ابية": 5104,
      "قم": 5105,
      "##واه": 5106,
      "هت": 5107,
      "##تاح": 5108,
      "##لابس": 5110,
      "##أي": 5113,
      "صغير": 5115,
      "دروس": 5116,
      "##هران": 5117,
      "##33": 5118,
      "واله": 5119,
      "##قلال": 5121,
      "غيرك": 5123,
      "اغفر": 5124,
      "##باك": 5125,
      "وقف": 5127,
      "##ستاذ": 5128,
      "##جرة": 5129,
      "##88": 5131,
      "لين": 5133,
      "##شلون": 5134,
      "انتي": 5136,
      "اون": 5137,
      "##وزيع": 5140,
      "##ادات": 5142,
      "قصص": 5143,
      "##ادت": 5145,
      "لكي": 5146,
      "راي": 5148,
      "##اوز": 5149,
      "##نيف": 5150,
      "##فيف": 5151,
      "##تيب": 5153,
      "##اطر": 5154,
      "##قته": 5155,
      "##ساسي": 5156,
      "##وسي": 5157,
      "##ذف": 5158,
      "حنان": 5159,
      "يسعد": 5160,
      "##غة": 5161,
      "##باق": 5162,
      "عاي": 5163,
      "لر": 5165,
      "موت": 5166,
      "##اريه": 5167,
      "فوز": 5168,
      "خمس": 5169,
      "بتح": 5171,
      "آل": 5172,
      "كأس": 5173,
      "##ريس": 5177,
      "##واعد": 5178,
      "يحدث": 5179,
      "##بحت": 5180,
      "##بارك": 5181,
      "عظيم": 5182,
      "يولي": 5184,
      "ماء": 5185,
      "##حكام": 5186,
      "##كيم": 5187,
      "##ادية": 5189,
      "2010": 5190,
      "۩۞۩": 5191,
      "##ثمان": 5192,
      "##40": 5194,
      "منز": 5196,
      "بسم": 5197,
      "لتص": 5198,
      "ومش": 5199,
      "الفن": 5200,
      "لوحة": 5201,
      "أط": 5203,
      "##راحه": 5204,
      "تغير": 5205,
      "كلا": 5207,
      "تقد": 5208,
      "صورة": 5209,
      "خس": 5210,
      "##وارد": 5211,
      "##رفض": 5212,
      "##لامة": 5213,
      "##لكم": 5214,
      "##صح": 5215,
      "##شرح": 5217,
      "نائب": 5219,
      "وعند": 5220,
      "##رية": 5221,
      "##يي": 5222,
      "عمان": 5224,
      "##زو": 5225,
      "كرة": 5226,
      "ربما": 5227,
      "##ناق": 5229,
      "##ov": 5231,
      "##رار": 5233,
      "يقدم": 5234,
      "الرم": 5242,
      "##تني": 5244,
      "نيك": 5246,
      "##ويق": 5247,
      "قلي": 5248,
      "##طور": 5249,
      "أمير": 5250,
      "حياه": 5251,
      "عامة": 5253,
      "بكر": 5254,
      "##اطق": 5259,
      "سالم": 5261,
      "##مرة": 5263,
      "للمت": 5264,
      "##ودي": 5265,
      "تحكم": 5266,
      "هيئة": 5267,
      "##لتي": 5268,
      "فترة": 5269,
      "شهد": 5270,
      "##ارير": 5271,
      "##رقاء": 5272,
      "وأكد": 5275,
      "احدث": 5276,
      "مجرد": 5278,
      "##خصصة": 5279,
      "##ظات": 5282,
      "##نائ": 5283,
      "##هادة": 5284,
      "فات": 5289,
      "##الس": 5290,
      "##فن": 5291,
      "انشئ": 5292,
      "جب": 5295,
      "##وام": 5296,
      "تابع": 5297,
      "##ter": 5299,
      "اقول": 5300,
      "حظ": 5301,
      "##قوق": 5303,
      "مقر": 5304,
      "إم": 5306,
      "قاعد": 5309,
      "##سس": 5310,
      "خال": 5311,
      "نقطة": 5312,
      "##اعي": 5313,
      "يحي": 5315,
      "امين": 5316,
      "##صري": 5317,
      "إنت": 5320,
      "موقف": 5321,
      "##كسر": 5323,
      "##واجه": 5324,
      "كار": 5325,
      "##80": 5326,
      "##زع": 5327,
      "##برى": 5329,
      "الخص": 5332,
      "##سو": 5333,
      "داخ": 5337,
      "بمنا": 5340,
      "مميز": 5342,
      "تمر": 5345,
      "تتم": 5346,
      "##قيع": 5349,
      "##مئ": 5352,
      "وبر": 5354,
      "##فرات": 5356,
      "كلما": 5358,
      "##مار": 5359,
      "خيرا": 5360,
      "رواه": 5362,
      "قطع": 5364,
      "رأس": 5365,
      "صعب": 5366,
      "عت": 5367,
      "واش": 5368,
      "##واح": 5369,
      "لانه": 5371,
      "معظم": 5372,
      "كس": 5373,
      "الاه": 5374,
      "امير": 5375,
      "##بيت": 5376,
      "بشأن": 5380,
      "##ريت": 5381,
      "عنده": 5382,
      "##ناس": 5384,
      "ألم": 5386,
      "##حو": 5389,
      "خذ": 5390,
      "دعاء": 5394,
      "علوم": 5395,
      "##صاص": 5396,
      "##ندوق": 5397,
      "الشم": 5399,
      "حدود": 5402,
      "يلت": 5403,
      "المي": 5405,
      "بالف": 5406,
      "تونس": 5407,
      "##راز": 5408,
      "##ئلة": 5409,
      "##يدان": 5411,
      "لازم": 5412,
      "مكتب": 5413,
      "دام": 5414,
      "ورب": 5418,
      "حمد": 5419,
      "باقي": 5421,
      "رف": 5423,
      "جهة": 5424,
      "بأس": 5425,
      "##فيه": 5427,
      "واض": 5428,
      "اضاف": 5429,
      "الأب": 5430,
      "فخ": 5431,
      "لذا": 5432,
      "اعوذ": 5433,
      "##راكز": 5435,
      "ميز": 5437,
      "قناة": 5438,
      "##لوما": 5439,
      "شعور": 5443,
      "ماب": 5445,
      "وجد": 5446,
      "شرق": 5447,
      "عندك": 5448,
      "الست": 5451,
      "##قليم": 5452,
      "ياب": 5453,
      "##ذية": 5454,
      "سه": 5455,
      "شارك": 5458,
      "##غا": 5459,
      "##غفار": 5462,
      "ميت": 5463,
      "عف": 5465,
      "##بو": 5467,
      "الإخ": 5468,
      "بخير": 5471,
      "##ومات": 5472,
      "##كريم": 5473,
      "يرت": 5475,
      "##22": 5476,
      "01": 5479,
      "جهاز": 5480,
      "ساعة": 5481,
      "نسبة": 5482,
      "أمن": 5484,
      "جيش": 5485,
      "##جمات": 5486,
      "##ليون": 5487,
      "طرف": 5488,
      "كفر": 5489,
      "صاد": 5490,
      "خرج": 5491,
      "البح": 5492,
      "شرح": 5493,
      "##ذج": 5494,
      "وتد": 5495,
      "##19": 5497,
      "فاع": 5499,
      "كنا": 5500,
      "##جاوز": 5501,
      "##اجه": 5503,
      "غيره": 5504,
      "##ونها": 5505,
      "انهم": 5507,
      "##فاض": 5509,
      "القت": 5510,
      "##44": 5511,
      "قبي": 5512,
      "055": 5513,
      "جو": 5514,
      "شيخ": 5516,
      "حلم": 5517,
      "الور": 5518,
      "##000": 5519,
      "##ريعة": 5520,
      "حصل": 5521,
      "##vis": 5523,
      "عبار": 5526,
      "جان": 5527,
      "##قتها": 5529,
      "##بادل": 5530,
      "بحث": 5533,
      "##ائدة": 5535,
      "##ولون": 5536,
      "##قييم": 5537,
      "بهذه": 5538,
      "بالط": 5539,
      "زين": 5540,
      "##ريبة": 5541,
      "مايو": 5542,
      "##حدى": 5543,
      "جزر": 5544,
      "محب": 5545,
      "##ow": 5546,
      "##كمل": 5548,
      "##ارضة": 5551,
      "##كام": 5552,
      "##جتمع": 5553,
      "اعلم": 5554,
      "##ندية": 5555,
      "ملف": 5556,
      "##رقام": 5559,
      "##ياج": 5562,
      "الحس": 5564,
      "##ونت": 5565,
      "وعدم": 5568,
      "##بين": 5569,
      "تحمل": 5570,
      "##ذكار": 5572,
      "##ave": 5573,
      "ثاني": 5576,
      "معها": 5577,
      "طف": 5578,
      "وتص": 5580,
      "##لورد": 5582,
      "حرف": 5583,
      "إخ": 5585,
      "فلم": 5586,
      "##ائري": 5587,
      "##افية": 5588,
      "وو": 5594,
      "شبكة": 5595,
      "##فى": 5596,
      "صن": 5597,
      "الكب": 5598,
      "##قوم": 5599,
      "حواء": 5600,
      "##ؤمن": 5601,
      "قيام": 5604,
      "عما": 5606,
      "كري": 5608,
      "يعود": 5609,
      "أرض": 5611,
      "in": 5613,
      "صدي": 5614,
      "هن": 5615,
      "الحج": 5616,
      "##فال": 5617,
      "شاه": 5621,
      "31": 5623,
      "##ورين": 5624,
      "اخرى": 5625,
      "حمله": 5626,
      "عمرو": 5627,
      "##مسة": 5629,
      "رياض": 5631,
      "فح": 5632,
      "للنا": 5634,
      "بأنه": 5635,
      "البخ": 5636,
      "مدى": 5638,
      "##70": 5639,
      "بسر": 5640,
      "##ومان": 5642,
      "##رائم": 5643,
      "فار": 5646,
      "السج": 5648,
      "##كيد": 5650,
      "000": 5653,
      "##ونك": 5654,
      "كاتب": 5655,
      "برج": 5657,
      "عرب": 5658,
      "وراء": 5659,
      "شف": 5660,
      "##ثبت": 5661,
      "##قام": 5662,
      "مقاط": 5663,
      "لعم": 5665,
      "##اليا": 5666,
      "##حتى": 5667,
      "كاس": 5668,
      "لمدة": 5669,
      "##tt": 5670,
      "##ظل": 5671,
      "تحدث": 5672,
      "##فية": 5673,
      "مرا": 5674,
      "صدق": 5678,
      "##معية": 5679,
      "##طقه": 5680,
      "وإذا": 5681,
      "واتس": 5682,
      "##شنطن": 5683,
      "رق": 5684,
      "مقتل": 5685,
      "عباد": 5687,
      "ومر": 5688,
      "فيصل": 5689,
      "##طين": 5691,
      "قضية": 5692,
      "جاه": 5694,
      "##نتين": 5696,
      "الجو": 5697,
      "نجاح": 5700,
      "تمثل": 5701,
      "##رشح": 5704,
      "الهم": 5707,
      "هكذا": 5708,
      "عنهم": 5709,
      "موعد": 5711,
      "##طفى": 5712,
      "السم": 5714,
      "جوال": 5716,
      "عض": 5718,
      "نقص": 5719,
      "##ائزة": 5720,
      "ذكري": 5721,
      "انق": 5722,
      "##سيل": 5725,
      "##خلي": 5726,
      "طلع": 5727,
      "شوف": 5729,
      "##بقي": 5730,
      "الأغ": 5732,
      "غرب": 5734,
      "رشد": 5736,
      "ارد": 5737,
      "فإنه": 5738,
      "فس": 5739,
      "##دينه": 5740,
      "ومس": 5741,
      "##سطس": 5742,
      "2009": 5743,
      "المض": 5745,
      "الته": 5748,
      "##ورج": 5749,
      "الصد": 5750,
      "##عيه": 5752,
      "wave": 5753,
      "يجعل": 5754,
      "45": 5755,
      "##ومية": 5759,
      "لكنه": 5760,
      "##ربيه": 5761,
      "##وحة": 5763,
      "##اند": 5766,
      "دمشق": 5767,
      "##جير": 5768,
      "ملح": 5769,
      "##ثلة": 5773,
      "احفظ": 5776,
      "##نم": 5777,
      "##ائح": 5779,
      "##صاب": 5780,
      "دفع": 5781,
      "##32": 5782,
      "النش": 5784,
      "ينب": 5785,
      "أه": 5786,
      "##غان": 5787,
      "غال": 5789,
      "الغذ": 5790,
      "09": 5791,
      "صحة": 5794,
      "##سمى": 5795,
      "##ويج": 5798,
      "##صابة": 5799,
      "##كاوي": 5801,
      "قرية": 5803,
      "##fr": 5804,
      "بذ": 5805,
      "شن": 5806,
      "كا": 5807,
      "##ag": 5808,
      "الكل": 5812,
      "مؤك": 5815,
      "ويش": 5816,
      "ايها": 5818,
      "ديك": 5823,
      "قاد": 5824,
      "##وبا": 5825,
      "توك": 5827,
      "ناصر": 5828,
      "نعمه": 5830,
      "##طرة": 5831,
      "##سيا": 5832,
      "نط": 5833,
      "##هههه": 5834,
      "صب": 5835,
      "زمن": 5836,
      "واخت": 5838,
      "اننا": 5839,
      "##ألة": 5840,
      "يعيش": 5841,
      "بهدف": 5842,
      "ويا": 5843,
      "والز": 5846,
      "##ودا": 5847,
      "وحتى": 5848,
      "يبقي": 5849,
      "##وته": 5851,
      "##زاب": 5852,
      "##اااا": 5853,
      "تجعل": 5854,
      "##لرك": 5855,
      "سيتم": 5856,
      "##تش": 5858,
      "قامت": 5859,
      "لمع": 5862,
      "##اعم": 5866,
      "هذي": 5867,
      "وتج": 5868,
      "##حده": 5869,
      "اعرف": 5871,
      "كريم": 5874,
      "معهم": 5876,
      "##ركم": 5879,
      "تصل": 5880,
      "##كته": 5881,
      "بالض": 5884,
      "شو": 5885,
      "والذ": 5887,
      "واق": 5888,
      "مدر": 5891,
      "حجم": 5893,
      "##لتها": 5894,
      "يقال": 5895,
      "قليل": 5896,
      "##ضير": 5897,
      "مناف": 5898,
      "##واة": 5899,
      "عرش": 5901,
      "##لامه": 5902,
      "ربك": 5903,
      "##نادق": 5904,
      "كلنا": 5905,
      "##صيل": 5906,
      "##رامب": 5907,
      "أشهر": 5912,
      "يام": 5913,
      "##رز": 5915,
      "كلي": 5916,
      "متي": 5917,
      "أولا": 5918,
      "##ربات": 5923,
      "مرس": 5925,
      "اسعد": 5926,
      "وقع": 5927,
      "صديق": 5928,
      "قيل": 5929,
      "اعلن": 5930,
      "##وقات": 5931,
      "35": 5932,
      "##طح": 5934,
      "هام": 5935,
      "حضور": 5936,
      "##حتاج": 5937,
      "ذك": 5938,
      "عشرة": 5940,
      "07": 5941,
      "أنك": 5942,
      "02": 5943,
      "##ليش": 5944,
      "الوج": 5947,
      "##شاف": 5950,
      "لتن": 5952,
      "لام": 5954,
      "تعيش": 5955,
      "فرق": 5956,
      "##الق": 5957,
      "وفا": 5959,
      "بالر": 5960,
      "مقا": 5961,
      "موسى": 5962,
      "اين": 5963,
      "قريب": 5964,
      "بوت": 5965,
      "حياة": 5966,
      "ورا": 5967,
      "وهذه": 5968,
      "##واني": 5969,
      "يقت": 5971,
      "##وهات": 5972,
      "تصبح": 5973,
      "##صدر": 5974,
      "بحق": 5975,
      "فرج": 5976,
      "ويست": 5978,
      "##ttp": 5979,
      "عمري": 5981,
      "أك": 5983,
      "وتأ": 5985,
      "##خاذ": 5986,
      "خلقه": 5987,
      "##لبية": 5988,
      "60": 5992,
      "حفل": 5993,
      "قناه": 5994,
      "الل": 5996,
      "فإذا": 5997,
      "بسي": 5998,
      "##ارته": 6000,
      "ممت": 6002,
      "##وعات": 6004,
      "موسي": 6005,
      "08": 6006,
      "##خرا": 6007,
      "##غرب": 6008,
      "الرك": 6009,
      "##يمه": 6010,
      "لاع": 6012,
      "##حيل": 6013,
      "النت": 6014,
      "بحي": 6016,
      "##شفت": 6017,
      "##ميات": 6018,
      "عادل": 6019,
      "##جين": 6020,
      "ترت": 6021,
      "##ضيق": 6022,
      "##دون": 6024,
      "اشوف": 6026,
      "##لبه": 6027,
      "Re": 6028,
      "ماهو": 6029,
      "شراء": 6030,
      "طا": 6031,
      "##15": 6032,
      "PM": 6033,
      "عذاب": 6034,
      "شرك": 6036,
      "فرض": 6038,
      "فب": 6039,
      "توقع": 6040,
      "قائد": 6041,
      "##سيم": 6042,
      "##احة": 6044,
      "##للو": 6046,
      "##per": 6047,
      "##us": 6048,
      "فيني": 6049,
      "رضا": 6051,
      "وفقا": 6054,
      "عقب": 6056,
      "مافي": 6058,
      "اجع": 6059,
      "برد": 6060,
      "##رحمن": 6061,
      "rem": 6062,
      "الوق": 6063,
      "لنفس": 6064,
      "http": 6065,
      "##ائنا": 6066,
      "يدخل": 6069,
      "##ch": 6071,
      "يخت": 6072,
      "##ظن": 6073,
      "جا": 6075,
      "اسال": 6076,
      "سود": 6077,
      "اسمه": 6079,
      "قوة": 6080,
      "اعظم": 6082,
      "ودي": 6083,
      "06": 6084,
      "##قيات": 6085,
      "لعد": 6086,
      "لديك": 6088,
      "##كادي": 6089,
      "##سامه": 6091,
      "نخ": 6093,
      "##امات": 6094,
      "##ai": 6095,
      "##حيط": 6096,
      "ليش": 6097,
      "##مير": 6099,
      "لسنة": 6101,
      "تعود": 6103,
      "يهم": 6104,
      "##وائد": 6106,
      "##فرك": 6107,
      "مارك": 6108,
      "فعلا": 6109,
      "تبقي": 6110,
      "مواد": 6114,
      "واحت": 6115,
      "##os": 6119,
      "##راغ": 6120,
      "##لفت": 6122,
      "##18": 6124,
      "منع": 6129,
      "##يبة": 6130,
      "فج": 6132,
      "##قوط": 6133,
      "رض": 6134,
      "##حدد": 6135,
      "شات": 6136,
      "##وعية": 6137,
      "##صالح": 6138,
      "##بول": 6139,
      "إيج": 6143,
      "تاي": 6144,
      "ليزك": 6145,
      "مقت": 6146,
      "ضمان": 6147,
      "##ثمر": 6148,
      "إش": 6149,
      "درجة": 6150,
      "دف": 6154,
      "##ay": 6156,
      "اللو": 6158,
      "for": 6160,
      "##فعيل": 6162,
      "مها": 6163,
      "لحظه": 6165,
      "##قاد": 6167,
      "مدرب": 6168,
      "ألا": 6169,
      "04": 6173,
      "نمو": 6175,
      "لكرة": 6176,
      "فكان": 6178,
      "##رجو": 6179,
      "##وجود": 6180,
      "جنود": 6181,
      "##ig": 6182,
      "##صلاح": 6185,
      "سلس": 6189,
      "سبق": 6190,
      "##روق": 6191,
      "##لقي": 6192,
      "##ويتي": 6193,
      "##انس": 6194,
      "##ذاكر": 6195,
      "##صبح": 6196,
      "ومست": 6197,
      "##خره": 6198,
      "##برة": 6199,
      "بدأت": 6201,
      "ويح": 6203,
      "##باه": 6204,
      "إطار": 6205,
      "##أت": 6207,
      "198": 6210,
      "خاط": 6212,
      "سكان": 6215,
      "##لقه": 6216,
      "طائ": 6217,
      "بحب": 6218,
      "مرح": 6219,
      "صلوا": 6220,
      "##صا": 6224,
      "عادي": 6225,
      "زايد": 6226,
      "احلي": 6227,
      "دوله": 6229,
      "النو": 6230,
      "##اتم": 6238,
      "شروط": 6239,
      "راف": 6240,
      "##وطن": 6241,
      "وصلت": 6242,
      "جيدا": 6245,
      "ونت": 6246,
      "##وجب": 6247,
      "##طط": 6250,
      "##عوا": 6251,
      "تدخل": 6253,
      "قيمة": 6256,
      "03": 6257,
      "بيد": 6258,
      "تعا": 6262,
      "##طلع": 6263,
      "##عامل": 6265,
      "بريط": 6266,
      "شفت": 6267,
      "##ؤل": 6270,
      "##خم": 6273,
      "أز": 6274,
      "العب": 6277,
      "##ثق": 6278,
      "##لاند": 6279,
      "حبك": 6281,
      "زمان": 6285,
      "صفحة": 6287,
      "32": 6288,
      "##طيب": 6289,
      "بعم": 6292,
      "فلما": 6294,
      "سوء": 6295,
      "##منى": 6296,
      "ثنا": 6299,
      "رش": 6300,
      "##للوا": 6301,
      "##im": 6302,
      "##فذ": 6303,
      "##ذيب": 6304,
      "بدء": 6305,
      "##قلة": 6306,
      "جاز": 6308,
      "##عن": 6309,
      "سوره": 6311,
      "تلا": 6312,
      "##ia": 6313,
      "##ياز": 6315,
      "وكيف": 6316,
      "يجوز": 6318,
      "##اجر": 6319,
      "زاد": 6320,
      "##ائمة": 6323,
      "ذهب": 6324,
      "##فرق": 6325,
      "تتح": 6326,
      "الإن": 6329,
      "##صلة": 6330,
      "##62": 6332,
      "##شطة": 6333,
      "مرو": 6339,
      "ويد": 6340,
      "تبي": 6341,
      "الوس": 6342,
      "##عث": 6344,
      "حاول": 6346,
      "الذه": 6348,
      "وحدة": 6349,
      "لديه": 6350,
      "##قتك": 6352,
      "##سبق": 6353,
      "بالغ": 6355,
      "احس": 6356,
      "نار": 6361,
      "بض": 6362,
      "واي": 6363,
      "##حاء": 6364,
      "بحر": 6365,
      "حلوه": 6366,
      "نبي": 6368,
      "بحسب": 6369,
      "##لوس": 6370,
      "يحمل": 6372,
      "ليله": 6373,
      "##منة": 6374,
      "##عمار": 6377,
      "سيف": 6378,
      "##قس": 6379,
      "مثلا": 6381,
      "##وارع": 6382,
      "##سطة": 6383,
      "الرؤ": 6384,
      "النز": 6387,
      "كده": 6388,
      "##وسع": 6389,
      "اثر": 6390,
      "##براء": 6392,
      "قلبه": 6394,
      "حف": 6395,
      "##لوي": 6397,
      "عهد": 6398,
      "الجد": 6399,
      "##اخذ": 6401,
      "الجب": 6402,
      "##وفق": 6404,
      "البش": 6405,
      "##lam": 6408,
      "##65": 6409,
      "بدلا": 6411,
      "ياسر": 6412,
      "اجر": 6413,
      "سوى": 6414,
      "##فسهم": 6415,
      "تملك": 6416,
      "منظ": 6417,
      "النظ": 6418,
      "شريك": 6420,
      "فاز": 6421,
      "واقع": 6422,
      "شبه": 6423,
      "طلاب": 6425,
      "ستي": 6426,
      "##ربت": 6427,
      "يبدو": 6428,
      "دعا": 6430,
      "شرف": 6431,
      "العا": 6433,
      "تعلن": 6434,
      "##فرد": 6435,
      "##ثال": 6436,
      "امل": 6439,
      "احنا": 6441,
      "##تحان": 6442,
      "فيهم": 6445,
      "إحدى": 6448,
      "قصر": 6449,
      "##الجة": 6452,
      "وأع": 6453,
      "اليد": 6457,
      "##نها": 6458,
      "خز": 6461,
      "ارزق": 6462,
      "cost": 6463,
      "أخذ": 6464,
      "نوم": 6465,
      "##rip": 6466,
      "اخذ": 6467,
      "فين": 6469,
      "ذي": 6470,
      "غرف": 6471,
      "##كرر": 6473,
      "##ائيه": 6474,
      "##خيص": 6475,
      "##ضات": 6477,
      "يرد": 6478,
      "##جهزه": 6479,
      "##وافق": 6482,
      "##زوج": 6484,
      "##رص": 6486,
      "هند": 6487,
      "شخصا": 6488,
      "##ئك": 6490,
      "يمت": 6491,
      "شاب": 6492,
      "##وعا": 6493,
      "##شرق": 6494,
      "##طل": 6496,
      "##نيين": 6498,
      "##رضا": 6499,
      "هلال": 6500,
      "##راوي": 6501,
      "يار": 6502,
      "وبعض": 6504,
      "هون": 6505,
      "يظهر": 6507,
      "نقاط": 6509,
      "##خيل": 6512,
      "مطبخ": 6514,
      "##صير": 6516,
      "الطف": 6517,
      "##طاع": 6521,
      "إنما": 6522,
      "##درية": 6523,
      "##ربين": 6525,
      "يفت": 6529,
      "##خه": 6530,
      "##ng": 6531,
      "##ائها": 6532,
      "لعبة": 6533,
      "##جران": 6534,
      "##نوب": 6536,
      "##برنا": 6541,
      "ومح": 6544,
      "تنس": 6548,
      "فرصة": 6549,
      "الرق": 6550,
      "##ضل": 6551,
      "##37": 6553,
      "بتع": 6554,
      "سأ": 6556,
      "فص": 6558,
      "اكتب": 6559,
      "##جح": 6560,
      "##ئيسي": 6561,
      "الخي": 6562,
      "##ائن": 6565,
      "فور": 6566,
      "تشت": 6567,
      "##ab": 6568,
      "موض": 6571,
      "التك": 6573,
      "2019": 6574,
      "##17": 6575,
      "سمعت": 6576,
      "شم": 6577,
      "##صات": 6579,
      "تسا": 6580,
      "فانت": 6581,
      "نسب": 6583,
      "##ائة": 6584,
      "زع": 6585,
      "##ظيفة": 6586,
      "كره": 6587,
      "حماس": 6588,
      "##ايل": 6592,
      "تمن": 6593,
      "أصبح": 6597,
      "جنا": 6598,
      "مهمة": 6599,
      "شركه": 6601,
      "ثالث": 6603,
      "الزي": 6605,
      "##لسي": 6606,
      "بذكر": 6609,
      "نشاط": 6611,
      "يوتي": 6613,
      "مكه": 6617,
      "##ماس": 6619,
      "عاص": 6621,
      "##حته": 6622,
      "##بكات": 6624,
      "##صدار": 6625,
      "##ظلم": 6626,
      "تخت": 6627,
      "موق": 6628,
      "##برت": 6630,
      "حادث": 6631,
      "فري": 6632,
      "شؤون": 6633,
      "وذ": 6637,
      "سري": 6639,
      "رابط": 6643,
      "أنهم": 6644,
      "إف": 6645,
      "##ارى": 6646,
      "فرص": 6647,
      "طرق": 6650,
      "نجم": 6651,
      "##روت": 6652,
      "سات": 6653,
      "##روه": 6654,
      "##ورى": 6656,
      "شكر": 6658,
      "الحل": 6660,
      "يرج": 6665,
      "باع": 6666,
      "وبا": 6667,
      "الكر": 6668,
      "الأق": 6670,
      "يكتب": 6671,
      "سناب": 6672,
      "باعت": 6674,
      "للز": 6675,
      "36": 6676,
      "##ياط": 6678,
      "يكفي": 6679,
      "وتف": 6681,
      "##اربة": 6682,
      "لند": 6683,
      "##انع": 6684,
      "##زاز": 6686,
      "وأخ": 6687,
      "يلا": 6689,
      "البق": 6692,
      "بمح": 6693,
      "هما": 6695,
      "##est": 6696,
      "ترب": 6697,
      "##قديم": 6699,
      "قنا": 6700,
      "##خفض": 6701,
      "##فرج": 6702,
      "عا": 6703,
      "خش": 6704,
      "2008": 6705,
      "##بهة": 6706,
      "##وادث": 6707,
      "ناف": 6708,
      "##ليزي": 6710,
      "تنسي": 6711,
      "سعاد": 6713,
      "فلن": 6715,
      "شأن": 6717,
      "##قاذ": 6718,
      "##ائك": 6719,
      "فضلا": 6721,
      "حقق": 6724,
      "وبد": 6726,
      "##قيب": 6728,
      "باي": 6729,
      "زيت": 6731,
      "طفل": 6732,
      "ثقاف": 6733,
      "##راءه": 6734,
      "باس": 6736,
      "لفت": 6737,
      "##مالك": 6739,
      "يحصل": 6740,
      "يصبح": 6741,
      "##نيسة": 6742,
      "ادم": 6744,
      "##كب": 6746,
      "وجل": 6748,
      "##35": 6749,
      "بعده": 6750,
      "##طلاع": 6751,
      "##ew": 6752,
      "يبحث": 6753,
      "##ونات": 6756,
      "سال": 6757,
      "##ظي": 6758,
      "##وست": 6759,
      "رمز": 6761,
      "فكر": 6762,
      "##قرير": 6763,
      "لغة": 6764,
      "##قلي": 6765,
      "47": 6768,
      "بحيث": 6769,
      "In": 6772,
      "قادر": 6774,
      "##ضيف": 6776,
      "علما": 6777,
      "##وتك": 6779,
      "يمر": 6781,
      "عمي": 6782,
      "##فون": 6784,
      "ظلم": 6786,
      "هز": 6788,
      "مير": 6790,
      "##راحل": 6791,
      "يأتي": 6792,
      "##لالة": 6793,
      "أقل": 6794,
      "##قلت": 6795,
      "وترك": 6796,
      "اقل": 6797,
      "امه": 6798,
      "##ارنة": 6800,
      "AM": 6801,
      "##خال": 6802,
      "##ماكن": 6804,
      "##غو": 6809,
      "##غار": 6810,
      "ذه": 6811,
      "راحه": 6812,
      "حافظ": 6813,
      "##فادة": 6814,
      "يملك": 6818,
      "##يخ": 6819,
      "##حقق": 6821,
      "##ناول": 6822,
      "توفي": 6823,
      "نحب": 6825,
      "دير": 6827,
      "حكوم": 6828,
      "##يسى": 6829,
      "ميسي": 6832,
      "يدعو": 6833,
      "خادم": 6834,
      "مجد": 6835,
      "تمكن": 6836,
      "الني": 6837,
      "##اهره": 6838,
      "##ياك": 6840,
      "شت": 6841,
      "جيد": 6842,
      "عارف": 6843,
      "##طوير": 6844,
      "اصدق": 6845,
      "ولما": 6847,
      "منكم": 6848,
      "ماد": 6849,
      "الاط": 6850,
      "واضح": 6852,
      "خمسة": 6854,
      "##دخل": 6855,
      "منح": 6859,
      "الخض": 6860,
      "عال": 6862,
      "##نيت": 6864,
      "العز": 6866,
      "##جال": 6867,
      "كيلو": 6869,
      "##عددة": 6870,
      "##طيط": 6871,
      "##ورها": 6872,
      "##وهم": 6874,
      "يمثل": 6875,
      "##ياتي": 6878,
      "ورش": 6879,
      "##كالة": 6880,
      "تسلي": 6881,
      "الحض": 6882,
      "##ئت": 6884,
      "هاش": 6885,
      "لعام": 6886,
      "##للع": 6889,
      "الأج": 6892,
      "##رافق": 6894,
      "آلاف": 6895,
      "33": 6897,
      "يؤدي": 6898,
      "##اوي": 6899,
      "##يء": 6902,
      "بغير": 6903,
      "##واتف": 6904,
      "شار": 6905,
      "##ir": 6906,
      "رأي": 6907,
      "is": 6908,
      "##بياء": 6909,
      "عزيز": 6910,
      "##ذل": 6911,
      "pro": 6915,
      "##حيان": 6916,
      "##شرها": 6918,
      "بلغت": 6922,
      "حنا": 6923,
      "ضبط": 6924,
      "##اضر": 6926,
      "مجه": 6929,
      "محطة": 6930,
      "##فد": 6936,
      "شارع": 6937,
      "الدا": 6938,
      "##25": 6940,
      "الأو": 6941,
      "##جهات": 6942,
      "##عها": 6943,
      "لغير": 6944,
      "تعب": 6947,
      "العج": 6948,
      "لدعم": 6949,
      "##طى": 6950,
      "كبار": 6952,
      "يشت": 6954,
      "تشوف": 6955,
      "##ويش": 6956,
      "انج": 6960,
      "بدي": 6962,
      "##واي": 6964,
      "##هيون": 6965,
      "##ضعف": 6966,
      "قصة": 6967,
      "##عتبر": 6968,
      "##بايل": 6969,
      "197": 6973,
      "##تو": 6975,
      "##زان": 6977,
      "اللع": 6978,
      "تفا": 6980,
      "تركي": 6981,
      "##وضاع": 6984,
      "محام": 6985,
      "نجد": 6986,
      "##باع": 6989,
      "##خصوص": 6990,
      "يتح": 6992,
      "##وفا": 6994,
      "إح": 6997,
      "حملة": 7000,
      "ويف": 7002,
      "ابد": 7003,
      "يؤكد": 7004,
      "##علام": 7005,
      "##AR": 7006,
      "##ox": 7008,
      "تظهر": 7010,
      "##قدام": 7011,
      "##og": 7012,
      "ليف": 7013,
      "ولق": 7014,
      "مقال": 7015,
      "رائع": 7018,
      "بكم": 7019,
      "##صرف": 7020,
      "دعوه": 7022,
      "حاله": 7025,
      "صدور": 7027,
      "34": 7028,
      "##سمه": 7029,
      "##ضى": 7030,
      "الفع": 7031,
      "##يمات": 7033,
      "وصول": 7034,
      "صدري": 7035,
      "وعدد": 7037,
      "##بيا": 7038,
      "محل": 7040,
      "فارس": 7042,
      "عون": 7044,
      "##خلص": 7046,
      "فصل": 7048,
      "الظن": 7049,
      "##عتها": 7053,
      "حكا": 7054,
      "##حمة": 7055,
      "##ندا": 7057,
      "##عان": 7058,
      "For": 7059,
      "يون": 7060,
      "حلول": 7061,
      "##لوان": 7062,
      "اكس": 7064,
      "شقق": 7066,
      "##اشق": 7067,
      "أى": 7068,
      "همس": 7070,
      "لندن": 7072,
      "فندق": 7073,
      "##ظاهر": 7074,
      "تعبر": 7075,
      "سان": 7076,
      "##صفح": 7077,
      "##لقا": 7080,
      "##ظبي": 7081,
      "تعلي": 7082,
      "مكة": 7083,
      "##16": 7086,
      "جورج": 7089,
      "ضحك": 7092,
      "75": 7094,
      "##اشد": 7095,
      "ورو": 7097,
      "D8": 7099,
      "اشهر": 7100,
      "##مادي": 7101,
      "##هره": 7102,
      "نن": 7105,
      "##لاص": 7108,
      "إنها": 7110,
      "##ارين": 7113,
      "##مره": 7114,
      "##جية": 7116,
      "##ارسة": 7117,
      "##ديده": 7120,
      "##غراف": 7122,
      "تعال": 7124,
      "زائر": 7126,
      "مجلة": 7130,
      "صلاة": 7132,
      "وجع": 7134,
      "##ثه": 7135,
      "غرفة": 7136,
      "اكون": 7137,
      "جون": 7138,
      "ولع": 7139,
      "مراج": 7140,
      "جبل": 7141,
      "##شاب": 7143,
      "والآ": 7144,
      "##تكم": 7145,
      "ربيع": 7146,
      "##ابلة": 7149,
      "أر": 7150,
      "ملعب": 7151,
      "لض": 7153,
      "وزنه": 7154,
      "قوي": 7155,
      "شوق": 7156,
      "##اتل": 7158,
      "ضي": 7159,
      "دنيا": 7160,
      "##نوان": 7161,
      "يلعب": 7162,
      "فم": 7163,
      "##اهده": 7164,
      "##سع": 7165,
      "نجوم": 7166,
      "##ثيل": 7167,
      "يحفظ": 7169,
      "ذنوب": 7170,
      "العص": 7172,
      "ففي": 7173,
      "##سكر": 7175,
      "##وزي": 7176,
      "##لقت": 7177,
      "عود": 7178,
      "##اغ": 7180,
      "تحس": 7183,
      "St": 7185,
      "##ada": 7186,
      "##ثناء": 7187,
      "##ليد": 7188,
      "##ثرات": 7190,
      "زيد": 7191,
      "أست": 7192,
      "اختي": 7193,
      "يموت": 7194,
      "##24": 7197,
      "عرشه": 7198,
      "للتح": 7200,
      "70": 7201,
      "500": 7202,
      "رغبت": 7203,
      "ناد": 7205,
      "يفهم": 7206,
      "Trip": 7208,
      "80": 7209,
      "غا": 7210,
      "وأما": 7211,
      "##نته": 7212,
      "درهم": 7213,
      "بلو": 7214,
      "بوك": 7216,
      "برس": 7217,
      "حبا": 7218,
      "ارب": 7221,
      "لست": 7223,
      "يجع": 7225,
      "كفا": 7227,
      "##op": 7228,
      "جلب": 7229,
      "##ish": 7230,
      "والي": 7231,
      "##شين": 7232,
      "زم": 7233,
      "فش": 7235,
      "##Ad": 7237,
      "ويج": 7238,
      "##نيك": 7239,
      "علو": 7240,
      "##درس": 7242,
      "طرح": 7243,
      "روحي": 7245,
      "##افا": 7246,
      "وتر": 7247,
      "حط": 7249,
      "##oc": 7250,
      "يحيى": 7251,
      "تور": 7255,
      "##ثور": 7256,
      "وتب": 7257,
      "فتره": 7258,
      "##لاين": 7261,
      "##وسطة": 7262,
      "##قرأ": 7263,
      "##داب": 7264,
      "حام": 7265,
      "توفر": 7266,
      "يجد": 7270,
      "يخرج": 7271,
      "##ساط": 7272,
      "وجاء": 7273,
      "خطة": 7274,
      "عمره": 7276,
      "##ديان": 7277,
      "نقول": 7278,
      "##14": 7281,
      "سيدي": 7282,
      "اجن": 7284,
      "وجهة": 7286,
      "##قصى": 7287,
      "اولي": 7289,
      "##نتي": 7290,
      "بوس": 7291,
      "وتست": 7294,
      "حوار": 7295,
      "ندعو": 7297,
      "##عدام": 7298,
      "وكيل": 7301,
      "##ينية": 7302,
      "مأ": 7303,
      "اراد": 7304,
      "##لسان": 7306,
      "##جرد": 7311,
      "ذنب": 7312,
      "##زيا": 7313,
      "##اصل": 7314,
      "##38": 7315,
      "لحد": 7316,
      "حلب": 7318,
      "مبت": 7320,
      "##شى": 7321,
      "انما": 7324,
      "متر": 7325,
      "توقف": 7328,
      "Ah": 7329,
      "##ناف": 7330,
      "##سى": 7331,
      "##أنه": 7333,
      "##اتنا": 7335,
      "فاط": 7336,
      "قدي": 7337,
      "محفو": 7340,
      "##لعة": 7342,
      "صوتك": 7343,
      "يبي": 7345,
      "يشعر": 7347,
      "جابر": 7348,
      "##حط": 7349,
      "اريد": 7352,
      "والض": 7353,
      "مياه": 7354,
      "##لقات": 7356,
      "سوا": 7357,
      "أرد": 7359,
      "غلط": 7361,
      "##وقرا": 7366,
      "بتن": 7368,
      "انتم": 7369,
      "بام": 7371,
      "##خفاض": 7372,
      "معاك": 7375,
      "ذكره": 7376,
      "داي": 7377,
      "حزن": 7378,
      "معين": 7379,
      "قروض": 7381,
      "##تان": 7383,
      "عطر": 7385,
      "صع": 7386,
      "وأنا": 7387,
      "يزال": 7388,
      "##حايا": 7389,
      "##جاح": 7390,
      "##اتكم": 7392,
      "ليلة": 7393,
      "##90": 7396,
      "جس": 7398,
      "##تيال": 7399,
      "##ضمام": 7403,
      "ياتي": 7404,
      "فهذا": 7406,
      "##فرض": 7407,
      "يبلغ": 7408,
      "فرع": 7410,
      "##ينيا": 7412,
      "37": 7414,
      "ملاح": 7415,
      "منزل": 7419,
      "##سمة": 7420,
      "لاج": 7421,
      "ضح": 7422,
      "ساحة": 7427,
      "ضغط": 7431,
      "##لقى": 7432,
      "##الدي": 7434,
      "##وقت": 7436,
      "فاج": 7438,
      "خطر": 7441,
      "سابق": 7442,
      "غريب": 7443,
      "ضيف": 7444,
      "##خير": 7446,
      "##ut": 7447,
      "##لتك": 7448,
      "أعلى": 7450,
      "حرام": 7451,
      "اقوي": 7457,
      "##يدي": 7459,
      "##34": 7461,
      "مول": 7462,
      "##▬▬": 7463,
      "سبع": 7464,
      "##ليس": 7467,
      "وأش": 7468,
      "للمس": 7469,
      "##راسة": 7470,
      "تاب": 7472,
      "سفر": 7474,
      "##قنا": 7477,
      "##ماك": 7479,
      "لمش": 7480,
      "##روة": 7481,
      "لموا": 7483,
      "اعط": 7484,
      "050": 7485,
      "بوح": 7487,
      "##ul": 7488,
      "لابد": 7489,
      "48": 7490,
      "جعفر": 7491,
      "حمل": 7493,
      "مرور": 7494,
      "##خدمة": 7495,
      "##حاد": 7498,
      "##ليت": 7499,
      "##تام": 7500,
      "العش": 7502,
      "الأه": 7505,
      "هات": 7507,
      "##قطاع": 7508,
      "ياع": 7509,
      "##سلام": 7512,
      "##قدير": 7514,
      "ورج": 7515,
      "طويل": 7516,
      "يقدر": 7518,
      "لبعض": 7522,
      "القض": 7523,
      "العض": 7525,
      "الإش": 7526,
      "##ER": 7527,
      "##بور": 7529,
      "مهند": 7531,
      "سورة": 7533,
      "##وريت": 7535,
      "and": 7537,
      "فهل": 7539,
      "أور": 7542,
      "##ويم": 7543,
      "##شيش": 7544,
      "##الحة": 7545,
      "##معه": 7547,
      "تشعر": 7551,
      "##ust": 7552,
      "شعار": 7553,
      "ورس": 7557,
      "##صلي": 7558,
      "##ئل": 7559,
      "##وغان": 7561,
      "خا": 7562,
      "##راها": 7566,
      "##صفات": 7568,
      "هش": 7569,
      "عجز": 7570,
      "ولات": 7571,
      "38": 7574,
      "##فعال": 7575,
      "##اجي": 7578,
      "عيش": 7579,
      "يدي": 7580,
      "##ركان": 7581,
      "جر": 7582,
      "##اشة": 7584,
      "ترم": 7585,
      "جرح": 7587,
      "الإف": 7588,
      "##بادي": 7589,
      "فينا": 7591,
      "غرد": 7592,
      "تقع": 7595,
      "##وظ": 7597,
      "##ريقي": 7598,
      "وشك": 7599,
      "##ارها": 7602,
      "حن": 7603,
      "##قوب": 7606,
      "##حام": 7607,
      "أهلا": 7609,
      "عوض": 7610,
      "طي": 7613,
      "حج": 7617,
      "##ظفين": 7619,
      "##بحاث": 7620,
      "اند": 7621,
      "خطا": 7623,
      "##68": 7624,
      "##حاق": 7625,
      "##جهيز": 7628,
      "شمس": 7633,
      "قري": 7635,
      "##قها": 7637,
      "##تاب": 7638,
      "مسرح": 7639,
      "رؤية": 7640,
      "نمر": 7644,
      "##فير": 7646,
      "##وكي": 7647,
      "صرف": 7648,
      "وبح": 7649,
      "توجد": 7652,
      "واغ": 7653,
      "##خرة": 7654,
      "مناز": 7655,
      "##شوف": 7656,
      "يمنع": 7657,
      "رون": 7659,
      "ساح": 7661,
      "##كمال": 7662,
      "##باحث": 7664,
      "##يدر": 7669,
      "خلاف": 7671,
      "كوك": 7672,
      "##ينات": 7673,
      "قوم": 7675,
      "##لوه": 7677,
      "حك": 7678,
      "سقوط": 7679,
      "نبض": 7680,
      "مسب": 7681,
      "لمح": 7685,
      "##ers": 7686,
      "##ment": 7688,
      "اتصل": 7691,
      "واه": 7693,
      "ظهور": 7694,
      "44": 7695,
      "ترغب": 7697,
      "يشرف": 7698,
      "أحب": 7699,
      "وهل": 7701,
      "صنع": 7703,
      "تخرج": 7704,
      "##حتك": 7705,
      "ليا": 7706,
      "مرك": 7707,
      "رام": 7709,
      "نظرا": 7710,
      "##فقة": 7711,
      "يجمع": 7713,
      "وفى": 7714,
      "مطعم": 7715,
      "##ظاه": 7716,
      "##ميت": 7719,
      "أساس": 7720,
      "##طول": 7724,
      "يحبك": 7725,
      "##ايق": 7728,
      "##خط": 7730,
      "ذو": 7731,
      "عبيد": 7733,
      "ابتد": 7734,
      "2007": 7735,
      "##ورز": 7737,
      "ولذ": 7741,
      "90": 7742,
      "تعز": 7746,
      "اخري": 7747,
      "##لاني": 7751,
      "أطلق": 7753,
      "##رحل": 7754,
      "وليد": 7756,
      "مدة": 7757,
      "##جيع": 7758,
      "##وضة": 7759,
      "ماز": 7763,
      "##روات": 7764,
      "خلاص": 7765,
      "Al": 7766,
      "##ديدا": 7771,
      "يقع": 7772,
      "ناح": 7774,
      "تكت": 7777,
      "جهود": 7778,
      "اثاث": 7779,
      "عامل": 7780,
      "اري": 7781,
      "تقدر": 7782,
      "##تهي": 7783,
      "فيت": 7785,
      "ناق": 7786,
      "##لندا": 7787,
      "فكرة": 7788,
      "للام": 7792,
      "آدم": 7793,
      "##قوا": 7797,
      "ثابت": 7799,
      "##ارم": 7805,
      "##ناها": 7806,
      "pr": 7807,
      "##فهوم": 7809,
      "عرفت": 7813,
      "اشهد": 7814,
      "##خد": 7815,
      "##لبة": 7816,
      "صحي": 7820,
      "##ئر": 7823,
      "##ced": 7824,
      "تحقق": 7827,
      "ريف": 7829,
      "##وزير": 7832,
      "سمو": 7833,
      "ذوي": 7836,
      "طن": 7841,
      "وأس": 7842,
      "##وائز": 7843,
      "معني": 7845,
      "السك": 7846,
      "##رون": 7851,
      "##ess": 7854,
      "##لوق": 7858,
      "يرجع": 7859,
      "ربه": 7864,
      "منش": 7870,
      "##قاعد": 7871,
      "عصر": 7872,
      "تموت": 7873,
      "##رياء": 7874,
      "##وذ": 7875,
      "راشد": 7876,
      "##حبة": 7878,
      "مسئ": 7879,
      "طبيب": 7882,
      "سهل": 7883,
      "##وريه": 7884,
      "قصه": 7887,
      "مريض": 7891,
      "بطل": 7894,
      "دولي": 7895,
      "شحن": 7896,
      "##هاده": 7899,
      "كوم": 7900,
      "باله": 7901,
      "##يادي": 7902,
      "الحص": 7903,
      "بكره": 7904,
      "##لاع": 7906,
      "ضم": 7910,
      "##قيه": 7911,
      "ضيق": 7913,
      "##eb": 7914,
      "لافت": 7916,
      "لقي": 7917,
      "##ابا": 7918,
      "تخفي": 7919,
      "ملام": 7920,
      "فد": 7921,
      "##أل": 7924,
      "كتير": 7926,
      "##ؤه": 7927,
      "هب": 7928,
      "##يرو": 7929,
      "بأي": 7931,
      "ثبت": 7932,
      "##ولف": 7938,
      "بالي": 7940,
      "مناق": 7941,
      "##un": 7942,
      "##جابة": 7943,
      "##67": 7944,
      "أبا": 7945,
      "##يص": 7947,
      "معنى": 7948,
      "وجهك": 7950,
      "الضع": 7951,
      "سيتي": 7952,
      "تل": 7953,
      "أحدث": 7954,
      "الاق": 7955,
      "دوما": 7956,
      "يرى": 7958,
      "ظروف": 7960,
      "يعلن": 7961,
      "وجهه": 7962,
      "غي": 7963,
      "##حمتك": 7964,
      "فكره": 7969,
      "##دار": 7970,
      "##ؤاد": 7972,
      "##الع": 7974,
      "##صرة": 7975,
      "تجع": 7976,
      "##مون": 7980,
      "##13": 7981,
      "وخص": 7982,
      "ضرب": 7984,
      "بمس": 7985,
      "وبي": 7986,
      "##ئيا": 7987,
      "##وعي": 7991,
      "مطر": 7993,
      "أخر": 7994,
      "سحب": 7995,
      "تبر": 7996,
      "الفا": 7999,
      "##ناد": 8000,
      "ناش": 8001,
      "تصرف": 8002,
      "لمعا": 8004,
      "##للون": 8005,
      "ترد": 8006,
      "وموا": 8008,
      "تبت": 8010,
      "تاج": 8012,
      "للتن": 8013,
      "زال": 8017,
      "مصري": 8021,
      "##خراج": 8024,
      "##كنت": 8025,
      "طوال": 8026,
      "##كوين": 8027,
      "فاس": 8028,
      "##28": 8030,
      "بقدر": 8031,
      "جنه": 8032,
      "##وائل": 8034,
      "تقبل": 8035,
      "أبرز": 8036,
      "##راقب": 8038,
      "##ah": 8040,
      "اقرب": 8042,
      "##وايا": 8043,
      "زر": 8044,
      "##هلك": 8046,
      "بشار": 8047,
      "حروف": 8048,
      "##وتا": 8050,
      "##كومي": 8051,
      "نصي": 8052,
      "خروج": 8053,
      "ورق": 8054,
      "وقيل": 8055,
      "بيس": 8056,
      "يسر": 8061,
      "##كاوى": 8062,
      "##هيل": 8068,
      "##بان": 8070,
      "فضل": 8071,
      "يعطي": 8074,
      "يجري": 8077,
      "المأ": 8079,
      "لاحد": 8081,
      "ذكرت": 8082,
      "فنان": 8084,
      "بارك": 8087,
      "طارق": 8088,
      "هاد": 8089,
      "درجه": 8090,
      "قرا": 8092,
      "##ساوي": 8094,
      "شوي": 8096,
      "##زون": 8097,
      "##للاج": 8099,
      "عذ": 8102,
      "##قدار": 8103,
      "وادي": 8104,
      "وتخ": 8105,
      "اولا": 8108,
      "زياد": 8109,
      "##فف": 8110,
      "الوث": 8111,
      "##ارئ": 8114,
      "##وحيد": 8115,
      "عاف": 8117,
      "أصل": 8121,
      "نريد": 8123,
      "نايف": 8125,
      "تردد": 8126,
      "تقت": 8128,
      "##مائة": 8130,
      "حلا": 8131,
      "بفضل": 8132,
      "علش": 8134,
      "##يزم": 8136,
      "بيزو": 8137,
      "##ماغ": 8138,
      "لقب": 8140,
      "أوب": 8141,
      "##فسار": 8145,
      "سيع": 8146,
      "مصط": 8149,
      "ماع": 8150,
      "صمت": 8152,
      "وها": 8154,
      "يطلب": 8156,
      "##ديت": 8158,
      "##داع": 8159,
      "وابن": 8160,
      "حسبي": 8162,
      "ذاك": 8163,
      "يعط": 8164,
      "احدا": 8165,
      "The": 8167,
      "للذ": 8170,
      "قدير": 8171,
      "ليل": 8173,
      "جيت": 8174,
      "##لوع": 8175,
      "صبا": 8177,
      "جاءت": 8178,
      "قوية": 8183,
      "يجي": 8186,
      "وطلب": 8187,
      "خري": 8188,
      "سنين": 8189,
      "طبعا": 8191,
      "مبد": 8196,
      "توجه": 8197,
      "وجدت": 8198,
      "اجمع": 8199,
      "حاجة": 8200,
      "##هدد": 8201,
      "فكيف": 8202,
      "##نز": 8203,
      "سقط": 8207,
      "هى": 8208,
      "ياح": 8209,
      "##دمير": 8210,
      "شج": 8211,
      "لمت": 8213,
      "2006": 8215,
      "حجر": 8216,
      "##ist": 8217,
      "فروض": 8219,
      "سنت": 8220,
      "##ؤكد": 8221,
      "لبي": 8222,
      "ارس": 8223,
      "رزق": 8226,
      "##قلب": 8228,
      "تضم": 8232,
      "##جو": 8233,
      "عددا": 8236,
      "امري": 8237,
      "وبم": 8239,
      "55": 8240,
      "##ويض": 8241,
      "بعدم": 8242,
      "أني": 8244,
      "##ساك": 8245,
      "##45": 8246,
      "##نافس": 8248,
      "ممث": 8252,
      "مذكر": 8253,
      "##تب": 8254,
      "##عتقد": 8255,
      "عودة": 8256,
      "##ine": 8257,
      "نسخة": 8258,
      "فاست": 8260,
      "يرحم": 8261,
      "يسمع": 8263,
      "سكن": 8264,
      "مل": 8265,
      "حقا": 8266,
      "##فتاء": 8267,
      "جدة": 8269,
      "طيور": 8270,
      "فانز": 8271,
      "وأنه": 8275,
      "حرم": 8277,
      "##امية": 8278,
      "اكتر": 8279,
      "أستر": 8282,
      "تبحث": 8283,
      "هجوم": 8284,
      "سيما": 8287,
      "##عتك": 8288,
      "ونس": 8290,
      "##ure": 8291,
      "##تيح": 8292,
      "##لزم": 8293,
      "عمله": 8294,
      "##لومه": 8295,
      "##اهير": 8296,
      "مدار": 8299,
      "عيسى": 8300,
      "ومد": 8302,
      "ومؤ": 8303,
      "##عمه": 8304,
      "تفت": 8306,
      "39": 8308,
      "مزيد": 8309,
      "فالم": 8310,
      "##لحه": 8312,
      "حت": 8313,
      "##وفه": 8314,
      "هدا": 8316,
      "##ubai": 8317,
      "##راما": 8318,
      "ذاته": 8321,
      "اصلا": 8325,
      "قرر": 8326,
      "عار": 8327,
      "وارت": 8329,
      "مدا": 8330,
      "##فيذي": 8334,
      "##ob": 8335,
      "صدقه": 8337,
      "أراد": 8339,
      "##يريا": 8340,
      "##ثنين": 8341,
      "للمش": 8344,
      "##رجي": 8345,
      "##عمة": 8347,
      "موسم": 8348,
      "وكم": 8350,
      "2000": 8352,
      "##ئاس": 8353,
      "جيب": 8355,
      "حقي": 8356,
      "يكت": 8360,
      "##غوط": 8362,
      "##ولهم": 8363,
      "##فز": 8367,
      "##عداء": 8368,
      "يسمح": 8370,
      "كلهم": 8371,
      "##كيك": 8372,
      "يلي": 8374,
      "ياخذ": 8377,
      "وفد": 8379,
      "##سبوك": 8381,
      "وفاه": 8383,
      "تسي": 8384,
      "يخص": 8385,
      "ساهم": 8387,
      "ومج": 8389,
      "تزيد": 8391,
      "##عيون": 8392,
      "ظن": 8393,
      "بولي": 8395,
      "فقه": 8398,
      "##اجة": 8399,
      "تفض": 8400,
      "لولا": 8402,
      "مدن": 8403,
      "هر": 8406,
      "تهم": 8408,
      "##دو": 8412,
      "ترى": 8416,
      "##روري": 8417,
      "##ثرة": 8420,
      "al": 8421,
      "##ساهم": 8422,
      "##لبك": 8423,
      "##مئن": 8425,
      "لبن": 8429,
      "اليس": 8430,
      "##رأ": 8433,
      "دخلت": 8434,
      "كور": 8435,
      "دايم": 8438,
      "دفاع": 8441,
      "##وندي": 8442,
      "##شتاق": 8443,
      "حضر": 8444,
      "واحة": 8445,
      "##ind": 8447,
      "##ma": 8448,
      "##يانه": 8449,
      "مسي": 8450,
      "بقلم": 8454,
      "oper": 8456,
      "##يجار": 8459,
      "لعل": 8461,
      "##يرك": 8463,
      "##الها": 8468,
      "##طفل": 8469,
      "دعوة": 8470,
      "##وامل": 8471,
      "غد": 8472,
      "##شع": 8474,
      "تميز": 8475,
      "شام": 8476,
      "##جابه": 8477,
      "أداء": 8479,
      "##متها": 8481,
      "42": 8483,
      "##زاء": 8484,
      "##واري": 8487,
      "##رفية": 8488,
      "وطني": 8489,
      "نيس": 8490,
      "خفي": 8493,
      "##عوه": 8494,
      "D9": 8495,
      "جلد": 8496,
      "ولأ": 8497,
      "تكر": 8499,
      "أولى": 8500,
      "نساء": 8505,
      "##عوام": 8506,
      "##الفة": 8507,
      "##ook": 8508,
      "##lish": 8512,
      "جهد": 8513,
      "##اصي": 8514,
      "نصيب": 8515,
      "##بى": 8517,
      "##جري": 8518,
      "ليزر": 8519,
      "##عده": 8521,
      "دموع": 8522,
      "أمين": 8525,
      "تكشف": 8527,
      "عزي": 8528,
      "يرجى": 8530,
      "ماهي": 8532,
      "##افات": 8534,
      "لذ": 8538,
      "Eng": 8539,
      "وأف": 8541,
      "##ومين": 8544,
      "##وجع": 8546,
      "زعيم": 8547,
      "##حتها": 8550,
      "##غت": 8551,
      "حسنه": 8552,
      "أننا": 8554,
      "##طيل": 8556,
      "كمال": 8558,
      "##بطال": 8559,
      "طبية": 8560,
      "##جيب": 8562,
      "طبر": 8564,
      "تنز": 8566,
      "وأي": 8567,
      "wh": 8568,
      "جراء": 8569,
      "لانك": 8571,
      "تخص": 8572,
      "##طره": 8573,
      "ميد": 8577,
      "بيوت": 8578,
      "عدن": 8579,
      "##39": 8580,
      "##ابك": 8581,
      "داود": 8582,
      "##ue": 8583,
      "تقطع": 8584,
      "يان": 8585,
      "هجر": 8586,
      "فرحه": 8588,
      "ستة": 8589,
      "الاك": 8590,
      "##للذ": 8591,
      "بانت": 8592,
      "##رتون": 8595,
      "##حاول": 8596,
      "##زالة": 8600,
      "##ائزه": 8601,
      "جسم": 8602,
      "##لغاء": 8604,
      "تزال": 8606,
      "خاصه": 8607,
      "يشبه": 8609,
      "وحب": 8610,
      "توص": 8611,
      "##شستر": 8612,
      "بوش": 8614,
      "لاحظ": 8615,
      "وأم": 8617,
      "##ودع": 8618,
      "عسير": 8619,
      "للان": 8621,
      "شاف": 8623,
      "##اقه": 8624,
      "##ورهم": 8625,
      "بصف": 8627,
      "يومي": 8628,
      "صفر": 8630,
      "##زت": 8631,
      "كرام": 8635,
      "##ضاع": 8636,
      "جيدة": 8638,
      "##64": 8642,
      "the": 8643,
      "حيا": 8651,
      "##كمه": 8652,
      "تاخذ": 8656,
      "مونت": 8659,
      "عسي": 8660,
      "##ياع": 8663,
      "بتس": 8664,
      "##69": 8665,
      "سيب": 8666,
      "أزمة": 8669,
      "سمير": 8673,
      "قس": 8674,
      "ره": 8676,
      "تشي": 8677,
      "##ائى": 8679,
      "تبين": 8682,
      "##لطيف": 8683,
      "الاو": 8684,
      "تعني": 8685,
      "كفار": 8686,
      "الكه": 8688,
      "##قار": 8690,
      "يشكل": 8691,
      "اللذ": 8692,
      "ايدي": 8695,
      "سانت": 8698,
      "##فاس": 8700,
      "##تيل": 8702,
      "فانه": 8707,
      "غس": 8708,
      "باخ": 8710,
      "ناج": 8711,
      "ادري": 8712,
      "أثر": 8714,
      "كرم": 8715,
      "وآله": 8716,
      "جنب": 8717,
      "##خرين": 8719,
      "وحسن": 8721,
      "لتس": 8725,
      "تث": 8726,
      "##عدة": 8727,
      "##رال": 8728,
      "##غني": 8729,
      "مور": 8732,
      "زرع": 8734,
      "##od": 8735,
      "الجي": 8736,
      "##قاب": 8737,
      "فرصه": 8740,
      "ثمن": 8741,
      "فرد": 8742,
      "##هوه": 8743,
      "لون": 8745,
      "قررت": 8746,
      "حريق": 8749,
      "##خاب": 8750,
      "قاعة": 8751,
      "##قرام": 8753,
      "تبدأ": 8754,
      "مقب": 8755,
      "أصدر": 8756,
      "تؤكد": 8758,
      "##ack": 8759,
      "متع": 8760,
      "##ON": 8761,
      "رايت": 8762,
      "مشعل": 8764,
      "##فيش": 8765,
      "##سته": 8768,
      "سحر": 8769,
      "اخي": 8770,
      "نض": 8771,
      "##وصل": 8772,
      "جاك": 8773,
      "هار": 8774,
      "هموم": 8776,
      "شرطة": 8777,
      "##بيح": 8779,
      "طه": 8780,
      "##حني": 8781,
      "سكر": 8782,
      "##طون": 8785,
      "رجلا": 8787,
      "##غاني": 8788,
      "مفاج": 8789,
      "##رتك": 8792,
      "##شيدي": 8794,
      "يحقق": 8795,
      "##ديقة": 8796,
      "##الون": 8797,
      "ماني": 8798,
      "بيني": 8799,
      "غني": 8800,
      "راتب": 8801,
      "##فيات": 8802,
      "جلسة": 8803,
      "ضا": 8805,
      "دينا": 8807,
      "بول": 8809,
      "وفيه": 8810,
      "مجمع": 8812,
      "جبر": 8814,
      "تصدر": 8815,
      "##ئون": 8818,
      "وفاة": 8819,
      "سرا": 8820,
      "##ترنت": 8821,
      "بحمد": 8823,
      "##علان": 8824,
      "##ووو": 8825,
      "##خين": 8827,
      "##قلين": 8828,
      "مسجد": 8830,
      "##يسر": 8831,
      "بدل": 8832,
      "لأي": 8833,
      "لاخ": 8836,
      "ذوق": 8838,
      "##وند": 8839,
      "##قن": 8840,
      "يجيب": 8843,
      "يرفع": 8844,
      "##ذير": 8845,
      "وبه": 8848,
      "قدام": 8850,
      "ماج": 8852,
      "مباد": 8853,
      "2005": 8854,
      "##عدد": 8855,
      "يدل": 8858,
      "خليل": 8859,
      "إج": 8860,
      "متح": 8870,
      "##تيات": 8871,
      "##كتاب": 8872,
      "تكلم": 8873,
      "وسب": 8874,
      "لأحد": 8875,
      "##48": 8877,
      "تسبب": 8878,
      "##جبات": 8881,
      "قيد": 8883,
      "##رتها": 8886,
      "نعرف": 8887,
      "قيمه": 8890,
      "##ودية": 8892,
      "غاب": 8894,
      "يطلق": 8895,
      "##فيت": 8896,
      "حذ": 8898,
      "##ap": 8902,
      "##27": 8903,
      "مدري": 8904,
      "##ثاث": 8905,
      "احتف": 8906,
      "##لطة": 8909,
      "300": 8910,
      "##افل": 8915,
      "##فيل": 8916,
      "عشق": 8918,
      "وبك": 8919,
      "سلاح": 8920,
      "بمر": 8923,
      "كندا": 8924,
      "وكذا": 8925,
      "يقبل": 8928,
      "##ئذ": 8929,
      "##فيان": 8930,
      "##لقاء": 8937,
      "##ابيع": 8938,
      "##لسفة": 8940,
      "##31": 8941,
      "##سيك": 8942,
      "فخر": 8944,
      "##جمة": 8945,
      "الده": 8946,
      "##ائهم": 8948,
      "غالي": 8952,
      "رأى": 8953,
      "حدوث": 8955,
      "بجد": 8956,
      "##نسيق": 8958,
      "وقعت": 8959,
      "فاض": 8962,
      "##شيخ": 8963,
      "on": 8964,
      "هشام": 8966,
      "كتبت": 8968,
      "##tr": 8971,
      "##سيان": 8972,
      "غض": 8974,
      "##لفا": 8975,
      "كرب": 8977,
      "مقطع": 8978,
      "##نص": 8979,
      "صي": 8980,
      "يدفع": 8981,
      "##ياته": 8983,
      "نكون": 8984,
      "ماله": 8987,
      "وسوف": 8990,
      "شرا": 8991,
      "لمس": 8992,
      "##هيان": 8998,
      "زواج": 9000,
      "فائ": 9001,
      "##فهم": 9003,
      "شغ": 9007,
      "عل": 9008,
      "##ادن": 9009,
      "تشكل": 9010,
      "شديد": 9011,
      "برم": 9012,
      "أدى": 9014,
      "فشل": 9015,
      "قرض": 9016,
      "وعبد": 9017,
      "##رور": 9018,
      "مبلغ": 9020,
      "##49": 9021,
      "رز": 9025,
      "خطوة": 9026,
      "امور": 9029,
      "ضوء": 9032,
      "##طم": 9033,
      "غان": 9034,
      "يضع": 9036,
      "اكد": 9038,
      "##جمع": 9041,
      "تلت": 9044,
      "موال": 9047,
      "##كك": 9048,
      "منس": 9049,
      "العي": 9050,
      "##one": 9051,
      "##طيه": 9052,
      "لعدم": 9053,
      "##دب": 9055,
      "اذكر": 9056,
      "فليس": 9057,
      "##افعي": 9058,
      "وعلم": 9060,
      "##فاعل": 9061,
      "##حسن": 9065,
      "##قدمة": 9066,
      "لشخص": 9068,
      "جسد": 9071,
      "##منت": 9072,
      "طر": 9073,
      "وداع": 9075,
      "عوا": 9076,
      "##29": 9080,
      "##ريج": 9081,
      "قدمت": 9082,
      "ابعد": 9083,
      "43": 9086,
      "هادي": 9087,
      "تحول": 9088,
      "ملوك": 9089,
      "##ce": 9090,
      "##ياهو": 9091,
      "بلدة": 9095,
      "وحدك": 9096,
      "يتبع": 9100,
      "##th": 9101,
      "##ذاك": 9102,
      "##عيين": 9103,
      "سامي": 9105,
      "هلا": 9106,
      "قصف": 9108,
      "غرام": 9111,
      "لدر": 9112,
      "##21": 9113,
      "يقتل": 9117,
      "تاني": 9118,
      "يسوي": 9120,
      "لمر": 9121,
      "##اهو": 9125,
      "كسر": 9128,
      "##يرون": 9129,
      "تشهد": 9130,
      "الحظ": 9131,
      "فاي": 9132,
      "حاس": 9133,
      "خطاب": 9134,
      "ومص": 9135,
      "نيوز": 9136,
      "درب": 9139,
      "فاش": 9140,
      "تلقي": 9142,
      "##ech": 9143,
      "حذف": 9144,
      "نظم": 9146,
      "برب": 9148,
      "##قاق": 9151,
      "##راث": 9153,
      "##ليني": 9154,
      "##فعات": 9155,
      "صرت": 9157,
      "تقل": 9158,
      "قاب": 9159,
      "##رادة": 9160,
      "سفير": 9164,
      "ينفع": 9165,
      "تسمح": 9166,
      "مريم": 9167,
      "عزل": 9168,
      "لتش": 9169,
      "اوي": 9170,
      "نقدم": 9172,
      "اوب": 9174,
      "يغفر": 9175,
      "يده": 9176,
      "انظر": 9177,
      "##أكد": 9180,
      "قاله": 9181,
      "نغ": 9183,
      "ونعم": 9184,
      "أربع": 9186,
      "واجب": 9187,
      "##نق": 9189,
      "هذ": 9190,
      "بانه": 9191,
      "تسلم": 9193,
      "النم": 9195,
      "انني": 9196,
      "خد": 9197,
      "كاب": 9199,
      "الهد": 9200,
      "تجري": 9203,
      "##اهي": 9205,
      "فاح": 9206,
      "حفر": 9207,
      "جنون": 9213,
      "للث": 9214,
      "##وجل": 9217,
      "بمست": 9218,
      "ترج": 9220,
      "يرغب": 9221,
      "طرد": 9222,
      "تبلغ": 9223,
      "جودة": 9228,
      "تولي": 9230,
      "##صحاب": 9231,
      "عليا": 9233,
      "ميش": 9236,
      "جذ": 9237,
      "آن": 9238,
      "فني": 9240,
      "حصلت": 9241,
      "##جزاء": 9243,
      "غفر": 9245,
      "##جرين": 9249,
      "##ساطة": 9251,
      "##غلاق": 9252,
      "مكون": 9253,
      "فرا": 9255,
      "تفتح": 9257,
      "195": 9258,
      "فجر": 9259,
      "كول": 9260,
      "##لبس": 9261,
      "الغد": 9262,
      "ثورة": 9264,
      "فسي": 9265,
      "ماجد": 9266,
      "طمو": 9271,
      "العذ": 9275,
      "جوا": 9277,
      "راض": 9278,
      "##لاقي": 9279,
      "امك": 9280,
      "ودعم": 9282,
      "معاي": 9283,
      "##حلة": 9284,
      "##بن": 9285,
      "##وفة": 9287,
      "مضم": 9288,
      "##همية": 9289,
      "يترك": 9290,
      "ديم": 9291,
      "اهلا": 9292,
      "صفوف": 9293,
      "اداء": 9294,
      "##للعب": 9295,
      "هوا": 9296,
      "##دل": 9297,
      "ويسر": 9299,
      "##فسي": 9301,
      "##يلات": 9303,
      "##لبا": 9306,
      "وتغ": 9308,
      "تقم": 9309,
      "##فيا": 9310,
      "مشاع": 9311,
      "##ناعة": 9312,
      "##زيلي": 9314,
      "حولك": 9316,
      "للض": 9317,
      "القي": 9318,
      "قمة": 9319,
      "توب": 9321,
      "نقوم": 9322,
      "عادة": 9323,
      "##زايد": 9325,
      "عراق": 9326,
      "تفقد": 9327,
      "##عدل": 9329,
      "يقف": 9332,
      "كأ": 9333,
      "49": 9335,
      "لقط": 9336,
      "##جلة": 9337,
      "##اركه": 9338,
      "##rab": 9339,
      "نهر": 9341,
      "قبر": 9342,
      "عامر": 9343,
      "150": 9344,
      "##يتد": 9345,
      "##47": 9349,
      "ساعد": 9356,
      "ويتم": 9361,
      "يطلع": 9363,
      "ذكرى": 9364,
      "بلي": 9365,
      "##gle": 9367,
      "##ائط": 9368,
      "##فوق": 9369,
      "##نتك": 9371,
      "##اريو": 9372,
      "الما": 9373,
      "##فعة": 9374,
      "الزه": 9375,
      "وهنا": 9377,
      "##خبار": 9380,
      "وكن": 9381,
      "بمش": 9382,
      "جدول": 9390,
      "تذ": 9392,
      "##ونيا": 9393,
      "أين": 9394,
      "باش": 9395,
      "بمت": 9396,
      "طيبه": 9398,
      "اضغط": 9399,
      "##صره": 9402,
      "مبر": 9403,
      "ينس": 9406,
      "##بيين": 9410,
      "درس": 9411,
      "يفتح": 9413,
      "كشفت": 9414,
      "ترجع": 9415,
      "##نيع": 9416,
      "اسيا": 9419,
      "وابت": 9420,
      "##قون": 9421,
      "طلعت": 9422,
      "يري": 9425,
      "ينظر": 9429,
      "##36": 9430,
      "للمن": 9432,
      "cent": 9436,
      "اتخذ": 9439,
      "صر": 9440,
      "ميك": 9441,
      "صارت": 9443,
      "##يعه": 9445,
      "تام": 9449,
      "ووا": 9450,
      "##مسك": 9451,
      "تأتي": 9453,
      "ربع": 9454,
      "009": 9455,
      "أعلم": 9456,
      "##أتي": 9457,
      "##فسنا": 9458,
      "##ريال": 9461,
      "كاف": 9463,
      "بولا": 9464,
      "تشير": 9466,
      "##اشات": 9467,
      "الذك": 9468,
      "##درج": 9474,
      "يبت": 9476,
      "##كنه": 9477,
      "كيم": 9478,
      "يشوف": 9480,
      "##لوبة": 9481,
      "46": 9483,
      "##فين": 9487,
      "صبر": 9488,
      "بدعم": 9490,
      "مري": 9491,
      "وجوه": 9494,
      "##ووك": 9496,
      "ومنا": 9497,
      "اطار": 9498,
      "##ww": 9499,
      "وقبل": 9500,
      "##هج": 9503,
      "الكي": 9504,
      "##AT": 9507,
      "يضم": 9508,
      "تعطي": 9509,
      "اهتم": 9511,
      "##لذا": 9512,
      "مرف": 9514,
      "يورو": 9518,
      "ترفع": 9520,
      "آسيا": 9522,
      "##ice": 9523,
      "روى": 9524,
      "إله": 9525,
      "شرط": 9527,
      "مغرد": 9529,
      "##قيف": 9531,
      "بصوت": 9532,
      "##لاعب": 9535,
      "الشك": 9538,
      "المظ": 9539,
      "بريد": 9540,
      "يات": 9541,
      "##بته": 9542,
      "موظ": 9543,
      "لمست": 9544,
      "كوب": 9548,
      "خل": 9549,
      "تكتب": 9551,
      "##اقات": 9552,
      "رت": 9553,
      "##رقية": 9554,
      "روز": 9555,
      "##reat": 9556,
      "##همه": 9557,
      "##حها": 9559,
      "يغير": 9560,
      "2004": 9563,
      "لحم": 9564,
      "##ركي": 9565,
      "##اطئ": 9567,
      "حنين": 9573,
      "##يير": 9577,
      "آذار": 9579,
      "##box": 9581,
      "يونس": 9582,
      "##دريب": 9583,
      "يكشف": 9584,
      "##فور": 9585,
      "معهد": 9586,
      "لائ": 9590,
      "##كاة": 9592,
      "توق": 9595,
      "##طئ": 9596,
      "##ملكة": 9597,
      "وحين": 9600,
      "لغات": 9601,
      "##iv": 9603,
      "قضاء": 9606,
      "عيب": 9610,
      "فكل": 9611,
      "##يتهم": 9612,
      "علوش": 9614,
      "عكس": 9616,
      "التب": 9618,
      "##فضله": 9619,
      "وسم": 9622,
      "يصير": 9624,
      "تنام": 9627,
      "##pl": 9629,
      "مدي": 9634,
      "##af": 9635,
      "يبقى": 9638,
      "##زية": 9639,
      "فنحن": 9640,
      "عفش": 9642,
      "للمع": 9644,
      "لسان": 9645,
      "##بال": 9646,
      "##دري": 9649,
      "انيس": 9650,
      "##ستير": 9654,
      "##جهه": 9655,
      "صحفي": 9657,
      "رفي": 9658,
      "شري": 9659,
      "نتم": 9660,
      "##ort": 9662,
      "شهدت": 9667,
      "##سيت": 9669,
      "##امنة": 9670,
      "يهتم": 9671,
      "##فيني": 9672,
      "تحبه": 9673,
      "نك": 9675,
      "##قولة": 9676,
      "##يروس": 9677,
      "##صم": 9678,
      "حفظه": 9679,
      "58": 9684,
      "خلقك": 9686,
      "هديه": 9688,
      "##آآ": 9691,
      "ريم": 9693,
      "أبدا": 9694,
      "التض": 9695,
      "##سامح": 9696,
      "##اءه": 9698,
      "إني": 9699,
      "##بها": 9701,
      "##tion": 9702,
      "اساس": 9703,
      "##ىء": 9705,
      "ST": 9706,
      "مقات": 9709,
      "خوف": 9711,
      "ياج": 9712,
      "ياس": 9713,
      "خسر": 9715,
      "65": 9716,
      "##قش": 9717,
      "ليرة": 9718,
      "نكت": 9722,
      "تشمل": 9725,
      "##فيس": 9726,
      "الاي": 9727,
      "57": 9728,
      "حبه": 9729,
      "##لاله": 9730,
      "نسيم": 9731,
      "آية": 9732,
      "##az": 9733,
      "قمه": 9734,
      "اتش": 9736,
      "##راكة": 9737,
      "ردا": 9739,
      "##البة": 9743,
      "يفعل": 9744,
      "##اريا": 9748,
      "##رويج": 9749,
      "##نال": 9751,
      "الخس": 9752,
      "##نتاج": 9753,
      "##مكان": 9754,
      "مطلع": 9755,
      "##200": 9757,
      "تسمع": 9758,
      "خب": 9759,
      "##تيش": 9760,
      "لطلب": 9761,
      "تحصل": 9762,
      "ألب": 9763,
      "رحلة": 9765,
      "##عوض": 9766,
      "011": 9768,
      "##وتو": 9772,
      "##خصة": 9775,
      "سوري": 9777,
      "##ثا": 9778,
      "يشهد": 9779,
      "##روفة": 9780,
      "جمعه": 9781,
      "تترك": 9783,
      "ولت": 9784,
      "##ولها": 9785,
      "آثار": 9788,
      "روي": 9790,
      "##قاله": 9792,
      "##شط": 9795,
      "ماكس": 9796,
      "##ثره": 9801,
      "##زرع": 9803,
      "##حوا": 9804,
      "راق": 9805,
      "غذ": 9807,
      "##انين": 9809,
      "##خله": 9811,
      "ابحث": 9813,
      "##لوها": 9815,
      "غز": 9816,
      "باخت": 9817,
      "أية": 9818,
      "##بعد": 9822,
      "تقف": 9827,
      "##رائف": 9830,
      "sp": 9831,
      "##شرت": 9833,
      "تخصص": 9836,
      "##عج": 9837,
      "تطلع": 9838,
      "##نائي": 9839,
      "نواف": 9842,
      "قي": 9843,
      "##حابه": 9844,
      "نو": 9848,
      "وشر": 9853,
      "##فيز": 9854,
      "توح": 9855,
      "##لاط": 9856,
      "##والى": 9857,
      "##olog": 9858,
      "هج": 9860,
      "##ud": 9861,
      "##لادي": 9862,
      "##ضن": 9866,
      "##AM": 9867,
      "##خا": 9868,
      "نزل": 9872,
      "59": 9877,
      "##برني": 9879,
      "يبدأ": 9880,
      "صرح": 9883,
      "تدور": 9886,
      "وللم": 9888,
      "مشار": 9889,
      "##اتيح": 9890,
      "ووضع": 9891,
      "يولد": 9892,
      "بسيط": 9893,
      "منبر": 9894,
      "##جنبي": 9896,
      "##زز": 9899,
      "ملخ": 9900,
      "واحب": 9903,
      "اخاف": 9905,
      "##ابط": 9909,
      "ورغم": 9911,
      "قلبا": 9912,
      "روم": 9914,
      "وتك": 9916,
      "ماك": 9918,
      "##ائلة": 9920,
      "##قاطع": 9922,
      "##اوية": 9923,
      "تمام": 9925,
      "##رط": 9926,
      "##لوات": 9928,
      "##ينو": 9929,
      "تضع": 9931,
      "غضب": 9932,
      "خطوط": 9935,
      "##غفره": 9936,
      "##صيب": 9937,
      "##دوز": 9938,
      "استر": 9939,
      "نعيم": 9941,
      "##ذان": 9942,
      "معاذ": 9943,
      "الذا": 9944,
      "##ربول": 9945,
      "##ies": 9946,
      "لاني": 9950,
      "حري": 9952,
      "##لاس": 9953,
      "عدا": 9955,
      "نفذ": 9957,
      "شاعر": 9959,
      "حكمه": 9960,
      "##بتك": 9961,
      "قوى": 9962,
      "سطح": 9963,
      "##لاته": 9964,
      "##out": 9967,
      "اسمع": 9968,
      "##ؤها": 9969,
      "##مييز": 9971,
      "ويق": 9976,
      "##حان": 9979,
      "بعمل": 9982,
      "##حار": 9983,
      "##رجل": 9984,
      "##برع": 9986,
      "##تيم": 9987,
      "اثار": 9988,
      "تطلب": 9989,
      "##نهي": 9992,
      "إث": 9993,
      "##يلول": 9994,
      "##طرية": 9995,
      "موضع": 9997,
      "جزاء": 9999,
      "www": 10003,
      "جوز": 10011,
      "لاس": 10013,
      "وأنت": 10014,
      "##بطة": 10015,
      "52": 10016,
      "تحم": 10019,
      "دولا": 10020,
      "راجح": 10021,
      "تيم": 10023,
      "باد": 10024,
      "##صرهم": 10027,
      "##رحات": 10028,
      "لتع": 10030,
      "##لحين": 10031,
      "احبه": 10032,
      "ويجب": 10033,
      "لحظة": 10037,
      "غيري": 10040,
      "ورضي": 10041,
      "اوج": 10042,
      "وبن": 10045,
      "لث": 10046,
      "تطور": 10047,
      "خام": 10048,
      "ليع": 10049,
      "##ينغ": 10052,
      "افتح": 10053,
      "بيك": 10054,
      "شرب": 10055,
      "يثبت": 10056,
      "مثله": 10057,
      "ويه": 10058,
      "واكد": 10059,
      "معاه": 10061,
      "لتأ": 10062,
      "شهور": 10065,
      "##بض": 10066,
      "للمح": 10067,
      "أون": 10068,
      "وبت": 10072,
      "لآ": 10073,
      "يعرض": 10074,
      "يرض": 10075,
      "##لتين": 10076,
      "سريع": 10078,
      "##مح": 10079,
      "أبيه": 10081,
      "إضاف": 10084,
      "سبا": 10089,
      "اشد": 10091,
      "غر": 10093,
      "وأبو": 10094,
      "معلم": 10096,
      "الخز": 10098,
      "##ابق": 10100,
      "##وزع": 10102,
      "##لاغ": 10103,
      "شان": 10106,
      "##وووو": 10108,
      "ممثل": 10109,
      "البل": 10112,
      "ببعض": 10116,
      "اغلب": 10117,
      "ثلث": 10119,
      "مند": 10121,
      "##لفه": 10122,
      "متى": 10123,
      "ساع": 10124,
      "جرى": 10128,
      "999": 10130,
      "جزءا": 10131,
      "##ماعة": 10134,
      "##شكل": 10135,
      "##بلغ": 10136,
      "الضر": 10138,
      "يسلم": 10139,
      "st": 10140,
      "ورشة": 10141,
      "يحم": 10142,
      "جل": 10144,
      "بمث": 10145,
      "##متك": 10146,
      "تمني": 10147,
      "اسود": 10149,
      "فرنك": 10151,
      "متجر": 10152,
      "##ترول": 10153,
      "مصير": 10155,
      "منص": 10156,
      "كأن": 10157,
      "عاب": 10158,
      "##ولان": 10159,
      "##هار": 10160,
      "جوان": 10162,
      "##يتين": 10166,
      "##ئناف": 10167,
      "اقرا": 10168,
      "##AS": 10171,
      "##بعث": 10173,
      "اور": 10174,
      "##are": 10179,
      "إما": 10182,
      "ونصف": 10183,
      "مكاف": 10184,
      "فضي": 10185,
      "تجي": 10186,
      "خيار": 10187,
      "##ريبه": 10188,
      "##يانو": 10189,
      "##اليب": 10190,
      "##فاه": 10191,
      "250": 10192,
      "##رفت": 10194,
      "نسيت": 10195,
      "بتص": 10196,
      "حرة": 10198,
      "##هرات": 10199,
      "ولس": 10200,
      "الأر": 10201,
      "بقوة": 10202,
      "شب": 10203,
      "##هولة": 10204,
      "يقل": 10205,
      "قن": 10208,
      "ليك": 10209,
      "امني": 10210,
      "41": 10212,
      "##فاءة": 10215,
      "##ثيق": 10217,
      "كوا": 10219,
      "to": 10220,
      "جوعا": 10222,
      "رده": 10226,
      "ابنه": 10227,
      "نعمل": 10228,
      "##لفظ": 10230,
      "يونا": 10231,
      "بوكس": 10235,
      "##شية": 10239,
      "##ith": 10242,
      "##وضه": 10243,
      "مئات": 10244,
      "##ube": 10248,
      "ملكه": 10250,
      "تبكي": 10251,
      "ورفع": 10253,
      "البغ": 10254,
      "يؤمن": 10255,
      "ايد": 10258,
      "هيا": 10259,
      "بقا": 10262,
      "كات": 10265,
      "##وفت": 10266,
      "وهى": 10269,
      "فؤاد": 10270,
      "##راط": 10271,
      "##كييف": 10272,
      "أقرب": 10273,
      "بعين": 10276,
      "##ستي": 10278,
      "##23": 10280,
      "متاب": 10281,
      "يدرك": 10282,
      "وضعت": 10283,
      "عايز": 10284,
      "##يفك": 10287,
      "صدفه": 10288,
      "##ream": 10289,
      "##ونيس": 10290,
      "اربع": 10291,
      "طبع": 10292,
      "حميد": 10295,
      "##ناز": 10296,
      "اى": 10300,
      "صدام": 10301,
      "بشيء": 10302,
      "مؤشر": 10303,
      "عيوب": 10306,
      "تصدق": 10313,
      "##ظمه": 10314,
      "##فارق": 10315,
      "##اربه": 10316,
      "##فعله": 10318,
      "56": 10319,
      "تفهم": 10321,
      "رصد": 10323,
      "تراه": 10324,
      "سد": 10325,
      "نداء": 10326,
      "بعدك": 10327,
      "امان": 10330,
      "مارت": 10331,
      "##نجر": 10333,
      "اصعب": 10335,
      "واخر": 10336,
      "##هلاك": 10338,
      "##جارة": 10341,
      "متك": 10342,
      "رسمي": 10344,
      "خطط": 10346,
      "كرسي": 10352,
      "أيها": 10355,
      "##لبين": 10356,
      "٢٠": 10358,
      "تفكر": 10359,
      "ضخ": 10360,
      "pm": 10361,
      "منصب": 10362,
      "تبقى": 10363,
      "اكيد": 10364,
      "400": 10365,
      "##الأ": 10366,
      "واسع": 10367,
      "##أى": 10368,
      "نعيش": 10369,
      "##سير": 10373,
      "##لايت": 10376,
      "مفيش": 10378,
      "لجنه": 10381,
      "##ran": 10387,
      "آمن": 10388,
      "يسمى": 10389,
      "لل": 10391,
      "##عاة": 10392,
      "##عوة": 10394,
      "##بوت": 10395,
      "مالا": 10396,
      "صادق": 10397,
      "##مكن": 10398,
      "##if": 10399,
      "نقد": 10400,
      "##ددت": 10401,
      "آب": 10405,
      "ليوم": 10407,
      "عمال": 10408,
      "سند": 10409,
      "نطاق": 10410,
      "طري": 10411,
      "حرية": 10412,
      "نيج": 10413,
      "بالز": 10414,
      "مرش": 10415,
      "لإن": 10418,
      "لمص": 10419,
      "سلو": 10420,
      "##ss": 10424,
      "يذهب": 10426,
      "54": 10427,
      "##احبي": 10429,
      "طبيع": 10431,
      "##لفي": 10433,
      "جاب": 10434,
      "وشع": 10439,
      "فلان": 10440,
      "عقود": 10442,
      "تدعو": 10443,
      "##اوى": 10447,
      "رمي": 10448,
      "يوفق": 10449,
      "درد": 10450,
      "بابا": 10452,
      "قمت": 10457,
      "وسن": 10458,
      "خاف": 10460,
      "بالذ": 10461,
      "##لاحظ": 10462,
      "بعث": 10463,
      "##ابعك": 10464,
      "##ST": 10467,
      "##صين": 10470,
      "نبيل": 10471,
      "am": 10474,
      "Ph": 10475,
      "صيد": 10476,
      "جنس": 10480,
      "ظهرت": 10484,
      "##اخر": 10486,
      "##رشيح": 10487,
      "أكدت": 10489,
      "متفق": 10490,
      "##طنا": 10491,
      "##ماذج": 10495,
      "عشاق": 10496,
      "سع": 10497,
      "##واتر": 10498,
      "ورضا": 10500,
      "حاتم": 10503,
      "حاف": 10504,
      "تسجل": 10507,
      "تكفي": 10508,
      "##ارتك": 10512,
      "##جاد": 10513,
      "عمرك": 10515,
      "##مودي": 10517,
      "##بق": 10522,
      "أحلى": 10523,
      "##ليها": 10524,
      "##ستور": 10525,
      "للصف": 10527,
      "##بتها": 10528,
      "##يجي": 10530,
      "##يئة": 10532,
      "وإلى": 10533,
      "85": 10534,
      "ولب": 10538,
      "##78": 10539,
      "عسل": 10540,
      "باف": 10541,
      "حائل": 10542,
      "نعلم": 10545,
      "خان": 10546,
      "##فاد": 10547,
      "فالح": 10548,
      "حارس": 10551,
      "##شهد": 10554,
      "##05": 10555,
      "تبوك": 10556,
      "ولقد": 10558,
      "غلا": 10560,
      "ستت": 10561,
      "أذ": 10563,
      "بتو": 10566,
      "##ak": 10569,
      "تون": 10570,
      "ادخل": 10571,
      "##غبة": 10572,
      "##وارئ": 10573,
      "##art": 10574,
      "جيل": 10575,
      "معدل": 10578,
      "خلك": 10583,
      "نظره": 10584,
      "##ial": 10588,
      "##our": 10590,
      "رواد": 10592,
      "##AN": 10594,
      "وقل": 10596,
      "##لقب": 10597,
      "مسار": 10598,
      "سنا": 10600,
      "خلو": 10601,
      "##فتح": 10602,
      "##ليج": 10604,
      "ثقة": 10605,
      "أض": 10606,
      "متأ": 10607,
      "فاذا": 10608,
      "قاسم": 10610,
      "ياص": 10612,
      "##ئها": 10614,
      "الأك": 10617,
      "حلف": 10621,
      "##خاء": 10622,
      "زالت": 10623,
      "طلال": 10625,
      "جامع": 10626,
      "حامد": 10631,
      "##سلم": 10634,
      "فورا": 10636,
      "انتظ": 10637,
      "باج": 10639,
      "رفيق": 10640,
      "الكن": 10641,
      "##nl": 10642,
      "ديس": 10644,
      "##ئاب": 10647,
      "كوال": 10648,
      "لمده": 10650,
      "##اءات": 10651,
      "¤ô": 10653,
      "يعبر": 10657,
      "راقي": 10658,
      "نسخ": 10662,
      "تعم": 10663,
      "سجن": 10665,
      "مضي": 10666,
      "فعله": 10668,
      "ننت": 10669,
      "يفكر": 10671,
      "كذ": 10676,
      "استح": 10677,
      "ويخ": 10678,
      "##طوط": 10679,
      "##بيان": 10684,
      "فئة": 10685,
      "##مور": 10687,
      "ايش": 10688,
      "ظه": 10690,
      "مخرج": 10691,
      "##رباح": 10692,
      "51": 10693,
      "متعب": 10695,
      "أقول": 10696,
      "##عملة": 10697,
      "##ذكير": 10698,
      "##أمل": 10700,
      "تهدف": 10702,
      "##قذ": 10704,
      "هول": 10705,
      "##OP": 10707,
      "تبدا": 10710,
      "##دران": 10711,
      "تسوي": 10714,
      "##حدات": 10717,
      "تغيب": 10719,
      "عينك": 10721,
      "مولا": 10725,
      "يسال": 10730,
      "حديد": 10731,
      "رأيت": 10733,
      "صدرك": 10737,
      "##فيها": 10739,
      "##طنين": 10741,
      "أعم": 10742,
      "يرفض": 10744,
      "وقوع": 10745,
      "بيب": 10746,
      "يقود": 10747,
      "اكشن": 10748,
      "##بون": 10749,
      "99": 10751,
      "##وكس": 10755,
      "قبله": 10758,
      "واجه": 10760,
      "ضعيف": 10761,
      "رجع": 10763,
      "وهما": 10764,
      "##اصرة": 10766,
      "اعم": 10768,
      "##قان": 10769,
      "خلص": 10770,
      "اغت": 10772,
      "##ews": 10773,
      "ثق": 10774,
      "شعبة": 10776,
      "قدره": 10778,
      "##شم": 10779,
      "ومحا": 10781,
      "عوده": 10783,
      "##لتنا": 10786,
      "تتبع": 10787,
      "الإت": 10789,
      "##ويين": 10791,
      "صبح": 10792,
      "##نهار": 10793,
      "##ولاد": 10794,
      "ابيض": 10795,
      "جال": 10804,
      "##ظهرت": 10805,
      "كمان": 10809,
      "صدره": 10811,
      "يسجل": 10812,
      "سهم": 10813,
      "##ياح": 10814,
      "##ميمي": 10815,
      "##فله": 10816,
      "وخير": 10819,
      "يصدر": 10821,
      "وجعل": 10823,
      "##جبني": 10824,
      "تحزن": 10826,
      "منهج": 10827,
      "##فتاح": 10829,
      "اردت": 10834,
      "##غه": 10838,
      "لأول": 10839,
      "العف": 10840,
      "رشيد": 10847,
      "لاجل": 10848,
      "تؤدي": 10851,
      "##ex": 10854,
      "##ونيه": 10855,
      "##75": 10857,
      "حقه": 10858,
      "##وقي": 10859,
      "روت": 10861,
      "##يدات": 10862,
      "إثر": 10863,
      "##غاف": 10866,
      "بكت": 10870,
      "53": 10871,
      "##يرن": 10872,
      "جاي": 10873,
      "##صلا": 10874,
      "##صرت": 10876,
      "انع": 10877,
      "##يكية": 10879,
      "Sp": 10880,
      "تموز": 10881,
      "##قالة": 10882,
      "##هية": 10883,
      "قياس": 10890,
      "ويك": 10891,
      "##لتهم": 10892,
      "داف": 10893,
      "##جلين": 10894,
      "صحه": 10898,
      "##بدال": 10900,
      "غيب": 10901,
      "##ang": 10902,
      "##جهود": 10903,
      "أمل": 10904,
      "##ئن": 10908,
      "متفر": 10911,
      "حزين": 10912,
      "سيم": 10914,
      "احمر": 10915,
      "##شرون": 10916,
      "عبده": 10917,
      "شويه": 10918,
      "خطأ": 10919,
      "دائم": 10920,
      "أصول": 10925,
      "بطلب": 10927,
      "ندوة": 10928,
      "##حيي": 10929,
      "تشبه": 10930,
      "وبلغ": 10931,
      "##ذكرك": 10933,
      "نشرت": 10936,
      "أنس": 10937,
      "برق": 10939,
      "##نتها": 10941,
      "##صت": 10942,
      "سلا": 10947,
      "##حون": 10949,
      "Bl": 10952,
      "##ئله": 10953,
      "##كسل": 10956,
      "صم": 10957,
      "شئت": 10959,
      "##ظى": 10960,
      "ثقي": 10961,
      "ولفت": 10962,
      "أحسن": 10963,
      "يأخذ": 10966,
      "##لتقي": 10968,
      "وري": 10973,
      "##عراض": 10975,
      "ونقل": 10976,
      "##وقعة": 10977,
      "يصنع": 10979,
      "Ch": 10982,
      "ختام": 10985,
      "##عدا": 10987,
      "##درة": 10993,
      "ضاقت": 10994,
      "##ربون": 10996,
      "سبي": 10998,
      "دوره": 10999,
      "وكأن": 11000,
      "##فك": 11001,
      "جوري": 11002,
      "##زنة": 11003,
      "بانك": 11004,
      "لايف": 11007,
      "##لجي": 11008,
      "##دات": 11009,
      "عملت": 11010,
      "Sh": 11012,
      "2003": 11013,
      "اطلع": 11014,
      "ارج": 11015,
      "##وفى": 11016,
      "##أكيد": 11017,
      "##all": 11018,
      "##وضيح": 11021,
      "عقل": 11022,
      "اهلي": 11023,
      "أبر": 11024,
      "##26": 11025,
      "##لربع": 11026,
      "##الص": 11029,
      "والو": 11031,
      "لعرض": 11034,
      "##اردة": 11035,
      "قصد": 11038,
      "ويوم": 11041,
      "يوفر": 11044,
      "##عايه": 11045,
      "واجع": 11046,
      "##جون": 11048,
      "نفوس": 11050,
      "علق": 11051,
      "قبول": 11053,
      "اذن": 11054,
      "##علي": 11056,
      "##لوث": 11057,
      "الإج": 11059,
      "##ئمة": 11060,
      "ولله": 11065,
      "ساخ": 11067,
      "خاض": 11068,
      "مابي": 11069,
      "مزاج": 11073,
      "##ميك": 11074,
      "##لحق": 11075,
      "رفعت": 11078,
      "بقية": 11079,
      "كسب": 11080,
      "متط": 11082,
      "##جنب": 11084,
      "دوا": 11085,
      "تشكي": 11087,
      "الكس": 11088,
      "يسي": 11089,
      "سار": 11091,
      "##زقه": 11092,
      "##79": 11094,
      "شير": 11095,
      "##عدت": 11097,
      "عبس": 11099,
      "اقسم": 11102,
      "مذه": 11103,
      "##وائر": 11104,
      "##ائكم": 11106,
      "مؤمن": 11107,
      "##ويته": 11109,
      "تسعى": 11110,
      "وانه": 11111,
      "تاتي": 11112,
      "قديم": 11114,
      "##حنا": 11116,
      "##شاط": 11117,
      "##بهه": 11119,
      "وظيف": 11120,
      "زان": 11121,
      "اسمك": 11123,
      "لانت": 11124,
      "عه": 11125,
      "فقلت": 11127,
      "بعدد": 11130,
      "واث": 11132,
      "##حمين": 11135,
      "وحي": 11145,
      "روما": 11148,
      "جحف": 11150,
      "##شكيل": 11151,
      "أشار": 11152,
      "قلنا": 11153,
      "وأد": 11156,
      "##ارو": 11158,
      "عامه": 11160,
      "##ate": 11162,
      "##ip": 11164,
      "##رشاد": 11166,
      "ووف": 11170,
      "مشهد": 11171,
      "يدعم": 11174,
      "خصم": 11176,
      "##قده": 11179,
      "باه": 11180,
      "سكري": 11182,
      "##واحي": 11183,
      "اقرأ": 11186,
      "شقة": 11187,
      "فير": 11188,
      "للصح": 11193,
      "لشهب": 11196,
      "##داة": 11198,
      "##يمين": 11199,
      "##ربا": 11200,
      "تدعم": 11201,
      "قمر": 11203,
      "##وتها": 11205,
      "وحم": 11206,
      "سبعة": 11210,
      "دمع": 11211,
      "تفعل": 11212,
      "##ht": 11213,
      "مرشح": 11214,
      "##age": 11218,
      "شد": 11221,
      "وظ": 11222,
      "للسي": 11224,
      "##شيه": 11226,
      "##يقظ": 11227,
      "ô¤": 11228,
      "ضحكت": 11230,
      "##سها": 11231,
      "##باني": 11233,
      "طعم": 11235,
      "تسعد": 11236,
      "##اضرة": 11237,
      "ارجو": 11238,
      "##قود": 11239,
      "##طوره": 11241,
      "تسم": 11243,
      "مخيم": 11244,
      "تصف": 11245,
      "##ok": 11246,
      "جاد": 11247,
      "##اير": 11249,
      "##قوله": 11250,
      "##شخاص": 11255,
      "فيس": 11256,
      "##طيات": 11258,
      "قران": 11259,
      "سوها": 11260,
      "عملا": 11262,
      "زه": 11266,
      "قدرة": 11267,
      "الاض": 11274,
      "##جيال": 11275,
      "ex": 11281,
      "##شير": 11282,
      "للتص": 11284,
      "##جيه": 11286,
      "فنية": 11287,
      "##لطه": 11288,
      "بالث": 11289,
      "##يراد": 11291,
      "ومات": 11292,
      "اصل": 11293,
      "##شب": 11294,
      "بيده": 11295,
      "##ديها": 11297,
      "عالي": 11298,
      "يحق": 11299,
      "شغل": 11302,
      "تضمن": 11305,
      "##داك": 11306,
      "##يقة": 11309,
      "##بدل": 11310,
      "##لومة": 11314,
      "وبس": 11315,
      "##طالب": 11316,
      "##فان": 11317,
      "معرف": 11321,
      "##امرة": 11323,
      "##ياض": 11325,
      "كنتم": 11326,
      "وإلا": 11327,
      "##ائص": 11328,
      "وصور": 11329,
      "الول": 11336,
      "يذ": 11337,
      "##يفو": 11338,
      "حظر": 11339,
      "الار": 11340,
      "البت": 11341,
      "وعرض": 11344,
      "سمي": 11345,
      "سلطة": 11346,
      "سلوك": 11348,
      "ونص": 11350,
      "اعمل": 11352,
      "ربط": 11353,
      "##قله": 11354,
      "وته": 11355,
      "##ax": 11359,
      "اترك": 11367,
      "تحرك": 11372,
      "##ظهار": 11375,
      "وكما": 11384,
      "مصنع": 11389,
      "##ماعه": 11390,
      "انزل": 11392,
      "##ضت": 11393,
      "تهتم": 11394,
      "اطلب": 11396,
      "جوجل": 11397,
      "يعيد": 11398,
      "##and": 11399,
      "Pl": 11400,
      "ولج": 11403,
      "موز": 11405,
      "وبدأ": 11406,
      "##رن": 11407,
      "ابا": 11408,
      "##IN": 11409,
      "اتح": 11415,
      "لير": 11416,
      "تبدو": 11417,
      "##ry": 11418,
      "وحسب": 11420,
      "كلب": 11421,
      "بقد": 11422,
      "ليلا": 11423,
      "with": 11424,
      "بيري": 11425,
      "احذر": 11430,
      "ودعا": 11435,
      "شريف": 11437,
      "بحجم": 11438,
      "حجز": 11439,
      "##يتنا": 11440,
      "حصول": 11443,
      "##طرا": 11446,
      "##انز": 11450,
      "##دع": 11451,
      "يكره": 11453,
      "##دادي": 11455,
      "##ماق": 11456,
      "دورا": 11457,
      "عتق": 11460,
      "كه": 11462,
      "تسال": 11464,
      "##وطه": 11466,
      "##نازل": 11467,
      "##واخر": 11470,
      "دب": 11471,
      "يطول": 11475,
      "##تهما": 11476,
      "رحي": 11478,
      "يدور": 11480,
      "حوله": 11485,
      "ترضي": 11487,
      "سخ": 11488,
      "معكم": 11491,
      "##صن": 11494,
      "وقام": 11496,
      "##ثى": 11498,
      "دو": 11500,
      "لنت": 11501,
      "ناب": 11502,
      "قادة": 11503,
      "فلك": 11505,
      "لسه": 11507,
      "##echn": 11511,
      "##حول": 11512,
      "تشحن": 11513,
      "نام": 11514,
      "ad": 11515,
      "ودك": 11516,
      "فز": 11519,
      "##وقة": 11521,
      "##ناع": 11522,
      "لفظ": 11523,
      "جدد": 11524,
      "##71": 11525,
      "كش": 11527,
      "##اجم": 11530,
      "##ديف": 11531,
      "##عتين": 11533,
      "##وبيا": 11534,
      "كفي": 11537,
      "هيئه": 11538,
      "اعلي": 11540,
      "بيته": 11541,
      "##اقم": 11543,
      "لحل": 11544,
      "قاتل": 11545,
      "اشعر": 11547,
      "##البا": 11551,
      "استط": 11553,
      "##فرة": 11555,
      "##كريا": 11556,
      "عماد": 11559,
      "بوضع": 11560,
      "لمنت": 11563,
      "بينه": 11567,
      "##واقع": 11568,
      "روعه": 11573,
      "##pt": 11574,
      "رقبه": 11575,
      "فقدت": 11581,
      "##وسى": 11585,
      "عينا": 11588,
      "كليب": 11590,
      "ليون": 11591,
      "ملع": 11594,
      "يزور": 11595,
      "##صلين": 11597,
      "زوار": 11598,
      "اتي": 11600,
      "##ستون": 11601,
      "أرس": 11602,
      "فراغ": 11604,
      "##61": 11606,
      "إليك": 11609,
      "##ابته": 11611,
      "عقده": 11613,
      "##ائز": 11615,
      "برف": 11616,
      "##يبي": 11619,
      "تدفع": 11624,
      "ياا": 11627,
      "ايا": 11628,
      "أسرة": 11630,
      "##ph": 11634,
      "##شعر": 11635,
      "##ard": 11636,
      "##طرت": 11637,
      "مستح": 11641,
      "##فعت": 11642,
      "للمؤ": 11643,
      "##tor": 11644,
      "انهي": 11645,
      "84": 11649,
      "##منا": 11650,
      "##لوج": 11651,
      "ولكم": 11654,
      "##طبيق": 11655,
      "##زلت": 11656,
      "##اديه": 11658,
      "##ساقط": 11660,
      "وتحت": 11664,
      "ذكرك": 11665,
      "وكت": 11667,
      "##بز": 11668,
      "طبخ": 11670,
      "##وبين": 11671,
      "##لروض": 11672,
      "##عبه": 11674,
      "قله": 11676,
      "غاية": 11678,
      "##ختار": 11679,
      "اولى": 11680,
      "##ذاعة": 11684,
      "##لمك": 11685,
      "جملة": 11686,
      "##وانا": 11688,
      "##غيث": 11689,
      "للات": 11690,
      "##ديس": 11697,
      "عمار": 11701,
      "##ضباط": 11703,
      "صال": 11705,
      "##ياسي": 11706,
      "##OS": 11709,
      "##روز": 11710,
      "طيبة": 11711,
      "##رمى": 11719,
      "واز": 11720,
      "##قرب": 11725,
      "تايم": 11730,
      "تخيل": 11731,
      "رحمة": 11732,
      "احدي": 11733,
      "##وضحت": 11737,
      "##اشي": 11739,
      "يسهل": 11740,
      "##فقود": 11742,
      "اغلي": 11745,
      "بوجه": 11746,
      "كونه": 11747,
      "أرسل": 11748,
      "##of": 11750,
      "فراق": 11752,
      "مشرو": 11753,
      "ارسل": 11756,
      "هواة": 11757,
      "تبا": 11758,
      "جعلت": 11759,
      "##دود": 11762,
      "##لغاز": 11763,
      "مراس": 11766,
      "كبر": 11770,
      "خرجت": 11771,
      "شق": 11773,
      "##ريدة": 11774,
      "وآخر": 11775,
      "لذه": 11776,
      "##باحة": 11778,
      "##امله": 11779,
      "##اءة": 11780,
      "##كرون": 11781,
      "عطا": 11783,
      "فرحا": 11786,
      "كهرب": 11789,
      "##وكل": 11791,
      "##63": 11792,
      "فقر": 11794,
      "توصل": 11797,
      "اليم": 11798,
      "مقام": 11799,
      "زرا": 11800,
      "تحرم": 11803,
      "##ستها": 11804,
      "##ED": 11806,
      "##غن": 11808,
      "زادت": 11811,
      "##عال": 11812,
      "الجر": 11813,
      "##عودة": 11816,
      "ماهر": 11818,
      "ويل": 11819,
      "وعمل": 11821,
      "بره": 11824,
      "##صيد": 11826,
      "هني": 11827,
      "الغز": 11830,
      "كمية": 11832,
      "##سيات": 11835,
      "مون": 11836,
      "يسعى": 11839,
      "سيس": 11841,
      "يقضي": 11842,
      "مرج": 11843,
      "تعلق": 11844,
      "جرت": 11845,
      "مشغ": 11846,
      "بينك": 11847,
      "Arab": 11848,
      "حاز": 11849,
      "يامن": 11850,
      "غام": 11853,
      "نائ": 11856,
      "##رطوم": 11857,
      "##والف": 11858,
      "##ie": 11859,
      "##نيها": 11861,
      "لاد": 11862,
      "##وحه": 11863,
      "ديب": 11866,
      "سائق": 11867,
      "صلات": 11868,
      "كذب": 11869,
      "زب": 11871,
      "ماتت": 11873,
      "محر": 11879,
      "وأب": 11882,
      "بطن": 11885,
      "قويه": 11886,
      "CN": 11887,
      "##94": 11888,
      "##ايه": 11890,
      "نحت": 11891,
      "العت": 11892,
      "حسني": 11894,
      "عدسة": 11895,
      "ديف": 11896,
      "خض": 11897,
      "شكلي": 11898,
      "##جاهل": 11899,
      "##▬▬▬▬": 11900,
      "فحص": 11901,
      "##ديب": 11903,
      "صعيد": 11907,
      "##قتهم": 11910,
      "##ندات": 11911,
      "تقلي": 11915,
      "##ران": 11918,
      "تطلق": 11921,
      "صبري": 11922,
      "بآ": 11924,
      "##بس": 11925,
      "تمنع": 11927,
      "##ستغ": 11928,
      "صيدا": 11931,
      "##سيما": 11932,
      "##تيك": 11933,
      "بخط": 11936,
      "يصلي": 11937,
      "##راوح": 11938,
      "يحرم": 11940,
      "##روها": 11941,
      "انو": 11946,
      "##وائي": 11948,
      "##هاجم": 11952,
      "غم": 11953,
      "تلعب": 11954,
      "لتر": 11956,
      "يبكي": 11960,
      "مراد": 11962,
      "##امير": 11963,
      "##جدات": 11965,
      "مدخل": 11967,
      "##امع": 11968,
      "##وطة": 11971,
      "##وائم": 11973,
      "ندعم": 11975,
      "حدا": 11977,
      "يومك": 11978,
      "##ضاة": 11979,
      "سئل": 11980,
      "أغلب": 11981,
      "ومنت": 11982,
      "لرب": 11983,
      "نورا": 11984,
      "##قتين": 11985,
      "نظيف": 11986,
      "##ver": 11987,
      "كرا": 11988,
      "##روحة": 11989,
      "شفاء": 11990,
      "##مائ": 11991,
      "##شيء": 11992,
      "##نو": 11993,
      "عينه": 11994,
      "تخلي": 11999,
      "حمام": 12001,
      "اتوب": 12004,
      "##طت": 12005,
      "نسبه": 12008,
      "حمود": 12010,
      "##قتنا": 12011,
      "##اتمه": 12013,
      "جوي": 12014,
      "شاح": 12016,
      "##OR": 12017,
      "إذن": 12019,
      "شهيد": 12026,
      "جواز": 12027,
      "##عدك": 12029,
      "الدع": 12030,
      "##شيط": 12034,
      "##TM": 12035,
      "فيكم": 12037,
      "فساد": 12039,
      "النخ": 12041,
      "متف": 12044,
      "##ونى": 12046,
      "يوف": 12048,
      "فريد": 12049,
      "##عاف": 12057,
      "نقطه": 12063,
      "امره": 12065,
      "##زايا": 12066,
      "مذ": 12067,
      "يؤثر": 12068,
      "##بورغ": 12071,
      "الند": 12072,
      "يسير": 12073,
      "##كرين": 12074,
      "وصح": 12076,
      "##ظره": 12077,
      "مربع": 12079,
      "##اين": 12081,
      "جير": 12082,
      "##شون": 12083,
      "مشرف": 12084,
      "مثال": 12088,
      "بفتح": 12090,
      "##بهات": 12093,
      "##ond": 12094,
      "انسي": 12095,
      "بيض": 12096,
      "##فيظ": 12099,
      "##جعل": 12101,
      "##ابتن": 12106,
      "عزام": 12107,
      "##ازه": 12108,
      "##حونة": 12110,
      "##الفه": 12113,
      "##وسم": 12114,
      "لتت": 12116,
      "عطاء": 12117,
      "عاشق": 12118,
      "خميس": 12119,
      "خفض": 12120,
      "قلق": 12122,
      "اسرع": 12124,
      "##صلت": 12125,
      "##درا": 12127,
      "##لندي": 12128,
      "بتف": 12133,
      "متس": 12134,
      "ارتك": 12135,
      "متوا": 12139,
      "مفض": 12140,
      "##اعل": 12141,
      "##فلون": 12142,
      "نر": 12147,
      "##صاف": 12149,
      "قاط": 12150,
      "جراح": 12151,
      "اطلق": 12156,
      "##بني": 12157,
      "يسبب": 12158,
      "سباق": 12159,
      "سيرة": 12160,
      "رحيل": 12161,
      "فعلت": 12162,
      "##صفه": 12165,
      "تمه": 12166,
      "تقر": 12167,
      "##ماه": 12170,
      "##عبة": 12171,
      "علمت": 12173,
      "هاشم": 12174,
      "لهما": 12175,
      "بطر": 12177,
      "##هوة": 12178,
      "يبدا": 12179,
      "##ابير": 12182,
      "بتق": 12185,
      "جبهة": 12187,
      "##صام": 12191,
      "شين": 12196,
      "مستع": 12197,
      "##بطين": 12198,
      "شيع": 12202,
      "راجع": 12203,
      "بسعر": 12204,
      "واقت": 12206,
      "##فعه": 12207,
      "مسير": 12208,
      "ينزل": 12212,
      "##طبق": 12213,
      "شامل": 12214,
      "البث": 12215,
      "امرا": 12216,
      "تلقى": 12217,
      "الزع": 12218,
      "##ائعة": 12220,
      "جندي": 12221,
      "مدين": 12222,
      "##حبك": 12224,
      "اهله": 12226,
      "##اكد": 12227,
      "##وضي": 12228,
      "##عارف": 12231,
      "عكا": 12233,
      "##دمات": 12235,
      "عاطف": 12241,
      "فرقة": 12244,
      "رجب": 12247,
      "فط": 12252,
      "سمه": 12253,
      "واط": 12254,
      "بيتك": 12255,
      "حرص": 12256,
      "يضر": 12258,
      "##ملة": 12259,
      "سببا": 12261,
      "##يض": 12264,
      "##اها": 12265,
      "##ائيا": 12266,
      "##وقوف": 12267,
      "موظف": 12268,
      "اهد": 12270,
      "لاه": 12272,
      "##قض": 12273,
      "جين": 12278,
      "تلف": 12282,
      "##ياتك": 12283,
      "بغي": 12286,
      "محور": 12288,
      "القن": 12289,
      "روحك": 12291,
      "يفوز": 12292,
      "نواب": 12295,
      "جولة": 12296,
      "البك": 12298,
      "خدمه": 12300,
      "بيه": 12301,
      "##حباب": 12302,
      "جلال": 12303,
      "##فيك": 12305,
      "مائة": 12307,
      "غربي": 12308,
      "وأح": 12309,
      "سخر": 12312,
      "عدو": 12317,
      "##هرج": 12319,
      "##برك": 12320,
      "سرعة": 12323,
      "##ive": 12324,
      "##هلة": 12325,
      "يشمل": 12326,
      "يحكم": 12330,
      "تذهب": 12331,
      "يديك": 12333,
      "وند": 12334,
      "600": 12335,
      "ثان": 12336,
      "مسم": 12337,
      "##انها": 12339,
      "نجيب": 12340,
      "أرج": 12341,
      "حني": 12342,
      "كير": 12345,
      "قضيه": 12350,
      "طعام": 12352,
      "##رابي": 12353,
      "طاع": 12354,
      "اا": 12355,
      "مرب": 12356,
      "يقرب": 12364,
      "ويحت": 12365,
      "سوبر": 12366,
      "ايس": 12368,
      "##دعي": 12369,
      "تحيه": 12373,
      "سو": 12374,
      "##ld": 12376,
      "##بيعة": 12377,
      "العط": 12378,
      "##جازة": 12380,
      "رؤوس": 12381,
      "ياخ": 12382,
      "تهن": 12385,
      "##وضى": 12386,
      "مبنى": 12387,
      "##اهة": 12388,
      "ونه": 12390,
      "باص": 12391,
      "1000": 12393,
      "##تاحة": 12394,
      "##روك": 12396,
      "اكل": 12398,
      "الكث": 12399,
      "ألفا": 12400,
      "محسن": 12403,
      "زار": 12404,
      "##سيب": 12406,
      "وقفت": 12408,
      "جار": 12409,
      "اضحك": 12411,
      "وكتب": 12414,
      "حيدر": 12415,
      "ينام": 12417,
      "باني": 12418,
      "قراء": 12419,
      "بدم": 12420,
      "رسوم": 12421,
      "##يرنج": 12424,
      "صحية": 12427,
      "أجر": 12428,
      "الغي": 12433,
      "قالو": 12435,
      "سوم": 12436,
      "لمنع": 12437,
      "يحل": 12438,
      "##ئيل": 12441,
      "##صاري": 12444,
      "##pp": 12445,
      "غاز": 12446,
      "عظم": 12448,
      "##ساسا": 12450,
      "شنو": 12451,
      "٢٠١": 12452,
      "##قك": 12453,
      "##ناية": 12455,
      "نزلت": 12456,
      "يرزق": 12458,
      "اعيش": 12459,
      "لايع": 12460,
      "##ادير": 12461,
      "وزوج": 12463,
      "يديه": 12464,
      "اير": 12465,
      "##قسم": 12468,
      "بلاك": 12471,
      "الود": 12477,
      "2001": 12478,
      "يصح": 12481,
      "هاشت": 12482,
      "##ge": 12483,
      "سلة": 12484,
      "ابيك": 12486,
      "##دن": 12487,
      "عربة": 12488,
      "تدا": 12489,
      "أجمل": 12490,
      "##وون": 12492,
      "جها": 12495,
      "Pro": 12501,
      "راد": 12503,
      "يحضر": 12504,
      "نفت": 12505,
      "مفر": 12506,
      "كبرى": 12507,
      "وبأ": 12509,
      "##ذور": 12511,
      "قطعة": 12513,
      "##ows": 12515,
      "نون": 12519,
      "##اتين": 12522,
      "لاول": 12523,
      "##يبات": 12524,
      "##كرت": 12525,
      "مولد": 12529,
      "جرب": 12530,
      "تضحك": 12531,
      "ثقه": 12532,
      "##ذنب": 12534,
      "##نفس": 12536,
      "سائر": 12538,
      "رحل": 12539,
      "##ااا": 12541,
      "##وابط": 12543,
      "وكنت": 12544,
      "اقدر": 12550,
      "ارفع": 12552,
      "يعم": 12553,
      "##ماش": 12556,
      "تلم": 12557,
      "حالي": 12560,
      "##اريف": 12561,
      "باتت": 12562,
      "سكا": 12564,
      "what": 12574,
      "ثمة": 12575,
      "##حيم": 12577,
      "بدور": 12578,
      "##وكيا": 12581,
      "ينقص": 12584,
      "مؤقت": 12585,
      "##غلب": 12587,
      "##شراف": 12589,
      "##صرح": 12590,
      "##فوا": 12591,
      "##يفور": 12594,
      "##AD": 12596,
      "اسمي": 12602,
      "جناح": 12606,
      "##89": 12608,
      "تزوج": 12610,
      "يدعي": 12611,
      "هامش": 12615,
      "فتحت": 12619,
      "تؤثر": 12620,
      "اكره": 12621,
      "##وفية": 12623,
      "هيك": 12628,
      "##داي": 12630,
      "##ماج": 12631,
      "للمر": 12632,
      "باحد": 12634,
      "##انم": 12636,
      "نسمة": 12638,
      "ببط": 12640,
      "أوضح": 12641,
      "اروع": 12642,
      "##عدات": 12643,
      "وهب": 12644,
      "##ass": 12646,
      "تجرب": 12649,
      "تكره": 12657,
      "##قطة": 12659,
      "متت": 12662,
      "ومي": 12665,
      "تفر": 12667,
      "##غاث": 12672,
      "##نود": 12673,
      "##رحيل": 12677,
      "سماء": 12681,
      "##هدوء": 12682,
      "نقاش": 12684,
      "وسا": 12686,
      "يفس": 12687,
      "تفس": 12689,
      "جسر": 12690,
      "بدات": 12691,
      "##لينا": 12692,
      "ضمير": 12694,
      "يشير": 12695,
      "##ستا": 12697,
      "قا": 12698,
      "##ذاء": 12702,
      "مايك": 12703,
      "##لاقه": 12705,
      "توت": 12706,
      "وشدد": 12709,
      "انام": 12710,
      "شلن": 12711,
      "##قدة": 12712,
      "فضاء": 12717,
      "Ad": 12718,
      "بحبك": 12720,
      "##كوما": 12721,
      "وحيد": 12722,
      "معن": 12723,
      "يلد": 12725,
      "##محمد": 12729,
      "AL": 12732,
      "##يال": 12736,
      "وعز": 12737,
      "فروع": 12738,
      "شباط": 12741,
      "ومك": 12742,
      "##غالي": 12747,
      "فحسب": 12749,
      "سواك": 12750,
      "ولح": 12751,
      "##كنة": 12753,
      "روب": 12754,
      "##قرة": 12755,
      "منتج": 12756,
      "##باقي": 12757,
      "طع": 12758,
      "إمام": 12759,
      "ودع": 12760,
      "قصير": 12761,
      "واك": 12762,
      "##غولي": 12764,
      "And": 12765,
      "##فري": 12768,
      "بحد": 12769,
      "كنوز": 12771,
      "ماه": 12776,
      "##اقب": 12778,
      "##الين": 12779,
      "##72": 12780,
      "للري": 12781,
      "تاكد": 12782,
      "اكرم": 12784,
      "بيار": 12785,
      "رغبة": 12786,
      "النح": 12787,
      "استث": 12788,
      "054": 12789,
      "عضوا": 12794,
      "استد": 12796,
      "كدا": 12798,
      "##امح": 12799,
      "##ونغ": 12803,
      "##شتري": 12806,
      "##وركا": 12810,
      "لابن": 12812,
      "مشد": 12814,
      "##تهد": 12815,
      "فلل": 12816,
      "##بيعي": 12818,
      "نير": 12819,
      "اتفق": 12821,
      "##بلج": 12822,
      "##شرف": 12823,
      "##رود": 12827,
      "##يجا": 12828,
      "موك": 12829,
      "##roid": 12831,
      "مصاب": 12833,
      "##ذى": 12836,
      "##اهيم": 12837,
      "بقيت": 12839,
      "يهدف": 12840,
      "راحت": 12841,
      "##ثف": 12842,
      "سداد": 12843,
      "##انق": 12844,
      "ونظ": 12845,
      "يفرح": 12846,
      "##ian": 12848,
      "ولعل": 12850,
      "قبره": 12852,
      "لتم": 12856,
      "الزم": 12858,
      "اتفا": 12862,
      "##مص": 12863,
      "سلب": 12864,
      "##عدي": 12865,
      "لتق": 12866,
      "يحدد": 12867,
      "الوص": 12868,
      "2002": 12869,
      "مرسي": 12872,
      "كنز": 12873,
      "##يتي": 12876,
      "علاء": 12877,
      "##aw": 12878,
      "ينشر": 12881,
      "زوال": 12882,
      "ماين": 12885,
      "منصة": 12888,
      "شعو": 12889,
      "عصام": 12892,
      "حولي": 12893,
      "ستجد": 12894,
      "##يييي": 12895,
      "أسهم": 12896,
      "An": 12899,
      "وحش": 12900,
      "وفع": 12901,
      "تعبت": 12907,
      "تروح": 12908,
      "صدا": 12909,
      "##بارة": 12911,
      "##تراك": 12912,
      "تراث": 12913,
      "مهمه": 12916,
      "##تس": 12917,
      "##ردود": 12918,
      "##ونج": 12921,
      "##وأ": 12923,
      "صفقة": 12926,
      "موري": 12927,
      "لايم": 12928,
      "جنتك": 12929,
      "120": 12931,
      "منطق": 12932,
      "iP": 12935,
      "##وود": 12936,
      "صوته": 12937,
      "##iz": 12938,
      "كرد": 12940,
      "##لنار": 12943,
      "##سست": 12946,
      "بمصر": 12948,
      "بلدي": 12950,
      "كثره": 12951,
      "بعي": 12952,
      "##ادلة": 12955,
      "نرى": 12956,
      "مضاع": 12957,
      "##لمبي": 12961,
      "ايم": 12962,
      "وقر": 12964,
      "##زح": 12966,
      "ملائ": 12967,
      "بجدة": 12968,
      "حاكم": 12971,
      "منف": 12973,
      "باز": 12974,
      "لبس": 12976,
      "##شأ": 12977,
      "##فلات": 12979,
      "كاز": 12980,
      "فيمن": 12981,
      "##ile": 12982,
      "موه": 12985,
      "حسام": 12987,
      "الضي": 12991,
      "##ماعا": 12994,
      "##اوف": 12995,
      "أمور": 12996,
      "##مدة": 12998,
      "##لاقة": 12999,
      "##هودي": 13001,
      "الفص": 13002,
      "نوا": 13003,
      "بلده": 13004,
      "أمه": 13005,
      "خيره": 13006,
      "يضحك": 13007,
      "بشخص": 13010,
      "ياق": 13011,
      "يصف": 13012,
      "فجاه": 13016,
      "##صرخ": 13017,
      "##صرار": 13018,
      "تقرر": 13022,
      "##LC": 13025,
      "##ide": 13026,
      "##فط": 13028,
      "فكن": 13030,
      "64": 13031,
      "88": 13033,
      "##EN": 13035,
      "##بيبة": 13036,
      "ردد": 13037,
      "##راكي": 13038,
      "باحت": 13041,
      "##برات": 13043,
      "باح": 13044,
      "نافع": 13047,
      "صام": 13048,
      "لنقل": 13050,
      "##رفي": 13051,
      "##مرت": 13052,
      "راعي": 13053,
      "##يسير": 13054,
      "##حصل": 13055,
      "##قدمه": 13056,
      "راضي": 13057,
      "##فساد": 13059,
      "مخط": 13060,
      "##غيب": 13062,
      "اسوا": 13064,
      "انط": 13066,
      "فاص": 13068,
      "يفيد": 13070,
      "##الته": 13072,
      "##طاف": 13073,
      "فأن": 13078,
      "شلون": 13079,
      "خبير": 13080,
      "##بغ": 13081,
      "كروت": 13083,
      "يسكن": 13084,
      "واني": 13088,
      "##فرت": 13090,
      "عبدك": 13092,
      "سط": 13095,
      "ملم": 13096,
      "لطف": 13098,
      "وفتح": 13102,
      "##غرق": 13105,
      "محبه": 13108,
      "الصي": 13111,
      "بنها": 13113,
      "fem": 13119,
      "بفوز": 13120,
      "جواب": 13122,
      "واكت": 13123,
      "بقوه": 13126,
      "وعق": 13128,
      "نبيه": 13129,
      "انقذ": 13130,
      "مقدم": 13131,
      "##جيات": 13133,
      "##يمار": 13134,
      "##قوه": 13137,
      "##ضعاف": 13138,
      "ووجه": 13140,
      "##بث": 13143,
      "ولاد": 13144,
      "##ES": 13148,
      "نعت": 13149,
      "انقر": 13150,
      "بإن": 13153,
      "يسم": 13155,
      "لحزب": 13156,
      "مطاب": 13157,
      "##شو": 13158,
      "##ياق": 13162,
      "##دال": 13164,
      "بنشر": 13165,
      "##رفشة": 13167,
      "إض": 13168,
      "بقسم": 13170,
      "بحكم": 13172,
      "منط": 13176,
      "قار": 13178,
      "تسع": 13179,
      "لاحت": 13181,
      "##فيض": 13183,
      "تهي": 13184,
      "رأسه": 13188,
      "##ينيو": 13189,
      "هدوء": 13190,
      "للحد": 13192,
      "خار": 13193,
      "تقود": 13196,
      "اعين": 13197,
      "أريد": 13198,
      "سياق": 13200,
      "جيم": 13205,
      "عبدا": 13207,
      "حاض": 13208,
      "ضاق": 13209,
      "طلبت": 13212,
      "Le": 13214,
      "ماس": 13216,
      "ياه": 13217,
      "ادعو": 13218,
      "وإس": 13221,
      "ابرز": 13222,
      "مده": 13223,
      "لمؤ": 13224,
      "##اكم": 13229,
      "تصير": 13231,
      "مخطط": 13234,
      "ونشر": 13238,
      "هدي": 13240,
      "عاز": 13242,
      "مطمئ": 13243,
      "حصار": 13248,
      "الإح": 13249,
      "##عاقد": 13251,
      "ميس": 13252,
      "##ديين": 13255,
      "##ثله": 13257,
      "بتم": 13258,
      "ورف": 13262,
      "رمض": 13264,
      "خطوه": 13267,
      "روسي": 13268,
      "حان": 13269,
      "سائ": 13271,
      "منو": 13274,
      "يفضل": 13275,
      "##خلت": 13277,
      "تضيع": 13278,
      "علمي": 13279,
      "##حيه": 13280,
      "##لترا": 13281,
      "فاني": 13282,
      "آلية": 13284,
      "حيل": 13285,
      "قتي": 13286,
      "مليش": 13288,
      "يفقد": 13289,
      "سق": 13291,
      "##صى": 13292,
      "ورفض": 13294,
      "##عدون": 13296,
      "هالم": 13298,
      "eyes": 13300,
      "مؤلم": 13301,
      "وقتل": 13302,
      "##رجال": 13305,
      "جنيف": 13307,
      "de": 13308,
      "##ودان": 13309,
      "مطلق": 13312,
      "نسال": 13314,
      "تثبت": 13315,
      "بارد": 13316,
      "عرو": 13317,
      "جهنم": 13319,
      "ينسي": 13323,
      "بليز": 13324,
      "مسج": 13326,
      "مصن": 13328,
      "##باري": 13331,
      "تسير": 13332,
      "PK": 13334,
      "##جام": 13336,
      "قرأ": 13337,
      "يضمن": 13338,
      "##ميله": 13340,
      "##وراه": 13341,
      "##ركين": 13342,
      "مدني": 13346,
      "##دح": 13347,
      "##وبيه": 13348,
      "femt": 13349,
      "##ثرت": 13351,
      "##end": 13352,
      "بيئة": 13360,
      "وخط": 13361,
      "##ترط": 13362,
      "تصنع": 13363,
      "##ستمر": 13365,
      "لطب": 13367,
      "##زيل": 13368,
      "يغيب": 13372,
      "ومصر": 13373,
      "يصيب": 13374,
      "جمعة": 13377,
      "احدى": 13378,
      "زام": 13381,
      "طاب": 13382,
      "انح": 13386,
      "##عبير": 13387,
      "صعبه": 13389,
      "##ركية": 13390,
      "وملح": 13392,
      "##ash": 13395,
      "##ريكى": 13396,
      "حكام": 13400,
      "انتح": 13401,
      "عايش": 13403,
      "الوض": 13404,
      "طاري": 13405,
      "طيبا": 13407,
      "##تهر": 13409,
      "لكون": 13410,
      "بديل": 13412,
      "##YD": 13415,
      "##اضل": 13419,
      "##ime": 13421,
      "عذب": 13424,
      "مقص": 13425,
      "##فيع": 13431,
      "الطا": 13432,
      "اهاب": 13433,
      "##دامة": 13437,
      "تسب": 13440,
      "##شارة": 13442,
      "شرم": 13443,
      "شوقي": 13444,
      "عقلك": 13445,
      "صيام": 13447,
      "وكر": 13452,
      "حوا": 13453,
      "أثبت": 13455,
      "للآ": 13456,
      "##ضحك": 13458,
      "ياخي": 13460,
      "وقدم": 13462,
      "##RO": 13463,
      "##مايه": 13465,
      "##ويك": 13466,
      "##up": 13467,
      "يلزم": 13469,
      "إمت": 13470,
      "##وضية": 13471,
      "أضاف": 13472,
      "يمشي": 13473,
      "تنظم": 13474,
      "خصوص": 13476,
      "##طيك": 13477,
      "##عوث": 13478,
      "للبر": 13479,
      "يقيم": 13480,
      "Pr": 13482,
      "تلو": 13483,
      "عميد": 13486,
      "الفج": 13488,
      "بيعه": 13490,
      "اعشق": 13491,
      "Star": 13493,
      "##الز": 13494,
      "يسب": 13495,
      "دينك": 13497,
      "أنني": 13498,
      "##ليمة": 13499,
      "##ابها": 13500,
      "للتس": 13504,
      "لقيت": 13508,
      "##يكو": 13510,
      "بائ": 13512,
      "الشج": 13514,
      "عيال": 13517,
      "هير": 13519,
      "انثي": 13521,
      "مقاب": 13522,
      "ماضي": 13525,
      "الدر": 13526,
      "##HD": 13527,
      "احا": 13528,
      "##برد": 13532,
      "التز": 13537,
      "##سرع": 13538,
      "##ساطه": 13539,
      "بيوم": 13540,
      "تبعد": 13541,
      "معص": 13542,
      "تخسر": 13544,
      "باحث": 13546,
      "بنتي": 13548,
      "لتخ": 13549,
      "فتاة": 13550,
      "ارجع": 13551,
      "خرو": 13552,
      "De": 13553,
      "##oad": 13554,
      "##وقاف": 13556,
      "دلع": 13557,
      "حمزة": 13560,
      "اراء": 13561,
      "سبل": 13562,
      "##سح": 13563,
      "##ياسة": 13564,
      "السد": 13565,
      "تكذب": 13567,
      "حكيم": 13569,
      "جبال": 13570,
      "تقرا": 13571,
      "بصفة": 13573,
      "ونح": 13574,
      "شرائ": 13580,
      "ابوي": 13581,
      "##بقى": 13582,
      "##ity": 13587,
      "يبعد": 13589,
      "أقوى": 13590,
      "##ناسب": 13591,
      "##الن": 13592,
      "##ناهم": 13594,
      "ستر": 13595,
      "وقص": 13596,
      "##لتان": 13597,
      "ودم": 13599,
      "##ريفي": 13600,
      "##فسكم": 13601,
      "##غرة": 13604,
      "##ضيه": 13605,
      "رحيم": 13607,
      "لاتح": 13610,
      "تجنب": 13611,
      "لويس": 13612,
      "يليق": 13614,
      "لتج": 13615,
      "نوره": 13616,
      "ديني": 13619,
      "##وجي": 13620,
      "لاز": 13624,
      "خوفا": 13627,
      "##للام": 13628,
      "صفة": 13630,
      "اسي": 13631,
      "##ميها": 13633,
      "##ight": 13634,
      "95": 13635,
      "بفعل": 13636,
      "ورقة": 13638,
      "شعوب": 13640,
      "مناه": 13642,
      "##عاقة": 13643,
      "##وارث": 13646,
      "##سيين": 13648,
      "##باي": 13649,
      "اوت": 13650,
      "واما": 13651,
      "##ظمات": 13653,
      "حكي": 13654,
      "عطني": 13656,
      "خيمة": 13657,
      "ينبع": 13659,
      "اشف": 13661,
      "رضيت": 13662,
      "وفاء": 13663,
      "وجمع": 13665,
      "يسقط": 13672,
      "##ادا": 13673,
      "البع": 13675,
      "بكال": 13677,
      "تحفظ": 13678,
      "##وسة": 13680,
      "مسح": 13682,
      "ذاكر": 13685,
      "وبما": 13686,
      "##جائب": 13690,
      "##سهيل": 13691,
      "##لطف": 13692,
      "للأس": 13693,
      "ادع": 13695,
      "ساره": 13696,
      "بجده": 13698,
      "راسي": 13700,
      "يقطع": 13705,
      "##وانه": 13706,
      "تراج": 13707,
      "ووال": 13709,
      "عذر": 13710,
      "مزي": 13714,
      "أشد": 13720,
      "##ناصر": 13721,
      "ترض": 13724,
      "##متاع": 13725,
      "غسل": 13726,
      "##اليق": 13727,
      "نسمع": 13728,
      "وافق": 13730,
      "##iy": 13731,
      "##صبحت": 13732,
      "أولي": 13737,
      "أحدا": 13739,
      "تنظر": 13741,
      "فانا": 13742,
      "كتلة": 13746,
      "##لالي": 13749,
      "ويؤ": 13750,
      "##لكية": 13751,
      "##اتا": 13752,
      "صدم": 13753,
      "وفت": 13754,
      "شيئ": 13756,
      "##لطات": 13758,
      "##رمان": 13760,
      "ضياع": 13764,
      "تفوق": 13765,
      "معم": 13770,
      "##هلها": 13771,
      "##صله": 13773,
      "عائض": 13774,
      "لمصر": 13775,
      "يقرا": 13781,
      "##ركت": 13782,
      "يوجه": 13783,
      "##ايب": 13785,
      "ومه": 13786,
      "##85": 13787,
      "فلاش": 13789,
      "##زاق": 13790,
      "##ظيما": 13791,
      "فقير": 13792,
      "سهلا": 13795,
      "مهد": 13796,
      "الحز": 13805,
      "بتج": 13807,
      "##جيج": 13811,
      "فول": 13813,
      "تحكي": 13817,
      "يهدد": 13818,
      "##ؤول": 13820,
      "يصلح": 13824,
      "وكشف": 13825,
      "بقاء": 13827,
      "عملي": 13828,
      "160": 13830,
      "شده": 13831,
      "بتت": 13832,
      "ارح": 13836,
      "فاد": 13837,
      "##اعية": 13838,
      "بوف": 13841,
      "ريح": 13842,
      "صراع": 13843,
      "كوكب": 13845,
      "ترق": 13847,
      "محيط": 13848,
      "اجد": 13849,
      "يثير": 13850,
      "متاح": 13853,
      "القس": 13854,
      "##سعيد": 13855,
      "أصيب": 13856,
      "##وتش": 13857,
      "فهذه": 13862,
      "النض": 13868,
      "وعي": 13869,
      "##SD": 13871,
      "جمه": 13872,
      "##uc": 13873,
      "خبرة": 13874,
      "1440": 13875,
      "##فاك": 13877,
      "##ساها": 13882,
      "حيال": 13883,
      "عجل": 13884,
      "##وجة": 13889,
      "طلبة": 13890,
      "إدلب": 13891,
      "##ذيه": 13894,
      "نزار": 13895,
      "والى": 13896,
      "##حرار": 13898,
      "ياد": 13899,
      "##منه": 13900,
      "##جهز": 13901,
      "نشوف": 13902,
      "تأخذ": 13903,
      "صوم": 13904,
      "يخاف": 13908,
      "بقلب": 13910,
      "حذر": 13913,
      "##بيات": 13914,
      "##تكلم": 13917,
      "تحدد": 13918,
      "تكلف": 13919,
      "ملء": 13922,
      "##واية": 13923,
      "##همين": 13924,
      "صوتي": 13926,
      "doc": 13927,
      "نادر": 13928,
      "وسر": 13929,
      "وسدد": 13930,
      "##داخل": 13935,
      "لاف": 13936,
      "ممر": 13937,
      "قهوه": 13938,
      "بلس": 13940,
      "شاشة": 13942,
      "##لعه": 13943,
      "يشار": 13944,
      "سماع": 13946,
      "اصط": 13948,
      "بارت": 13949,
      "رحب": 13951,
      "##ite": 13953,
      "be": 13954,
      "أيدي": 13955,
      "تمسك": 13956,
      "بلح": 13958,
      "ومخ": 13959,
      "ينص": 13960,
      "يتأ": 13965,
      "بشري": 13967,
      "##غلال": 13968,
      "بتش": 13969,
      "دينه": 13971,
      "ذهبت": 13972,
      "##مث": 13974,
      "Ar": 13985,
      "ربح": 13986,
      "كويت": 13990,
      "هامة": 13991,
      "بلال": 13992,
      "##46": 13994,
      "##داوي": 13999,
      "##عمر": 14000,
      "يطرح": 14002,
      "مسلح": 14003,
      "تبني": 14004,
      "تسقط": 14006,
      "جهات": 14007,
      "اخط": 14009,
      "ونفس": 14012,
      "تخاف": 14014,
      "مذهب": 14015,
      "النك": 14016,
      "اسر": 14020,
      "اصلح": 14022,
      "##لجأ": 14023,
      "##خبات": 14024,
      "##جيد": 14026,
      "ميون": 14030,
      "##برم": 14031,
      "أسر": 14033,
      "يصعب": 14034,
      "رقص": 14035,
      "##مش": 14036,
      "pl": 14037,
      "خايف": 14039,
      "##وعد": 14041,
      "أغس": 14042,
      "مطلب": 14046,
      "800": 14047,
      "اخوي": 14048,
      "قاس": 14051,
      "##ames": 14052,
      "##عادل": 14056,
      "لكان": 14057,
      "وضعف": 14058,
      "ردود": 14059,
      "كومي": 14060,
      "##زات": 14061,
      "##واها": 14063,
      "كتبه": 14065,
      "احلى": 14066,
      "##خلف": 14068,
      "ul": 14069,
      "نجح": 14070,
      "ياف": 14071,
      "##وليه": 14072,
      "##نن": 14073,
      "##شال": 14074,
      "إند": 14075,
      "شرع": 14077,
      "محرك": 14078,
      "تكري": 14080,
      "مبدأ": 14084,
      "##ينت": 14086,
      "##man": 14090,
      "ايق": 14091,
      "يخدم": 14092,
      "##لود": 14093,
      "##رائق": 14096,
      "صدرت": 14097,
      "##ome": 14098,
      "همي": 14099,
      "اموت": 14101,
      "##ينها": 14103,
      "̈°": 14104,
      "أعد": 14105,
      "##شفاء": 14108,
      "طائر": 14109,
      "أجمع": 14111,
      "رجاء": 14115,
      "##بعه": 14116,
      "تحط": 14117,
      "تدل": 14119,
      "بشير": 14122,
      "انفض": 14123,
      "##سنه": 14124,
      "سموه": 14125,
      "كوست": 14127,
      "خيال": 14128,
      "زوجة": 14129,
      "ورؤ": 14130,
      "##بري": 14135,
      "برك": 14136,
      "##وفرة": 14138,
      "بشدة": 14140,
      "##وفات": 14141,
      "شمو": 14142,
      "تيار": 14143,
      "غالب": 14144,
      "##ous": 14146,
      "##شري": 14151,
      "وعبر": 14155,
      "##قيمت": 14159,
      "الرش": 14160,
      "وراح": 14161,
      "##جهل": 14165,
      "فنون": 14166,
      "وني": 14167,
      "لوقف": 14171,
      "68": 14175,
      "يرضي": 14176,
      "تنفي": 14177,
      "##نامة": 14179,
      "يضرب": 14180,
      "يشاء": 14185,
      "##وافي": 14186,
      "##للات": 14188,
      "تعيد": 14190,
      "##قاسم": 14191,
      "يهدي": 14193,
      "ساهو": 14196,
      "##ill": 14197,
      "بوست": 14200,
      "عده": 14201,
      "##MD": 14203,
      "كالم": 14204,
      "تفضل": 14206,
      "هاني": 14208,
      "فيلا": 14209,
      "تقي": 14210,
      "واشت": 14211,
      "حماة": 14213,
      "وأخذ": 14218,
      "تحسن": 14219,
      "جهته": 14221,
      "##تز": 14224,
      "طقم": 14225,
      "##يجاد": 14227,
      "اصيب": 14228,
      "##ويع": 14229,
      "##اليف": 14230,
      "السا": 14233,
      "برض": 14234,
      "وسجل": 14235,
      "##وصات": 14239,
      "يدين": 14241,
      "سهلة": 14244,
      "ورم": 14246,
      "بريف": 14249,
      "72": 14252,
      "##oft": 14253,
      "وحفظ": 14254,
      "لغه": 14255,
      "عرق": 14258,
      "سح": 14259,
      "حامل": 14261,
      "سيدة": 14262,
      "##بدء": 14265,
      "عر": 14268,
      "أعرف": 14271,
      "سامح": 14273,
      "تدرك": 14277,
      "فارق": 14279,
      "##رخ": 14280,
      "اتهم": 14281,
      "يوضح": 14283,
      "سؤ": 14284,
      "ترفض": 14285,
      "##انغ": 14286,
      "اعز": 14287,
      "ناز": 14291,
      "قف": 14292,
      "##أه": 14294,
      "##اور": 14299,
      "وشعب": 14300,
      "قبيل": 14303,
      "##ضمنة": 14304,
      "تأخر": 14305,
      "##ساة": 14306,
      "قات": 14307,
      "يقصد": 14310,
      "طفله": 14314,
      "ورض": 14316,
      "قلم": 14317,
      "##بغي": 14318,
      "حقك": 14321,
      "##ياكم": 14323,
      "كفوا": 14325,
      "تنه": 14326,
      "امنا": 14327,
      "ومنذ": 14329,
      "##وقية": 14330,
      "للرا": 14339,
      "إط": 14340,
      "يخلق": 14343,
      "##وظيف": 14345,
      "حركه": 14347,
      "##ائله": 14350,
      "##وتوغ": 14355,
      "وسام": 14356,
      "##اروخ": 14357,
      "##فاضة": 14362,
      "ماا": 14363,
      "##نيد": 14368,
      "رات": 14369,
      "وحقق": 14370,
      "وافت": 14374,
      "ظاهر": 14375,
      "##يرها": 14377,
      "##برية": 14378,
      "عمق": 14380,
      "ساد": 14381,
      "الوط": 14382,
      "نهار": 14385,
      "مكس": 14387,
      "تتج": 14389,
      "##جبت": 14390,
      "##للم": 14391,
      "053": 14392,
      "##فتر": 14395,
      "ستح": 14399,
      "مطب": 14400,
      "##يائي": 14401,
      "حرق": 14402,
      "يحس": 14403,
      "##ميص": 14404,
      "##خلات": 14406,
      "مفيد": 14409,
      "وبط": 14413,
      "##على": 14415,
      "يراك": 14418,
      "تفرح": 14421,
      "1437": 14423,
      "مود": 14426,
      "67": 14427,
      "شريط": 14429,
      "ولمن": 14430,
      "##هى": 14431,
      "سجلت": 14438,
      "مخصص": 14439,
      "تحد": 14445,
      "تجيب": 14447,
      "يومه": 14448,
      "##اطب": 14451,
      "##اسب": 14453,
      "رع": 14455,
      "86": 14456,
      "##سيع": 14460,
      "##van": 14461,
      "##باره": 14462,
      "##لعت": 14463,
      "يروح": 14464,
      "##تيبه": 14465,
      "خاطر": 14470,
      "كاش": 14472,
      "ويص": 14474,
      "فالأ": 14475,
      "استف": 14477,
      "مثلك": 14478,
      "##عونا": 14481,
      "أخي": 14483,
      "وحتي": 14484,
      "مبس": 14485,
      "الفم": 14486,
      "حبيت": 14488,
      "كلف": 14491,
      "##دوا": 14492,
      "##نائه": 14493,
      "بسب": 14494,
      "##ياها": 14497,
      "##وقه": 14498,
      "##واعش": 14502,
      "##عبد": 14503,
      "##mail": 14504,
      "##MT": 14505,
      "##رصاد": 14506,
      "بوج": 14507,
      "اخرج": 14508,
      "استن": 14512,
      "فتاه": 14515,
      "##96": 14517,
      "يقوي": 14519,
      "##ختم": 14520,
      "##OX": 14522,
      "##ونهم": 14524,
      "بقر": 14526,
      "صعبة": 14527,
      "زبد": 14529,
      "وقنا": 14530,
      "##اعب": 14531,
      "داعي": 14532,
      "##ثث": 14536,
      "يرك": 14537,
      "مسجل": 14538,
      "an": 14539,
      "حالك": 14540,
      "آلة": 14542,
      "تفيد": 14543,
      "أوغ": 14545,
      "##اهه": 14546,
      "عاوز": 14547,
      "فلس": 14548,
      "ماير": 14549,
      "Com": 14550,
      "تشك": 14552,
      "مام": 14556,
      "حققت": 14558,
      "كيد": 14559,
      "فرس": 14560,
      "##ium": 14561,
      "سقف": 14562,
      "##ien": 14566,
      "يصدق": 14567,
      "تجار": 14569,
      "مهام": 14570,
      "##واره": 14571,
      "بيل": 14576,
      "مؤس": 14580,
      "الحن": 14583,
      "##عاش": 14587,
      "ومنع": 14592,
[...]
