[PAD]
[UNK]
[CLS]
[SEP]
[MASK]
!
"
#
$
%
&
'
(
)
*
+
,
-
.
/
0
1
2
3
4
5
6
7
8
9
:
;
<
=
>
?
@
A
B
C
D
E
F
G
H
I
J
K
L
M
N
O
P
Q
R
S
T
U
V
W
X
Y
Z
[
\
]
^
_
`
a
b
c
d
e
f
g
h
i
j
k
l
m
n
o
p
q
r
s
t
u
v
w
x
y
z
{
|
}
~
¡
¢
£
¤
¥
¦
§
©
«
¬
®
°
±
¶
·
»
¿
Â
Ã
Å
Ç
É
Ê
Ï
Ð
Ñ
Ö
×
Ø
Ù
Ü
Þ
ß
à
á
â
ã
ä
å
æ
ç
è
é
ê
ë
í
î
ï
ñ
ò
ó
ô
õ
ö
÷
ø
ù
ú
û
ü
ā
ă
Ą
ą
ć
ĉ
Č
č
ď
Đ
đ
ę
ğ
Ģ
ī
į
İ
ı
ĸ
Ļ
Ľ
Ł
ł
ŋ
ō
ő
Œ
œ
Ŗ
Ś
ś
ŝ
Ş
ş
Š
š
ţ
Ť
Ŧ
ū
ŷ
ž
ƒ
ư
Ʒ
Ƹ
ƽ
ǁ
ǿ
ȫ
ə
ɪ
ɱ
ʁ
ʃ
ʋ
ʘ
ʽ
ʾ
ʿ
ˆ
ˉ
ˮ
́
̃
̄
̅
̇
̈
̊
̡
̧
̨
̲
̳
̴
̵
̶
̷
̸
͡
ͼ
Θ
Μ
Ξ
Σ
Ψ
Ω
ά
έ
ή
ί
α
β
γ
ε
ζ
η
θ
ι
κ
λ
μ
ν
ξ
ο
π
ρ
ς
σ
τ
υ
φ
ψ
ω
ό
ώ
Ϡ
Є
А
Б
В
Г
Д
И
Й
К
М
Н
О
П
Р
С
Т
Ф
Я
а
б
в
г
д
е
ж
з
и
й
к
л
м
н
о
п
р
с
т
у
ф
х
ц
ч
ш
ъ
ы
ь
я
ё
є
ѕ
і
ї
ѽ
҈
҉
Ғ
Җ
Ҳ
ҳ
һ
ա
խ
մ
վ
֝
ִ
ַ
ָ
ּ
־
ֿ
א
ב
ג
ד
ה
ו
ז
ח
ט
י
ך
כ
ל
ם
מ
ן
נ
ס
ע
ף
פ
ץ
צ
ק
ר
ש
ת
װ
״
׼
،
؛
؟
ء
آ
أ
ؤ
إ
ئ
ا
ب
ة
ت
ث
ج
ح
خ
د
ذ
ر
ز
س
ش
ص
ض
ط
ظ
ع
غ
ػ
ف
ق
ك
ل
م
ن
ه
و
ى
ي
ٓ
ٔ
٠
١
٢
٣
٤
٥
٦
٧
٨
٩
٪
٫
٬
٭
ٱ
ٲ
ٳ
ٴ
ٹ
ٺ
ٻ
ټ
پ
ٿ
چ
ڈ
ڊ
ڑ
ړ
ڔ
ڕ
ږ
ژ
ڙ
ڛ
ڠ
ڤ
ڦ
ڨ
ک
ڪ
ڬ
ڭ
گ
ڲ
ڳ
ڵ
ڶ
ڷ
ڸ
ڹ
ں
ڼ
ڽ
ھ
ۀ
ہ
ۂ
ۃ
ۅ
ۆ
ۇ
ۈ
ۉ
ۋ
ی
ێ
ې
ۑ
ے
ۓ
۔
ە
ۖ
ۗ
ۚ
ۜ
۞
ۡ
ۣ
ۤ
ۧ
ۨ
۩
۪
۫
۰
۱
۲
۳
۴
۵
۶
۷
۸
۹
۾
ܐ
ܓ
ܔ
ܕ
ܘ
ܝ
ܠ
ܡ
ܢ
ܨ
ܪ
ܬ
ށ
ँ
ऊ
ऋ
ख
द
न
र
़
ा
ी
ॐ
ঔ
া
ৣ
৲
৴
৵
ਿ
ੀ
ઇ
હ
ஃ
இ
ஊ
ஐ
ஓ
ஜ
ண
ஷ
ஹ
ಏ
ಞ
ೋ
್
്
ก
ง
ฒ
ด
ท
น
บ
ม
ย
ร
ล
ว
ส
ห
อ
ะ
ั
า
ิ
ี
฿
เ
แ
ไ
็
่
้
๏
๐
๑
๘
༄
ཡ
დ
ო
რ
ღ
წ
ჲ
჻
ᅠ
ᴍ
ᴥ
ḋ
Ḥ
ḥ
Ḿ
ṭ
ả
ị
‐
–
—
‘
’
‚
“
”
„
†
‡
•
‰
′
‹
›
※
‿
⁄
₡
₩
₪
₫
€
₹
⃣
←
↑
→
↓
↔
↕
↡
↵
⇐
∂
∑
−
∙
√
∞
∥
∫
≈
≡
≽
⊰
⊱
⋘
⋙
⋰
⋱
⌐
─
━
│
┈
┣
┨
┫
═
║
╔
╗
╚
╝
╠
╣
╬
╭
╯
▂
▃
▅
▆
▇
█
▌
▏
▐
░
▒
▓
■
□
▣
▧
▪
▫
▬
▲
▶
▷
▸
►
▼
▽
◀
◁
◂
◄
◆
◇
◊
○
●
◐
◑
◕
◘
◙
◢
◣
◤
◥
◦
◾
☀
☂
☃
★
☆
☎
☏
☕
☜
☝
☞
☰
☹
☺
☻
☼
♀
♂
♔
♕
♛
♞
♠
♡
♢
♣
♥
♦
♨
♩
♪
♫
♬
♭
⚐
⚑
⚛
⚜
⚠
⚡
⚫
⚽
✅
✈
✉
✋
✌
✍
✎
✒
✓
✔
✖
✣
✦
✨
✪
✲
✽
✿
❀
❄
❊
❌
❖
❝
❞
❣
❤
❥
❦
❧
➖
➞
➽
⟰
⠀
⦁
⬇
⭐
⭕
ⴰ
ⴳ
ⴷ
ⴼ
ⵉ
ⵍ
ⵎ
ⵏ
ⵓ
ⵔ
ⵖ
ⵙ
ⵜ
ⵡ
ⵣ
、
。
《
》
『
』
【
】
〖
〗
あ
の
゚
ア
イ
ウ
グ
ジ
ッ
ツ
ト
ド
ビ
フ
ブ
ベ
ミ
ム
メ
モ
ョ
ラ
ロ
ン
・
ー
ㄨ
中
乀
乂
二
優
国
备
彡
文
日
本
語
设
국
스
어
한
﴾
﴿
️
￼
🇦
🇧
🇩
🇪
🇬
🇮
🇰
🇲
🇴
🇶
🇷
🇸
🇹
🇼
🌚
🌞
🌟
🌷
🌸
🌹
🌺
🌻
🌼
🌿
🍃
🎁
🎈
🎉
🎶
🏃
🏻
🏼
🏽
👀
👆
👇
👈
👉
👊
👌
👍
👏
👑
💃
💋
💐
💓
💔
💕
💖
💗
💘
💙
💚
💛
💜
💞
💥
💪
💫
💭
💯
📌
📍
🔥
🔴
🔵
🔹
🔻
🕊
🕔
🖤
😀
😁
😂
😃
😄
😅
😆
😇
😉
😊
😋
😌
😍
😎
😏
😐
😑
😒
😔
😕
😘
😜
😡
😢
😩
😪
😭
😱
😳
😴
😹
😻
🙁
🙂
🙃
🙄
🙈
🙊
🙌
🙏
🚶
🤔
🤗
🤣
🤦
🤷
🧡
##ت
##ن
##ا
##ز
##ع
##ل
##ق
##و
##ي
##ك
##م
##د
##ر
##8
##S
##q
##M
##F
##e
##c
##g
##y
##ض
##ه
##1
##5
##ص
##ح
##س
##ش
##ذ
##خ
##ف
##ؤ
##ث
##ط
##ج
##ئ
##ة
##غ
##ب
##أ
##d
##t
##a
##i
##o
##n
##ء
##آ
##ٲ
##ھ
##ظ
##7
##2
##b
##L
##I
##A
##H
##K
##k
##٠
##x
##4
##Y
##0
##E
##v
##G
##Z
##3
##9
##پ
##6
##إ
##ک
##N
##u
##C
##P
##f
##p
##U
##J
##w
##r
##s
##€
##h
##j
##l
##ñ
##O
##R
##D
##ے
##ى
##m
##е
##з
##м
##😂
##ִ
##ז
##ּ
##י
##ר
##ָ
##ה
##T
##X
##B
##z
##🏼
##ی
##🚶
##🏻
##ê
##ٹ
##Q
##£
##■
##V
##W
##😇
##🤔
##ڷ
##ü
##ˆ
##μ
##ڑ
##ڈ
##١
##٦
##😉
##❤
##️
##گ
##🎁
##🎈
##🎉
##🤗
##😘
##ۈ
##ە
##×
##ں
##🤦
##🏽
##♂
##٧
##٨
##٥
##💔
##ä
##ہ
##چ
##ʁ
##̃
##ρ
##γ
##υ
##ό
##κ
##α
##σ
##τ
##ο
##р
##ё
##н
##ы
##ڳ
##ٱ
##ͼ
##̳
##٢
##é
##✋
##😭
##😩
##т
##а
##ۃ
##â
##😹
##٤
##♀
##Ù
##Š
##Ø
##😊
##👏
##и
##٩
##с
##п
##у
##́
##б
##л
##к
##🔥
##👌
##♥
##è
##®
##ٔ
##ã
##😎
##🌹
##🍃
##ػ
##в
##о
##й
##д
##ۡ
##۰
##ڤ
##є
##💚
##ٓ
##ۆ
##ڨ
##✌
##🇸
##🇦
##¬
##ו
##ע
##ץ
##▓
##█
##ς
##٣
##💘
##Ã
##©
##ч
##ٺ
##Ф
##💖
##Œ
##¥
##💗
##●
##☼
##○
##ټ
##ó
##ڵ
##ۅ
##🙂
##🏃
##ç
##х
##🙃
##🙄
##ン
##ラ
##イ
##ж
##я
##¤
##۪
##۫
##✈
##😀
##💛
##💭
##û
##°
##ۋ
##ù
##😢
##ć
##ı
##í
##ν
##į
##👍
##🙌
##ô
##✔
##😒
##ל
##ⵎ
##ⴰ
##ⵜ
##۱
##💕
##☕
##✨
##İ
##😆
##ี
##่
##🙏
##Ƹ
##נ
##ט
##ק
##۶
##۸
##👀
##⚠
##ι
##💙
##±
##۹
##ö
##۳
##۴
##۷
##š
##★
##ד
##ם
##😌
##∞
##ڛ
##ێ
##🌚
##ژ
##🇰
##🇼
##🇴
##🇲
##ٴ
##ā
##│
##π
##г
##⚫
##ร
##ั
##ง
##ก
##ว
##า
##อ
##ห
##บ
##💋
##🌷
##É
##😋
##۵
##א
##ٻ
##ۧ
##ڙ
##ې
##ڸ
##😃
##😁
##¦
##√
##Ś
##ь
##ח
##😕
##ō
##😍
##ڬ
##ڠ
##😏
##⁄
##ס
##פ
##ڪ
##ַ
##☺
##ę
##ी
##😑
##რ
##ڕ
##น
##ด
##̴
##̵
##❌
##║
##❀
##۲
##ा
##æ
##ת
##ğ
##ש
##✍
##ī
##β
##ʽ
##ڽ
##￼
##ן
##η
##ε
##ღ
##ø
##🇧
##đ
##ٿ
##ド
##フ
##ト
##ə
##ɪ
##ц
##🌸
##ú
##◦
##à
##₪
##λ
##έ
##╭
##━
##🙈
##ṭ
##ƒ
##🌺
##œ
##◄
##á
##î
##ï
##ڼ
##ۓ
##ա
##צ
##כ
##💓
##💜
##С
##ܐ
##ܠ
##🇶
##ۂ
##☆
##ʿ
##╔
##Â
##ž
##♫
##♪
##ë
##😳
##🤣
##ъ
##❝
##😐
##🙊
##👊
##ş
##💐
##Ş
##ۉ
##ஐ
##र
##ˮ
##😪
##۩
##ʾ
##↓
##ー
##ム
##ۚ
##ܘ
##ܪ
##ܝ
##ܢ
##Г
##♡
##💃
##🇹
##া
##😅
##어
##👇
##😔
##🇪
##å
##⃣
##ш
##🌿
##מ
##ג
##🌼
##👈
##💞
##😡
##ܬ
##Д
##❊
##←
##😄
##і
##ѕ
##இ
##̈
##🖤
##💪
##ά
##ⴳ
##ⵏ
##👉
##♠
##🤷
##ξ
##ב
##ڊ
##̶
##ω
##ί
##ū
##ڹ
##ۗ
##🌻
##̨
##ٳ
##θ
##ܕ
##ܡ
##һ
##А
##ţ
##🕊
##დ
##φ
##ή
##ツ
##õ
##☻
##ڦ
##ண
##ò
##ڔ
##้
##เ
##ย
##็
##ڭ
##÷
##ŋ
##☝
##О
##Я
##В
##И
##♛
##💥
##վ
##✿
##🌟
##≡
##✅
##ッ
##ブ
##մ
##̄
##▬
##☹
##ł
##Ö
##۞
##ۤ
##แ
##😜
##ア
##モ
##¢
##⚽
##̇
##Н
##Й
##ώ
##☞
##ख
##✒
##⭐
##द
##⠀
##┈
##🇮
##ă
##͡
##ۀ
##č
##═
##Р
##ۖ
##−
##ζ
##🇩
##Б
##ɱ
##😴
##ß
##ⵉ
##ⵍ
##ⵡ
##🧡
##̧
##✎
##̲
##ロ
##▪
##Ł
##Đ
##ǿ
##ś
##Μ
##░
##▒
##🌞
##►
##П
##̷
##스
##❥
##ミ
##ۑ
##ۨ
##ँ
##♨
##ۣ
##ⴷ
##ล
##ф
##☜
##ą
##🎶
##♩
##▌
##👑
##🔴
##❄
##😻
##╠
##न
##😱
##Ľ
##Ą
##Ç
##✓
##✦
##🇷
##💫
##⚡
##ď
##📍
##ۜ
##ڶ
##↔
##➖
##ږ
##ḥ
##Ð
##Å
##あ
##խ
##👆
##◣
##◆
##❖
##メ
##๑
##Ω
##ᅠ
##ї
##の
##→
##Ϡ
##☏
##М
##ƽ
##🇬
##◊
##ⵓ
##ⵣ
##⬇
##≈
##К
##☀
##ړ
##♦
##✽
##🙁
##ʃ
##ő
##🔵
##़
##↑
##ⵔ
##ȫ
##∙
##💯
##ะ
##ิ
##ท
##ף
##국
##❣
##ܓ
##Θ
##Ļ
##☂
##Ü
##☃
##ŝ
##Č
##ҳ
##─
##Ḥ
##ョ
##Σ
##▲
##Т
##ך
##ĸ
##ψ
##Ξ
##╚
##ジ
##׼
##⋰
##ウ
##한
##ო
##ส
##Ï
##ܔ
##🔹
##ۇ
##ả
##ஓ
##წ
##∂
##۾
##ŷ
##Є
##Ñ
##ม
##Ŗ
##ஜ
##ܨ
##̸
##Ҳ
##Ê
##್
##്
##⊰
##♕
##⊱
##∫
##ֿ
##◾
##ށ
##̅
##Ŧ
##▶
##♣
##✲
##♢
##ビ
##ڲ
##▸
##Ť
##✉
##◘
##ઇ
##ไ
##⚜
##ੀ
##҉
##▃
##▅
##▆
##▇
##▷
##✖
##৲
##♔
##◇
##□
##ĉ
##⦁
##Ғ
##グ
##◀
##🔻
##▐
##̡
##ベ
##ị
##₡
##Ψ
##⭕
##◕
##☰
##╬
##▫
##ⵖ
##Ʒ
##ஃ
##📌
##̊
##▂
##ѽ
##ⵙ
##ⴼ
##▼
##┨
##╝
##๘
##╣
##ೋ
##ਿ
##▽
##װ
##Ḿ
##฿
##ḋ
##⋙
##Җ
##♬
##ư
##ஹ
##∑
##ǁ
##₩
##◤
##☎
##▣
##ฒ
##↕
##ॐ
##╗
##⇐
##◁
##◙
##↵
##ಞ
##◐
##ʋ
##҈
##Þ
##ˉ
##▏
##╯
##ᴍ
##ऋ
##હ
##ஊ
##⚛
##✪
##ㄨ
##Ģ
##❧
##ৣ
##◂
##ஷ
##৵
##゚
##৴
##↡
##₹
##₫
##❦
##🕔
##ঔ
##♭
##๐
##◢
##ऊ
##ʘ
##❞
##▧
##┣
##⚑
##♞
##◑
##⋱
##ჲ
##֝
##┫
##◥
##∥
##⋘
##ᴥ
##➽
##ال
##لم
##لا
##ات
الم
##ان
##لي
من
##ار
##ية
##ين
في
##ها
##نا
الا
##ير
##له
وال
##لت
##لع
##ام
##ون
##ري
الع
##را
##لى
الت
##وا
##لس
##دي
##ما
##ست
##اب
##لك
##لب
##ور
##يا
##لح
ان
##ول
##لق
##لأ
الس
الح
الأ
##لف
##بي
##لو
##هم
##اد
بال
##لله
الله
##اء
عن
##لد
##لج
علي
##لش
##مي
على
##لن
لا
الق
##ائ
الش
##وم
الب
##عد
الج
##وي
ما
مع
##ني
##رب
##ذا
الن
الد
أن
الف
##رو
##اف
##يد
##سم
##رك
##من
##لص
##يه
وا
##لخ
##حد
##نت
##ود
الك
الخ
الص
##بر
##حم
##سي
##اع
وت
الي
##لإ
##قي
##تي
##لر
##في
##قد
الو
الإ
##عم
##دى
##با
##كر
##وق
##لط
الر
##كم
##يم
##رف
##حت
##اني
##لذ
##سب
##لام
##مر
##يل
منت
##عة
##اه
الذ
##يف
##كن
##يت
##لة
##يس
##رة
كل
##قت
بن
##بد
##خر
لم
تع
إلى
##لال
##جه
##لغ
##مع
##اص
##فر
است
##كت
##وت
كان
20
الط
##وب
##قة
##دا
التي
##يب
##دة
##سا
##صر
##يات
##بار
مت
##لث
##حمد
##شر
وأ
##حب
أو
##ته
##دم
##اج
مج
##رض
وم
##لية
##ذه
الث
هذا
ولا
المت
##وف
بعد
اله
##عت
##اض
اب
##فس
##وع
مش
يت
##كل
##در
##الم
وه
عم
##كون
يا
##يع
##حة
##صل
##بل
##وس
##نه
##للي
ام
##مة
##خت
اللي
##ارة
بين
وب
والم
##حي
##هر
قسم
##عب
##ده
تح
201
##لنا
##وج
مس
الذي
##عو
##ثر
##تح
لي
وق
قال
##خص
وس
هو
##اري
وع
##عض
##قا
##قه
##الي
##هد
##راء
##رت
##لز
##ارات
##نة
##مه
##رد
له
##رج
با
##رح
##وري
هذه
##لات
تق
وي
##بح
انت
مد
##رق
##فا
يع
اس
تم
الغ
##وات
##وض
##ويت
##بت
وان
##كان
مح
عليه
##مل
##وز
##ئيس
##عا
الى
##اح
اج
للم
##سة
##فض
عند
النا
الز
عبد
##ند
##ره
##قط
##كي
وج
تت
محمد
##عي
##به
##زي
بت
بر
##يرة
##فت
يق
والت
##ديد
او
تج
##بة
المس
اي
لت
##ورة
##er
##انية
تص
غير
بم
##عه
##نس
شي
##ريق
فى
##ولي
يوم
##اس
##طن
أي
##ظر
##ربية
أم
المع
##فع
المش
يم
لو
تن
##قل
هي
##طر
به
بد
قد
المن
ات
##وى
##وان
##ارك
مست
##كثر
إن
بي
##كس
##يني
ون
##ولة
المج
سي
##ميع
عام
اخ
وح
ذلك
##اي
مط
##از
##رائ
##ركة
لك
اح
اع
##يون
##دد
##وه
تش
##ربي
حس
##مال
##ليم
قبل
##وقع
##أن
##دين
##جل
##لري
الاس
##00
##طف
ومن
##ياه
وز
##قر
بح
##قات
تس
الري
كما
##زة
##كا
##بك
يج
الان
اش
الام
المح
انا
##ديه
خلال
##وال
##ضا
##مت
حي
##ثل
مص
##خل
##نان
##عر
##وية
##عل
##نية
بش
القر
ست
##ثير
##وله
##يش
نفس
##افة
وك
##صف
##الة
##رم
##طة
بعض
وش
##تك
هنا
##غير
##رام
##ذلك
الأم
##باح
##وك
بس
وإ
##راق
للت
##لوا
قلب
التع
##وار
كت
فيه
##ولا
##مد
موا
##فضل
ثم
##روب
##رس
##حدة
##ريد
##عاد
##تها
المص
##حه
##لض
##لآ
##راف
للا
##مو
##ئة
##غفر
اذا
ين
##ناء
وف
##جر
أب
##مات
بك
##اق
##قال
##وني
وهو
##رات
اص
الض
لن
للع
##بير
##ميل
##اش
الآ
يح
##ينا
##ضي
##رش
يست
##تى
يس
وص
##اره
##تم
##ماع
##هي
##لرا
##اط
##لاث
لكن
رئيس
وفي
##بات
##لان
##ديث
كانت
تط
##ارب
##يك
##ديات
##اريخ
للد
يش
احد
##وره
##ذكر
مؤ
فيها
##بية
##اصة
الرا
##جد
##يران
##سية
##عود
رس
##ابع
ولك
حيث
الشي
تد
##هل
بها
##ظيم
يكون
فر
##بط
19
##ياء
##كوم
تو
##حر
##الية
حد
لأ
##قب
##ضع
يد
##عيد
أس
##حن
المد
##مان
مو
##امل
##كري
وقال
اد
الإس
##on
شخص
يمكن
والأ
##الله
بالم
حتى
##كد
قر
##زر
بق
بأ
تب
##ادي
##سات
لح
##شف
##حات
والع
##نام
##قدم
##قع
##شي
##ضر
رب
##سن
آخر
##لامي
##عمل
##وح
لما
لب
##صال
##ساعد
بط
مخ
##اخ
##ائل
##ارج
اخت
حول
##لوب
##at
##طفال
خط
##انا
##ur
اق
تحت
##فة
كلم
التح
##يان
قروب
##اك
##نيا
مثل
##جت
عدد
ابن
المؤ
لان
سبح
لها
##ركز
##اله
ود
تست
مصر
##لاح
جميع
تف
واحد
وما
وسلم
##ديم
##هما
##باب
##يز
صباح
دون
فت
##ماء
فقط
حق
##حدث
##راج
سن
##ورية
##بع
##تر
##ينة
##ضاء
وقد
##راه
##وة
##صد
##افظ
أنه
أخ
##تحاد
##طي
##ابة
##زل
##الك
مجلس
مق
##ادة
##هه
##لاء
الأس
والس
##ظام
##خدم
مب
##جة
##خرى
عش
##فه
ملي
##كبر
##فل
انه
اعت
إذا
ليس
بالت
##طقة
شيء
فإ
##ليل
##وص
##ar
##وير
حتي
##جم
دي
خير
##مس
##لين
##as
2018
##لاق
ولكن
##انون
مطار
##ارية
##فاع
##ديدة
##جي
##قم
##لسط
##واء
##ليه
وكان
صور
##ائر
##اث
تكون
##الب
تك
وات
##حيح
##عمال
##صول
##سبة
تخ
##غي
##راك
##زك
##يام
10
اف
##ابات
ولي
هناك
لج
جن
والح
كنت
وخ
##الف
نت
بل
الوا
##عار
##رها
##ارس
علم
ور
احت
##صة
والا
اني
اكثر
##عاء
##سام
##فظ
أع
##ختلف
بلا
##ديو
بع
##قيق
##كتب
مك
##حا
##ريم
التج
فان
##قتص
المخ
تأ
المغ
##دام
##ريف
دا
يقول
##تويت
يو
إلا
##ضيع
##يري
##لها
##وط
##قول
##نين
الصح
##حك
##سر
##كومة
##جن
مم
##ابه
منه
ري
##زم
ترك
ولم
احب
##روع
كيف
الال
##عضاء
##ger
##وضوع
##ضاف
شركة
##اته
الجز
##نيه
وقت
##امج
##ذي
##عية
##نامج
المو
sur
##لظ
##سبب
حال
بان
##الح
##نى
##ظم
##روض
للح
##قبل
رج
لنا
##قى
حز
##in
11
##شت
تر
##ريك
لله
200
صح
##لقة
الاخ
نف
##هلي
##ادر
##or
لق
##جز
المط
مبار
##زيد
محت
البي
##لاج
اغ
##لاب
وط
الظ
للب
##ولى
##gery
المم
منها
الفر
أص
##فق
يص
05
بج
الأخ
حين
##سه
##كو
هل
فلا
السي
عبر
##الث
الرس
##ولية
##ويه
##وقف
منذ
##ريب
هم
##لون
##لوم
##دارة
وهي
##وائ
العم
المر
حم
##اضي
الوز
##نسان
عمر
##يج
##ودة
يارب
##وريا
قص
##انيا
والش
ضع
##غم
##ظيف
##اهد
موقع
##واصل
سب
##هو
##بيه
##يره
##زيز
يخ
##ارت
##اا
##قص
وجه
##الد
الكت
جدا
##ميز
حيات
##جهزة
كثير
تغ
يب
##واب
las
عنه
##داد
##اعة
صد
##بيب
عالم
##كتور
عليك
لهم
##اذ
فقد
أبو
بص
##جيل
##اتب
أحد
بما
نص
التص
##وث
##يادة
##es
مي
##an
للس
ثلاث
التن
12
##اتي
##راض
طلب
##نك
##راد
قط
##وء
##حق
##تمع
##ئي
افضل
##ركات
فع
كبير
بإ
##كره
##وش
##للغ
للأ
##يرا
لع
##روف
##ئا
الصف
نس
اللغ
##ليات
ربي
##ائق
14
يتم
##احب
##ميم
لات
##لرو
##ولار
والإ
اط
##ينه
الجن
##خدام
انك
مر
والد
بيت
لس
بشكل
للج
حا
##اركة
الرو
اسم
##ائية
أكثر
صلى
اه
عمل
شر
##لمين
سيا
واست
##ac
##لاف
15
##عين
ار
فال
دائ
أش
##en
إس
كم
##أس
##سين
##فاق
نح
نج
##بكية
##ياة
##أة
عيون
والن
##اة
##حاب
بأن
والص
يط
##وبي
رسول
##ائي
قلبي
مات
عد
##ذن
شك
##عات
التس
فإن
لإ
##لاد
##وسط
فا
الشر
لأن
##مام
وانت
##خذ
##زه
تلك
صف
لمن
جديد
##ضافة
##al
##داء
##طية
##باد
ضد
##امعة
##للا
عق
اليه
العق
والج
##طني
##ويل
##لهم
اث
##وو
مث
ير
خاص
##خول
##ساب
الخط
رحم
##مبر
وزير
اخر
مما
يف
خدم
أف
نفسه
##انب
##وتر
##دينة
اول
##رفة
الحب
للش
##سبوع
##جات
##الى
##شار
ذكر
##انات
الاع
المه
##نع
##اما
##زن
##لاه
ريال
##صار
##حث
##قاف
أيضا
##اعه
##جب
نها
سلم
اللا
##حمل
بنا
##امة
بخ
بدا
##زا
رقم
##ريه
##قاط
القص
وذلك
##الت
##ونه
##ذر
ارت
رم
##is
##بيض
##لكة
حساب
##نج
##موعة
##رائي
##طار
ضعف
##دف
حب
التق
باب
الات
##زق
شع
الفي
ey
طريق
##خرج
البر
يجب
لكل
ماي
قائ
##ساس
##يدة
##فار
##اعر
يؤ
##om
##لل
##يين
للق
بسبب
##للب
كن
مكت
##روس
والخ
##بدا
##ورات
##لعب
ومع
مكان
##الات
صوت
##المي
لش
كتب
فيما
##هب
##وفي
مغ
##ضم
جز
##وجد
اللب
ابت
##يده
##راب
##سط
##واج
##ساء
##ناه
عدم
طب
##عاده
أحمد
الحر
خلق
أبي
داخل
##ذك
##ونة
والف
إلي
بالن
eye
مركز
##تين
سنة
##ثم
يعني
##هاب
جه
الرح
##نوات
##قف
13
اجمل
##عداد
##ضة
##انيه
جمي
##طق
##ظهر
##شد
نحن
زي
##فاء
##ائف
وانا
الحد
الإع
عرض
##طيع
##am
وهذا
وين
##ديل
بكل
##ئه
وحد
روا
وجود
##ياد
ولو
بدون
عز
العس
شهر
واب
##باء
ريت
أخرى
##امي
الفت
##مين
رص
نب
##وتي
أد
اكبر
##قق
##ولو
##غط
##اعد
##فو
##ائب
الآن
عشر
لد
مساء
والق
وأن
فقال
نظ
حسن
يحت
علا
الشع
##قدر
صاحب
##ذب
##اعات
##شاء
##عاون
##راح
##جا
18
##اكل
نعم
فأ
الحق
عين
نوف
##انه
##ion
جمع
##يق
الاد
نق
قام
العد
مه
##طا
وإن
را
##لفات
##خب
حدث
الاش
##تنا
##بيل
فض
التش
كي
دين
16
##كرة
##ظمة
##كية
##ئية
بلد
##يدك
عس
ينا
##تهم
عاد
نش
##ورد
وغير
ابو
##صي
##ديك
##ريط
##تمر
قت
حديث
##يفة
##شق
ويت
أول
2016
##رير
واس
يعت
##حبه
لكم
الأن
وتح
ته
التى
قب
كب
##ورا
##ياب
##عادة
الطب
##ونية
##قيقة
يك
HD
القط
##دق
مف
وعد
بار
##فيذ
أق
كتاب
الاح
##اهرة
منهم
##واد
##ic
أما
انس
##مية
##طال
##خاص
نشر
##طه
وث
وكل
التد
##ابل
رح
##لحة
##وما
والب
##هلا
وضع
##شة
##جع
##صرية
##ميس
##كمة
##شن
قلوب
##act
##واع
##افظة
##بلي
زد
##مني
خلف
خاصة
##باس
##ضو
للن
نحو
2015
##يانة
راح
ذات
حما
انف
ههه
##صور
الرج
بغ
أمام
منا
مره
##رنت
##يدا
##مهور
##باط
مرت
##يمة
##هدف
##ميه
مبا
##ضح
##روح
بو
سا
17
##ابت
عائ
##ضايا
25
##آن
وتع
##زين
##رين
رأ
رد
##اتف
##ليا
جاء
##ضور
##بيق
##صب
الجم
##طاء
أغ
##ريقة
الأد
انها
##جاز
كلام
##يبه
للف
اكت
مز
نادي
امام
فريق
بالإ
##افي
مض
##امن
ينت
وار
##ورو
عاج
##ربة
##لكتر
##وعة
##هاد
عشان
##ضية
##لول
يغ
##ويتر
مسؤ
اشت
##برا
المق
التف
##ارا
فوق
##جاه
دور
دعم
الحي
##وبية
##قاء
بنت
بالع
##موع
أح
قوله
##ماعي
لغ
وليس
##ابعة
الاث
30
حزب
مدير
##ed
##سك
##شرة
##ظه
##ياده
##زال
خص
احمد
حلقة
خالد
##ركه
##قتل
نا
اجت
وض
##وبر
نع
الاف
##حراف
ضمن
##نسي
لاعب
قدر
سوف
تنا
##ادم
المب
للر
كام
##وده
حسب
##زمة
cat
للط
##رياض
##هرب
والث
##ولوج
سعيد
نفسك
محا
##خي
##لني
##امه
##ضان
سر
##هداف
##عى
##رحلة
منك
اك
قدم
جمال
مسلس
حص
رغم
##11
##وبة
تؤ
سوق
##ولات
للك
##قيقه
امر
رائ
##it
مجال
تعلم
2017
نظام
##سباب
ني
التو
در
##طلب
سيد
##ائج
##يته
##اصيل
بالح
وسي
##ومة
##ليز
عنا
فن
##رى
وعلى
ليست
##ادث
##حية
الكم
##جراء
##ارف
##لاة
التط
##ستان
##هير
نفسي
ملت
##هاز
##وها
بالق
##em
حلو
فولو
##هيله
ريا
##ابي
##رفع
خلي
إت
##لته
##20
##للج
##الا
##سل
##نب
أهم
##همة
##رامج
والك
النج
داع
توا
##علق
نور
صالح
تعرف
ملك
##لوك
##ونا
##طان
از
وغ
بير
##للق
النف
##نف
##شا
##رجع
24
باست
##ريح
##اتها
##ؤال
##اهر
اللج
فهو
##غب
اهم
##ارع
##ik
##ستر
وبعد
جد
أنها
يكن
##ربع
جميل
أفضل
##رهاب
سم
##زب
##st
إع
للإ
بعيد
يعرف
##جهة
بب
بالس
رجل
خارج
##نسية
الها
حبي
##بليغ
اللق
##ولد
##ونس
السف
##لما
##ضرار
شه
##ائد
أث
##فعل
##غل
رحمه
##بحث
عنها
البن
ألف
بلغ
ابي
معه
##غيير
للص
لقد
مهما
##ro
يحب
تقدم
100
مبرو
اختر
يه
معا
##قائق
بالأ
##انى
##طلاق
##جاج
أج
كال
##ديق
أجل
##لائ
##بيع
##يلة
##وخ
نقل
سير
##كرية
روح
أنا
دعو
##ad
##بدأ
سلط
حقوق
حكم
بالك
اض
##لعاب
حاجه
اما
ند
لدى
دولة
##طب
القد
مسا
المف
واج
أمس
التأ
##اهدة
##رشيف
جع
عقد
تض
##تمام
##وين
بوا
باسم
##انت
حر
##طلق
تعت
بني
##قطع
وبين
ول
##ويد
بالد
شكرا
##سد
زوج
##شات
تقوم
##اهل
##ذهب
##اده
##خصص
21
##سسة
موج
تحب
قلبك
##لمه
ناس
شعب
اقت
ساب
##روج
##ؤون
##ومي
حالة
لز
قطر
##انة
الأش
##شه
صل
سمع
بات
جما
اهل
محم
عرف
قلت
##يار
دم
##وسف
وسط
وهم
نز
تنت
سعد
##ناة
مرة
فيك
تقول
##قافة
##درسة
البط
دول
للو
عاما
فرح
يريد
الهي
درا
##ثي
سكس
##ميد
##ولك
المك
يوما
الإم
##ont
واح
##ومه
لعب
الشه
بالخ
ممكن
انش
قول
صحيح
الجه
##ابر
بنفس
عاجل
رؤ
##le
22
##سمع
##عيم
##99
ph
##ديا
يقوم
موس
##اقة
##ماد
##فات
##كار
سنه
رجال
بقي
##ريض
صلي
نوع
ولد
الوح
##ربه
##روط
##ولت
##جان
وير
مان
##نون
تجمع
وام
إليه
سليم
##رر
##راع
والر
##ولين
##ليق
##راقي
صار
لص
إتصل
يأ
##ريقه
بيع
لتح
لدي
الفض
الاب
##عوذ
##وضع
مسلم
واف
وعلي
##قرار
##واق
هدف
فتح
يض
مال
ليت
امن
##بتد
ايه
المز
الاص
##ريكي
افت
##لمات
تكن
تز
محد
روس
##هاء
أهل
##ريده
##عرض
com
##اول
إب
##ent
##اعت
##شرين
##يط
فق
##سبه
##سسات
##قبال
##عزيز
يوجد
php
استغ
##ادل
شيئا
##علم
طيب
##رع
##BB
##يمان
مار
##ميزة
##ve
تا
صوره
##ئات
لاب
مشك
##قية
##تيار
##لكه
##re
##وبه
00
بمن
##ظة
##لفة
##قيم
##ليف
طال
كون
##شك
##قسام
لذلك
شاء
هال
بيان
##ri
خدمة
دع
لقاء
##ذاب
بناء
سف
##كات
اليك
##بره
##جاب
##جار
كله
##عام
القب
إد
##ارض
وآ
##55
حاج
##كه
##انوي
##قرا
##رضي
##ريبا
##اليه
##راس
##تا
##دية
##لدي
طبي
ايام
##ظائف
الأف
لاي
بدأ
حسين
ويس
##افع
##حل
##ec
سلام
جانب
23
ملا
##افيه
باذن
##ويا
كافة
2014
جنوب
قرار
دوري
##دت
فه
##هداء
النص
بف
##يرات
يوسف
رضي
نتي
النب
##ؤلاء
##لرب
رسم
##ويس
##وضح
##ويات
أمر
قوات
وعن
ركن
كر
##ينما
الحا
سيت
##هام
##ينك
بث
##ئب
##شفى
وتم
عب
##رفيه
##ريات
##ارق
##صه
سواء
راب
##بخ
إذ
بالش
##ريا
أيام
##بداع
وصف
##وجه
أعلن
تلق
كشف
بور
سبب
عباس
الاج
##سيط
##كتر
الذى
امي
ارحم
أنت
##50
أكد
##ائه
سك
##ناك
ده
عط
سام
##الغ
رفع
والط
سعود
بالج
##بكة
##املة
مني
ترا
فك
##وغ
وتش
دبي
الاغ
##يوم
##عون
السر
2013
عدة
أكت
##راضي
##وفيق
دار
##لبي
##ليك
رك
بهذا
##ائم
تدري
امس
عص
الأع
علاج
##اصمة
درج
اجل
وحده
##نسا
كثر
الرب
##et
حرب
للخ
مفت
عني
المث
##oo
صلاح
طالب
شاهد
نظر
أكبر
حل
سبت
كلها
##طات
شمال
يعمل
##عاية
##ارد
بنات
ربنا
كلمه
الدم
وطن
##افه
واص
احبك
##ing
لف
##سجيل
قل
للي
إنه
برو
غدا
199
رو
والغ
##اتك
معت
النه
وتن
عي
##عرف
فمن
قالت
##ياس
##ئاسة
شباب
ظهر
شئ
يعلم
##حداث
الحم
الأح
##الج
##ساد
كامل
##رحيب
راس
لجنة
ايضا
لأنه
##يفه
كذلك
شعر
مقد
##قيت
تري
##ou
يعد
نقط
26
عنك
معك
##اصر
ذن
##دينا
##مرار
لهذا
عروض
##هور
##كة
عربي
##حف
##فسير
هاي
كث
##10
حض
##خة
##ردد
جدي
##جوم
##شرات
مشت
بالا
معد
اعد
سعر
داعش
##عليم
co
##راءة
طوي
##رافي
ويع
نسي
جري
##لديم
فهد
##شفي
أت
##ادرة
يصل
مساب
عيني
اجعل
تعد
##طلا
50
##لمة
##شره
##كذا
##مم
ويم
جام
وبال
خلا
صدر
##ذار
ليب
لاست
##بدو
##فرح
##واطر
##نات
##واز
##il
رغ
##رمين
وتق
ذا
مرض
مهم
لط
##كيل
الإد
ابدا
##قين
##كين
شا
مرات
خي
ممن
##حمر
التخ
##وصا
2012
27
عج
لاح
قيم
##للح
ساعه
ماذا
28
##اميم
##قامة
##يتها
تمت
##ريكا
##راحة
فعل
فلو
وتت
اللح
##يفون
مدون
نست
##زام
سج
فيلم
استش
##he
وست
##ot
##رفه
##حمه
حفظ
##متع
##واف
##ايد
##ابعه
فما
تعرض
العن
##ظف
##امر
يز
##ضب
##66
ومت
##وبات
واخ
غزة
##ندي
للغ
##افر
صنا
##اية
##امين
##والي
##ناب
##ريع
برا
##حين
##فيد
هد
##ثة
##غيرة
ولن
##ليب
##اريع
##۞۩
قطاع
اصبح
بهم
##um
نصف
##ra
##ضمن
عيد
##ثمار
يمن
##كلم
واع
خبر
تجاه
##واجد
راج
بشر
انته
جزء
ورد
##لور
##عك
##قيل
##سمبر
قرب
سما
معنا
نه
##يح
##كال
دخ
##حص
البا
##ردن
وصل
تعمل
ظل
##شيد
شكل
##نيات
2011
كلمة
تريد
##ظار
##رفين
قتل
الاز
حركة
##ريل
التم
##غر
السب
غياب
جنيه
جعل
بري
##وجيه
##سان
##كرم
ويب
##سيه
مين
##افحة
سجل
الأص
بذلك
##سمح
مالي
يذكر
تذكر
قض
##بيد
السن
##راجع
##ئيات
وفق
حبيب
##هن
عضو
##el
جده
سوي
لخ
التغ
وتط
واذا
فهم
ونحن
##لفزي
جي
مارس
البد
##اسم
النس
##77
##غيل
دخل
إست
رفض
هاتف
إي
باك
##شل
التر
##سون
##فاوض
ونا
##جلس
##ثار
جم
مخت
جلس
##فاف
##لمان
##30
لاين
##كير
##ورك
##طع
بلاد
##لاك
##سبات
الفق
بمع
الدي
كف
##ol
ضر
##رائب
##برز
of
##غال
ها
الشت
##يتك
بالب
##ورت
يال
النق
طول
##قاش
##راعة
##صدق
الأط
اذ
بدر
فهي
##12
##فيق
مالك
دورة
عاش
واد
وله
##قيقي
مظ
40
##ربعة
##id
سين
معرض
احسن
##لمي
بنك
##امت
##درات
##ضه
##رجم
##ذة
متن
##وشوب
##عاب
عندي
##وفير
##ندق
كلية
بالص
##nd
##ماية
ستار
مصدر
نصر
##رجمة
##عيش
سبيل
##وعه
##ونيو
امت
وفر
##رسال
دليل
سعو
معي
##رسل
##انك
وعم
مادة
##داول
يزيد
نم
الرد
##يفا
##واك
الأز
##ub
29
##فاظ
ليه
بز
##ئين
واعت
وعلا
ارض
##اتهم
##لرائ
كذا
قوه
##ائرة
##سيس
##سف
وذكر
فلي
لهذه
##ائع
##دير
دخول
تجد
##60
صلاه
##وفر
##يور
##آت
سؤال
وتس
تي
##ابية
قم
##واه
هت
##تاح
##لابس
##أي
صغير
دروس
##هران
##33
واله
##قلال
غيرك
اغفر
##باك
وقف
##ستاذ
##جرة
##88
لين
##شلون
انتي
اون
##وزيع
##ادات
قصص
##ادت
لكي
راي
##اوز
##نيف
##فيف
##تيب
##اطر
##قته
##ساسي
##وسي
##ذف
حنان
يسعد
##غة
##باق
عاي
لر
موت
##اريه
فوز
خمس
بتح
آل
كأس
##ريس
##واعد
يحدث
##بحت
##بارك
عظيم
يولي
ماء
##حكام
##كيم
##ادية
2010
۩۞۩
##ثمان
##40
منز
بسم
لتص
ومش
الفن
لوحة
أط
##راحه
تغير
كلا
تقد
صورة
خس
##وارد
##رفض
##لامة
##لكم
##صح
##شرح
نائب
وعند
##رية
##يي
عمان
##زو
كرة
ربما
##ناق
##ov
##رار
يقدم
الرم
##تني
نيك
##ويق
قلي
##طور
أمير
حياه
عامة
بكر
##اطق
سالم
##مرة
للمت
##ودي
تحكم
هيئة
##لتي
فترة
شهد
##ارير
##رقاء
وأكد
احدث
مجرد
##خصصة
##ظات
##نائ
##هادة
فات
##الس
##فن
انشئ
جب
##وام
تابع
##ter
اقول
حظ
##قوق
مقر
إم
قاعد
##سس
خال
نقطة
##اعي
يحي
امين
##صري
إنت
موقف
##كسر
##واجه
كار
##80
##زع
##برى
الخص
##سو
داخ
بمنا
مميز
تمر
تتم
##قيع
##مئ
وبر
##فرات
كلما
##مار
خيرا
رواه
قطع
رأس
صعب
عت
واش
##واح
لانه
معظم
كس
الاه
امير
##بيت
بشأن
##ريت
عنده
##ناس
ألم
##حو
خذ
دعاء
علوم
##صاص
##ندوق
الشم
حدود
يلت
المي
بالف
تونس
##راز
##ئلة
##يدان
لازم
مكتب
دام
ورب
حمد
باقي
رف
جهة
بأس
##فيه
واض
اضاف
الأب
فخ
لذا
اعوذ
##راكز
ميز
قناة
##لوما
شعور
ماب
وجد
شرق
عندك
الست
##قليم
ياب
##ذية
سه
شارك
##غا
##غفار
ميت
عف
##بو
الإخ
بخير
##ومات
##كريم
يرت
##22
01
جهاز
ساعة
نسبة
أمن
جيش
##جمات
##ليون
طرف
كفر
صاد
خرج
البح
شرح
##ذج
وتد
##19
فاع
كنا
##جاوز
##اجه
غيره
##ونها
انهم
##فاض
القت
##44
قبي
055
جو
شيخ
حلم
الور
##000
##ريعة
حصل
##vis
عبار
جان
##قتها
##بادل
بحث
##ائدة
##ولون
##قييم
بهذه
بالط
زين
##ريبة
مايو
##حدى
جزر
محب
##ow
##كمل
##ارضة
##كام
##جتمع
اعلم
##ندية
ملف
##رقام
##ياج
الحس
##ونت
وعدم
##بين
تحمل
##ذكار
##ave
ثاني
معها
طف
وتص
##لورد
حرف
إخ
فلم
##ائري
##افية
وو
شبكة
##فى
صن
الكب
##قوم
حواء
##ؤمن
قيام
عما
كري
يعود
أرض
in
صدي
هن
الحج
##فال
شاه
31
##ورين
اخرى
حمله
عمرو
##مسة
رياض
فح
للنا
بأنه
البخ
مدى
##70
بسر
##ومان
##رائم
فار
السج
##كيد
000
##ونك
كاتب
برج
عرب
وراء
شف
##ثبت
##قام
مقاط
لعم
##اليا
##حتى
كاس
لمدة
##tt
##ظل
تحدث
##فية
مرا
صدق
##معية
##طقه
وإذا
واتس
##شنطن
رق
مقتل
عباد
ومر
فيصل
##طين
قضية
جاه
##نتين
الجو
نجاح
تمثل
##رشح
الهم
هكذا
عنهم
موعد
##طفى
السم
جوال
عض
نقص
##ائزة
ذكري
انق
##سيل
##خلي
طلع
شوف
##بقي
الأغ
غرب
رشد
ارد
فإنه
فس
##دينه
ومس
##سطس
2009
المض
الته
##ورج
الصد
##عيه
wave
يجعل
45
##ومية
لكنه
##ربيه
##وحة
##اند
دمشق
##جير
ملح
##ثلة
احفظ
##نم
##ائح
##صاب
دفع
##32
النش
ينب
أه
##غان
غال
الغذ
09
صحة
##سمى
##ويج
##صابة
##كاوي
قرية
##fr
بذ
شن
كا
##ag
الكل
مؤك
ويش
ايها
ديك
قاد
##وبا
توك
ناصر
نعمه
##طرة
##سيا
نط
##هههه
صب
زمن
واخت
اننا
##ألة
يعيش
بهدف
ويا
والز
##ودا
وحتى
يبقي
##وته
##زاب
##اااا
تجعل
##لرك
سيتم
##تش
قامت
لمع
##اعم
هذي
وتج
##حده
اعرف
كريم
معهم
##ركم
تصل
##كته
بالض
شو
والذ
واق
مدر
حجم
##لتها
يقال
قليل
##ضير
مناف
##واة
عرش
##لامه
ربك
##نادق
كلنا
##صيل
##رامب
أشهر
يام
##رز
كلي
متي
أولا
##ربات
مرس
اسعد
وقع
صديق
قيل
اعلن
##وقات
35
##طح
هام
حضور
##حتاج
ذك
عشرة
07
أنك
02
##ليش
الوج
##شاف
لتن
لام
تعيش
فرق
##الق
وفا
بالر
مقا
موسى
اين
قريب
بوت
حياة
ورا
وهذه
##واني
يقت
##وهات
تصبح
##صدر
بحق
فرج
ويست
##ttp
عمري
أك
وتأ
##خاذ
خلقه
##لبية
60
حفل
قناه
الل
فإذا
بسي
##ارته
ممت
##وعات
موسي
08
##خرا
##غرب
الرك
##يمه
لاع
##حيل
النت
بحي
##شفت
##ميات
عادل
##جين
ترت
##ضيق
##دون
اشوف
##لبه
Re
ماهو
شراء
طا
##15
PM
عذاب
شرك
فرض
فب
توقع
قائد
##سيم
##احة
##للو
##per
##us
فيني
رضا
وفقا
عقب
مافي
اجع
برد
##رحمن
rem
الوق
لنفس
http
##ائنا
يدخل
##ch
يخت
##ظن
جا
اسال
سود
اسمه
قوة
اعظم
ودي
06
##قيات
لعد
لديك
##كادي
##سامه
نخ
##امات
##ai
##حيط
ليش
##مير
لسنة
تعود
يهم
##وائد
##فرك
مارك
فعلا
تبقي
مواد
واحت
##os
##راغ
##لفت
##18
منع
##يبة
فج
##قوط
رض
##حدد
شات
##وعية
##صالح
##بول
إيج
تاي
ليزك
مقت
ضمان
##ثمر
إش
درجة
دف
##ay
اللو
for
##فعيل
مها
لحظه
##قاد
مدرب
ألا
04
نمو
لكرة
فكان
##رجو
##وجود
جنود
##ig
##صلاح
سلس
سبق
##روق
##لقي
##ويتي
##انس
##ذاكر
##صبح
ومست
##خره
##برة
بدأت
ويح
##باه
إطار
##أت
198
خاط
سكان
##لقه
طائ
بحب
مرح
صلوا
##صا
عادي
زايد
احلي
دوله
النو
##اتم
شروط
راف
##وطن
وصلت
جيدا
ونت
##وجب
##طط
##عوا
تدخل
قيمة
03
بيد
تعا
##طلع
##عامل
بريط
شفت
##ؤل
##خم
أز
العب
##ثق
##لاند
حبك
زمان
صفحة
32
##طيب
بعم
فلما
سوء
##منى
ثنا
رش
##للوا
##im
##فذ
##ذيب
بدء
##قلة
جاز
##عن
سوره
تلا
##ia
##ياز
وكيف
يجوز
##اجر
زاد
##ائمة
ذهب
##فرق
تتح
الإن
##صلة
##62
##شطة
مرو
ويد
تبي
الوس
##عث
حاول
الذه
وحدة
لديه
##قتك
##سبق
بالغ
احس
نار
بض
واي
##حاء
بحر
حلوه
نبي
بحسب
##لوس
يحمل
ليله
##منة
##عمار
سيف
##قس
مثلا
##وارع
##سطة
الرؤ
النز
كده
##وسع
اثر
##براء
قلبه
حف
##لوي
عهد
الجد
##اخذ
الجب
##وفق
البش
##lam
##65
بدلا
ياسر
اجر
سوى
##فسهم
تملك
منظ
النظ
شريك
فاز
واقع
شبه
طلاب
ستي
##ربت
يبدو
دعا
شرف
العا
تعلن
##فرد
##ثال
امل
احنا
##تحان
فيهم
إحدى
قصر
##الجة
وأع
اليد
##نها
خز
ارزق
cost
أخذ
نوم
##rip
اخذ
فين
ذي
غرف
##كرر
##ائيه
##خيص
##ضات
يرد
##جهزه
##وافق
##زوج
##رص
هند
شخصا
##ئك
يمت
شاب
##وعا
##شرق
##طل
##نيين
##رضا
هلال
##راوي
يار
وبعض
هون
يظهر
نقاط
##خيل
مطبخ
##صير
الطف
##طاع
إنما
##درية
##ربين
يفت
##خه
##ng
##ائها
لعبة
##جران
##نوب
##برنا
ومح
تنس
فرصة
الرق
##ضل
##37
بتع
سأ
فص
اكتب
##جح
##ئيسي
الخي
##ائن
فور
تشت
##ab
موض
التك
2019
##17
سمعت
شم
##صات
تسا
فانت
نسب
##ائة
زع
##ظيفة
كره
حماس
##ايل
تمن
أصبح
جنا
مهمة
شركه
ثالث
الزي
##لسي
بذكر
نشاط
يوتي
مكه
##ماس
عاص
##حته
##بكات
##صدار
##ظلم
تخت
موق
##برت
حادث
فري
شؤون
وذ
سري
رابط
أنهم
إف
##ارى
فرص
طرق
نجم
##روت
سات
##روه
##ورى
شكر
الحل
يرج
باع
وبا
الكر
الأق
يكتب
سناب
باعت
للز
36
##ياط
يكفي
وتف
##اربة
لند
##انع
##زاز
وأخ
يلا
البق
بمح
هما
##est
ترب
##قديم
قنا
##خفض
##فرج
عا
خش
2008
##بهة
##وادث
ناف
##ليزي
تنسي
سعاد
فلن
شأن
##قاذ
##ائك
فضلا
حقق
وبد
##قيب
باي
زيت
طفل
ثقاف
##راءه
باس
لفت
##مالك
يحصل
يصبح
##نيسة
ادم
##كب
وجل
##35
بعده
##طلاع
##ew
يبحث
##ونات
سال
##ظي
##وست
رمز
فكر
##قرير
لغة
##قلي
47
بحيث
In
قادر
##ضيف
علما
##وتك
يمر
عمي
##فون
ظلم
هز
مير
##راحل
يأتي
##لالة
أقل
##قلت
وترك
اقل
امه
##ارنة
AM
##خال
##ماكن
##غو
##غار
ذه
راحه
حافظ
##فادة
يملك
##يخ
##حقق
##ناول
توفي
نحب
دير
حكوم
##يسى
ميسي
يدعو
خادم
مجد
تمكن
الني
##اهره
##ياك
شت
جيد
عارف
##طوير
اصدق
ولما
منكم
ماد
الاط
واضح
خمسة
##دخل
منح
الخض
عال
##نيت
العز
##جال
كيلو
##عددة
##طيط
##ورها
##وهم
يمثل
##ياتي
ورش
##كالة
تسلي
الحض
##ئت
هاش
لعام
##للع
الأج
##رافق
آلاف
33
يؤدي
##اوي
##يء
بغير
##واتف
شار
##ir
رأي
is
##بياء
عزيز
##ذل
pro
##حيان
##شرها
بلغت
حنا
ضبط
##اضر
مجه
محطة
##فد
شارع
الدا
##25
الأو
##جهات
##عها
لغير
تعب
العج
لدعم
##طى
كبار
يشت
تشوف
##ويش
انج
بدي
##واي
##هيون
##ضعف
قصة
##عتبر
##بايل
197
##تو
##زان
اللع
تفا
تركي
##وضاع
محام
نجد
##باع
##خصوص
يتح
##وفا
إح
حملة
ويف
ابد
يؤكد
##علام
##AR
##ox
تظهر
##قدام
##og
ليف
ولق
مقال
رائع
بكم
##صرف
دعوه
حاله
صدور
34
##سمه
##ضى
الفع
##يمات
وصول
صدري
وعدد
##بيا
محل
فارس
عون
##خلص
فصل
الظن
##عتها
حكا
##حمة
##ندا
##عان
For
يون
حلول
##لوان
اكس
شقق
##اشق
أى
همس
لندن
فندق
##ظاهر
تعبر
سان
##صفح
##لقا
##ظبي
تعلي
مكة
##16
جورج
ضحك
75
##اشد
ورو
D8
اشهر
##مادي
##هره
نن
##لاص
إنها
##ارين
##مره
##جية
##ارسة
##ديده
##غراف
تعال
زائر
مجلة
صلاة
وجع
##ثه
غرفة
اكون
جون
ولع
مراج
جبل
##شاب
والآ
##تكم
ربيع
##ابلة
أر
ملعب
لض
وزنه
قوي
شوق
##اتل
ضي
دنيا
##نوان
يلعب
فم
##اهده
##سع
نجوم
##ثيل
يحفظ
ذنوب
العص
ففي
##سكر
##وزي
##لقت
عود
##اغ
تحس
St
##ada
##ثناء
##ليد
##ثرات
زيد
أست
اختي
يموت
##24
عرشه
للتح
70
500
رغبت
ناد
يفهم
Trip
80
غا
وأما
##نته
درهم
بلو
بوك
برس
حبا
ارب
لست
يجع
كفا
##op
جلب
##ish
والي
##شين
زم
فش
##Ad
ويج
##نيك
علو
##درس
طرح
روحي
##افا
وتر
حط
##oc
يحيى
تور
##ثور
وتب
فتره
##لاين
##وسطة
##قرأ
##داب
حام
توفر
يجد
يخرج
##ساط
وجاء
خطة
عمره
##ديان
نقول
##14
سيدي
اجن
وجهة
##قصى
اولي
##نتي
بوس
وتست
حوار
ندعو
##عدام
وكيل
##ينية
مأ
اراد
##لسان
##جرد
ذنب
##زيا
##اصل
##38
لحد
حلب
مبت
##شى
انما
متر
توقف
Ah
##ناف
##سى
##أنه
##اتنا
فاط
قدي
محفو
##لعة
صوتك
يبي
يشعر
جابر
##حط
اريد
والض
مياه
##لقات
سوا
أرد
غلط
##وقرا
بتن
انتم
بام
##خفاض
معاك
ذكره
داي
حزن
معين
قروض
##تان
عطر
صع
وأنا
يزال
##حايا
##جاح
##اتكم
ليلة
##90
جس
##تيال
##ضمام
ياتي
فهذا
##فرض
يبلغ
فرع
##ينيا
37
ملاح
منزل
##سمة
لاج
ضح
ساحة
ضغط
##لقى
##الدي
##وقت
فاج
خطر
سابق
غريب
ضيف
##خير
##ut
##لتك
أعلى
حرام
اقوي
##يدي
##34
مول
##▬▬
سبع
##ليس
وأش
للمس
##راسة
تاب
سفر
##قنا
##ماك
لمش
##روة
لموا
اعط
050
بوح
##ul
لابد
48
جعفر
حمل
مرور
##خدمة
##حاد
##ليت
##تام
العش
الأه
هات
##قطاع
ياع
##سلام
##قدير
ورج
طويل
يقدر
لبعض
القض
العض
الإش
##ER
##بور
مهند
سورة
##وريت
and
فهل
أور
##ويم
##شيش
##الحة
##معه
تشعر
##ust
شعار
ورس
##صلي
##ئل
##وغان
خا
##راها
##صفات
هش
عجز
ولات
38
##فعال
##اجي
عيش
يدي
##ركان
جر
##اشة
ترم
جرح
الإف
##بادي
فينا
غرد
تقع
##وظ
##ريقي
وشك
##ارها
حن
##قوب
##حام
أهلا
عوض
طي
حج
##ظفين
##بحاث
اند
خطا
##68
##حاق
##جهيز
شمس
قري
##قها
##تاب
مسرح
رؤية
نمر
##فير
##وكي
صرف
وبح
توجد
واغ
##خرة
مناز
##شوف
يمنع
رون
ساح
##كمال
##باحث
##يدر
خلاف
كوك
##ينات
قوم
##لوه
حك
سقوط
نبض
مسب
لمح
##ers
##ment
اتصل
واه
ظهور
44
ترغب
يشرف
أحب
وهل
صنع
تخرج
##حتك
ليا
مرك
رام
نظرا
##فقة
يجمع
وفى
مطعم
##ظاه
##ميت
أساس
##طول
يحبك
##ايق
##خط
ذو
عبيد
ابتد
2007
##ورز
ولذ
90
تعز
اخري
##لاني
أطلق
##رحل
وليد
مدة
##جيع
##وضة
ماز
##روات
خلاص
Al
##ديدا
يقع
ناح
تكت
جهود
اثاث
عامل
اري
تقدر
##تهي
فيت
ناق
##لندا
فكرة
للام
آدم
##قوا
ثابت
##ارم
##ناها
pr
##فهوم
عرفت
اشهد
##خد
##لبة
صحي
##ئر
##ced
تحقق
ريف
##وزير
سمو
ذوي
طن
وأس
##وائز
معني
السك
##رون
##ess
##لوق
يرجع
ربه
منش
##قاعد
عصر
تموت
##رياء
##وذ
راشد
##حبة
مسئ
طبيب
سهل
##وريه
قصه
مريض
بطل
دولي
شحن
##هاده
كوم
باله
##يادي
الحص
بكره
##لاع
ضم
##قيه
ضيق
##eb
لافت
لقي
##ابا
تخفي
ملام
فد
##أل
كتير
##ؤه
هب
##يرو
بأي
ثبت
##ولف
بالي
مناق
##un
##جابة
##67
أبا
##يص
معنى
وجهك
الضع
سيتي
تل
أحدث
الاق
دوما
يرى
ظروف
يعلن
وجهه
غي
##حمتك
فكره
##دار
##ؤاد
##الع
##صرة
تجع
##مون
##13
وخص
ضرب
بمس
وبي
##ئيا
##وعي
مطر
أخر
سحب
تبر
الفا
##ناد
ناش
تصرف
لمعا
##للون
ترد
وموا
تبت
تاج
للتن
زال
مصري
##خراج
##كنت
طوال
##كوين
فاس
##28
بقدر
جنه
##وائل
تقبل
أبرز
##راقب
##ah
اقرب
##وايا
زر
##هلك
بشار
حروف
##وتا
##كومي
نصي
خروج
ورق
وقيل
بيس
يسر
##كاوى
##هيل
##بان
فضل
يعطي
يجري
المأ
لاحد
ذكرت
فنان
بارك
طارق
هاد
درجه
قرا
##ساوي
شوي
##زون
##للاج
عذ
##قدار
وادي
وتخ
اولا
زياد
##فف
الوث
##ارئ
##وحيد
عاف
أصل
نريد
نايف
تردد
تقت
##مائة
حلا
بفضل
علش
##يزم
بيزو
##ماغ
لقب
أوب
##فسار
سيع
مصط
ماع
صمت
وها
يطلب
##ديت
##داع
وابن
حسبي
ذاك
يعط
احدا
The
للذ
قدير
ليل
جيت
##لوع
صبا
جاءت
قوية
يجي
وطلب
خري
سنين
طبعا
مبد
توجه
وجدت
اجمع
حاجة
##هدد
فكيف
##نز
سقط
هى
ياح
##دمير
شج
لمت
2006
حجر
##ist
فروض
سنت
##ؤكد
لبي
ارس
رزق
##قلب
تضم
##جو
عددا
امري
وبم
55
##ويض
بعدم
أني
##ساك
##45
##نافس
ممث
مذكر
##تب
##عتقد
عودة
##ine
نسخة
فاست
يرحم
يسمع
سكن
مل
حقا
##فتاء
جدة
طيور
فانز
وأنه
حرم
##امية
اكتر
أستر
تبحث
هجوم
سيما
##عتك
ونس
##ure
##تيح
##لزم
عمله
##لومه
##اهير
مدار
عيسى
ومد
ومؤ
##عمه
تفت
39
مزيد
فالم
##لحه
حت
##وفه
هدا
##ubai
##راما
ذاته
اصلا
قرر
عار
وارت
مدا
##فيذي
##ob
صدقه
أراد
##يريا
##ثنين
للمش
##رجي
##عمة
موسم
وكم
2000
##ئاس
جيب
حقي
يكت
##غوط
##ولهم
##فز
##عداء
يسمح
كلهم
##كيك
يلي
ياخذ
وفد
##سبوك
وفاه
تسي
يخص
ساهم
ومج
تزيد
##عيون
ظن
بولي
فقه
##اجة
تفض
لولا
مدن
هر
تهم
##دو
ترى
##روري
##ثرة
al
##ساهم
##لبك
##مئن
لبن
اليس
##رأ
دخلت
كور
دايم
دفاع
##وندي
##شتاق
حضر
واحة
##ind
##ma
##يانه
مسي
بقلم
oper
##يجار
لعل
##يرك
##الها
##طفل
دعوة
##وامل
غد
##شع
تميز
شام
##جابه
أداء
##متها
42
##زاء
##واري
##رفية
وطني
نيس
خفي
##عوه
D9
جلد
ولأ
تكر
أولى
نساء
##عوام
##الفة
##ook
##lish
جهد
##اصي
نصيب
##بى
##جري
ليزر
##عده
دموع
أمين
تكشف
عزي
يرجى
ماهي
##افات
لذ
Eng
وأف
##ومين
##وجع
زعيم
##حتها
##غت
حسنه
أننا
##طيل
كمال
##بطال
طبية
##جيب
طبر
تنز
وأي
wh
جراء
لانك
تخص
##طره
ميد
بيوت
عدن
##39
##ابك
داود
##ue
تقطع
يان
هجر
فرحه
ستة
الاك
##للذ
بانت
##رتون
##حاول
##زالة
##ائزه
جسم
##لغاء
تزال
خاصه
يشبه
وحب
توص
##شستر
بوش
لاحظ
وأم
##ودع
عسير
للان
شاف
##اقه
##ورهم
بصف
يومي
صفر
##زت
كرام
##ضاع
جيدة
##64
the
حيا
##كمه
تاخذ
مونت
عسي
##ياع
بتس
##69
سيب
أزمة
سمير
قس
ره
تشي
##ائى
تبين
##لطيف
الاو
تعني
كفار
الكه
##قار
يشكل
اللذ
ايدي
سانت
##فاس
##تيل
فانه
غس
باخ
ناج
ادري
أثر
كرم
وآله
جنب
##خرين
وحسن
لتس
تث
##عدة
##رال
##غني
مور
زرع
##od
الجي
##قاب
فرصه
ثمن
فرد
##هوه
لون
قررت
حريق
##خاب
قاعة
##قرام
تبدأ
مقب
أصدر
تؤكد
##ack
متع
##ON
رايت
مشعل
##فيش
##سته
سحر
اخي
نض
##وصل
جاك
هار
هموم
شرطة
##بيح
طه
##حني
سكر
##طون
رجلا
##غاني
مفاج
##رتك
##شيدي
يحقق
##ديقة
##الون
ماني
بيني
غني
راتب
##فيات
جلسة
ضا
دينا
بول
وفيه
مجمع
جبر
تصدر
##ئون
وفاة
سرا
##ترنت
بحمد
##علان
##ووو
##خين
##قلين
مسجد
##يسر
بدل
لأي
لاخ
ذوق
##وند
##قن
يجيب
يرفع
##ذير
وبه
قدام
ماج
مباد
2005
##عدد
يدل
خليل
إج
متح
##تيات
##كتاب
تكلم
وسب
لأحد
##48
تسبب
##جبات
قيد
##رتها
نعرف
قيمه
##ودية
غاب
يطلق
##فيت
حذ
##ap
##27
مدري
##ثاث
احتف
##لطة
300
##افل
##فيل
عشق
وبك
سلاح
بمر
كندا
وكذا
يقبل
##ئذ
##فيان
##لقاء
##ابيع
##لسفة
##31
##سيك
فخر
##جمة
الده
##ائهم
غالي
رأى
حدوث
بجد
##نسيق
وقعت
فاض
##شيخ
on
هشام
كتبت
##tr
##سيان
غض
##لفا
كرب
مقطع
##نص
صي
يدفع
##ياته
نكون
ماله
وسوف
شرا
لمس
##هيان
زواج
فائ
##فهم
شغ
عل
##ادن
تشكل
شديد
برم
أدى
فشل
قرض
وعبد
##رور
مبلغ
##49
رز
خطوة
امور
ضوء
##طم
غان
يضع
اكد
##جمع
تلت
موال
##كك
منس
العي
##one
##طيه
لعدم
##دب
اذكر
فليس
##افعي
وعلم
##فاعل
##حسن
##قدمة
لشخص
جسد
##منت
طر
وداع
عوا
##29
##ريج
قدمت
ابعد
43
هادي
تحول
ملوك
##ce
##ياهو
بلدة
وحدك
يتبع
##th
##ذاك
##عيين
سامي
هلا
قصف
غرام
لدر
##21
يقتل
تاني
يسوي
لمر
##اهو
كسر
##يرون
تشهد
الحظ
فاي
حاس
خطاب
ومص
نيوز
درب
فاش
تلقي
##ech
حذف
نظم
برب
##قاق
##راث
##ليني
##فعات
صرت
تقل
قاب
##رادة
سفير
ينفع
تسمح
مريم
عزل
لتش
اوي
نقدم
اوب
يغفر
يده
انظر
##أكد
قاله
نغ
ونعم
أربع
واجب
##نق
هذ
بانه
تسلم
النم
انني
خد
كاب
الهد
تجري
##اهي
فاح
حفر
جنون
للث
##وجل
بمست
ترج
يرغب
طرد
تبلغ
جودة
تولي
##صحاب
عليا
ميش
جذ
آن
فني
حصلت
##جزاء
غفر
##جرين
##ساطة
##غلاق
مكون
فرا
تفتح
195
فجر
كول
##لبس
الغد
ثورة
فسي
ماجد
طمو
العذ
جوا
راض
##لاقي
امك
ودعم
معاي
##حلة
##بن
##وفة
مضم
##همية
يترك
ديم
اهلا
صفوف
اداء
##للعب
هوا
##دل
ويسر
##فسي
##يلات
##لبا
وتغ
تقم
##فيا
مشاع
##ناعة
##زيلي
حولك
للض
القي
قمة
توب
نقوم
عادة
##زايد
عراق
تفقد
##عدل
يقف
كأ
49
لقط
##جلة
##اركه
##rab
نهر
قبر
عامر
150
##يتد
##47
ساعد
ويتم
يطلع
ذكرى
بلي
##gle
##ائط
##فوق
##نتك
##اريو
الما
##فعة
الزه
وهنا
##خبار
وكن
بمش
جدول
تذ
##ونيا
أين
باش
بمت
طيبه
اضغط
##صره
مبر
ينس
##بيين
درس
يفتح
كشفت
ترجع
##نيع
اسيا
وابت
##قون
طلعت
يري
ينظر
##36
للمن
cent
اتخذ
صر
ميك
صارت
##يعه
تام
ووا
##مسك
تأتي
ربع
009
أعلم
##أتي
##فسنا
##ريال
كاف
بولا
تشير
##اشات
الذك
##درج
يبت
##كنه
كيم
يشوف
##لوبة
46
##فين
صبر
بدعم
مري
وجوه
##ووك
ومنا
اطار
##ww
وقبل
##هج
الكي
##AT
يضم
تعطي
اهتم
##لذا
مرف
يورو
ترفع
آسيا
##ice
روى
إله
شرط
مغرد
##قيف
بصوت
##لاعب
الشك
المظ
بريد
يات
##بته
موظ
لمست
كوب
خل
تكتب
##اقات
رت
##رقية
روز
##reat
##همه
##حها
يغير
2004
لحم
##ركي
##اطئ
حنين
##يير
آذار
##box
يونس
##دريب
يكشف
##فور
معهد
لائ
##كاة
توق
##طئ
##ملكة
وحين
لغات
##iv
قضاء
عيب
فكل
##يتهم
علوش
عكس
التب
##فضله
وسم
يصير
تنام
##pl
مدي
##af
يبقى
##زية
فنحن
عفش
للمع
لسان
##بال
##دري
انيس
##ستير
##جهه
صحفي
رفي
شري
نتم
##ort
شهدت
##سيت
##امنة
يهتم
##فيني
تحبه
نك
##قولة
##يروس
##صم
حفظه
58
خلقك
هديه
##آآ
ريم
أبدا
التض
##سامح
##اءه
إني
##بها
##tion
اساس
##ىء
ST
مقات
خوف
ياج
ياس
خسر
65
##قش
ليرة
نكت
تشمل
##فيس
الاي
57
حبه
##لاله
نسيم
آية
##az
قمه
اتش
##راكة
ردا
##البة
يفعل
##اريا
##رويج
##نال
الخس
##نتاج
##مكان
مطلع
##200
تسمع
خب
##تيش
لطلب
تحصل
ألب
رحلة
##عوض
011
##وتو
##خصة
سوري
##ثا
يشهد
##روفة
جمعه
تترك
ولت
##ولها
آثار
روي
##قاله
##شط
ماكس
##ثره
##زرع
##حوا
راق
غذ
##انين
##خله
ابحث
##لوها
غز
باخت
أية
##بعد
تقف
##رائف
sp
##شرت
تخصص
##عج
تطلع
##نائي
نواف
قي
##حابه
نو
وشر
##فيز
توح
##لاط
##والى
##olog
هج
##ud
##لادي
##ضن
##AM
##خا
نزل
59
##برني
يبدأ
صرح
تدور
وللم
مشار
##اتيح
ووضع
يولد
بسيط
منبر
##جنبي
##زز
ملخ
واحب
اخاف
##ابط
ورغم
قلبا
روم
وتك
ماك
##ائلة
##قاطع
##اوية
تمام
##رط
##لوات
##ينو
تضع
غضب
خطوط
##غفره
##صيب
##دوز
استر
نعيم
##ذان
معاذ
الذا
##ربول
##ies
لاني
حري
##لاس
عدا
نفذ
شاعر
حكمه
##بتك
قوى
سطح
##لاته
##out
اسمع
##ؤها
##مييز
ويق
##حان
بعمل
##حار
##رجل
##برع
##تيم
اثار
تطلب
##نهي
إث
##يلول
##طرية
موضع
جزاء
www
جوز
لاس
وأنت
##بطة
52
تحم
دولا
راجح
تيم
باد
##صرهم
##رحات
لتع
##لحين
احبه
ويجب
لحظة
غيري
ورضي
اوج
وبن
لث
تطور
خام
ليع
##ينغ
افتح
بيك
شرب
يثبت
مثله
ويه
واكد
معاه
لتأ
شهور
##بض
للمح
أون
وبت
لآ
يعرض
يرض
##لتين
سريع
##مح
أبيه
إضاف
سبا
اشد
غر
وأبو
معلم
الخز
##ابق
##وزع
##لاغ
شان
##وووو
ممثل
البل
ببعض
اغلب
ثلث
مند
##لفه
متى
ساع
جرى
999
جزءا
##ماعة
##شكل
##بلغ
الضر
يسلم
st
ورشة
يحم
جل
بمث
##متك
تمني
اسود
فرنك
متجر
##ترول
مصير
منص
كأن
عاب
##ولان
##هار
جوان
##يتين
##ئناف
اقرا
##AS
##بعث
اور
##are
إما
ونصف
مكاف
فضي
تجي
خيار
##ريبه
##يانو
##اليب
##فاه
250
##رفت
نسيت
بتص
حرة
##هرات
ولس
الأر
بقوة
شب
##هولة
يقل
قن
ليك
امني
41
##فاءة
##ثيق
كوا
to
جوعا
رده
ابنه
نعمل
##لفظ
يونا
بوكس
##شية
##ith
##وضه
مئات
##ube
ملكه
تبكي
ورفع
البغ
يؤمن
ايد
هيا
بقا
كات
##وفت
وهى
فؤاد
##راط
##كييف
أقرب
بعين
##ستي
##23
متاب
يدرك
وضعت
عايز
##يفك
صدفه
##ream
##ونيس
اربع
طبع
حميد
##ناز
اى
صدام
بشيء
مؤشر
عيوب
تصدق
##ظمه
##فارق
##اربه
##فعله
56
تفهم
رصد
تراه
سد
نداء
بعدك
امان
مارت
##نجر
اصعب
واخر
##هلاك
##جارة
متك
رسمي
خطط
كرسي
أيها
##لبين
٢٠
تفكر
ضخ
pm
منصب
تبقى
اكيد
400
##الأ
واسع
##أى
نعيش
##سير
##لايت
مفيش
لجنه
##ran
آمن
يسمى
لل
##عاة
##عوة
##بوت
مالا
صادق
##مكن
##if
نقد
##ددت
آب
ليوم
عمال
سند
نطاق
طري
حرية
نيج
بالز
مرش
لإن
لمص
سلو
##ss
يذهب
54
##احبي
طبيع
##لفي
جاب
وشع
فلان
عقود
تدعو
##اوى
رمي
يوفق
درد
بابا
قمت
وسن
خاف
بالذ
##لاحظ
بعث
##ابعك
##ST
##صين
نبيل
am
Ph
صيد
جنس
ظهرت
##اخر
##رشيح
أكدت
متفق
##طنا
##ماذج
عشاق
سع
##واتر
ورضا
حاتم
حاف
تسجل
تكفي
##ارتك
##جاد
عمرك
##مودي
##بق
أحلى
##ليها
##ستور
للصف
##بتها
##يجي
##يئة
وإلى
85
ولب
##78
عسل
باف
حائل
نعلم
خان
##فاد
فالح
حارس
##شهد
##05
تبوك
ولقد
غلا
ستت
أذ
بتو
##ak
تون
ادخل
##غبة
##وارئ
##art
جيل
معدل
خلك
نظره
##ial
##our
رواد
##AN
وقل
##لقب
مسار
سنا
خلو
##فتح
##ليج
ثقة
أض
متأ
فاذا
قاسم
ياص
##ئها
الأك
حلف
##خاء
زالت
طلال
جامع
حامد
##سلم
فورا
انتظ
باج
رفيق
الكن
##nl
ديس
##ئاب
كوال
لمده
##اءات
¤ô
يعبر
راقي
نسخ
تعم
سجن
مضي
فعله
ننت
يفكر
كذ
استح
ويخ
##طوط
##بيان
فئة
##مور
ايش
ظه
مخرج
##رباح
51
متعب
أقول
##عملة
##ذكير
##أمل
تهدف
##قذ
هول
##OP
تبدا
##دران
تسوي
##حدات
تغيب
عينك
مولا
يسال
حديد
رأيت
صدرك
##فيها
##طنين
أعم
يرفض
وقوع
بيب
يقود
اكشن
##بون
99
##وكس
قبله
واجه
ضعيف
رجع
وهما
##اصرة
اعم
##قان
خلص
اغت
##ews
ثق
شعبة
قدره
##شم
ومحا
عوده
##لتنا
تتبع
الإت
##ويين
صبح
##نهار
##ولاد
ابيض
جال
##ظهرت
كمان
صدره
يسجل
سهم
##ياح
##ميمي
##فله
وخير
يصدر
وجعل
##جبني
تحزن
منهج
##فتاح
اردت
##غه
لأول
العف
رشيد
لاجل
تؤدي
##ex
##ونيه
##75
حقه
##وقي
روت
##يدات
إثر
##غاف
بكت
53
##يرن
جاي
##صلا
##صرت
انع
##يكية
Sp
تموز
##قالة
##هية
قياس
ويك
##لتهم
داف
##جلين
صحه
##بدال
غيب
##ang
##جهود
أمل
##ئن
متفر
حزين
سيم
احمر
##شرون
عبده
شويه
خطأ
دائم
أصول
بطلب
ندوة
##حيي
تشبه
وبلغ
##ذكرك
نشرت
أنس
برق
##نتها
##صت
سلا
##حون
Bl
##ئله
##كسل
صم
شئت
##ظى
ثقي
ولفت
أحسن
يأخذ
##لتقي
وري
##عراض
ونقل
##وقعة
يصنع
Ch
ختام
##عدا
##درة
ضاقت
##ربون
سبي
دوره
وكأن
##فك
جوري
##زنة
بانك
لايف
##لجي
##دات
عملت
Sh
2003
اطلع
ارج
##وفى
##أكيد
##all
##وضيح
عقل
اهلي
أبر
##26
##لربع
##الص
والو
لعرض
##اردة
قصد
ويوم
يوفر
##عايه
واجع
##جون
نفوس
علق
قبول
اذن
##علي
##لوث
الإج
##ئمة
ولله
ساخ
خاض
مابي
مزاج
##ميك
##لحق
رفعت
بقية
كسب
متط
##جنب
دوا
تشكي
الكس
يسي
سار
##زقه
##79
شير
##عدت
عبس
اقسم
مذه
##وائر
##ائكم
مؤمن
##ويته
تسعى
وانه
تاتي
قديم
##حنا
##شاط
##بهه
وظيف
زان
اسمك
لانت
عه
فقلت
بعدد
واث
##حمين
وحي
روما
جحف
##شكيل
أشار
قلنا
وأد
##ارو
عامه
##ate
##ip
##رشاد
ووف
مشهد
يدعم
خصم
##قده
باه
سكري
##واحي
اقرأ
شقة
فير
للصح
لشهب
##داة
##يمين
##ربا
تدعم
قمر
##وتها
وحم
سبعة
دمع
تفعل
##ht
مرشح
##age
شد
وظ
للسي
##شيه
##يقظ
ô¤
ضحكت
##سها
##باني
طعم
تسعد
##اضرة
ارجو
##قود
##طوره
تسم
مخيم
تصف
##ok
جاد
##اير
##قوله
##شخاص
فيس
##طيات
قران
سوها
عملا
زه
قدرة
الاض
##جيال
ex
##شير
للتص
##جيه
فنية
##لطه
بالث
##يراد
ومات
اصل
##شب
بيده
##ديها
عالي
يحق
شغل
تضمن
##داك
##يقة
##بدل
##لومة
وبس
##طالب
##فان
معرف
##امرة
##ياض
كنتم
وإلا
##ائص
وصور
الول
يذ
##يفو
حظر
الار
البت
وعرض
سمي
سلطة
سلوك
ونص
اعمل
ربط
##قله
وته
##ax
اترك
تحرك
##ظهار
وكما
مصنع
##ماعه
انزل
##ضت
تهتم
اطلب
جوجل
يعيد
##and
Pl
ولج
موز
وبدأ
##رن
ابا
##IN
اتح
لير
تبدو
##ry
وحسب
كلب
بقد
ليلا
with
بيري
احذر
ودعا
شريف
بحجم
حجز
##يتنا
حصول
##طرا
##انز
##دع
يكره
##دادي
##ماق
دورا
عتق
كه
تسال
##وطه
##نازل
##واخر
دب
يطول
##تهما
رحي
يدور
حوله
ترضي
سخ
معكم
##صن
وقام
##ثى
دو
لنت
ناب
قادة
فلك
لسه
##echn
##حول
تشحن
نام
ad
ودك
فز
##وقة
##ناع
لفظ
جدد
##71
كش
##اجم
##ديف
##عتين
##وبيا
كفي
هيئه
اعلي
بيته
##اقم
لحل
قاتل
اشعر
##البا
استط
##فرة
##كريا
عماد
بوضع
لمنت
بينه
##واقع
روعه
##pt
رقبه
فقدت
##وسى
عينا
كليب
ليون
ملع
يزور
##صلين
زوار
اتي
##ستون
أرس
فراغ
##61
إليك
##ابته
عقده
##ائز
برف
##يبي
تدفع
ياا
ايا
أسرة
##ph
##شعر
##ard
##طرت
مستح
##فعت
للمؤ
##tor
انهي
84
##منا
##لوج
ولكم
##طبيق
##زلت
##اديه
##ساقط
وتحت
ذكرك
وكت
##بز
طبخ
##وبين
##لروض
##عبه
قله
غاية
##ختار
اولى
##ذاعة
##لمك
جملة
##وانا
##غيث
للات
##ديس
عمار
##ضباط
صال
##ياسي
##OS
##روز
طيبة
##رمى
واز
##قرب
تايم
تخيل
رحمة
احدي
##وضحت
##اشي
يسهل
##فقود
اغلي
بوجه
كونه
أرسل
##of
فراق
مشرو
ارسل
هواة
تبا
جعلت
##دود
##لغاز
مراس
كبر
خرجت
شق
##ريدة
وآخر
لذه
##باحة
##امله
##اءة
##كرون
عطا
فرحا
كهرب
##وكل
##63
فقر
توصل
اليم
مقام
زرا
تحرم
##ستها
##ED
##غن
زادت
##عال
الجر
##عودة
ماهر
ويل
وعمل
بره
##صيد
هني
الغز
كمية
##سيات
مون
يسعى
سيس
يقضي
مرج
تعلق
جرت
مشغ
بينك
Arab
حاز
يامن
غام
نائ
##رطوم
##والف
##ie
##نيها
لاد
##وحه
ديب
سائق
صلات
كذب
زب
ماتت
محر
وأب
بطن
قويه
CN
##94
##ايه
نحت
العت
حسني
عدسة
ديف
خض
شكلي
##جاهل
##▬▬▬▬
فحص
##ديب
صعيد
##قتهم
##ندات
تقلي
##ران
تطلق
صبري
بآ
##بس
تمنع
##ستغ
صيدا
##سيما
##تيك
بخط
يصلي
##راوح
يحرم
##روها
انو
##وائي
##هاجم
غم
تلعب
لتر
يبكي
مراد
##امير
##جدات
مدخل
##امع
##وطة
##وائم
ندعم
حدا
يومك
##ضاة
سئل
أغلب
ومنت
لرب
نورا
##قتين
نظيف
##ver
كرا
##روحة
شفاء
##مائ
##شيء
##نو
عينه
تخلي
حمام
اتوب
##طت
نسبه
حمود
##قتنا
##اتمه
جوي
شاح
##OR
إذن
شهيد
جواز
##عدك
الدع
##شيط
##TM
فيكم
فساد
النخ
متف
##ونى
يوف
فريد
##عاف
نقطه
امره
##زايا
مذ
يؤثر
##بورغ
الند
يسير
##كرين
وصح
##ظره
مربع
##اين
جير
##شون
مشرف
مثال
بفتح
##بهات
##ond
انسي
بيض
##فيظ
##جعل
##ابتن
عزام
##ازه
##حونة
##الفه
##وسم
لتت
عطاء
عاشق
خميس
خفض
قلق
اسرع
##صلت
##درا
##لندي
بتف
متس
ارتك
متوا
مفض
##اعل
##فلون
نر
##صاف
قاط
جراح
اطلق
##بني
يسبب
سباق
سيرة
رحيل
فعلت
##صفه
تمه
تقر
##ماه
##عبة
علمت
هاشم
لهما
بطر
##هوة
يبدا
##ابير
بتق
جبهة
##صام
شين
مستع
##بطين
شيع
راجع
بسعر
واقت
##فعه
مسير
ينزل
##طبق
شامل
البث
امرا
تلقى
الزع
##ائعة
جندي
مدين
##حبك
اهله
##اكد
##وضي
##عارف
عكا
##دمات
عاطف
فرقة
رجب
فط
سمه
واط
بيتك
حرص
يضر
##ملة
سببا
##يض
##اها
##ائيا
##وقوف
موظف
اهد
لاه
##قض
جين
تلف
##ياتك
بغي
محور
القن
روحك
يفوز
نواب
جولة
البك
خدمه
بيه
##حباب
جلال
##فيك
مائة
غربي
وأح
سخر
عدو
##هرج
##برك
سرعة
##ive
##هلة
يشمل
يحكم
تذهب
يديك
وند
600
ثان
مسم
##انها
نجيب
أرج
حني
كير
قضيه
طعام
##رابي
طاع
اا
مرب
يقرب
ويحت
سوبر
ايس
##دعي
تحيه
سو
##ld
##بيعة
العط
##جازة
رؤوس
ياخ
تهن
##وضى
مبنى
##اهة
ونه
باص
1000
##تاحة
##روك
اكل
الكث
ألفا
محسن
زار
##سيب
وقفت
جار
اضحك
وكتب
حيدر
ينام
باني
قراء
بدم
رسوم
##يرنج
صحية
أجر
الغي
قالو
سوم
لمنع
يحل
##ئيل
##صاري
##pp
غاز
عظم
##ساسا
شنو
٢٠١
##قك
##ناية
نزلت
يرزق
اعيش
لايع
##ادير
وزوج
يديه
اير
##قسم
بلاك
الود
2001
يصح
هاشت
##ge
سلة
ابيك
##دن
عربة
تدا
أجمل
##وون
جها
Pro
راد
يحضر
نفت
مفر
كبرى
وبأ
##ذور
قطعة
##ows
نون
##اتين
لاول
##يبات
##كرت
مولد
جرب
تضحك
ثقه
##ذنب
##نفس
سائر
رحل
##ااا
##وابط
وكنت
اقدر
ارفع
يعم
##ماش
تلم
حالي
##اريف
باتت
سكا
what
ثمة
##حيم
بدور
##وكيا
ينقص
مؤقت
##غلب
##شراف
##صرح
##فوا
##يفور
##AD
اسمي
جناح
##89
تزوج
يدعي
هامش
فتحت
تؤثر
اكره
##وفية
هيك
##داي
##ماج
للمر
باحد
##انم
نسمة
ببط
أوضح
اروع
##عدات
وهب
##ass
تجرب
تكره
##قطة
متت
ومي
تفر
##غاث
##نود
##رحيل
سماء
##هدوء
نقاش
وسا
يفس
تفس
جسر
بدات
##لينا
ضمير
يشير
##ستا
قا
##ذاء
مايك
##لاقه
توت
وشدد
انام
شلن
##قدة
فضاء
Ad
بحبك
##كوما
وحيد
معن
يلد
##محمد
AL
##يال
وعز
فروع
شباط
ومك
##غالي
فحسب
سواك
ولح
##كنة
روب
##قرة
منتج
##باقي
طع
إمام
ودع
قصير
واك
##غولي
And
##فري
بحد
كنوز
ماه
##اقب
##الين
##72
للري
تاكد
اكرم
بيار
رغبة
النح
استث
054
عضوا
استد
كدا
##امح
##ونغ
##شتري
##وركا
لابن
مشد
##تهد
فلل
##بيعي
نير
اتفق
##بلج
##شرف
##رود
##يجا
موك
##roid
مصاب
##ذى
##اهيم
بقيت
يهدف
راحت
##ثف
سداد
##انق
ونظ
يفرح
##ian
ولعل
قبره
لتم
الزم
اتفا
##مص
سلب
##عدي
لتق
يحدد
الوص
2002
مرسي
كنز
##يتي
علاء
##aw
ينشر
زوال
ماين
منصة
شعو
عصام
حولي
ستجد
##يييي
أسهم
An
وحش
وفع
تعبت
تروح
صدا
##بارة
##تراك
تراث
مهمه
##تس
##ردود
##ونج
##وأ
صفقة
موري
لايم
جنتك
120
منطق
iP
##وود
صوته
##iz
كرد
##لنار
##سست
بمصر
بلدي
كثره
بعي
##ادلة
نرى
مضاع
##لمبي
ايم
وقر
##زح
ملائ
بجدة
حاكم
منف
باز
لبس
##شأ
##فلات
كاز
فيمن
##ile
موه
حسام
الضي
##ماعا
##اوف
أمور
##مدة
##لاقة
##هودي
الفص
نوا
بلده
أمه
خيره
يضحك
بشخص
ياق
يصف
فجاه
##صرخ
##صرار
تقرر
##LC
##ide
##فط
فكن
64
88
##EN
##بيبة
ردد
##راكي
باحت
##برات
باح
نافع
صام
لنقل
##رفي
##مرت
راعي
##يسير
##حصل
##قدمه
راضي
##فساد
مخط
##غيب
اسوا
انط
فاص
يفيد
##الته
##طاف
فأن
شلون
خبير
##بغ
كروت
يسكن
واني
##فرت
عبدك
سط
ملم
لطف
وفتح
##غرق
محبه
الصي
بنها
fem
بفوز
جواب
واكت
بقوه
وعق
نبيه
انقذ
مقدم
##جيات
##يمار
##قوه
##ضعاف
ووجه
##بث
ولاد
##ES
نعت
انقر
بإن
يسم
لحزب
مطاب
##شو
##ياق
##دال
بنشر
##رفشة
إض
بقسم
بحكم
منط
قار
تسع
لاحت
##فيض
تهي
رأسه
##ينيو
هدوء
للحد
خار
تقود
اعين
أريد
سياق
جيم
عبدا
حاض
ضاق
طلبت
Le
ماس
ياه
ادعو
وإس
ابرز
مده
لمؤ
##اكم
تصير
مخطط
ونشر
هدي
عاز
مطمئ
حصار
الإح
##عاقد
ميس
##ديين
##ثله
بتم
ورف
رمض
خطوه
روسي
حان
سائ
منو
يفضل
##خلت
تضيع
علمي
##حيه
##لترا
فاني
آلية
حيل
قتي
مليش
يفقد
سق
##صى
ورفض
##عدون
هالم
eyes
مؤلم
وقتل
##رجال
جنيف
de
##ودان
مطلق
نسال
تثبت
بارد
عرو
جهنم
ينسي
بليز
مسج
مصن
##باري
تسير
PK
##جام
قرأ
يضمن
##ميله
##وراه
##ركين
مدني
##دح
##وبيه
femt
##ثرت
##end
بيئة
وخط
##ترط
تصنع
##ستمر
لطب
##زيل
يغيب
ومصر
يصيب
جمعة
احدى
زام
طاب
انح
##عبير
صعبه
##ركية
وملح
##ash
##ريكى
حكام
انتح
عايش
الوض
طاري
طيبا
##تهر
لكون
بديل
##YD
##اضل
##ime
عذب
مقص
##فيع
الطا
اهاب
##دامة
تسب
##شارة
شرم
شوقي
عقلك
صيام
وكر
حوا
أثبت
للآ
##ضحك
ياخي
وقدم
##RO
##مايه
##ويك
##up
يلزم
إمت
##وضية
أضاف
يمشي
تنظم
خصوص
##طيك
##عوث
للبر
يقيم
Pr
تلو
عميد
الفج
بيعه
اعشق
Star
##الز
يسب
دينك
أنني
##ليمة
##ابها
للتس
لقيت
##يكو
بائ
الشج
عيال
هير
انثي
مقاب
ماضي
الدر
##HD
احا
##برد
التز
##سرع
##ساطه
بيوم
تبعد
معص
تخسر
باحث
بنتي
لتخ
فتاة
ارجع
خرو
De
##oad
##وقاف
دلع
حمزة
اراء
سبل
##سح
##ياسة
السد
تكذب
حكيم
جبال
تقرا
بصفة
ونح
شرائ
ابوي
##بقى
##ity
يبعد
أقوى
##ناسب
##الن
##ناهم
ستر
وقص
##لتان
ودم
##ريفي
##فسكم
##غرة
##ضيه
رحيم
لاتح
تجنب
لويس
يليق
لتج
نوره
ديني
##وجي
لاز
خوفا
##للام
صفة
اسي
##ميها
##ight
95
بفعل
ورقة
شعوب
مناه
##عاقة
##وارث
##سيين
##باي
اوت
واما
##ظمات
حكي
عطني
خيمة
ينبع
اشف
رضيت
وفاء
وجمع
يسقط
##ادا
البع
بكال
تحفظ
##وسة
مسح
ذاكر
وبما
##جائب
##سهيل
##لطف
للأس
ادع
ساره
بجده
راسي
يقطع
##وانه
تراج
ووال
عذر
مزي
أشد
##ناصر
ترض
##متاع
غسل
##اليق
نسمع
وافق
##iy
##صبحت
أولي
أحدا
تنظر
فانا
كتلة
##لالي
ويؤ
##لكية
##اتا
صدم
وفت
شيئ
##لطات
##رمان
ضياع
تفوق
معم
##هلها
##صله
عائض
لمصر
يقرا
##ركت
يوجه
##ايب
ومه
##85
فلاش
##زاق
##ظيما
فقير
سهلا
مهد
الحز
بتج
##جيج
فول
تحكي
يهدد
##ؤول
يصلح
وكشف
بقاء
عملي
160
شده
بتت
ارح
فاد
##اعية
بوف
ريح
صراع
كوكب
ترق
محيط
اجد
يثير
متاح
القس
##سعيد
أصيب
##وتش
فهذه
النض
وعي
##SD
جمه
##uc
خبرة
1440
##فاك
##ساها
حيال
عجل
##وجة
طلبة
إدلب
##ذيه
نزار
والى
##حرار
ياد
##منه
##جهز
نشوف
تأخذ
صوم
يخاف
بقلب
حذر
##بيات
##تكلم
تحدد
تكلف
ملء
##واية
##همين
صوتي
doc
نادر
وسر
وسدد
##داخل
لاف
ممر
قهوه
بلس
شاشة
##لعه
يشار
سماع
اصط
بارت
رحب
##ite
be
أيدي
تمسك
بلح
ومخ
ينص
يتأ
بشري
##غلال
بتش
دينه
ذهبت
##مث
Ar
ربح
كويت
هامة
بلال
##46
##داوي
##عمر
يطرح
مسلح
تبني
تسقط
جهات
اخط
ونفس
تخاف
مذهب
النك
اسر
اصلح
##لجأ
##خبات
##جيد
ميون
##برم
أسر
يصعب
رقص
##مش
pl
خايف
##وعد
أغس
مطلب
800
اخوي
قاس
##ames
##عادل
لكان
وضعف
ردود
كومي
##زات
##واها
كتبه
احلى
##خلف
ul
نجح
ياف
##وليه
##نن
##شال
إند
شرع
محرك
تكري
مبدأ
##ينت
##man
ايق
يخدم
##لود
##رائق
صدرت
##ome
همي
اموت
##ينها
̈°
أعد
##شفاء
طائر
أجمع
رجاء
##بعه
تحط
تدل
بشير
انفض
##سنه
سموه
كوست
خيال
زوجة
ورؤ
##بري
برك
##وفرة
بشدة
##وفات
شمو
تيار
غالب
##ous
##شري
وعبر
##قيمت
الرش
وراح
##جهل
فنون
وني
لوقف
68
يرضي
تنفي
##نامة
يضرب
يشاء
##وافي
##للات
تعيد
##قاسم
يهدي
ساهو
##ill
بوست
عده
##MD
كالم
تفضل
هاني
فيلا
تقي
واشت
حماة
وأخذ
تحسن
جهته
##تز
طقم
##يجاد
اصيب
##ويع
##اليف
السا
برض
وسجل
##وصات
يدين
سهلة
ورم
بريف
72
##oft
وحفظ
لغه
عرق
سح
حامل
سيدة
##بدء
عر
أعرف
سامح
تدرك
فارق
##رخ
اتهم
يوضح
سؤ
ترفض
##انغ
اعز
ناز
قف
##أه
##اور
وشعب
قبيل
##ضمنة
تأخر
##ساة
قات
يقصد
طفله
ورض
قلم
##بغي
حقك
##ياكم
كفوا
تنه
امنا
ومنذ
##وقية
للرا
إط
يخلق
##وظيف
حركه
##ائله
##وتوغ
وسام
##اروخ
##فاضة
ماا
##نيد
رات
وحقق
وافت
ظاهر
##يرها
##برية
عمق
ساد
الوط
نهار
مكس
تتج
##جبت
##للم
053
##فتر
ستح
مطب
##يائي
حرق
يحس
##ميص
##خلات
مفيد
وبط
##على
يراك
تفرح
1437
مود
67
شريط
ولمن
##هى
سجلت
مخصص
تحد
تجيب
يومه
##اطب
##اسب
رع
86
##سيع
##van
##باره
##لعت
يروح
##تيبه
خاطر
كاش
ويص
فالأ
استف
مثلك
##عونا
أخي
وحتي
مبس
الفم
حبيت
كلف
##دوا
##نائه
بسب
##ياها
##وقه
##واعش
##عبد
##mail
##MT
##رصاد
بوج
اخرج
استن
فتاه
##96
يقوي
##ختم
##OX
##ونهم
بقر
صعبة
زبد
وقنا
##اعب
داعي
##ثث
يرك
مسجل
an
حالك
آلة
تفيد
أوغ
##اهه
عاوز
فلس
ماير
Com
تشك
مام
حققت
كيد
فرس
##ium
سقف
##ien
يصدق
تجار
مهام
##واره
بيل
مؤس
الحن
##عاش
ومنع
جاهز
اية
يحيي
انشر
##SL
كو
أمرا
##RE
قولي
##يتا
بتأ
زينب
##مك
وينت
##بعاد
ناص
سني
صلة
كارت
مصرف
تامر
إلخ
##ove
مقه
جوه
##صيح
يدك
##حى
لوضع
بإذن
وهن
لايك
آي
هدفا
بروت
صاب
جعله
##كى
حصة
وأت
وسوء
أدت
##رجاع
ولكل
محس
بورت
بدءا
لال
تركت
##عبي
##دها
كرو
حش
أشرف
مرسى
بموا
تصور
##ديقه
##ey
لعبه
ومنه
يضيع
##زياء
وروى
غسيل
خاتم
قيس
وقي
فتنه
نادى
فعلى
واصل
تغفر
##جى
لطيف
غادر
دوم
رضاك
يعقد
##نتوس
الفخ
##جها
بروح
نشره
يبد
عدي
##مثل
##قاته
##دهور
بئر
ابقي
خطير
##وفين
##ائمه
##غف
##قفين
##100
تميم
prk
فله
دمت
##كاك
##عقد
شأنه
##لوف
لور
سكاي
وقتك
انكم
مضحك
##pen
##ثاق
مثير
أقدم
طيز
صقر
نرجو
تضر
##فيين
الصع
##ريحا
يمين
ذبح
اثبت
##عدين
دواء
##وعب
ميل
##هاا
##طنة
يقرأ
حمص
يول
بحفظ
أبيب
##قابل
بفر
خلقت
مضى
##ئيه
لوا
يدري
سبأ
راسك
##غراض
ديوث
##قايق
الجس
طاهر
ازاي
You
##يسيا
محرم
يث
##يافة
قريش
للتع
حظي
##جبك
فاقد
ايف
##اشه
كح
مكر
##TV
خليك
كرك
عقدت
كفو
شح
##زار
يحسب
أعظم
وعائ
لار
روان
شعبي
أقصى
ضابط
##طفاء
##ينال
وتنت
##راضى
يرب
##رمه
##حونه
##بيك
مسك
##df
بتك
##ريحة
##خخ
معان
##055
بوص
تنشر
##فقد
صفات
حار
##فران
أعط
الحك
##افلة
##همات
أسس
مايع
فواز
طبق
##زيغ
رفضت
تؤمن
وقلب
##يباد
سويت
للعم
يمنح
يوقف
وحول
يرون
##نتون
عادت
إنك
يقين
عقول
##برين
##بطي
توكل
حلال
اشرح
عات
ربكم
شيله
##يناء
##وينت
نقله
##سمين
##ach
رحله
علام
حاسب
كود
##غوا
##قيلة
بمكة
وحق
مترا
##وضوح
روات
وجب
##ياطة
بداخ
##دور
##وراق
تصفح
##888
##يرت
أيار
للمد
##ong
صافي
##ايخ
ربا
تقتل
##لزال
وربي
داني
سمحت
الخش
##wit
وزن
شايف
جهاد
ترش
Cl
وايت
بصدق
بلب
تلمي
مهدي
##IG
##طلح
##صدير
بجن
66
##لسلة
##راجة
##رائط
تتخذ
لرفع
جعجع
جور
مسقط
##ضاءة
##صلات
##تهن
محلي
##والب
اصد
بنحو
حدد
##ضائع
بتر
صيا
تعدي
##غات
##رتب
لعمل
غيار
يظل
الضو
69
##ترين
نمت
كيك
##راعي
فايز
##فقه
##دره
##هنة
##av
لفر
أقر
كثرة
بصد
62
بغض
بوم
إنهم
ماشي
كرر
راك
##ييد
##وفك
يعين
وجرح
فبر
قذ
##ماح
83
صغار
تأش
##زلة
وقلت
بيتي
ساق
دوام
رصيد
##بطل
وجهي
بقول
لكني
للتأ
توي
وائل
شاطئ
##اصد
لأجل
وشهد
لاش
##عش
ثوب
للقر
##ib
ووص
##بطية
##وقفت
وامت
قوت
خالص
ابسط
##غبين
ديز
يعشق
افهم
##نجاز
عنصر
وغفر
تراب
حجة
عبي
بصي
or
فاق
وحض
وفض
يبعث
##روفه
ثوره
سهر
تمشي
مصرع
محدش
اعطي
##انيم
ادعم
##اسر
يتع
وقته
تهدد
اتبع
فالت
##ata
##رمون
##انو
عقلي
##DR
خضر
تلب
حماد
##قصي
لجان
##42
منى
توف
##ركون
لحن
تسجي
##لهوب
ذنبه
خاد
##اليل
##ؤنا
ملاك
مشا
##أخذ
حضن
##خام
بتحب
63
وبكل
by
##راده
##يتس
##النا
خطي
أدنى
بمثل
##41
تاخ
كلاب
عمه
89
##الش
يديم
عاط
فلوس
##ts
يحكي
الصم
##وسات
##اعا
طهر
##زول
##ايام
##ئتم
##نوا
مثلي
اسط
لعدد
عنكم
دلي
جوده
##تيت
نظرة
مائه
لوك
صا
ينقل
لتلك
##قيد
سخط
شوا
حرك
##۩۞۩
هوية
يظن
ليبر
##يفات
##فنا
اشكر
غازي
مراه
قابل
الثم
بيا
لوت
نجحت
تؤجر
##روسي
قتلت
دماء
صفحه
وطب
سعي
##لتون
##شارك
TR
##ملف
جلسه
##ضار
دري
best
سلف
تاك
##els
فوج
sh
فرب
##واهر
##خان
سوس
دعت
احم
لرؤ
همه
##مى
عميق
##لغي
بوع
##ليح
##قدس
##ودك
##اجل
نبات
##غض
وتمت
انمي
وكي
يتيح
نهج
لأب
انصر
##ery
وبدا
##فجر
رقي
طبقا
وجوب
قياد
تاخر
بنس
##AC
##فني
تأكد
##خذه
نموت
أقام
##ign
##غياب
وشخص
ورائ
قلة
1994
ومدى
##وراء
قادم
##لئ
##يدس
##طير
لنشر
##ضحى
بهما
##TL
يتج
تفرض
ضاع
##0000
مخلص
كيان
ياكل
98
اكر
اذهب
رباح
##زيق
حمدا
##تية
##افئ
##بأ
بود
##نسى
DV
##نسيه
حدثت
بقتل
يراه
كسل
بتخ
ماري
Is
##هيري
وحشت
##سيكي
0555
##اتذة
دمعه
##يتام
وخمس
متحف
أتى
همك
##خدمي
عبا
##ff
فعال
##راي
##ساءل
زجاج
##xx
يحسن
تقضي
##واكه
##ly
##صيله
إير
وصار
لذي
##ams
وامن
LLC
##طبخ
تحسب
سقطت
بعضا
سراح
get
##طيور
تندم
غزه
القف
نوعا
أوت
كلو
##منع
شيف
نصوص
##دمان
و6
##زوي
Be
Hot
##لدية
1999
صوب
العو
ماسك
راسه
##كاسب
يجلس
نقيب
لوح
تسمى
ودون
##SS
أبى
##رقم
نات
سنن
##یة
##قابة
فست
افرح
رموز
78
##EL
جاني
صبرا
##ark
أرى
وور
كوني
لوس
سدي
77
##ؤدي
##43
##روا
أهله
معتم
وصفه
لوحد
##راخ
الهز
حتما
يفرض
قدمه
دى
نصب
##ذكره
جاسم
دني
pdf
شاطر
للال
اقصي
فسيح
إنا
تحدي
##وبع
توري
71
##قلا
##orld
##سيوي
بقط
عثر
زفات
ومف
انفا
##p3
بكي
##كند
اهلك
وإد
راه
يمه
##ريبي
ليلي
##جزات
لأم
حلمي
##وكول
##تهاد
الطه
هدم
##95
##وائح
تتع
بندر
تتأ
قويا
فوزه
##يهات
برفع
اتها
تنزل
بنى
ادب
حمي
اسوي
##صون
اللم
خفيف
يتخذ
مئة
##خات
بلق
##قمار
ودر
how
##وسا
فالك
باق
##cess
نوح
##غام
عرضه
##وكم
وده
وعش
سلمة
الكا
سرق
##ربها
مؤسس
تنقل
فدي
مشر
أمي
بمقر
فيا
صيف
كانك
News
##ئوية
كع
##بله
سيء
غصب
حاضر
كيس
تكس
##فعول
دروب
##شكال
بطرس
Ex
أصلا
ضباط
##زله
##ناي
##كسون
##وقعه
##هدفت
ضحكه
##ياطي
لتف
##صنة
1995
بحوث
الكف
يروي
ضربة
##ييل
##ظا
بينا
##ربوا
سور
##جنات
شهرا
بقيه
##لعن
لوجه
##شتي
بنص
حصري
يسرق
بعرض
مناص
##قدت
أسفل
تحوي
منق
قائم
كين
بيها
حلي
قرى
جمعت
##ايم
##طها
جوار
تما
وعاف
##نقل
##ازن
السخ
بست
جنات
شمر
غرفه
ايار
أخرج
وأج
##وائف
نقلت
##سنين
ليد
##ارن
عاق
##ire
##ork
أخت
اضطر
فانك
يفرق
هاج
كمن
##لديك
سرير
ووجد
أمة
موتي
##احه
ينه
لقسم
##فاح
لكره
can
##جبه
##afe
##وخة
إيه
رادي
##متهم
بأم
مرد
ينفذ
يخلي
يغني
إخت
##ناقض
##ost
لاغ
ولان
يلقي
##tern
يبين
بزي
##ast
تحظى
##ons
81
أفاد
اود
غيم
طاح
كوي
رجعت
دست
Ac
يفر
حزنك
ولها
مايت
##سيير
140
طقس
املك
##كمله
تدين
موف
##هله
##يزه
##حمود
##نائس
##درك
##كثره
كأنه
متصف
حسم
##زف
مزا
##ضامن
بيم
وسع
شرقي
خالي
عزاء
1998
خطف
دل
##نعه
طالع
الين
1996
فلت
##صنع
أحر
##دهار
اقر
ويعد
##ky
##فصال
##ئم
##قاوي
تقام
##خدمه
الزب
##sp
قرات
واخذ
سالب
##ساحة
حاب
عدل
جزا
يبيع
وجعا
جروب
ولأن
##HP
وثبت
شعرت
وتز
عابر
وحل
حدة
##طاق
##كررة
##واكب
ونش
##امنا
##for
##ويتش
##براط
غضون
##ئاسي
ودول
ضخمة
##توث
ودا
إننا
لسنا
##قاتي
##نجية
##لاش
يفض
أصدق
بإس
عمن
رائد
##ain
وجيه
##999
##طفي
سدد
وقطع
##ياحة
فأنت
توج
##ياف
ch
##جور
كميه
يتهم
##كسار
##صيه
تدر
بلاش
##راكش
وضعه
##عكس
๑۩۞۩
ابني
##ne
فران
ولغ
حبوب
##وثي
بتلك
أجد
SP
##anc
##لند
##شش
##آء
لبحث
ورأى
##780
تنفذ
laz
##وانب
ماما
كويس
انتخ
0540
وعب
##عارض
##سكي
##ضمون
اتس
MP
صاف
يخسر
أيوب
عري
الره
بشرط
روضه
وطرق
##عمد
تليف
تياس
وانس
كوت
كورة
##زرعة
##ئى
##طنه
##وفو
كد
##يرى
61
مثبت
عامي
مفرو
##بوا
صحتك
##ls
##جله
##med
ومق
أبلغ
وناس
##ساق
##hone
قاضي
التت
##جملة
AR
لاند
تويت
re
##فره
شبك
واجت
كليا
##قبة
##زيين
يور
قربك
آراء
##ودها
##عتمد
##عتنا
همسه
أسرع
##رجة
حاجز
لمه
##جيا
تسمي
صدى
لدول
منير
تعقد
دن
افك
شيوخ
##لاما
A7
عيسي
سوفت
87
يميز
تسعة
##عكاس
##حله
##ماته
وشي
##طبة
ورده
##عق
البه
يسبق
يأت
طفلا
##ايك
تدع
هان
قلعة
عاصم
مزاد
جولد
مبكر
CF
اشك
##نيش
سرعه
عدت
##دمة
جات
##تمكن
ar
فنج
آيات
غطاء
##موية
74
سرية
السح
يوصل
اكسب
##هود
Sy
##نادا
##ump
موث
ابكي
أنج
##سره
مرضي
وقول
##اصه
##حمام
علمه
حازم
وعاد
cont
بند
##ينهو
##الإ
##جوز
##وائع
مطير
مقار
##ical
باشا
سارة
##روء
سكت
رايك
82
##ؤهم
توضح
دوت
يقرر
بحثا
وعمر
فرحت
059
##لطان
نزول
روضة
لينا
راع
##لراق
يضيق
73
##ولكس
جوهر
##MA
شجره
لايت
أقصر
عشره
##اهم
الفك
زلت
توس
##سنجر
الخم
المذ
##طيح
ملكي
يوص
املا
Play
##ord
جمل
تسكن
انتو
تقيم
يخيب
##حيين
وضوح
عزم
يسمي
##وادر
##خرجه
##لهما
أدب
##ND
بمحا
##لتا
يرحل
صلو
حرا
مصلح
تكمن
110
CL
يتس
بكون
##ظروف
نيت
##ستيك
##هك
يوح
##qu
اشفي
##بحر
##لمني
##جددة
##ana
ينظم
ابر
مزد
##ؤك
بكرا
هلي
رغب
ساكت
ننسي
تعام
قسي
##يرين
79
اليا
مبدع
كيب
##واتي
##ريغ
لاهل
يحبه
ادرك
قدما
##غى
أثار
##لكي
واهم
##ell
ووصف
لاعت
شكله
##BD
بتاع
##لكات
مانع
##عتهم
##وتين
أمره
##سابق
ღღ
اصاب
متعه
مرغ
ناقص
بلن
IP
جسده
##طو
يضيف
##هاي
سرقة
كاذ
##حح
##طراب
##عدى
واقف
بون
يعنى
ماح
هيبه
##ووون
تحل
وبخ
##فتها
ميان
##فورت
برت
##أحمد
##تمين
##tra
##ثارة
##مرات
##ix
##ائقي
شاك
##لخص
مضت
700
##لسل
حظك
ينجح
عجزت
تظل
شهود
وأهم
تثق
##غرس
محدد
##قطاب
ضده
وتفض
شبيه
##علها
شفا
فرش
شاني
اوز
دقيق
ليم
لإس
نبت
بكين
هيف
##ارتي
##ree
##نغ
تكبر
##يدين
آله
للأن
صبحي
فشلت
يقر
باقل
##ذين
يعجز
جمله
##قبض
##فيلم
ابلغ
شجرة
غبت
##طري
##ربك
ورز
طراز
ماوي
##خن
نفسا
اتنا
لاتت
احص
خلفه
طاقم
##يعاب
شاي
معاد
تغني
Sec
سواه
اثي
##بنى
فضلك
##قور
##رامي
##لوبا
تعكس
##طاقة
حاص
hd
ليصل
##لوبه
فعند
92
##عاث
تات
اذار
بنقل
##223
تخلص
##رنا
##شرا
##بيها
بدري
لتصل
طلبك
جرير
اقدم
##سمك
فاهم
##طأ
##جازه
وينك
نصية
ثور
##ادثة
روبر
##شاد
جثة
##قاوم
##فها
بيف
##BC
##ثبات
##ثوذ
اصلي
خسرت
##ترى
معمر
تدرس
##موح
قنب
أنتم
يحزن
##ظرة
##البه
كعب
رخصة
##رابه
يلق
نيه
قدا
##وسه
##الهم
جوف
الغم
##ؤلات
سلع
يدا
بدو
متش
فسوف
ستن
##ais
##GN
مايف
ضربه
كالت
مدف
1990
فوت
بضم
مشاك
##ادور
قصور
إحت
لأس
قرن
وتعد
##ئنا
##لائه
ونور
##آم
دان
تنجح
##اللي
لتغ
##طورة
76
##ادى
تمنح
##ms
جود
##وبرا
يدوم
##زامن
##ريز
بوب
لى
مجز
##واص
غرار
كني
افكر
##شرع
##كنا
##ug
إنج
بفض
يظ
غلاف
عطية
خطب
محظ
لعلي
تها
تظن
##حاث
كوكو
ويغ
هيب
قومي
صانع
اوقف
##واس
##ant
لوز
##رول
بنز
و5
##IP
فرجا
بيجي
##قيقا
نال
نعمة
موجه
مقط
##MS
##ؤلؤ
##تال
اتعب
أدخل
##فينا
قبور
تفرق
ولدت
بغيت
كثرت
نفيه
ساج
##ET
عقله
تروي
يكذب
قطار
per
بنج
وصرح
مناس
##وحد
##اخرة
دماغ
اقسي
اخوه
##نسيا
كانه
توم
تنص
##رونا
دق
##لمت
صادر
مبني
##خوا
ريب
كوبا
يعكس
لعي
هيلا
طالت
##وليد
##كاف
130
قهر
##يتان
حسنا
يدعى
للتف
مصمم
ينيك
عاده
##عور
ورقه
فوات
كليه
##558
##ولته
بتد
أكل
##وثيق
صيني
لمحا
قريه
بترك
وحكم
##قرر
بذل
دكت
تثير
##هرام
معبر
##بوط
غف
تبع
زفاف
سمح
ضيوف
جت
بقت
##DF
مذا
عظ
فورد
شاكر
يفع
بالآ
اخبر
حكما
بأحد
##ect
افعل
##جره
ووق
##بئ
##انج
أود
اقبل
تطيب
ماش
طار
##رقص
وول
سيئه
مآ
إيم
##ace
أخبر
صريح
شقيق
وخذ
نقي
##edia
##73
جبهه
اغني
رود
تدوم
##عاطف
##موت
يلم
درعا
##غاثة
##LL
ودور
يتق
حلقه
فون
mp3
ساف
mot
درر
##ستين
سوني
قرأت
محي
##BOX
رحت
لاخر
خر
موجة
أظهر
الإب
##وديو
##ore
ألي
عشرا
##فتان
الدب
##قناع
##شاق
قضى
سدر
##عايش
##EC
##سامة
مبك
خدي
بوق
لاخت
##جمه
##ادره
جافا
ومز
##كز
قتله
بحسن
وهد
تركز
ليلى
تحلي
##OM
جح
مله
كونج
فرقا
##تيز
##الو
##ويف
##يله
مينا
##سيكو
فوك
طلبه
لقطه
وزاد
Dump
اطيب
وارج
##vel
##ذجا
غانم
##ابهة
##ثبيت
شارب
سمر
##IF
ضغوط
هوي
يكسر
##روعة
##سبين
##روبا
بوز
##Tube
VU
قطعه
##كشاف
##قبله
دكة
##يرية
ياك
ومما
اضف
ساحل
##angu
للوا
لواء
##حمته
انص
تعهد
جند
حسان
##يها
طاقة
ياش
##ear
ومثل
بدقة
تدعي
رجيم
مدح
##اهما
شرطه
مخلف
مرضى
بصمت
1992
ريش
يعوض
TV
##YR
##بوه
##وتنا
##oh
وخلف
ربهم
دعوى
عربى
تبد
##نكر
عبير
##ans
لبيع
لصوت
لعلم
خلفي
يسوع
فإنك
##صرا
وردت
##طايا
th
ذمه
عشت
##احف
##سيخ
انب
تقلب
عفو
فيجب
بلاي
تضيق
Th
##مومي
##كشف
##انهم
##وكيز
واجر
امتي
امرك
حوض
وأق
صفا
لبيك
رفا
تولى
##54
براف
اسف
روحه
الخد
يرسل
##جزء
##ownl
يبق
نفي
كبري
##لتزم
قير
تخضع
وقتا
حزني
فضله
يشرح
يمني
##ظيفي
آمنة
زوجه
فكم
حلق
نري
##رحة
##ووول
##لمون
يكثر
أبد
بنية
تير
خاب
تتيح
مازن
لصح
##الما
متخ
##غاز
عقار
البو
جدار
##سيوط
زود
ظنك
فئات
ظالم
مكن
3D
GX
الجع
IS
أسود
دامب
النع
##DL
ديار
##اهية
عملك
الشا
##فاج
##UR
##ورون
##وارج
وفج
نيب
جواد
يحول
وحدث
جفاف
نعي
ليو
ايات
##صرون
متج
وحزب
مظهر
##لاتر
أداة
شملت
##للفظ
سالت
و3
##سيوم
##IT
##ومن
دريم
دولت
موضة
##غش
تغلب
بنين
##فراد
##لاتي
Phot
##نيان
قطري
رحلت
##شهار
ذم
##ورغ
راحة
صالة
انز
##لروب
ككل
فتحي
حملت
يحمي
فوري
بدع
##سبان
كلكم
ووقف
أيمن
قمنا
اعلى
متصل
واذ
##مانة
1967
##اليم
تمتد
ترف
هالح
وسأ
شهاد
##تهيه
##يتو
نية
وبات
أنط
##ضايق
##افظه
وحنا
فكري
تشاء
##ثين
شرعي
##وصول
رفيع
هدية
وون
فل
هدى
اذك
يخضع
تنفع
ركز
تربي
بعثة
##رئيس
PL
لاحق
فحل
أخذت
شهاب
عنف
ماخ
##أم
يردد
##ائيل
يالغ
بامت
العظ
اهت
##riv
##ييس
##فيلد
غاض
##اضى
طائف
كاد
للشر
97
ميم
##طنوخ
حريه
هذين
##صرين
يفوق
App
عجيب
##AB
ناع
وأبي
نظري
يكمل
##قاس
190
##لوش
اصغر
ظبي
##يزان
يدرس
فيرج
وجهت
شكري
سيئة
سوز
##ظهور
ممد
انضم
180
مشج
الرغ
مالم
##حس
دامت
##ber
هبوط
##ازي
تكسر
للوز
##IC
احرص
##ائده
1997
##واط
واثق
اظن
##ary
##وتكم
شفي
كانا
أيا
##ذنوب
##US
سخطك
##ماوي
##ستن
يستر
تعشق
##سيج
تطرح
##فوذ
سافر
شخصي
سنتر
دونك
نفط
بكاء
استع
اصبر
وخرج
غوار
بفت
مصم
تامل
##دك
كافه
##وابه
##صريه
شتى
اروح
مجري
##ثني
ووفق
لزم
يكبر
##صرنا
##قطت
اصدر
ودفع
اسهل
فأنا
ومط
##سمها
##ويني
خمسه
صعود
للكم
وحز
##نيني
##التي
طفلك
يتخ
الرض
بمرض
حزم
افع
ومث
##la
مكث
تصيب
فوجد
اخذت
وعين
هيد
صابر
سألت
وأص
نظمت
##وازي
##يشن
##روفي
##ساسة
حطت
ينتج
اسطح
اعي
صنعت
مشه
org
##لانه
##98
ورك
##ثيف
يوقع
وبشر
##سمات
##ائما
##هوله
تنتج
##ism
بلوك
ناه
##يدون
عوف
لقا
ملكا
بعدي
ملخص
تجرح
فاضل
وتلك
رحمك
1991
الكو
عقيل
تعط
ديون
إحص
ينصح
##ادق
لتد
قدرت
##KK
مقعد
عيا
##ضحية
##icro
مرمى
##سكري
فغ
أصاب
يقلل
نشعر
##old
##ساسه
بلع
تحيا
Prem
جف
يبر
نظرت
لترك
سول
##شيما
بلاغ
آفاق
منشن
خذني
أعت
درو
ليتك
US
##ren
ونست
دوار
##io
تراك
ps
دفعه
ودعت
بيدي
ونب
تخدم
ووض
##صان
كبرت
ترين
ادي
##ورتي
خم
##فرغ
ترسل
ويرى
أند
extr
##cam
##ماط
يابو
بلاء
شوقا
تحق
نظير
##تكار
##ult
##قالي
رحاب
أمني
##ودو
فلاح
بوقف
آلم
قح
##ولز
الضخ
هداف
##كرام
##همال
ومسا
##ائره
##مالة
خرب
حصر
طاقه
حقل
تهد
عذرا
96
##فاتر
##قوف
ساند
سويد
PC
##عتكم
طيلة
##ليمي
بسمه
ناط
##كتك
##زوق
##ودعك
##مامة
افا
Open
شباك
إك
برلم
##قبول
##تة
جالس
رؤيه
واشف
جرا
فاضي
safe
ابها
أنزل
##RD
اوف
##راكم
GMT
##IS
تفك
يسرا
تورس
##خور
##OL
##وبى
##طوي
ويز
##IM
##ideo
##اناة
اقصر
##واعه
##فلي
##يهما
ولذا
##ليغ
SE
##زعه
باول
تود
ماكو
##خلة
جى
بجان
STAR
surg
##قدين
مبدا
اشرف
شعري
##اموس
رعب
##يقاف
##راقه
للظ
دعما
وإع
معجم
##اييل
بعق
تغلق
وتحر
للاج
لزوج
عنان
##زما
##بيبه
##وقا
سهله
##رونج
##اوب
مصدا
##هائي
1512
ردي
مقيم
ابوك
غسان
تفاع
بالو
##دمت
جرو
يكلف
زا
الأي
##هايه
##راهم
##طوا
تباد
##شرطة
شاع
واعد
##درب
##رافة
قيوم
يمل
وختم
صيغة
وياك
##خسر
##فقت
انعم
طرفه
لاص
ومعه
مشجع
مصور
سوال
نقلا
دبلي
وضح
شدد
##ملكه
أردت
وخلق
أرب
##MK
##وعيه
##برج
أخري
##ئس
غلب
En
يجبر
مقلب
##جيم
##ZN
©¤
طق
نجمه
معز
مبرر
ووز
##sh
يمس
برقم
اسب
يهد
اطول
اقام
فصول
Ab
براس
اتم
ظلما
يحذر
زعم
وانك
تكسب
بنعم
متمر
ولنا
بارب
##صية
زعل
أجن
ودين
البؤ
أقيم
عصير
##وتة
##لاها
##رتين
طموح
صوتا
قه
وضم
حرس
##رقى
##كتشف
شوك
##لوتي
##OK
##وميه
هيون
هوب
##ath
فرنس
##ليين
##غناء
عرضا
##سيد
منفذ
vs
جرين
##اعدي
الزر
عك
للفت
##قضي
ونج
بمص
فاب
##لراف
SD
##ae
##متنا
##بيبي
وجبة
طنطا
##حاح
بحجة
##لمب
حراج
خات
##لدة
غزل
هونج
##نيل
##اسل
البص
##سيفر
حلها
ادى
ذكاء
يتي
حاصل
قبض
net
أسوأ
هاجر
##زمه
##120
صغ
##كيه
وفوق
شعره
فذكر
time
نفع
##ابون
دياب
##ادها
كافي
##ايا
رجوع
ومضه
شيعه
##وراة
وبص
ذر
زمي
غرق
سيده
عطلة
وحر
CH
ميزة
يأكل
كلك
##يداد
ضيفه
¤©
بحم
##صفة
ذل
تقني
Su
ولاي
عموم
حلمك
##موش
ذنبا
ختم
شيعي
##لدون
مسن
طور
تمث
اراك
لجهة
نان
يكرم
##وانة
كلن
بمشي
ذاتك
دفعة
94
تمس
شبكه
مدع
##مثلة
##امعه
تاكل
توقي
شفاع
##ديمه
ثر
تجدد
##327
##رزاق
عرضت
تنفس
##ZD
##زازي
صورا
طير
يدها
دافع
91
##ازر
##ram
##سرية
فبعد
نطق
جروح
اوس
##غمات
بنو
تغطي
##int
خطرا
كيني
تضرب
##جف
سلك
البس
##طرق
##ضرات
ينطق
حزنا
##تهاء
وصدق
بضع
93
صدقت
##اطا
##وزات
حبس
امشي
##ener
ولدي
يخوض
نمط
##ere
##يتش
عفيف
Qu
##سمية
##احية
اهدي
أحمر
##ريخ
يود
خاصا
فعلي
فقام
تجبر
أكون
##يتال
##ZS
##وتات
##osh
##58
حقها
1993
ظلت
##389
عكاظ
##رحي
سكاى
##فاذ
##شكلة
تره
لآخر
سلي
##المت
دعاه
ديا
##اليك
يتفق
يغلق
منظر
طابع
فالع
حداد
##تيبة
##مها
##بده
##قيها
فجاء
حبل
##سطه
##غله
موحد
##كوني
تتخ
تحض
##IGER
كانو
##دنا
حاط
محدث
بعب
لكنك
##eg
شعبه
##ألك
ليها
تامة
وضيق
##59
داء
##ION
كوره
فتن
##ولكم
تقال
زهير
ارضي
##لسوف
##اان
أليس
ترس
انور
##زاني
ارم
وفدا
##فاهم
##ضرب
نبيك
جلي
##لونه
للمخ
##غيره
ثقيل
##رائد
##ونز
ومسؤ
##شرنا
قحبه
اسك
##ائلا
##فاؤل
تحذر
شىء
بشي
وكفي
قاع
لحفظ
أزهر
##que
ملاب
##ؤوس
مركب
تربط
ظني
بلقب
عروس
فلق
##رفون
شتاء
##وائج
بيتا
يدر
بزاف
##ادف
##ناث
وطنه
أسلم
##للط
##لائل
##اندة
إزاء
ضخم
مشي
جذب
ألق
اساء
سلبا
##فاعي
##ung
نملك
ومب
##وبل
تخطي
اياك
عفوا
##غيم
##ويح
صحف
1980
##ذوق
##وارب
لمي
##وشن
غايه
##افيا
لغرض
سيح
##يتم
الهن
نفى
##♥ღ
##اكه
##لسة
بامر
عليم
ثياب
جيف
سيئ
خالق
##ريمة
##يدز
يتصل
هيثم
وقب
ماده
##فورد
##وكيو
تتعب
رآ
اوسع
يكاد
للطب
هولي
بأمر
منسق
##282
##ربيا
##قصاء
##الوا
ليبي
سلعة
##رموت
دايو
##ale
##نجاح
لباس
ضيقه
سيطر
##se
أدرك
شموخ
بشان
بدت
بركه
وقفة
شدة
حجاب
بسوء
نزع
ذمة
##اهن
أير
حث
حرج
ذكي
ومغ
ابنة
هيكل
##سمنت
عفوك
واول
دونه
برغم
350
نضع
##فضه
زحلة
فجأة
##شغل
##ادثه
أبعد
خبي
إل
##اشا
##المه
جولي
فأما
يقام
مفتي
##AH
للمه
مشيط
وبقي
لأبي
دما
##ناده
##ics
##مهات
لوج
اجم
Tr
عتاب
Sc
ودخل
هارد
قتلى
الدف
تعي
وسعه
##شيوس
اكمل
يحد
حقد
ثبات
##غفرك
##صص
##erv
##فيري
تقصف
##اعيد
خبره
##وشة
نقدر
إكس
##وهاب
أكمل
##وتهم
إعت
مبي
1989
محبة
فديت
لاتس
##118
##خلاص
اغار
##قطه
##طفئ
فذلك
باغ
##روان
##أسم
نين
##بيقي
يمسك
رعد
وفرح
##تار
##بكي
##ink
أعرب
للغه
بابت
نمير
وايد
وارد
##دمه
يعزز
ارحل
##ظري
بكيت
غار
##ناش
1968
##76
##قصير
##صارى
بصري
جلدر
قرعه
##7770
##ايها
معاق
وغدا
كق
أوجه
لجلب
لاتب
لاا
كنزه
##منون
##NG
مهتم
درع
نفذت
##وابت
سجون
قومه
ولهم
تغي
##وشي
وردا
حقيق
##ail
وبإ
جيمس
Un
CNH
يافا
##شان
دقة
PKG
صناع
يسخر
منهو
لذوي
##المة
##2010
لامن
طيار
وقفه
Am
##جابي
##ددين
لجل
##روش
يمسي
انصح
##NT
##تناع
##ومك
وتقد
##سمت
##بعات
##وسيع
حشد
مؤلف
بيحب
سبام
##بغاء
##يعاد
170
ادعي
##برغ
##جهد
لحظ
توبه
حضرت
ضرر
ناظر
إقام
ظاه
وشكر
ارك
ينهي
نطلب
##ثلا
بقطر
اللط
هالك
للاخ
ماض
شقه
##عني
متق
##زيه
وللا
##جرى
##أته
رابع
##لجا
هه
ساكن
كمب
وأمر
##اهات
رين
##ائفة
##ناقش
##روفا
اوص
##اجرة
##لاقا
##سبت
حصد
للتج
باقة
اسد
El
كرات
جدوى
بؤ
شهري
وكف
محذ
ولاح
كيري
لشهر
##ااك
##لاده
لاقت
##AG
ينكر
عهده
للاس
جادة
##غور
للرد
جيده
##رائه
خلل
اقد
شقتك
مقهى
سكرت
##وصيل
##سوبي
أعاد
يوان
تدفق
##وتيك
##جزة
نخبة
##ئام
##ys
دلال
سيات
وعود
##فوك
ثقل
وقتي
##53
سرور
خوات
دمر
جوع
##وجات
0500
##ptv
##عوها
2020
##لده
تسوق
صلب
للجز
اقوى
أمم
رعا
اوق
ميجا
وللش
أبيض
خت
احكي
##عباء
لادن
##الخ
امنه
تارك
كونغ
فازت
##جاجه
للتر
##جرت
فاعل
طعن
حاد
هلك
ابوس
اكن
لجمع
وقدر
##وعين
##افير
فيفا
يسأل
ياما
##٠٠
احن
توبي
برود
لمثل
##ury
بكلم
لوف
##لفاظ
لعدة
##نياء
فيض
للحب
##هده
واهل
##بادئ
##ستار
##ريش
##ينسي
vb
الحش
هرم
LG
أطول
##لبن
وتضم
ارخص
قبرص
وصوت
نوفر
##حيلي
أنبأ
أبل
شوب
كورد
دفعت
بصير
##غواي
##ورط
##عودي
##عيان
##زاع
يصور
تبعث
نوي
##سيون
وبحث
شطر
يخلص
iptv
##آة
جهل
وتوا
قتيل
ضاعت
تحمي
سراج
##هرة
يحظر
##let
##اهيه
##يمر
هاك
وحصل
تجده
##وحش
عرضة
##مارة
لرس
غايب
##رائع
وعرف
##اثر
TM
فديو
##ct
ذنبي
ايت
طوا
##اردو
##وانئ
يعقل
يخفي
متمن
زهرة
عجب
##ثرا
##زهار
للتق
##كاثر
رايه
##بيحه
##شهر
##كتات
##ese
نفوذ
وبار
ارقي
ابل
##زى
##لحف
بروز
طلوع
1982
وحضر
هندي
كروم
كنتي
قوس
ورود
##نتهي
##ئتين
##كرار
بورد
أيد
##سوم
حروب
مسكن
##ood
##جزه
وعضو
فسب
تحرر
جوكر
اناس
##هيئة
يوجع
جماع
##عاه
##وطان
خطه
ودية
##رقب
وإح
للتش
بلوغ
وقله
باطل
نسخه
لحين
##جج
##غازي
##ثية
ظهرا
1988
رايح
اطرد
##7824
##بعها
قرط
لاري
##حهم
##ؤم
أشبه
إياه
مجرى
استج
ميني
اسوء
##نوك
خلصت
جوية
يرسم
الفح
ليال
##93
##وقيع
حسيت
محبي
باط
فقيل
##REAM
##ock
تلقت
##جيزة
شال
اياه
فأخذ
##عوده
اسكت
قناع
مسبق
##بب
زكي
شعرك
##رابة
وروح
تظلم
مايد
##سيح
ترسم
##طاب
يشغل
موته
##فلت
##ee
##ظرك
صنف
مقرر
وممث
هدفه
##ml
الصغ
##ريحه
أنش
##للين
مدام
يدع
##بابة
تقرب
رفح
لهن
##دان
##فرين
ساس
سجد
رزقا
بعمق
##oth
حقهم
بمؤ
##بطت
الجذ
يفوت
ضحية
ملز
تمضي
ركعه
##gy
غلاك
ديما
افاد
فالج
وحشه
يقد
فكرت
شره
##دايا
##اكي
900
خليه
وأول
يمضي
بيتر
نوعه
عاا
خله
شعيب
##اجات
عفا
صفاء
##بيو
بإست
##2015
##خار
##قارن
##طهير
##قدان
##بداد
ورجل
زوجي
شيب
ناجح
وبيع
en
كونا
ذاتي
يختص
##عمق
هود
حجاج
فاف
ينال
ميتا
كرس
لفتح
أعض
##فضة
كذبه
##يقاع
أخيه
طلبا
##يفية
جسدي
##حتهم
جاذ
معيش
تاه
لسي
##فتي
نيو
##ین
هين
ألقى
بى
##ranç
##عله
عقبة
اسحق
##لفل
##ولوم
وقوف
##وادم
الهض
خلع
لئ
تشرف
ووصل
##رابط
ثواب
##يداع
طفو
##ئح
##وفان
وإست
دخلي
##آر
يعجب
تشار
رامي
MP3
أورد
مجرب
##غلق
1500
استه
باتا
##حمدي
##وشه
تكاد
تحذ
##جازي
يلح
##كبة
وجها
مناخ
يهود
##بايب
##ويله
حصن
##ولن
##لدات
خوض
##alax
فلب
اسهم
نسعى
##ميلي
##oun
##جما
للتخ
بيدك
مخي
##روءة
##خصيص
اسره
وحمل
كنه
الأت
متوق
مقدر
##اميك
##خاف
##لامح
لابت
##uch
ضياء
##دلة
تدبر
تصلح
تعثر
##غداد
##صرها
ستين
فيج
يكمن
##AL
غو
##وصف
اتع
##رافه
360
##ويتك
##حيى
رشا
تكمل
غباء
نبيا
##تيان
فوض
##UB
##هاش
بغية
اهو
وتعب
نايم
أدلة
اسفل
جئت
##GD
سلمت
تاس
قطعت
الإك
##وابا
##ورنت
ظلمت
سيره
##نئ
##يلي
دفتر
تدمر
##قاتل
قصاص
ادور
##واهم
##ئته
افر
قان
حنون
محلل
احسب
حمار
##راة
ذهاب
##وافل
##سيسي
##وقيت
HT
مايس
بيرو
طلق
إغ
حقن
##لتني
نبدا
بيبي
مجن
مجمل
##360
##دته
وذهب
ويط
##كروا
الإي
تتجه
ونع
بإد
فهمت
مهنة
اختك
عبق
##سيمة
اجيب
##اطري
قتال
واجد
مثيل
حفص
##ائعه
##ئران
لوحه
##فاة
روك
وابي
تطرق
عيبا
لطال
رمات
ونق
اسما
مخاط
بطرق
##عبين
يسار
##ييه
أثاث
يغطي
توه
يميل
##ins
تقلق
يتيم
تبرع
لولي
وإذ
##تف
وأهل
بادر
ماق
احزن
وطال
تسكت
وجرى
تبغي
##ware
وتتم
لعقد
حضره
##الط
ردت
فمع
شكلت
اخطر
و4
صاح
ترحل
عصرا
حلما
عظام
لرجل
يله
##فوعة
تشرح
فتنة
##لمس
أعطى
فاير
##ting
ونف
##بتهم
##ذبه
تومي
يتنا
##زني
EC
بركة
ملكة
##ثوم
ليح
بصور
مجدي
##خرية
شيك
لحق
الون
وسج
اتب
##أله
اسرة
جنة
##نهم
ظرف
مضاد
حفاظ
##سنة
##ضيء
تعطل
فلور
يمث
أوز
وفاز
##تحاق
يجر
مؤثر
##فظة
كوين
داره
يجرح
شامخ
مصحف
##خلوا
دوس
دفن
##ator
Fl
##ثان
0550
غروب
يؤذ
##خيم
##حمله
عمرا
##vue
ينعم
عسر
متنا
نرجع
وطيب
تصلي
قصيد
##ويب
##ادته
##IA
##St
عقاب
ليتم
##لونا
ابشر
ضيع
للعب
##نساء
حاش
##ايير
بمق
حليب
انتق
Sm
##OT
ايلي
وتاب
عدوك
سقي
ينبض
وجز
##طوبة
##راش
يزيل
##نور
صامت
##حرص
##لزام
##plic
##اضره
Tra
##ؤوا
##الاس
هنري
طاعه
براد
عناء
بصدد
##KP
##شرية
جني
نرت
شكره
ab
اشر
كاري
ويلي
تبيع
ناقش
احلم
يتك
##ony
حسنة
ولط
يشجع
وأسر
يتعب
بتغ
مدرس
##ههه
ازمة
غن
الوك
الغس
لكأس
تورط
##87
كيا
كلش
##زقك
اشبه
##EF
تفصي
##اربي
قبلك
أكس
عزه
آمال
ركب
ناجي
##يدها
##ذات
يهو
PHP
محو
نصرة
تخلف
الخت
ولده
تعدد
##يسار
صعبا
كج
##نعت
##هاها
Gu
تطبي
وسمع
تزول
##ef
##او
o°
ولست
يعلق
لعنه
حيله
كفيل
صبي
إصاب
يشرب
نذكر
بياض
حبنا
SC
##غون
يحرق
##شور
##حتنا
شفيق
##وعها
تفوز
جدية
تشغل
كوس
مهر
فقل
##أيت
##ينيك
##ars
##حترم
##بدع
هايب
عجوز
##ame
يخلو
##سكس
##خلا
125
بأول
##امره
قاض
اوضح
واو
##رقي
سيست
طابت
##طفه
حده
عطور
##199
شمل
تصب
##تج
مسمي
تشري
Con
عشاء
##max
آبل
خليج
وقطر
يظلم
شكوى
رفعه
وضبط
##86
ممات
طلي
##وجا
غانا
سويا
##جزئة
غابت
##قيمة
موزم
سميت
ووج
بضعة
معلن
##ويز
يرحب
جريح
انتر
هيت
##آب
وجن
يصرف
ظهره
جبار
وارس
##ايز
تعجب
##معي
ينج
رينو
##als
##قيبة
مكي
هاجم
كرت
القا
بكرة
تركه
سرك
010
وصد
##ميمه
تزعل
##هين
##هادي
##74
نشيد
##iyab
##للد
نوري
ابيه
يجز
يجلب
عسا
تكثر
##وزن
و2
مجرم
##كوا
قميص
قسوه
قيود
وصفة
لارت
##ومو
##OA
معلق
##ريضه
ياحي
معال
ذري
وشرح
تعنى
جيتك
##دوية
طبقة
وخر
فتم
##ادين
ظفر
شئون
أوس
ساو
##قتكم
##وافر
ليص
مايم
نشكر
رشح
روج
يمتد
وبش
##حدر
منتد
ملغ
##رقت
نامي
##حرر
لسبب
قوته
عبث
يفسر
تظ
##برها
##معاء
الشئ
بحور
وإما
##عدم
جثث
AF
حمدي
##مامه
##TML
##اكيد
تناز
نكتب
##ااح
##اطي
طفي
##ادقة
ديو
غبي
##همني
des
##دياد
خالف
much
يثق
صليت
arab
وكون
LA
أسم
محله
يحط
##ضحيه
##tl
##جود
مختص
القذ
Te
ستس
##iew
1987
تدير
ضو
##غرات
##لوت
##ahar
فيلد
##سوا
##عري
##عوات
ومضم
ولوا
بدين
زح
غلطه
##عدوا
Em
بدفع
##زنه
كروس
تزين
ورث
عارض
عشية
يلحق
ويحب
آداب
عميل
تنال
لسر
##رث
برؤ
فو
عرعر
بردا
محضر
حنبل
ويضم
الغش
##كاو
كذاب
ماغ
##ina
ابوه
ضجة
كسي
##500
نرج
برأ
غيرت
وسعت
كاظم
شقي
نجمة
##جرام
##ارسه
سويف
بدوي
تحي
وقرأ
فوزي
بيج
فاشل
توني
هونغ
##ance
##عاج
وبلا
فاكر
##خرط
##شياء
fr
##ندس
برن
ريحه
ألح
حزام
##وننا
فتحه
##خري
##طباء
وتنا
##حاسب
نصل
نفهم
##منح
##ويها
##ايح
##واته
1979
##لانا
قاطع
##نوع
اشته
يضاف
##جاني
450
مصد
##صوص
لدور
تحية
لوال
##امس
للبط
اجي
0533
##ext
تذك
CA
##لاحق
نقبل
حبها
##فتره
##روى
مدرج
جيري
ديل
##حنة
كإ
##ملت
راجل
ضلو
##املك
يحن
##555
وسبق
وكثر
فدا
قضت
بمد
##فعية
يمد
حيفا
شجع
جث
لعبد
اكدت
##ضوا
عطرك
ياز
للكي
##است
تعجز
ماقد
ابين
##ux
ولف
##لائي
##لست
بكسر
خصي
اوري
فردا
عدنا
##ool
ساك
وانش
ضايق
تسرب
ღ♥ღ
أنثى
ولين
##ملك
ندرك
طرب
لضعف
GT
تلبس
عشقي
##لاجة
وتض
رزقه
##شهاد
استق
دونغ
##فلام
صبرك
##شاه
تخلق
اجاز
يزرع
مواف
رأيه
اخشي
SV
عداد
وعاش
##لوبك
وسهل
##عاقه
أشعر
إيف
ايمن
كوبي
دعمه
##باهي
خاش
psd
سيري
زن
Se
أدري
الأض
##هاوس
كلوب
فالد
نومك
##شوا
خفا
##وجاع
بعقد
يفرج
الإض
رخي
##ازان
الهج
عهود
أسفر
##وقل
احصل
هاذي
يغرد
للأم
بوغ
##زور
RT
##ادرت
##معون
وقصص
رزقك
بمنع
##دواج
HU
وحدي
##زج
##فتك
##زيم
دمج
##وسيا
بإح
يجيك
##رحه
##سول
عرشك
نيل
بقطع
مؤتم
وعط
افقد
رئاس
محف
بحض
##رفشه
##وتشي
##زهري
مجله
هبة
هواء
##Sat
ونحو
منفر
ملل
##ارعة
وبق
تسلل
رنا
##يبها
فالق
اظلم
وصحه
لقر
وهدف
امها
حسد
شرو
جاري
كافر
##okia
##ique
حيز
New
##بيرا
##لزمه
فاين
##ئتي
موجب
لينك
ثمان
mod
##ya
زحمه
##UP
##جده
رغبه
تبعا
ازمه
##شح
##أنف
##ارث
يزعم
تاون
##تن
##سما
##ناهج
ذراع
##1932
الخف
##orn
نوال
واهد
هوبا
وحزن
تحلم
##كور
##اصره
##ستنا
إحد
يتغ
وإي
يلعن
##نتظر
خطبة
##دهن
cl
فمنك
##ينج
صيغ
منال
##لاوي
يريح
##ps
دمي
مغر
##وزو
تشبع
##yle
##غمض
اال
غرين
مارب
فالب
سيؤ
##ودج
##min
مايش
موطن
واسم
يكسب
فؤ
##ناعه
عرس
تمطر
جزي
الشن
##زوجه
لمد
##قلها
ورح
نزيه
سكك
My
ظلام
سره
ترزق
هالت
##ليبس
بماء
يلب
##رداد
غائ
ZW
##براز
هطول
حبة
بغرض
بلج
لفض
توضع
##روقة
جرم
تطبق
وامر
إنش
موجز
##خرون
بعت
خوي
رؤيا
كتر
مونا
بلان
بحري
لبدء
مكعب
صحب
عيت
##ذبهم
##صاله
##82
off
مسوي
##NL
##اكسي
أوسع
رافا
ومحد
ادخ
يصب
ترند
##طهاد
أمان
LED
حربا
##ستية
للعد
يشكر
معجب
انيق
##الاب
جائز
تطل
نعوذ
سفن
##للى
تفاج
ووك
دامك
##VB
يتر
##نايا
سأل
جول
وملي
##جمل
##ديلا
احي
##هيد
سمعي
ارق
##قدات
##ich
يغلب
رأت
وحما
يشك
قولا
tr
##soft
FR
تحتل
للغة
لجعل
##جوب
ينفي
سجده
لأهل
محق
تميل
##اردن
ماخذ
الفس
شوط
وطنا
##راسه
عيان
لصف
105
عقدة
مهت
##قاظ
##اسات
طيف
وأه
وراك
تاجر
١٩
وولا
ارضه
بته
TH
نعود
تبث
##موا
##روي
فادي
طنجة
معتز
دره
قالا
قطب
تبك
أذن
مسمى
وفرض
##رغم
##تت
شوفو
تحرق
اذي
جنسي
##مائر
##ress
نحيا
do
##رقة
واسر
قاده
اللد
##لونة
تقلل
الذل
شوت
##واضع
بطول
1948
##شاور
##لتس
1970
بهاء
خرق
جذور
مفار
للمص
سقما
لأنك
وحيث
مفخ
تاف
##لعي
وسبل
##its
ترجم
عبرت
##ثري
حظوظ
##ؤؤ
##ذهان
ماتش
بنور
بحال
بقصف
نبحث
##حش
برسم
أصغر
لخير
رخص
بولس
عجلة
صدقة
##دني
حجب
مخلد
BO
012
ريد
ويعت
##بروا
سطر
لئن
افب
فهر
ينقذ
ستوك
بموت
##83
يربط
عبور
روق
شفته
غصن
متب
##شخص
##81
سعه
##اكهة
##نكم
علية
اصنع
##رورا
1436
لكى
آلات
تخلو
لوم
تضطر
باض
##رفا
ألأ
بحوز
##84
٢٠١٨
مريح
##ساح
##شيت
##ild
dm
##درت
##ترون
##وبك
عنيف
فی
##بلاغ
جيه
##ions
كجم
وشعر
طلا
##بوب
وسير
شنت
لإح
كائن
ضجيج
اسكن
محط
ومض
أنور
اقص
##ضافه
تند
خج
توجع
##ll
سمعه
بشحن
فخرج
##كرز
سحاب
يتجه
حور
##اطع
بسام
رياح
عقيد
##فلة
1986
يركز
##oy
حره
##ربيل
بلدا
نرحب
ترحب
تجلب
سوب
لاير
عسكر
##احت
عزف
ركعت
طلحة
##توا
##بتنا
AD
اللى
##عوان
ملاذ
وضرب
إطلا
##كتها
غموض
أسعد
##طاول
بيق
ضربت
قيا
##نعة
##اطس
##بنا
أخطر
قدس
شيم
وفخر
بعدة
##داس
101
نلعب
##عظ
##شوق
##اصلة
حلت
مزور
##دس
لحود
لذيذ
يبا
طبيه
##ريمه
مرجع
##2016
لدنك
وضحك
##RK
رفضه
##جزت
مولى
##TD
sa
##مالى
PS
١٠
هاه
احلا
بيلا
##OC
والظ
زور
قاسي
اخوك
##كف
حقنا
بظ
##هامه
بعضه
يجه
##هاج
منهن
##2018
مبتد
##bc
##واله
##اعته
جسمك
خيبه
##عط
يزعل
لاو
بحه
مرمي
سيل
نترك
بيش
لقت
LC
شكلك
صرنا
يونغ
بوسط
وكلا
220
مؤيد
شروق
تتك
كمل
##يفر
##ضون
بشوف
1976
##غاه
رافع
غائب
ونز
فجعل
##obe
ونتي
##لوح
زغ
ضل
##فادي
تعاد
فاقت
امسك
##سيو
##able
داري
##مله
##بتين
أودي
راقت
يقط
##GA
فوكس
طلاق
##مأن
يته
عمير
مستن
##اهلي
اتق
تيجي
سواد
بلم
ظلمه
##طراف
يكفر
و7
##IO
##خف
##ريفة
قو
تيفو
##عنا
يرجي
##101
ناسا
متفا
لرو
اعمي
اصول
##97
بلدك
وخل
ايوه
سيه
فلقد
نراه
##ory
##نزير
رادو
fil
نصره
زينه
##متكم
DM
ann
ستان
يلبس
تخبر
##غاء
##وطني
وللأ
بحجه
يحتل
يخفى
بحل
##لباو
لعض
حراس
أعين
##ذرت
##فته
تعزز
1439
عرفة
##مرا
دح
اقب
اشار
##قدا
هروب
وحذر
فالص
نيتك
وقرر
هواك
إضغط
عاشت
##ower
نهى
##حرية
عدمه
##ماسك
ميه
جروس
##طاحة
هرب
##وسفي
سجاد
سهيل
خلية
أفك
##ages
اعني
rec
لاق
رضى
وسخر
فاعت
أفر
##erry
##erat
##طاوي
ووقع
##جماع
##نينا
بصح
كاني
ليث
لدفع
##ann
##روهم
وحلف
خلفا
قضي
##أر
##رموك
نتاج
تيس
##يدية
قرعة
يرف
نجل
وقوة
الشق
##بطه
##قلاع
##ودى
HTML
بتب
ركلة
ac
متلا
وصال
خبز
أجاب
عونا
ياعم
بيسو
فخذ
صلح
##EM
وادم
نبقي
##فوقي
##iss
1200
1962
ممتع
عنزة
##وارض
3000
يكر
®¤
1983
##ذكاء
5000
سحاق
##لامس
حليف
##وليا
اخته
طوله
يحلم
##RL
ومرت
أجرى
##وائق
جلو
روفر
شيبة
Sun
بلص
بعلم
تكرم
دلو
##اثير
##شام
حجه
الظل
تشرق
bl
##مدن
متحم
فداء
زخ
ضباب
صحيف
سئ
وامه
أكرم
ومال
وضعي
لعن
ويضع
لبك
مشغل
##1594
حادة
وإخ
##هانة
##كوك
MK
##قلون
115
محطه
وليت
قدرك
دجاج
نقف
تطول
تأمل
تكرر
##جيني
جنان
اجبر
يبني
بلغة
فبعض
##400
محال
مخال
##رفات
غيمه
##ينيه
##روسة
تحمد
نجاد
نامت
وترت
تجلس
##افح
تخيب
وأحد
أئمة
تقرأ
##ضحت
تجرى
اضم
##ابيه
أكن
بعز
هلو
فرو
يهزم
##باخ
جدير
حساس
##صفية
تحضر
##كهة
Des
فطره
مصدق
لعبت
وولي
كفت
تخي
##ade
##زعة
اوفر
نشرة
فيجن
آر
فنيا
نزيف
##وياء
##ميق
##صاعد
##ركته
سلبي
##VR
نأمل
حسنى
عساف
سته
بله
##صروا
##روال
لامر
وينه
صفه
##ظور
طرحت
تؤيد
شهرة
qu
care
حجمه
اطهر
لئلا
تهمة
وكلي
IPTV
افخم
بوقت
ذالك
خصص
حفله
أمية
ورغ
ومو
##زس
##يلها
يصرخ
KM
رهن
باذ
##حوذ
اجله
زهره
فوزا
كاي
وصفت
##راوى
ومحب
غمر
ساخن
عصب
كفاك
وعسي
تقوي
##EP
##air
Net
بهال
لشعب
تمثي
وسيد
ماتب
##mb
غذاء
مجيب
0020
تنسى
يأمر
تبخل
أرجو
##تمت
##les
وفك
تتس
ناري
##نتان
##crip
##صفور
سارك
حية
باقت
##امو
منعت
##ازم
تضاف
سيخ
##ريدي
يطيب
°°
##ئهم
##طيس
خن
الشد
يعاد
##راعه
ass
تأك
##ote
##للص
شنط
ed
مايج
##آلم
اوغ
يرمي
##جوا
مبين
يؤخذ
ينف
يذبح
كريس
اظهر
##بدة
##وينا
##ثاء
EG
خلطه
##سارة
زله
##قلات
يصد
##ices
دوب
يغضب
شفاه
##كاني
يسد
سنان
##كورا
بربك
##قفال
##كسات
اذان
##طاني
السط
##معة
مخر
نفر
يصوت
##ائس
##MW
##فكر
حبان
الرص
تزرع
Ed
اليق
منعا
##خراط
لود
قمع
كوفي
AB
شرعا
زهور
شحات
سلمي
111
سناء
##انيت
##BP
يتب
عجبا
##غيان
سكع
فمه
##أسها
تله
داون
اجود
تسيء
يخرب
اطعم
وكنا
يعز
##ذاهب
مترج
هائل
آم
يره
##رشي
اخضر
موب
لته
يدير
##وريس
عبره
##ull
غفور
طوق
##عوى
بلط
بابه
وخلي
##وفيه
ابغي
##المن
Comp
##212
راغب
تبون
##ID
بوسع
##RR
ضمه
ضيا
##غشقر
يوصف
صاحي
تولد
شلل
##كرات
##حيا
يطرد
Wh
##وقين
أنمي
فالس
مزع
فرك
##اعف
مستغ
##أجر
##خيرة
##لاي
غش
لتك
حمزه
جبيل
رمزي
تنقص
##جعله
الثع
ثمار
##قتان
غلاب
حلوة
##حواذ
جبت
##تبع
TOP
بصيغ
قهوة
قولت
يشع
زينة
معط
قوقل
##طفات
آلآ
اجرا
روحا
بوصف
يرا
غلي
جنبي
كورس
رافي
بطب
##وكيت
ياغ
وارب
ادا
اقنع
بجمع
عنق
وليا
متاع
##ستهم
عواد
ارا
##RC
مكم
لمنا
دقه
##رضى
##VE
ترحم
##صاح
102
وتؤ
لرا
Sky
نجا
مفصل
##ايات
##atch
وعنه
ساي
##ازى
سرد
بقصد
HK
كيت
##iel
اللص
وللت
نتح
كامب
بمقت
##غلون
وكسر
فيست
##وليس
اغلق
محاس
##شارد
خوري
Mar
الخا
وكس
الدش
الطن
صحبه
للعق
##خيلك
جبير
##ريدا
##زيما
فاتح
ht
أسد
حصاد
##فتين
وسك
تحرص
us
يسعي
##غيت
بنود
حزمة
باطن
##قبه
ندري
نقاء
et
يعبد
شيكل
##خلل
##نكار
##603
تمد
##آل
هدد
##وهام
حلمت
شبيب
حالا
##ستم
لولو
##بايا
لحسن
##ناا
نوبل
ثامر
##هاية
##اريك
##سايل
قرضه
##عته
##ثنى
وحس
مايا
فرضت
فوا
##زعاج
##ابيح
##عاطي
103
##واتو
##قهم
##ولوا
gu
وسيت
تسعي
##همك
##زداد
##يزال
##قلاب
حرصا
##حقه
عائد
هوت
وظل
آخره
ضعفي
كاون
تفع
مهي
وفرج
صغر
##دمج
حماه
علئ
قوام
دفا
كرست
##سترا
للتط
شجاع
##عرفه
1973
تشجع
كادي
##زهة
BD
وقود
KH
نود
فأخ
##ورن
##ضيات
وقهر
قاهر
##غفرت
متل
لبلد
يهمه
ازعل
تهدي
ذكور
طفلة
##وارق
مقبل
ثمه
نتج
1984
##WG
##SAT
##كاه
##انته
لعله
##حمت
##ضره
##سفي
جلست
جرحك
مجيد
اخيه
نيته
جسدك
وأمن
##وريد
##811
إلت
باور
طاعة
عزتي
##قني
##نتهم
##زئة
باخر
##ضج
##idae
جاهل
صحته
حاسد
خفف
##فش
وأغ
تليق
##ضاها
##طرب
تنطق
ومره
##ضول
##غره
آت
شجن
بتي
¤®
Book
AMD
##92
ضفاف
##كاغو
لخوض
غنى
عوز
وجي
سرت
##زيج
قضيت
##سامي
##وائب
فرغ
وعقد
مترو
اجاب
##زقة
خامس
مصعب
بشك
##رتهم
تحيط
ارف
##قلل
وصلك
أدم
طحن
##اليت
اسس
##عوبة
##شقي
117
##وخي
##حتين
عزوز
##فعش
MS
حارب
رقمي
خلط
BW
حيه
طيفك
ذره
ندم
قيف
ag
و20
##ضرر
##طباع
إلح
قرآن
وقسم
بريك
ننسى
##ini
وذات
حققه
##ضانة
##ize
NOK
##ديز
Cont
##لالا
ترو
وود
بعمر
و200
##زها
متهم
##رائس
##INE
ننسا
##وطي
ويقت
لنس
جهه
##نتا
قرون
أوف
سيش
لاجئ
##لواء
لوي
##ثون
##فراج
آلام
يسهم
يحرك
تعدل
فإني
شابا
##وووم
اها
عاقل
شفتك
سعة
##كما
حريم
ابش
عو
دارت
خائ
##سندر
مخز
##ick
صفقه
سوءا
##ens
مثلث
##امنه
##سنى
قارئ
ep
حشيش
##ern
سى
لنه
نسمح
ولعب
##ارون
لسم
ذكرا
##ابله
وبج
##😂😂
وورد
وابد
اخو
يوجب
لاتن
كيفك
##سار
##كتبة
تايه
موفق
وبيت
تال
غدر
ملو
##قطقه
##ضاعف
حضنك
نموا
اقوم
##ظافر
##هات
##بتسم
##حايب
ومحت
ورجع
كربه
صححه
ولام
##مود
صمتي
##يزو
SZ
وسيم
حكمة
لمخ
لشيء
ونسي
بقرب
مذك
##ولنا
ذكية
##وصي
##مائه
يسري
##ظيمي
ذاه
نشأ
يحرص
##متين
يؤلم
##خون
بدار
غنية
تتفق
أبدى
فردي
##حبها
جنبا
##باطل
##هري
لصد
##رسه
جنين
##ماطم
ونوه
ابوع
وعدت
##tv
##700
يحظى
جونز
ثرو
احيا
##ونين
##لوهم
وبع
ستظل
عيار
##line
مصح
##ضعة
##بيدي
##حمن
##جرون
##PS
بمنت
##ووه
يطبق
تحبك
توسع
##ايغ
مغلق
تلوث
##وامع
نورك
##لمرت
رخام
يوضع
##اعش
Web
119
عروة
##راسي
##ومها
بمخ
۩۩
يزول
حصان
##بيوت
بشده
Av
##MAX
نسعي
رقاب
غب
عبود
ستد
يشفي
الوف
هذة
8A
بحت
استئ
لبر
وظهر
##رتس
فنا
بيح
BT
وطلع
##جزر
يجدد
فيات
كبد
##نفذ
##هرت
نؤ
هواه
ضاح
مفه
##ميين
ناخ
##uter
صمتك
##وابق
راية
ولاه
بذات
حدي
لونه
ماجه
بحقه
##ساه
##افق
هيل
خلت
##وافذ
سمك
Box
اخسر
مصاد
مزيج
سكني
Res
وراه
##هولم
##سترو
غطي
رتب
بائع
غادة
ابنا
##قراء
نكن
##طرح
لشرك
##und
تارة
بمه
اعيد
##اسه
##نيوم
١٤
اوك
##اام
يقي
فاخ
##دحام
لقوى
وارض
##زمات
##صلح
صاير
بنوك
رأيك
##جلي
##غادر
تعق
##مته
1977
وصيه
أحق
فراس
تلع
وليه
ستع
آلي
أرضه
يتضح
##بداء
##ولال
كئ
جايب
قاص
بصرف
##ضاح
ناوي
توشي
بابل
هاري
##صوره
##باحه
##امد
لقول
Mus
بصحة
ستست
شبرا
ظله
##رمني
##وفيت
ازرق
مهره
تنوي
تسأل
ويكي
البب
##لاوه
##ادجي
ضمت
##باش
نومه
##سمي
سولا
سحق
##غلت
##لديو
بكري
فرط
سمعة
ثقب
عبوة
قوما
لخص
أكتب
قاعه
##وسيه
##باغ
تسلط
مواق
وحجم
##ماي
لانو
انكر
نعطي
نيف
وذاك
تار
##آإ
##RA
قطره
##غطيه
##مجة
يتف
وعت
هادئ
MX
شتات
ووسط
##يريه
حفلة
ثع
وهذي
##خالد
##شني
تهون
##ستك
اثق
بحبه
هاما
عان
وتقع
حزبه
##ضييق
##زنك
يدمر
##جته
واين
ذها
خشية
افض
ريان
عديد
new
ونجح
##وطين
ازاء
##بيرة
فيف
##زنات
##ؤكم
يقلق
عتي
اقصد
صلبة
وعجل
للبح
وياه
نمشي
للحق
Fr
##com
##يسا
##work
##ثت
اسلم
غيث
ويمت
##يلا
جرج
##عوب
##YP
##ابري
علنا
عفان
##زالت
بحس
ونن
يتسع
لفي
لناس
خانة
فهمي
##لسون
يلجأ
يتد
جزاك
مغرب
وإنه
تخطط
و1
عتب
أوبك
1981
محض
تنح
حذرت
ديسك
##وجها
يفصل
##لوين
أشاد
اتجه
104
طاج
نصار
##ones
##ريها
براك
##وافز
دمه
##ينز
طمع
تغرق
لإست
##WD
##ats
##ردام
##لوكة
تتهم
١٢
منظم
تعذر
##ختصر
فالن
وبها
امطر
تفصل
حسي
ترمي
قفز
الإغ
##صاد
روعة
ألو
لاكن
##وثه
##EX
قصرت
سرح
ألس
سببه
اعتق
اجلس
ثقتك
تضيف
لوب
شيخه
فهى
ضمور
تاكا
تخر
تالي
##لاتك
##ECH
هاذا
Rec
مقرا
##رامة
الفل
سعره
##ليكس
ALL
يزل
1434
##كنات
ثبوت
شط
إنني
##يناه
##raph
يطيح
##عيمي
جهدا
رباب
##خلنا
قسط
All
̈°o
رايس
ومعت
مصنف
##خامه
##عمله
ويبت
غص
اضل
اياد
نعد
للكل
يرق
يقات
وسفر
كنع
سهام
يلوم
##ميلة
تزور
خيب
##بيله
اصير
##اشية
##شفير
صمود
##يلون
ترات
1961
##BA
0A
Fri
تصد
وعلق
##amp
##ياهم
##صعب
ولكي
أتم
لكزس
كونك
نؤكد
يزين
##زنا
ننام
##ندسة
توصف
منحت
##تحت
قبري
تدعى
مناش
##فاسي
فرقه
##لافه
تبرز
##باين
حذاء
عطف
بطلا
نؤمن
استب
##هدئة
حبر
بدبي
NT
فأمر
ننشر
سبوت
وثق
UF
سينا
كمد
##رتنا
سله
يسود
##شآت
تجسس
صعد
##ound
اضع
قارب
##لابة
##bl
مغت
برقا
بشرى
ينبت
ركوب
lat
فقت
##نني
##آمر
##رفش
##تهاب
##ساي
تأثر
وممت
COM
ابيب
صوف
عكار
##رمز
ووطن
##لدان
تجسد
طوني
##اريس
للاد
شتي
معلش
بالظ
خفت
لمسه
Sa
قلمي
عزك
##قتني
●●
بارز
مراح
زلنا
شوفي
##91
##gypt
سلمى
رقيب
راند
##آآآآ
##لافي
يخطط
دعي
##تحول
112
##بؤ
معبد
وطف
للفي
بسمة
##فوف
تنف
وزع
تشا
ادعى
نحوه
##ذنبي
ببيع
شوفه
##sn
##لتر
يجيد
لوق
تالا
1956
0D
ركاب
##نيس
تسبق
انفع
ثانى
الطح
دخيل
IQ
##دهم
وثم
درك
بخمس
ميخ
سرقه
اكي
شموع
تباع
خف
فصار
وطرد
تعوض
حقول
im
لقلب
##ضين
##ثاله
##600
منعه
يسيء
ملق
راش
وطول
بدني
قدوم
##حور
مصرى
##ختر
##RN
##yp
يراد
يصر
URL
و10
128
##يتور
##يلاء
##قاو
لقتل
وسبب
##نيئا
بديع
ترشي
بيكو
##ضعه
بفرح
لغز
240
##اال
مادي
سهرة
غربه
##ذيات
بوي
قيرغ
للتم
##فرقة
مملك
##افت
مكوه
خاوه
سيرا
سائل
##بتون
##رحيم
وسمو
لفرض
هزاع
عياش
135
تغضب
ونائ
شور
افرا
MAD
##ode
##بعك
طاز
كيوت
##حكم
##ريان
شعلة
تمل
جذي
فتت
اخطا
دفء
ساوث
انتا
بيجو
1985
واعط
عتبة
عشقا
أذكر
##وعود
فيكي
##كرها
وحط
##يانغ
##اثه
##بيون
##بتني
##YN
مجاز
نزاع
##فسر
زيف
أعوذ
نصير
يفقه
##بكاء
خصصت
بحرف
أفق
غوغل
##بيري
انكس
##ZT
تكفل
##موم
بخت
قره
ماحد
##خوان
سكوت
##قطار
##درجه
فمات
يسهر
مقدي
وبعث
آلت
##عيدي
##ذكرة
ريك
١١
نياب
يخون
مجلد
ولاء
فتي
وتضع
##وتن
B1
قرص
##اقبة
E2
قدها
سعيا
لدين
550
وثي
##وليت
##رائر
ET
لسا
سماه
رحبت
ret
انض
107
لتط
جرام
وفن
بيست
##ذاذ
ندي
يرس
تشاد
فاك
##800
قرآ
قتلي
##دامه
2030
لبا
اؤمن
خذا
##هيار
للرو
جدلا
##ثنا
يخفف
أشك
##رائض
##تيمي
تحطم
أنظر
يبك
تعوي
يشتم
##للوم
##كونا
لبيه
بعرف
يزعج
##ساخ
نشأت
##رامل
وشوف
دش
تسحب
1978
##سرين
شجر
خطيب
ميدي
##مط
طرحه
نفعل
رابح
##PR
صعده
Air
IDR
##اءل
السع
شرطي
وذا
سلوف
##وهن
عكر
تجب
هزت
توض
بينت
##درسه
فنيه
##YG
زكاة
فالف
هالب
وخلص
##عتني
##صائل
##يامي
##ريطه
فاخر
إبن
##كش
##والت
##وول
اميل
تفوت
##ank
##زرار
وذوي
دريك
يسته
نضحك
مليء
جيوش
##وديه
يسبح
تسهم
اصحي
تجن
جذاب
##اطرة
##ظلات
فالإ
هياط
لخلق
##لالك
بابك
مرم
ضمني
إلها
ووحد
##بابه
شتم
عاصي
##روية
جدتي
تهب
اكذب
##رحى
بسحب
أمكن
##امجه
تكف
وروي
يصاب
Man
##ريكه
تسرق
غزو
هيه
##ماة
يأتى
Fil
غط
وزم
أظن
بعثه
##زلنا
##NF
ينوي
عمدا
فيد
دخان
##ther
ووعد
##ثاره
هالة
##صاره
##ures
لأني
1975
تتصل
للنه
##وبكر
كسرت
شانه
##زوير
يالي
بنغ
اربح
كوري
اضعف
##nxx
##oham
##خصاب
فاعف
لتست
وعقب
##سائر
دجن
##GK
##خبة
كوبر
عزت
منحة
تنمو
##زيمة
size
وتمر
##rim
تصمت
فئه
##عمير
غاف
وضد
سجله
##form
BHD
كالح
وهبي
جوله
وحرص
##ايكي
روو
##رفان
وأرد
فقره
بلغه
SAT
يضعف
جعلك
احط
حيوي
اجلك
برز
الفط
مرق
يااا
ينق
بزع
الزن
##ياي
##HS
##وسل
##شارع
حكمت
بثمن
##ااه
##لبول
اوكي
اشع
##بيعه
توحي
وفهم
##بوهة
أقبل
##مدت
ستره
##52
##سكين
OM
LK
توزع
خوان
css
ابنك
درسا
##بيس
ذب
##قاص
نفرح
يتوب
##oot
غفله
##ومال
شارل
PEN
وهج
قفل
##اوا
متمس
بكار
مودي
وسحب
رايق
عروق
مايب
No
106
Ag
ألك
سكين
فود
طريف
يضح
##عجل
فليت
##نر
##كوت
فالش
تتنا
##طلون
V2
قالب
يأمل
اوجع
يؤخر
جنبك
##رقل
اسير
يؤدى
بلف
##plus
##الكم
108
لوقت
##eal
وترب
فرحة
شغب
##لتم
يقنع
مهلة
حايل
con
لحكم
فام
##نعام
##JF
##والد
تقعد
##روحه
موكب
##صورة
سدا
نخاف
ديلي
##هاض
##سبها
ناسي
##فيون
يعا
وقاد
¤°
تؤذي
نايل
خور
##تبة
لهي
اححح
حرمه
بخبر
##na
data
غلام
##خائر
جوني
شايب
علقت
اضاء
##تكاب
يشفع
##احبه
لاط
##عهم
##EB
وامي
##vol
MDL
تبعي
##صوت
SLL
كتبي
اممي
جواك
ارش
##ملي
سارع
##وطنة
CM
##وبلس
شابه
##ونيك
GYD
##طبع
محطم
آلع
##فسد
HRK
فراش
##قيته
##تمان
##اكو
وللح
guid
مكنت
نسعد
##طيها
##مضي
html
##fo
وحا
لاتع
اراه
##سلي
سجين
Ak
650
##موذج
##ميشن
##itt
قائل
تنغ
##حتي
Ap
وجلس
##راجه
##یر
اعتز
##بهان
اره
0547
سوار
##ated
##جيله
مشكل
قبح
نضال
##يرمو
صان
##مونا
أهلي
رشو
ننصح
نفاق
بنيت
أفت
خشب
دعس
بأص
يكلم
لحوم
##وكه
عنب
##مول
مروح
تافه
متعة
مذهل
IC
يابن
rtl
##شئ
فوضى
إسم
تشفي
حددت
##vb
ناض
##con
أسهل
ورزق
تهوي
ناعم
سكون
يخطر
##وحي
##110
##جرا
##رايا
