[PAD]
[UNK]
[CLS]
[SEP]
[MASK]
!
"
#
$
%
&
'
(
)
*
+
,
-
.
/
0
1
2
3
4
5
6
7
8
9
:
;
<
=
>
?
@
A
B
C
D
E
F
G
H
I
J
K
L
M
N
O
P
Q
R
S
T
U
V
W
X
Y
Z
[
\
]
^
_
`
a
b
c
d
e
f
g
h
i
j
k
l
m
n
o
p
q
r
s
t
u
v
w
x
y
z
{
|
}
~
¡
¢
£
¤
¥
¦
§
©
«
¬
®
°
±
¶
·
»
¿
Â
Ã
Å
Ç
É
Ê
Ï
Ð
Ñ
Ö
×
Ø
Ù
Ü
Þ
ß
à
á
â
ã
ä
å
æ
ç
è
é
ê
ë
í
î
ï
ñ
ò
ó
ô
õ
ö
÷
ø
ù
ú
û
ü
ā
ă
Ą
ą
ć
ĉ
Č
č
ď
Đ
đ
ę
ğ
Ģ
ī
į
İ
ı
ĸ
Ļ
Ľ
Ł
ł
ŋ
ō
ő
Œ
œ
Ŗ
Ś
ś
ŝ
Ş
ş
Š
š
ţ
Ť
Ŧ
ū
ŷ
ž
ƒ
ư
Ʒ
Ƹ
ƽ
ǁ
ǿ
ȫ
ə
ɪ
ɱ
ʁ
ʃ
ʋ
ʘ
ʽ
ʾ
ʿ
ˆ
ˉ
ˮ
́
̃
̄
̅
̇
̈
̊
̡
̧
̨
̲
̳
̴
̵
̶
̷
̸
͡
ͼ
Θ
Μ
Ξ
Σ
Ψ
Ω
ά
έ
ή
ί
α
β
γ
ε
ζ
η
θ
ι
κ
λ
μ
ν
ξ
ο
π
ρ
ς
σ
τ
υ
φ
ψ
ω
ό
ώ
Ϡ
Є
А
Б
В
Г
Д
И
Й
К
М
Н
О
П
Р
С
Т
Ф
Я
а
б
в
г
д
е
ж
з
и
й
к
л
м
н
о
п
р
с
т
у
ф
х
ц
ч
ш
ъ
ы
ь
я
ё
є
ѕ
і
ї
ѽ
҈
҉
Ғ
Җ
Ҳ
ҳ
һ
ա
խ
մ
վ
֝
ִ
ַ
ָ
ּ
־
ֿ
א
ב
ג
ד
ה
ו
ז
ח
ט
י
ך
כ
ל
ם
מ
ן
נ
ס
ע
ף
פ
ץ
צ
ק
ר
ש
ת
װ
״
׼
،
؛
؟
ء
آ
أ
ؤ
إ
ئ
ا
ب
ة
ت
ث
ج
ح
خ
د
ذ
ر
ز
س
ش
ص
ض
ط
ظ
ع
غ
ػ
ف
ق
ك
ل
م
ن
ه
و
ى
ي
ٓ
ٔ
٠
١
٢
٣
٤
٥
٦
٧
٨
٩
٪
٫
٬
٭
ٱ
ٲ
ٳ
ٴ
ٹ
ٺ
ٻ
ټ
پ
ٿ
چ
ڈ
ڊ
ڑ
ړ
ڔ
ڕ
ږ
ژ
ڙ
ڛ
ڠ
ڤ
ڦ
ڨ
ک
ڪ
ڬ
ڭ
گ
ڲ
ڳ
ڵ
ڶ
ڷ
ڸ
ڹ
ں
ڼ
ڽ
ھ
ۀ
ہ
ۂ
ۃ
ۅ
ۆ
ۇ
ۈ
ۉ
ۋ
ی
ێ
ې
ۑ
ے
ۓ
۔
ە
ۖ
ۗ
ۚ
ۜ
۞
ۡ
ۣ
ۤ
ۧ
ۨ
۩
۪
۫
۰
۱
۲
۳
۴
۵
۶
۷
۸
۹
۾
ܐ
ܓ
ܔ
ܕ
ܘ
ܝ
ܠ
ܡ
ܢ
ܨ
ܪ
ܬ
ށ
ँ
ऊ
ऋ
ख
द
न
र
़
ा
ी
ॐ
ঔ
া
ৣ
৲
৴
৵
ਿ
ੀ
ઇ
હ
ஃ
இ
ஊ
ஐ
ஓ
ஜ
ண
ஷ
ஹ
ಏ
ಞ
ೋ
್
്
ก
ง
ฒ
ด
ท
น
บ
ม
ย
ร
ล
ว
ส
ห
อ
ะ
ั
า
ิ
ี
฿
เ
แ
ไ
็
่
้
๏
๐
๑
๘
༄
ཡ
დ
ო
რ
ღ
წ
ჲ
჻
ᅠ
ᴍ
ᴥ
ḋ
Ḥ
ḥ
Ḿ
ṭ
ả
ị
‐
–
—
‘
’
‚
“
”
„
†
‡
•
‰
′
‹
›
※
‿
⁄
₡
₩
₪
₫
€
₹
⃣
←
↑
→
↓
↔
↕
↡
↵
⇐
∂
∑
−
∙
√
∞
∥
∫
≈
≡
≽
⊰
⊱
⋘
⋙
⋰
⋱
⌐
─
━
│
┈
┣
┨
┫
═
║
╔
╗
╚
╝
╠
╣
╬
╭
╯
▂
▃
▅
▆
▇
█
▌
▏
▐
░
▒
▓
■
□
▣
▧
▪
▫
▬
▲
▶
▷
▸
►
▼
▽
◀
◁
◂
◄
◆
◇
◊
○
●
◐
◑
◕
◘
◙
◢
◣
◤
◥
◦
◾
☀
☂
☃
★
☆
☎
☏
☕
☜
☝
☞
☰
☹
☺
☻
☼
♀
♂
♔
♕
♛
♞
♠
♡
♢
♣
♥
♦
♨
♩
♪
♫
♬
♭
⚐
⚑
⚛
⚜
⚠
⚡
⚫
⚽
✅
✈
✉
✋
✌
✍
✎
✒
✓
✔
✖
✣
✦
✨
✪
✲
✽
✿
❀
❄
❊
❌
❖
❝
❞
❣
❤
❥
❦
❧
➖
➞
➽
⟰
⠀
⦁
⬇
⭐
⭕
ⴰ
ⴳ
ⴷ
ⴼ
ⵉ
ⵍ
ⵎ
ⵏ
ⵓ
ⵔ
ⵖ
ⵙ
ⵜ
ⵡ
ⵣ
、
。
《
》
『
』
【
】
〖
〗
あ
の
゚
ア
イ
ウ
グ
ジ
ッ
ツ
ト
ド
ビ
フ
ブ
ベ
ミ
ム
メ
モ
ョ
ラ
ロ
ン
・
ー
ㄨ
中
乀
乂
二
優
国
备
彡
文
日
本
語
设
국
스
어
한
﴾
﴿
️
￼
🇦
🇧
🇩
🇪
🇬
🇮
🇰
🇲
🇴
🇶
🇷
🇸
🇹
🇼
🌚
🌞
🌟
🌷
🌸
🌹
🌺
🌻
🌼
🌿
🍃
🎁
🎈
🎉
🎶
🏃
🏻
🏼
🏽
👀
👆
👇
👈
👉
👊
👌
👍
👏
👑
💃
💋
💐
💓
💔
💕
💖
💗
💘
💙
💚
💛
💜
💞
💥
💪
💫
💭
💯
📌
📍
🔥
🔴
🔵
🔹
🔻
🕊
🕔
🖤
😀
😁
😂
😃
😄
😅
😆
😇
😉
😊
😋
😌
😍
😎
😏
😐
😑
😒
😔
😕
😘
😜
😡
😢
😩
😪
😭
😱
😳
😴
😹
😻
🙁
🙂
🙃
🙄
🙈
🙊
🙌
🙏
🚶
🤔
🤗
🤣
🤦
🤷
🧡
##ت
##ن
##ا
##ز
##ع
##ل
##ق
##و
##ي
##ك
##م
##د
##ر
##8
##S
##q
##M
##F
##e
##c
##g
##y
##ض
##ه
##1
##5
##ص
##ح
##س
##ش
##ذ
##خ
##ف
##ؤ
##ث
##ط
##ج
##ئ
##ة
##غ
##ب
##أ
##d
##t
##a
##i
##o
##n
##ء
##آ
##ٲ
##ھ
##ظ
##7
##2
##b
##L
##I
##A
##H
##K
##k
##٠
##x
##4
##Y
##0
##E
##v
##G
##Z
##3
##9
##پ
##6
##إ
##ک
##N
##u
##C
##P
##f
##p
##U
##J
##w
##r
##s
##€
##h
##j
##l
##ñ
##O
##R
##D
##ے
##ى
##m
##е
##з
##м
##😂
##ִ
##ז
##ּ
##י
##ר
##ָ
##ה
##T
##X
##B
##z
##🏼
##ی
##🚶
##🏻
##ê
##ٹ
##Q
##£
##■
##V
##W
##😇
##🤔
##ڷ
##ü
##ˆ
##μ
##ڑ
##ڈ
##١
##٦
##😉
##❤
##️
##گ
##🎁
##🎈
##🎉
##🤗
##😘
##ۈ
##ە
##×
##ں
##🤦
##🏽
##♂
##٧
##٨
##٥
##💔
##ä
##ہ
##چ
##ʁ
##̃
##ρ
##γ
##υ
##ό
##κ
##α
##σ
##τ
##ο
##р
##ё
##н
##ы
##ڳ
##ٱ
##ͼ
##̳
##٢
##é
##✋
##😭
##😩
##т
##а
##ۃ
##â
##😹
##٤
##♀
##Ù
##Š
##Ø
##😊
##👏
##и
##٩
##с
##п
##у
##́
##б
##л
##к
##🔥
##👌
##♥
##è
##®
##ٔ
##ã
##😎
##🌹
##🍃
##ػ
##в
##о
##й
##д
##ۡ
##۰
##ڤ
##є
##💚
##ٓ
##ۆ
##ڨ
##✌
##🇸
##🇦
##¬
##ו
##ע
##ץ
##▓
##█
##ς
##٣
##💘
##Ã
##©
##ч
##ٺ
##Ф
##💖
##Œ
##¥
##💗
##●
##☼
##○
##ټ
##ó
##ڵ
##ۅ
##🙂
##🏃
##ç
##х
##🙃
##🙄
##ン
##ラ
##イ
##ж
##я
##¤
##۪
##۫
##✈
##😀
##💛
##💭
##û
##°
##ۋ
##ù
##😢
##ć
##ı
##í
##ν
##į
##👍
##🙌
##ô
##✔
##😒
##ל
##ⵎ
##ⴰ
##ⵜ
##۱
##💕
##☕
##✨
##İ
##😆
##ี
##่
##🙏
##Ƹ
##נ
##ט
##ק
##۶
##۸
##👀
##⚠
##ι
##💙
##±
##۹
##ö
##۳
##۴
##۷
##š
##★
##ד
##ם
##😌
##∞
##ڛ
##ێ
##🌚
##ژ
##🇰
##🇼
##🇴
##🇲
##ٴ
##ā
##│
##π
##г
##⚫
##ร
##ั
##ง
##ก
##ว
##า
##อ
##ห
##บ
##💋
##🌷
##É
##😋
##۵
##א
##ٻ
##ۧ
##ڙ
##ې
##ڸ
##😃
##😁
##¦
##√
##Ś
##ь
##ח
##😕
##ō
##😍
##ڬ
##ڠ
##😏
##⁄
##ס
##פ
##ڪ
##ַ
##☺
##ę
##ी
##😑
##რ
##ڕ
##น
##ด
##̴
##̵
##❌
##║
##❀
##۲
##ा
##æ
##ת
##ğ
##ש
##✍
##ī
##β
##ʽ
##ڽ
##￼
##ן
##η
##ε
##ღ
##ø
##🇧
##đ
##ٿ
##ド
##フ
##ト
##ə
##ɪ
##ц
##🌸
##ú
##◦
##à
##₪
##λ
##έ
##╭
##━
##🙈
##ṭ
##ƒ
##🌺
##œ
##◄
##á
##î
##ï
##ڼ
##ۓ
##ա
##צ
##כ
##💓
##💜
##С
##ܐ
##ܠ
##🇶
##ۂ
##☆
##ʿ
##╔
##Â
##ž
##♫
##♪
##ë
##😳
##🤣
##ъ
##❝
##😐
##🙊
##👊
##ş
##💐
##Ş
##ۉ
##ஐ
##र
##ˮ
##😪
##۩
##ʾ
##↓
##ー
##ム
##ۚ
##ܘ
##ܪ
##ܝ
##ܢ
##Г
##♡
##💃
##🇹
##া
##😅
##어
##👇
##😔
##🇪
##å
##⃣
##ш
##🌿
##מ
##ג
##🌼
##👈
##💞
##😡
##ܬ
##Д
##❊
##←
##😄
##і
##ѕ
##இ
##̈
##🖤
##💪
##ά
##ⴳ
##ⵏ
##👉
##♠
##🤷
##ξ
##ב
##ڊ
##̶
##ω
##ί
##ū
##ڹ
##ۗ
##🌻
##̨
##ٳ
##θ
##ܕ
##ܡ
##һ
##А
##ţ
##🕊
##დ
##φ
##ή
##ツ
##õ
##☻
##ڦ
##ண
##ò
##ڔ
##้
##เ
##ย
##็
##ڭ
##÷
##ŋ
##☝
##О
##Я
##В
##И
##♛
##💥
##վ
##✿
##🌟
##≡
##✅
##ッ
##ブ
##մ
##̄
##▬
##☹
##ł
##Ö
##۞
##ۤ
##แ
##😜
##ア
##モ
##¢
##⚽
##̇
##Н
##Й
##ώ
##☞
##ख
##✒
##⭐
##द
##⠀
##┈
##🇮
##ă
##͡
##ۀ
##č
##═
##Р
##ۖ
##−
##ζ
##🇩
##Б
##ɱ
##😴
##ß
##ⵉ
##ⵍ
##ⵡ
##🧡
##̧
##✎
##̲
##ロ
##▪
##Ł
##Đ
##ǿ
##ś
##Μ
##░
##▒
##🌞
##►
##П
##̷
##스
##❥
##ミ
##ۑ
##ۨ
##ँ
##♨
##ۣ
##ⴷ
##ล
##ф
##☜
##ą
##🎶
##♩
##▌
##👑
##🔴
##❄
##😻
##╠
##न
##😱
##Ľ
##Ą
##Ç
##✓
##✦
##🇷
##💫
##⚡
##ď
##📍
##ۜ
##ڶ
##↔
##➖
##ږ
##ḥ
##Ð
##Å
##あ
##խ
##👆
##◣
##◆
##❖
##メ
##๑
##Ω
##ᅠ
##ї
##の
##→
##Ϡ
##☏
##М
##ƽ
##🇬
##◊
##ⵓ
##ⵣ
##⬇
##≈
##К
##☀
##ړ
##♦
##✽
##🙁
##ʃ
##ő
##🔵
##़
##↑
##ⵔ
##ȫ
##∙
##💯
##ะ
##ิ
##ท
##ף
##국
##❣
##ܓ
##Θ
##Ļ
##☂
##Ü
##☃
##ŝ
##Č
##ҳ
##─
##Ḥ
##ョ
##Σ
##▲
##Т
##ך
##ĸ
##ψ
##Ξ
##╚
##ジ
##׼
##⋰
##ウ
##한
##ო
##ส
##Ï
##ܔ
##🔹
##ۇ
##ả
##ஓ
##წ
##∂
##۾
##ŷ
##Є
##Ñ
##ม
##Ŗ
##ஜ
##ܨ
##̸
##Ҳ
##Ê
##್
##്
##⊰
##♕
##⊱
##∫
##ֿ
##◾
##ށ
##̅
##Ŧ
##▶
##♣
##✲
##♢
##ビ
##ڲ
##▸
##Ť
##✉
##◘
##ઇ
##ไ
##⚜
##ੀ
##҉
##▃
##▅
##▆
##▇
##▷
##✖
##৲
##♔
##◇
##□
##ĉ
##⦁
##Ғ
##グ
##◀
##🔻
##▐
##̡
##ベ
##ị
##₡
##Ψ
##⭕
##◕
##☰
##╬
##▫
##ⵖ
##Ʒ
##ஃ
##📌
##̊
##▂
##ѽ
##ⵙ
##ⴼ
##▼
##┨
##╝
##๘
##╣
##ೋ
##ਿ
##▽
##װ
##Ḿ
##฿
##ḋ
##⋙
##Җ
##♬
##ư
##ஹ
##∑
##ǁ
##₩
##◤
##☎
##▣
##ฒ
##↕
##ॐ
##╗
##⇐
##◁
##◙
##↵
##ಞ
##◐
##ʋ
##҈
##Þ
##ˉ
##▏
##╯
##ᴍ
##ऋ
##હ
##ஊ
##⚛
##✪
##ㄨ
##Ģ
##❧
##ৣ
##◂
##ஷ
##৵
##゚
##৴
##↡
##₹
##₫
##❦
##🕔
##ঔ
##♭
##๐
##◢
##ऊ
##ʘ
##❞
##▧
##┣
##⚑
##♞
##◑
##⋱
##ჲ
##֝
##┫
##◥
##∥
##⋘
##ᴥ
##➽
##ال
##لم
##لا
##ات
الم
##ان
##لي
من
##ار
##ية
##ين
في
##ها
##نا
الا
##ير
##له
وال
##لت
##لع
##ام
##ون
##ري
الع
##را
##لى
الت
##وا
##لس
##دي
##ما
##ست
##اب
##لك
##لب
##ور
##يا
##لح
ان
##ول
##لق
##لأ
الس
الح
الأ
##لف
##بي
##لو
##هم
##اد
بال
##لله
الله
##اء
عن
##لد
##لج
علي
##لش
##مي
على
##لن
لا
الق
##ائ
الش
##وم
الب
##عد
الج
##وي
ما
مع
##ني
##رب
##ذا
الن
الد
أن
الف
##رو
##اف
##يد
##سم
##رك
##من
##لص
##يه
وا
##لخ
##حد
##نت
##ود
الك
الخ
الص
##بر
##حم
##سي
##اع
وت
الي
##لإ
##قي
##تي
##لر
##في
##قد
الو
الإ
##عم
##دى
##با
##كر
##وق
##لط
الر
##كم
##يم
##رف
##حت
##اني
##لذ
##سب
##لام
##مر
##يل
منت
##عة
##اه
الذ
##يف
##كن
##يت
##لة
##يس
##رة
كل
##قت
بن
##بد
##خر
لم
تع
إلى
##لال
##جه
##لغ
##مع
##اص
##فر
است
##كت
##وت
كان
20
الط
##وب
##قة
##دا
التي
##يب
##دة
##سا
##صر
##يات
##بار
مت
منتدى
##لث
##حمد
##شر
وأ
##حب
أو
##ته
##دم
##اج
مج
##رض
وم
##لية
##ذه
الث
هذا
ولا
المت
##وف
بعد
اله
##عت
##اض
اب
##فس
##وع
مش
يت
##كل
##در
##الم
وه
عم
##كون
يا
##يع
##حة
##صل
##بل
##وس
##نه
##للي
ام
##مة
##خت
اللي
##ارة
بين
وب
والم
##حي
##هر
قسم
##عب
##ده
تح
201
##لنا
##وج
مس
الذي
##عو
##ثر
##تح
لي
وق
قال
##خص
وس
هو
##اري
وع
##عض
##قا
##قه
##الي
##هد
##راء
##رت
##لز
##ارات
##نة
##مه
##رد
له
##رج
با
##رح
##وري
هذه
##لات
تق
وي
##بح
انت
مد
##رق
##فا
اللهم
العام
يع
اس
تم
الغ
##وات
##وض
##ويت
##بت
وان
##كان
مح
عليه
##مل
##وز
##ئيس
##عا
الى
##اح
اج
للم
##سة
##فض
عند
النا
الز
عبد
##ند
##ره
##قط
##كي
وج
تت
محمد
##عي
##به
##زي
بت
بر
##يرة
##فت
يق
والت
##ديد
او
تج
##بة
المس
اليوم
اي
لت
##ورة
##er
##انية
تص
غير
بم
##عه
##نس
شي
##ريق
فى
##ولي
يوم
##اس
##طن
أي
##ظر
المنت
##ربية
أم
المع
##فع
المش
يم
لو
تن
##قل
هي
##طر
به
بد
قد
المن
ات
##وى
##وان
##ارك
مست
##كثر
إن
بي
##كس
##يني
ون
##ولة
المج
سي
##ميع
عام
اخ
وح
ذلك
##اي
العين
مط
##از
##رائ
##ركة
لك
اح
اع
##يون
##دد
##وه
تش
##ربي
حس
##مال
##ليم
قبل
##وقع
##أن
##دين
##جل
##لري
الاس
##00
##طف
ومن
##ياه
وز
##قر
بح
##قات
تس
الري
كما
##زة
##كا
##بك
يج
الان
اش
الام
المح
انا
##ديه
خلال
##وال
##ضا
الاست
##مت
حي
##ثل
مص
##خل
##نان
##عر
##وية
##عل
##نية
بش
القر
ست
##ثير
##وله
##يش
المست
نفس
##افة
وك
##صف
##الة
##رم
##طة
بعض
وش
##تك
هنا
الموا
##غير
##رام
##ذلك
الأم
##باح
##وك
بس
وإ
##راق
للت
##لوا
قلب
التع
##وار
كت
فيه
##ولا
##مد
موا
##فضل
ثم
##روب
##رس
##حدة
##ريد
##عاد
##تها
المص
##حه
##لض
##لآ
##راف
للا
##مو
##ئة
##غفر
اذا
ين
##ناء
وف
##جر
أب
##مات
بك
##اق
الناس
##قال
##وني
وهو
##رات
اص
الض
لن
للع
##بير
##ميل
##اش
الآ
يح
##ينا
##ضي
##رش
يست
##تى
يس
وص
##اره
##تم
##ماع
##هي
##لرا
##اط
##لاث
لكن
رئيس
وفي
##بات
##لان
##ديث
كانت
تط
##ارب
##يك
##ديات
##اريخ
للد
يش
احد
##وره
##ذكر
مؤ
فيها
##بية
##اصة
الرا
السعو
##جد
##يران
##سية
##عود
رس
##ابع
ولك
حيث
الشي
تد
##هل
بها
##ظيم
يكون
فر
##بط
19
##ياء
##كوم
تو
##حر
##الية
حد
لأ
##قب
##ضع
يد
##عيد
أس
السيا
##حن
المد
##مان
مو
##امل
##كري
وقال
اد
الإس
##on
شخص
يمكن
والأ
##الله
بالم
حتى
##كد
قر
##زر
بق
بأ
تب
##ادي
##سات
لح
##شف
##حات
والع
##نام
##قدم
##قع
##شي
##ضر
رب
##سن
آخر
##لامي
##عمل
##وح
لما
لب
##صال
##ساعد
بط
مخ
##اخ
##ائل
##ارج
اخت
حول
##لوب
##at
##طفال
عملية
خط
##انا
##ur
اق
تحت
##فة
كلم
التح
##يان
قروب
##اك
##نيا
مثل
##جت
عدد
ابن
المؤ
لان
سبح
لها
##ركز
##اله
ود
تست
مصر
##لاح
جميع
تف
واحد
وما
وسلم
##ديم
##هما
##باب
##يز
صباح
دون
فت
##ماء
فقط
سبحان
حق
##حدث
##راج
سن
##ورية
##بع
##تر
##ينة
##ضاء
وقد
##راه
##وة
##صد
##افظ
أنه
أخ
النظر
##تحاد
##طي
##ابة
##زل
##الك
مجلس
مق
##ادة
##هه
##لاء
الأس
والس
##ظام
##خدم
مب
##جة
##خرى
عش
##فه
ملي
##كبر
##فل
انه
اعت
إذا
ليس
بالت
##طقة
شيء
فإ
##ليل
##وص
##ar
##وير
حتي
الانت
##جم
دي
خير
##مس
##لين
##as
2018
##لاق
ولكن
##انون
مطار
##ارية
##فاع
##ديدة
##جي
##قم
##لسط
##واء
##ليه
وكان
صور
##ائر
##اث
تكون
##الب
تك
وات
##حيح
##عمال
##صول
##سبة
تخ
##غي
##راك
المنا
##زك
##يام
10
اف
##ابات
ولي
هناك
لج
جن
والح
الملك
الذين
كنت
للدعم
وخ
##الف
نت
بل
الوا
##عار
##رها
##ارس
علم
ور
احت
##صة
والا
اني
اكثر
##عاء
##سام
##فظ
أع
##ختلف
بلا
الشيخ
##ديو
بع
##قيق
والله
##كتب
مك
##حا
##ريم
التج
فان
##قتص
المخ
تأ
المغ
عليها
##دام
##ريف
دا
يقول
##تويت
يو
إلا
##ضيع
##يري
##لها
##وط
##قول
##نين
الصح
##حك
##سر
##كومة
##جن
مم
##ابه
منه
ري
##زم
ترك
ولم
احب
##روع
كيف
الال
##عضاء
##لامية
##ger
##وضوع
##ضاف
شركة
##اته
الجز
##نيه
وقت
##امج
##ذي
##عية
##نامج
المو
sur
##لظ
##سبب
حال
بان
##الح
##نى
##ظم
##روض
للح
##قبل
رج
لنا
##قى
حز
##in
11
##شت
تر
##ريك
لله
200
صح
##لقة
الاخ
العلم
نف
##هلي
##ادر
##or
لق
##جز
المط
مبار
##زيد
محت
البي
##لاج
اغ
##لاب
عندما
وط
الحمد
الظ
للب
##ولى
##gery
المم
منها
الفر
أص
##فق
يص
05
بج
الأخ
حين
##سه
الدين
##كو
هل
فلا
السي
عبر
الخير
##الث
الرس
##ولية
##ويه
##وقف
منذ
##ريب
هم
##لون
##لوم
##دارة
وهي
##وائ
العم
المر
حم
##اضي
الوز
##نسان
عمر
##يج
العمل
##ودة
يارب
##وريا
قص
##انيا
والش
ضع
##غم
##ظيف
الوطن
##اهد
موقع
##واصل
سب
##هو
##بيه
##يره
##زيز
يخ
##ارت
##اا
##قص
وجه
##الد
الكت
جدا
##ميز
حيات
##جهزة
كثير
تغ
يب
##واب
las
عنه
##داد
##اعة
صد
##بيب
عالم
##كتور
عليك
لهم
##اذ
فقد
أبو
بص
##جيل
##اتب
أحد
بما
نص
التص
##وث
##يادة
##es
مي
##an
للس
ثلاث
التن
12
##اتي
##راض
طلب
##نك
##راد
قط
##وء
##حق
رتويت
##تمع
##ئي
افضل
##ركات
فع
كبير
بإ
##كره
##وش
##للغ
للأ
##يرا
لع
##روف
##عودية
##ئا
الصف
نس
اللغ
##ليات
ربي
##ائق
14
يتم
##احب
##ميم
لات
##لرو
##ولار
والإ
اط
##ينه
الجن
##خدام
انك
مر
والد
بيت
لس
بشكل
للج
حا
##اركة
الرو
اسم
##ائية
أكثر
صلى
اه
عمل
شر
##لمين
سيا
واست
##ac
##لاف
15
##عين
ار
فال
الأول
دائ
أش
##en
إس
كم
##أس
برامج
##سين
##فاق
نح
نج
##بكية
##ياة
##أة
عيون
والن
##اة
##حاب
بأن
والص
يط
عبدال
##وبي
رسول
##ائي
قلبي
مات
عد
الوقت
##ذن
شك
##عات
التس
##لومات
فإن
لإ
##لاد
##وسط
فا
الشر
لأن
##مام
وانت
لبنان
##قتصاد
##خذ
##زه
تلك
صف
لمن
جديد
##ضافة
##al
##داء
##طية
##باد
ضد
##امعة
##للا
عق
اليه
العق
والج
الولا
النصر
##طني
##ويل
##لهم
الماء
اث
##وو
مث
ير
خاص
##خول
##ساب
الخط
رحم
##مبر
وزير
اخر
مما
يف
خدم
أف
نفسه
##انب
##وتر
##دينة
اول
الشعب
##رفة
الحب
##لسطين
الاجت
للش
##سبوع
##جات
##الى
##شار
ذكر
##انات
الاع
المه
##ساعدة
##نع
##اما
##زن
البحر
##لاه
ريال
##صار
##حث
##قاف
أيضا
##اعه
ايران
##جب
نها
سلم
اللا
##حمل
بنا
##امة
بخ
بدا
##زا
رقم
##ريه
##قاط
القص
وذلك
##الت
##ونه
##ذر
ارت
النبي
رم
##is
##بيض
##لكة
مجاني
حساب
##نج
##موعة
##رائي
##طار
ضعف
##دف
حب
التق
باب
الات
##زق
شع
العرب
الفي
ey
طريق
##خرج
البر
يجب
لكل
ماي
قائ
##ساس
##يدة
##فار
##اعر
الساب
يؤ
تاريخ
##om
##لل
##يين
للق
بسبب
##للب
كن
مكت
##روس
والخ
الاحت
##بدا
##ورات
##لعب
الشخص
ومع
مكان
مليون
##الات
صوت
##المي
لش
كتب
فيما
##هب
##وفي
مغ
##ضم
جز
##وجد
اللب
الجمع
ابت
##يده
##راب
##سط
##واج
##ساء
##ناه
عدم
طب
##عاده
أحمد
الحر
خلق
أبي
داخل
##ذك
##ونة
والف
إلي
بالن
eye
مركز
##تين
سنة
##ثم
يعني
##هاب
جه
الرح
##نوات
##قف
13
اجمل
##عداد
##ضة
##انيه
جمي
##طق
##ظهر
##شد
نحن
زي
##فاء
مدينة
##ائف
وانا
الشعر
الحد
الإع
عرض
##طيع
##am
مختلف
وهذا
وين
##ديل
بكل
##ئه
السنة
وحد
اللغة
روا
وجود
##ياد
ولو
بدون
عز
العس
شهر
واب
##باء
ريت
أخرى
##امي
الفت
##مين
رص
نب
##وتي
أد
اكبر
##قق
##ولو
##غط
##اعد
اخبار
##فو
##ائب
الآن
عشر
لد
الاول
مساء
والق
وأن
##بيوتر
فقال
نظ
حسن
يحت
علا
الشع
##قدر
صاحب
##ذب
##اعات
##شاء
##عاون
##راح
##جا
18
اللبن
##اكل
نعم
فأ
الحق
عين
نوف
##انه
##رائيل
القلب
##ion
جمع
الخاص
##يق
الاد
نق
قام
العد
مه
##طا
بالله
وإن
را
##لفات
##خب
حدث
دائما
الاش
##تنا
##بيل
فض
التش
كي
دين
السلط
16
##كرة
##ظمة
##كية
##ئية
دولار
بلد
##يدك
الجيش
عس
ينا
##تهم
سوريا
عاد
نش
##ورد
الدرا
والتي
الصور
وغير
ابو
##صي
##ديك
##ريط
##تمر
قت
حديث
##يفة
##شق
ويت
أول
2016
##رير
واس
جديدة
يعت
##حبه
لكم
الأن
وتح
ته
التى
قب
كب
##ورا
##ياب
##عادة
الطب
##ونية
##قيقة
يك
HD
القط
##دق
العاب
مف
وعد
اليمن
وزارة
بار
##فيذ
أق
كتاب
القسم
الاح
##اهرة
منهم
##واد
##ic
أما
انس
##مية
##طال
##خاص
نشر
##طه
باللي
وث
وكل
التد
البلد
##ابل
رح
##لحة
##وما
والب
##هلا
وضع
##شة
##جع
##راهيم
##صرية
##ميس
##كمة
##شن
قلوب
متابع
##act
##واع
##افظة
##بلي
زد
##مني
خلف
خاصة
##باس
##ضو
للن
الخلي
نحو
2015
##يانة
راح
محتوى
ذات
حما
انف
ههه
##صور
##ماعية
الرج
بغ
أمام
منا
مره
##رنت
##يدا
##مهور
##باط
فيديو
مرت
##يمة
##هدف
##ميه
مبا
##ضح
الجنه
##روح
بو
سا
17
##ابت
عائ
##ضايا
laser
25
##آن
وتع
##زين
##رين
رأ
الشرق
منطقة
رد
##اتف
الدول
##ليا
جاء
##ضور
##بيق
##صب
الجم
##طاء
أغ
##خابات
##ريقة
الأد
انها
##جاز
كلام
##يبه
للف
اكت
مز
نادي
امام
فريق
بالإ
##افي
مض
##امن
ينت
وار
عليهم
##ورو
عاج
##ربة
##لكتر
##وعة
##هاد
عشان
البحث
##ضية
##لول
السود
يغ
العلا
##ويتر
مسؤ
اشت
أخبار
##برا
المق
التف
##ارا
فوق
##جاه
دور
دعم
الحي
##وبية
##قاء
بنت
بالع
المال
##موع
رصيدك
أح
قوله
##ماعي
لغ
وليس
##بارات
##ابعة
الاث
30
الطبي
حزب
مدير
##ed
##سك
##شرة
##ظه
##ياده
##زال
قانون
خص
احمد
حلقة
خالد
##ركه
##قتل
نا
اجت
وض
##وبر
نع
الاف
##حراف
ضمن
##نسي
لاعب
قدر
سوف
تنا
الخدم
##ادم
المب
للر
كام
##وده
حسب
##زمة
cat
للط
##رياض
##هرب
تعالى
والث
تصحيح
##ولوج
سعيد
نفسك
محا
##خي
##لني
##امه
##ضان
سر
الداخ
##هداف
##عى
##رحلة
منك
اك
الأمن
مشروع
قدم
جمال
مسلس
حص
رغم
##11
##وبة
تؤ
سوق
##ولات
للك
##قيقه
امر
رائ
##it
مجال
تعلم
البشر
2017
نظام
##سباب
ني
التو
در
##طلب
سيد
##ائج
##يته
##اصيل
بالح
وسي
##ومة
##ليز
##aract
عنا
فن
##رى
وعلى
ليست
##ادث
##حية
الكم
##جراء
##ارف
##لاة
التط
##ستان
##هير
نفسي
ملت
##هاز
##وها
بالق
##em
حلو
فولو
مخالف
##هيله
ريا
##ابي
##رفع
خلي
إت
سنوات
##لته
علينا
##20
##للج
##الا
##سل
##نب
أهم
##همة
الاخر
##رامج
والك
النج
داع
توا
##علق
الاعت
نور
##لانات
صالح
تعرف
ملك
##لوك
##ونا
##طان
از
وغ
بير
##للق
النف
##نف
##شا
##رجع
24
باست
##ريح
الليل
##اتها
الترك
##ؤال
##اهر
اللج
فهو
الأمر
##غب
اهم
##ارع
##ik
##ستر
وبعد
جد
كثيرا
أنها
يكن
##ربع
جميل
أفضل
##رهاب
سم
##زب
##st
إع
النفس
للإ
بعيد
تحميل
يعرف
##جهة
بب
بالس
رجل
خارج
##نسية
الها
حبي
##بليغ
اللق
##ولد
##ونس
السف
##لما
##ضرار
شه
##ائد
أث
##فعل
##غل
رحمه
##بحث
عنها
البن
ألف
بلغ
ابي
سلمان
معه
##غيير
للص
لقد
مهما
##ro
يحب
العمر
تقدم
100
مبرو
اختر
يه
معا
##قائق
بالأ
##انى
##طلاق
##جاج
أج
كال
##ديق
أجل
##لائ
##بيع
##يلة
##وخ
مكتبة
نقل
سير
##كرية
روح
أنا
دعو
##ad
##بدأ
سلط
حقوق
حكم
بالك
اض
##لعاب
حاجه
اما
ند
لدى
دولة
واتوب
##طب
القد
النار
مسا
المف
واج
أمس
التأ
##اهدة
##رشيف
جع
كبيرة
عقد
تض
##تمام
##وين
بوا
باسم
##انت
حر
##طلق
تعت
بني
##قطع
وبين
ول
##ويد
بالد
شكرا
##سد
زوج
##شات
تقوم
##اهل
##ذهب
##اده
إدارة
##خصص
21
القدم
##سسة
موج
تحب
قلبك
##لمه
السيد
سهيله
ناس
المحت
شعب
اقت
ساب
##روج
الصين
##ؤون
##ومي
حالة
وبحمد
الارض
لز
قطر
##انة
الأش
مواقع
##شه
صل
سمع
بات
جما
المسؤ
اهل
محم
عرف
قلت
##يار
دم
##وسف
وسط
وهم
نز
تنت
سعد
##ناة
مرة
فيك
تقول
##قافة
##درسة
البط
دول
للو
عاما
فرح
يريد
الهي
درا
##ثي
موضوع
سكس
##ميد
الحكم
##ولك
المك
يوما
الإم
الجام
##ont
واح
مستوى
##ومه
والمع
لعب
الشه
بالخ
الهند
ممكن
انش
قول
صحيح
الجه
##ابر
##ريكية
بنفس
عاجل
رؤ
##le
22
##سمع
##عيم
##99
ph
##ديا
الرجل
يقوم
موس
##اقة
##ماد
##فات
##كار
سنه
رجال
بقي
##ريض
تركيا
صلي
نوع
ولد
##ربعاء
الوح
##ربه
##روط
##ولت
##جان
رمضان
وير
مان
ملفات
##نون
تجمع
وام
إليه
سليم
##رر
##راع
والر
##ولين
##ليق
##راقي
صار
لص
إتصل
يأ
دقائق
lasik
##ريقه
بيع
لتح
لدي
الفض
الاب
##عوذ
##وضع
مسلم
واف
الحرب
وعلي
##قرار
النها
##واق
هدف
فتح
يض
مال
ليت
امن
##بتد
ايه
المز
الاص
##ريكي
افت
الخام
##لمات
تكن
تز
محد
روس
##هاء
أهل
##ريده
##عرض
com
##اول
إب
##ent
الأرض
##اعت
##شرين
##يط
فق
##سبه
##سسات
##قبال
تطوير
##عزيز
يوجد
php
استغ
##ادل
شيئا
جامعة
##علم
طيب
##رع
##BB
##يمان
مار
##ميزة
##ve
تا
صوره
##ئات
لاب
مشك
##قية
##تيار
##لكه
##re
##يراني
##وبه
00
بمن
##ظة
##لفة
##قيم
##ليف
طال
كون
##شك
البيت
##روحات
##قسام
وأضاف
السبت
لذلك
شاء
هال
بيان
##ri
خدمة
دع
لقاء
##ذاب
بناء
سف
##كات
عليكم
اليك
##بره
##جاب
##جار
واحدة
كله
phpBB
##عام
القب
إد
##ارض
وآ
##55
حاج
##كه
##انوي
##قرا
##رضي
##ريبا
##اليه
##راس
##تا
##دية
##لدي
طبي
والذي
ايام
##ظائف
تويتر
الأف
لاي
الصحة
الإنت
بدأ
حسين
ويس
##افع
##حل
##ec
سلام
كانوا
جانب
الاشت
طلبات
23
ملا
##افيه
باذن
##ويا
كافة
الموت
2014
جنوب
قرار
دوري
##دت
فه
##هداء
النص
بف
##يرات
يوسف
والان
رضي
نتي
النب
##ؤلاء
ملتقى
##لرب
رسم
##ويس
##وضح
##ويات
أمر
قوات
وعن
ركن
كر
##ينما
الحا
سيت
##هام
##ينك
بث
اضرار
##ئب
##قالات
الامن
##شفى
##شاركة
وتم
عب
##رفيه
##ريات
##ارق
##صه
سواء
راب
##بخ
إذ
بالش
المشت
##ريا
تحقيق
##ليزية
أيام
##بداع
وصف
مقابل
##وجه
أعلن
تلق
كشف
بور
سبب
عباس
الاج
صيانة
##سيط
##كتر
الذى
حاليا
امي
ارحم
أنت
##50
منتدي
أكد
##ائه
سك
##ناك
ده
مسلسل
عط
##صالات
سام
وكانت
الاخت
##الغ
رفع
والط
سعود
بالج
##بكة
##املة
مني
ترا
فك
##وغ
مشاكل
وتش
دبي
الاغ
##يوم
##عون
السر
وكذلك
أجهزة
2013
عدة
أكت
##راضي
##وفيق
دار
##لبي
الآخر
##ليك
والمن
رك
بهذا
##ائم
تدري
امس
عص
تصميم
الأع
علاج
##اصمة
درج
اجل
وحده
##نسا
يناير
كثر
الصنا
الرب
للبيع
##et
حرب
للخ
مبروك
مفت
عني
المث
##oo
صلاح
تطبيق
طالب
شاهد
المسي
نظر
أكبر
حل
سبت
كلها
##طات
الأور
شمال
يعمل
##عاية
##ارد
تعليم
بنات
ربنا
كلمه
الدم
الخبر
انتقل
وطن
##افه
واص
احبك
##ing
لف
##سجيل
قل
للي
إنه
برو
تقديم
غدا
الماض
199
رو
والغ
##اتك
معت
النه
وتن
عي
##عرف
فمن
قالت
##ياس
##ئاسة
شباب
ظهر
شئ
يعلم
##حداث
الحم
الأح
##الج
يمكنك
##ساد
كامل
الطلب
الروح
بينما
##رحيب
راس
لجنة
ايضا
لأنه
##يفه
كذلك
الدعم
البعض
##ريقيا
شعر
مقد
##قيت
حياتك
تري
##ou
يعد
##راحات
نقط
26
عنك
معك
##اصر
ذن
##دينا
##مرار
لهذا
سيكون
عروض
##هور
##كة
الساد
عربي
يستحق
##حف
##فسير
هاي
كث
##10
حض
##خة
##ردد
جدي
ثلاثة
##جوم
##شرات
مشت
بالا
معد
اعد
سعر
داعش
##عليم
co
##راءة
الحسن
طوي
##رافي
شبكية
ويع
افلام
نسي
جري
##لديم
فهد
##شفي
أت
##ادرة
يصل
مساب
عيني
روسيا
اجعل
تنفيذ
المعت
تعد
الشهر
##طلا
50
##لمة
##شره
##كذا
##روطية
##مم
ويم
جام
وبال
خلا
صدر
##ذار
ليب
لاست
##بدو
للاست
##فرح
##واطر
##نات
##واز
##il
رغ
جمهور
##رمين
##اليات
وتق
ذا
مرض
مهم
نتائج
لط
##كيل
نهاية
الإد
ابدا
##قين
المقد
##كين
شا
مرات
خي
ممن
##حمر
التخ
تنظيف
##وصا
هؤلاء
2012
والمس
27
الديم
عج
لاح
قيم
##للح
ساعه
ماذا
28
##اميم
الطفل
##قامة
الباب
مدونة
##يتها
تمت
##حيانا
##ريكا
السوق
##راحة
فعل
فلو
وتت
اللح
##يفون
مدون
نست
##زام
سج
فيلم
استش
##he
وست
##ot
##رفه
##حمه
حفظ
##متع
والمر
##واف
القاد
##ايد
##ابعه
فما
تعرض
العن
##ظف
خدمات
##امر
يز
##ضب
##66
ومت
##وبات
واخ
غزة
الراب
شركات
بينهم
##ندي
للغ
##افر
صنا
##اية
##امين
##والي
##ناب
##ريع
المسا
برا
البصر
##حين
المقا
##فيد
هد
##ثة
##غيرة
ولن
##ليب
##اريع
##۞۩
قطاع
اصبح
بهم
##um
نصف
##ra
##رهابي
##ضمن
عيد
##ثمار
يمن
##كلم
واع
خبر
تجاه
##واجد
راج
بشر
انته
جزء
ورد
##لور
##عك
تنظيم
##قيل
##سمبر
##جنبية
قرب
سما
معنا
نه
محمود
##ation
##يح
##كال
دخ
المنش
##حص
البا
##ردن
وصل
تعمل
ظل
##شيد
شكل
##نيات
2011
##وتيات
كلمة
الطيب
تريد
##ظار
##رفين
قتل
الاز
حركة
##ريل
أعمال
التم
##غر
السب
غياب
جنيه
بداية
جعل
بري
##وجيه
##سان
##كرم
ويب
##سيه
مين
##افحة
سجل
الأص
بذلك
##سمح
مالي
يذكر
تذكر
قض
العنا
##بيد
السن
##راجع
##ئيات
وفق
حبيب
##هن
عضو
##el
جده
متوسط
سوي
لخ
التغ
وتط
واذا
مدريد
فهم
ونحن
##لفزي
جي
مارس
البد
##اسم
النس
##77
##غيل
دخل
إست
رفض
هاتف
إي
الجما
باك
مليار
##شل
نتيجة
لماذا
التر
##سون
للمنت
##فاوض
ونا
السنه
##جلس
##ثار
جم
مخت
جلس
##فاف
##لمان
##30
لاين
##كير
##ورك
##طع
بلاد
##لاك
الموج
##سبات
الفق
بمع
الدي
كف
##ol
ضر
##رائب
##برز
##وروبا
##وانين
of
##هرجان
##غال
ها
الشت
##يتك
بالب
##ورت
يال
النق
النوم
طول
##قاش
##راعة
##صدق
الأط
اذ
بدر
فهي
##12
##فيق
مالك
دورة
عاش
واد
وله
##قيقي
مظ
40
##ربعة
##id
سين
معرض
احسن
##لمي
بنك
##امت
كلمات
الوضع
##درات
##ضه
##رجم
##ذة
متن
##وشوب
##عاب
عندي
##وفير
##ندق
كلية
بالص
##nd
الدور
##ماية
ستار
الكتب
مصدر
الشمس
نصر
الروا
##رجمة
##عيش
المدر
سبيل
##وعه
##ونيو
أصحاب
امت
وفر
##رسال
دليل
سعو
معي
##رسل
##انك
وعم
الكون
مادة
##ساسية
##داول
يزيد
نم
الرد
##يفا
##واك
الأز
##ub
29
##فاظ
ليه
الياب
بز
##ئين
واعت
وعلا
ارض
##اتهم
##لرائ
كذا
قوه
##ائرة
##سيس
حكومة
##سف
وذكر
فلي
لهذه
##ائع
##دير
دخول
تجد
##60
مصادر
صلاه
##وفر
##يور
حياتي
##آت
سؤال
عنوان
وتس
تي
##ابية
قم
##واه
هت
##تاح
مؤتمر
##لابس
المكت
حدثنا
##أي
صغير
دروس
##هران
##33
واله
##قلال
الامر
غيرك
اغفر
##باك
الرائ
وقف
##ستاذ
##جرة
##88
القدس
لين
##شلون
انتي
اون
##وزيع
مباشر
##ادات
قصص
جميعا
##ادت
لكي
راي
##اوز
##نيف
##فيف
الحول
##تيب
##اطر
##قته
##ساسي
##وسي
##ذف
حنان
يسعد
##غة
##باق
عاي
الفني
لر
موت
##اريه
فوز
خمس
بتح
آل
كأس
تعالي
##ريس
##واعد
يحدث
##بحت
##بارك
عظيم
صحيفة
يولي
ماء
##حكام
##كيم
##ادية
2010
۩۞۩
##ثمان
##راتيج
##40
منز
بسم
لتص
ومش
الفن
لوحة
المهم
أط
##راحه
تغير
سورية
كلا
تقد
صورة
خس
##وارد
##رفض
##لامة
##لكم
##صح
بيروت
##شرح
نائب
وعند
##رية
##يي
عمان
##زو
كرة
ربما
اسالك
##ناق
##ov
##رار
يقدم
الدعو
يحتاج
المشك
الرم
ثانوي
##تني
الحزب
نيك
##ويق
قلي
##طور
أمير
حياه
عامة
بكر
العضو
الحوث
##اطق
المقب
سالم
##مرة
للمت
##ودي
تحكم
هيئة
##لتي
فترة
شهد
##ارير
##رقاء
أثناء
الرسم
وأكد
احدث
والمت
مجرد
##خصصة
##ظات
##نائ
##هادة
المفت
العهد
وقالت
فات
##الس
##فن
انشئ
المرت
جب
##وام
تابع
##ter
اقول
حظ
القدي
##قوق
مقر
يعتبر
إم
الإست
قاعد
##سس
خال
نقطة
##اعي
محافظ
يحي
امين
##صري
اتفاق
إنت
موقف
##وانات
##كسر
##واجه
كار
##80
##زع
يتعلق
##برى
طريقة
يونيو
الخص
##سو
جميله
فرنسا
داخ
نفسها
اسعار
بمنا
الحاج
مميز
النفط
لدينا
تمر
تتم
زيادة
##قيع
دكتور
##مئ
وبر
##فرات
كلما
##مار
خيرا
عربية
رواه
وسائل
قطع
رأس
صعب
عت
واش
##واح
لانه
معظم
كس
الاه
امير
##بيت
المتع
الزوج
الترا
بشأن
##ريت
عنده
المحا
##ناس
ألم
الفصل
تقرير
##حو
خذ
الفوز
دعاء
علوم
##صاص
##ندوق
المرك
الشم
حدود
يلت
##براير
المي
بالف
تونس
##راز
##ئلة
تماما
##يدان
لازم
مكتب
دام
مناطق
مؤسسة
ورب
حمد
باقي
رف
جهة
بأس
تغيير
##فيه
واض
اضاف
الأب
فخ
لذا
اعوذ
##راكز
الانج
ميز
قناة
##لوما
مساعد
##انوية
شعور
الحلو
ماب
وجد
شرق
عندك
الدست
انسان
الست
##قليم
ياب
##ذية
سه
يوليو
شارك
##غا
والام
##غفار
ميت
أرشيف
عف
##بو
الإخ
القصص
بخير
##ومات
##كريم
يرت
##22
ساعات
01
جهاز
ساعة
نسبة
الخلا
أمن
جيش
##جمات
##ليون
طرف
كفر
صاد
خرج
البح
شرح
##ذج
وتد
تحتاج
##19
المخت
فاع
كنا
##جاوز
رسالة
##اجه
غيره
##ونها
انهم
##فاض
القت
##44
قبي
055
جو
مجانا
شيخ
حلم
الور
##000
##ريعة
حصل
واللي
##vis
عبار
جان
##قتها
##بادل
إضافة
بحث
##ائدة
##ولون
##قييم
بهذه
بالط
زين
##ريبة
مايو
##حدى
جزر
محب
##ow
مبارك
##كمل
أعضاء
##ارضة
##كام
##جتمع
اعلم
##ندية
ملف
الأحد
الذات
##رقام
وكالة
##ياج
الحس
##ونت
لجميع
##اركات
وعدم
##بين
تحمل
##ذكار
##ave
الفرق
الملا
ثاني
معها
طف
الزمن
وتص
##لورد
حرف
الصوت
إخ
فلم
##ائري
##افية
الشوق
تكلفة
تفسير
وو
شبكة
##فى
صن
الكب
##قوم
حواء
##ؤمن
بغداد
اطفال
قيام
أسبوع
عما
كري
يعود
دينار
أرض
in
صدي
هن
الحج
##فال
سلطان
##ريحات
شاه
الورد
31
##ورين
اخرى
حمله
عمرو
##مسة
رياض
فح
مجموع
للنا
بأنه
البخ
مدى
##70
بسر
##ومان
##رائم
السما
فار
السج
اعمال
##كيد
000
##ونك
كاتب
برج
عرب
وراء
شف
##ثبت
##قام
مقاط
تعديل
لعم
##اليا
##حتى
كاس
لمدة
##tt
##ظل
تحدث
##فية
مرا
صدق
##معية
##طقه
وإذا
واتس
##شنطن
رق
مقتل
البدا
عباد
ومر
فيصل
##طين
قضية
زيارة
جاه
وظائف
##نتين
الجو
السفر
نجاح
تمثل
##رشح
الهم
هكذا
عنهم
موعد
##طفى
ليبيا
السم
الشيع
جوال
الحزن
عض
نقص
##ائزة
ذكري
انق
##سيل
##خلي
طلع
شوف
##بقي
الأغ
وبالت
غرب
##خدمات
رشد
ارد
فإنه
فس
##دينه
ومس
##سطس
2009
المض
مدرسة
الته
##ورج
الصد
إليها
##عيه
wave
يجعل
45
مشيرا
##ومية
لكنه
##ربيه
نبينا
##وحة
إعادة
##اند
دمشق
##جير
ملح
خصوصا
##ثلة
قالوا
احفظ
##نم
##ائح
##صاب
دفع
##32
يالله
النش
ينب
أه
##غان
غال
الغذ
09
انواع
صحة
##سمى
إيران
##نائية
##ويج
##صابة
ايهاب
##كاوي
الذكر
قرية
##fr
بذ
شن
كا
##ag
العبد
المطر
الكل
والتح
الشام
مؤك
ويش
الفجر
ايها
الإنج
اجهزة
والمح
ديك
قاد
##وبا
البرد
توك
ناصر
##بلوما
نعمه
##طرة
##سيا
نط
##هههه
صب
زمن
المعد
واخت
اننا
##ألة
يعيش
بهدف
ويا
الصحي
الارت
والز
##ودا
وحتى
يبقي
##وته
##زاب
##اااا
تجعل
##لرك
سيتم
تعريف
##تش
قامت
رساله
واحده
لمع
أنواع
##بيقات
##اعم
هذي
وتج
##حده
اعرف
بطولة
كريم
معهم
##ركم
تصل
##كته
العائ
اصحاب
بالض
شو
والذ
واق
الوسط
الألم
مدر
الفرح
حجم
##لتها
يقال
قليل
##ضير
مناف
##واة
عرش
##لامه
ربك
##نادق
كلنا
##صيل
##رامب
المكر
الطرق
أشهر
يام
أسعار
##رز
كلي
متي
أولا
مجتمع
##ربات
مرس
اسعد
وقع
صديق
قيل
اعلن
##وقات
35
##طح
هام
حضور
##حتاج
ذك
عشرة
07
أنك
02
##ليش
قائمة
الوج
البنك
##شاف
المرض
لتن
الرقم
لام
تعيش
فرق
##الق
وفا
بالر
مقا
موسى
اين
قريب
بوت
حياة
ورا
وهذه
##واني
يقت
##وهات
تصبح
##صدر
بحق
فرج
ويست
##ttp
عالية
عمري
أك
اتحاد
وتأ
##خاذ
خلقه
##لبية
والاج
النور
60
حفل
قناه
الل
فإذا
بسي
سعودي
##ارته
والبر
ممت
والمش
##وعات
موسي
08
##خرا
##غرب
الرك
##يمه
لاع
##حيل
النت
ضرورة
بحي
##شفت
##ميات
عادل
##جين
ترت
##ضيق
##دون
المبا
اشوف
##لبه
Re
ماهو
شراء
طا
##15
PM
عذاب
الأمم
شرك
بدايه
فرض
فب
توقع
قائد
##سيم
المقر
##احة
##للو
##per
##us
فيني
رضا
مضايا
وفقا
عقب
مافي
اجع
برد
##رحمن
rem
الوق
لنفس
http
##ائنا
يدخل
##ch
يخت
##ظن
جا
اسال
سود
الهدف
اسمه
قوة
المنز
اعظم
ودي
06
##قيات
لعد
النمر
لديك
##كادي
##ماعيل
##سامه
نخ
##امات
##ai
##حيط
ليش
الجمي
##مير
لسنة
بنسبة
تعود
يهم
القمر
##وائد
##فرك
مارك
فعلا
تبقي
العرض
مواد
واحت
صباحا
انشاء
##os
##راغ
##لفت
جمعية
##18
بعدما
قنوات
منع
##يبة
تسجيل
فج
##قوط
رض
##حدد
شات
##وعية
##صالح
##بول
التحر
الحال
إيج
تاي
ليزك
مقت
ضمان
##ثمر
إش
درجة
محتاج
##front
دف
للسنة
##ay
اللو
قريبا
for
##فعيل
مها
اشياء
لحظه
ترامب
##قاد
مدرب
ألا
بالقر
04
نمو
لكرة
بنفسك
فكان
##رجو
##وجود
جنود
##ig
كثيرة
##صلاح
منظمة
الاحد
سلس
سبق
##روق
##لقي
##ويتي
##انس
##ذاكر
##صبح
ومست
##خره
##برة
كيفية
بدأت
ويح
##باه
إطار
##أت
ديوان
198
البار
خاط
تبادل
تشكيل
سكان
##لقه
طائ
بحب
مرح
صلوا
الاور
الجسم
##صا
عادي
زايد
احلي
اتمني
دوله
النو
##ديكور
الالم
##اتم
شروط
راف
##وطن
وصلت
جيدا
ونت
##وجب
##طط
##عوا
يوميا
تدخل
وهناك
كبيرا
قيمة
03
بيد
القرن
ويمكن
تعا
##طلع
تشرين
##عامل
بريط
شفت
مترجم
##ؤل
ويقول
##خم
أز
تعتبر
العب
##ثق
##لاند
تصوير
حبك
##وايات
أغسطس
نهايه
زمان
صفحة
32
##طيب
عثمان
بعم
جديده
فلما
سوء
##منى
الصبر
تسديد
ثنا
رش
##للوا
##im
##فذ
##ذيب
بدء
##قلة
جاز
##عن
السبب
سوره
تلا
##ia
##ياز
وكيف
يجوز
##اجر
زاد
الطائ
##ائمة
ذهب
##فرق
تتح
قضايا
الإن
##صلة
بعدها
##62
##شطة
##سباني
سنويا
تحرير
مرو
ويد
تبي
الوس
##عث
حاول
الذه
وحدة
لديه
الميز
##قتك
##سبق
بالغ
احس
النقل
تحديد
نار
بض
واي
##حاء
بحر
حلوه
منصور
نبي
بحسب
##لوس
يحمل
ليله
##منة
مواطن
ايفون
##عمار
سيف
##قس
اللوا
مثلا
##وارع
##سطة
الرؤ
النز
كده
##وسع
اثر
##براء
قلبه
حف
##لوي
عهد
الجد
##اخذ
الجب
##وفق
البش
الجزء
عناصر
##lam
##65
سعاده
بدلا
ياسر
اجر
سوى
##فسهم
تملك
منظ
النظ
سياسة
شريك
فاز
واقع
شبه
التعب
طلاب
ستي
##ربت
يبدو
الوجه
دعا
شرف
احساس
العا
تعلن
##فرد
##ثال
امل
بعيدا
احنا
##تحان
تجاوز
فيهم
النعم
إحدى
قصر
أهمية
##الجة
وأع
الابت
حماية
الصاد
اليد
##نها
خز
ارزق
cost
أخذ
نوم
##rip
اخذ
ألعاب
فين
ذي
غرف
الذهب
##كرر
##ائيه
##خيص
أبريل
##ضات
يرد
##جهزه
##وافق
##زوج
حبيبي
##رص
هند
شخصا
الملت
##ئك
يمت
شاب
##وعا
##شرق
##طل
##نيين
##رضا
هلال
##راوي
يار
وبعض
هون
المرا
يظهر
نقاط
السلع
##خيل
مطبخ
##صير
الطف
الكرة
##طاع
إنما
##درية
##ربين
يفت
##خه
##ng
##ائها
لعبة
##جران
الامل
##نوب
واضاف
##برنا
حياته
ومح
تغريد
تنس
فرصة
الرق
##ضل
##37
بتع
سأ
ستكون
فص
اكتب
##جح
##ئيسي
الخي
##ائن
فور
تشت
##ab
السعر
حوالي
موض
الحين
التك
2019
##17
سمعت
شم
##ضرورة
##صات
تسا
فانت
مملكة
نسب
##ائة
زع
##ظيفة
كره
حماس
وإنما
بالمن
##ايل
تمن
العقل
##وماكس
سيارة
أصبح
جنا
مهمة
شركه
ثالث
دراسة
الزي
##لسي
بذكر
نشاط
يوتي
المصر
remov
مكه
##ماس
قائلا
عاص
##حته
##بكات
##صدار
##ظلم
تخت
موق
رسميا
##برت
حادث
فري
شؤون
##يادات
وذ
سري
الرأي
تعليق
رابط
أنهم
إف
##ارى
فرص
طرق
نجم
##روت
سات
##روه
##ورى
##صدقاء
شكر
وأشار
الحل
القول
مرحلة
##فيديو
العصر
يرج
باع
وبا
الكر
التعا
الأق
يكتب
سناب
##ياجات
باعت
للز
36
##ياط
يكفي
وتف
##اربة
لند
##انع
وجميع
##زاز
وأخ
يلا
البق
بمح
هما
##est
ترب
##قديم
قنا
##خفض
##فرج
عا
خش
2008
##بهة
##وادث
ناف
##ليزي
تنسي
الضغط
سعاد
والات
فلن
شأن
##قاذ
##ائك
فضلا
حقيقه
حقق
وبد
الفرد
##قيب
باي
عسكري
زيت
طفل
ثقاف
##راءه
باس
لفت
الباح
##مالك
يحصل
يصبح
##نيسة
التون
ادم
##كب
وجل
##35
بعده
##طلاع
##ew
يبحث
اعلان
##ونات
سال
##ظي
##وست
رمز
فكر
##قرير
لغة
##قلي
منتخب
47
بحيث
##درويد
كاملة
In
ولاية
قادر
##ضيف
علما
تناول
##وتك
السير
يمر
عمي
##فون
ظلم
هز
أعلنت
مير
##راحل
يأتي
##لالة
أقل
##قلت
وترك
اقل
امه
الجري
##ارنة
AM
##خال
مسؤول
##ماكن
مصطفى
للطلب
الغرب
##غو
##غار
ذه
راحه
حافظ
##فادة
يملك
##يخ
##حقق
##ناول
توفي
بعضهم
نحب
دير
حكوم
##يسى
القوى
ميسي
يدعو
خادم
مجد
تمكن
الني
##اهره
البلا
##ياك
شت
جيد
عارف
##طوير
اصدق
ولما
منكم
ماد
الاط
الساح
واضح
خمسة
##دخل
باريس
الترب
منح
الخض
عال
##نيت
العز
##جال
التخص
كيلو
##عددة
##طيط
##ورها
مشكلة
##وهم
يمثل
الصمت
طويلة
##ياتي
ورش
##كالة
تسلي
الحض
الحمل
##ئت
هاش
لعام
##ستاني
##للع
البنت
الأج
##رافق
آلاف
##طاليا
33
يؤدي
##اوي
##يء
بغير
##واتف
شار
##ir
رأي
is
##بياء
عزيز
##ذل
pro
##حيان
##كانية
##شرها
تحاول
بلغت
حنا
ضبط
##اضر
مجه
محطة
تصريح
المتن
مدينه
ينبغي
##فد
شارع
الدا
علاقة
##25
الأو
##جهات
##عها
لغير
وأوضح
##راقبة
تعب
العج
لدعم
##طى
كبار
يشت
تشوف
##ويش
لكنها
صغيرة
انج
واجعل
بدي
##واي
##هيون
##ضعف
قصة
##عتبر
##بايل
أبناء
اليون
197
التاس
##تو
##زان
اللع
تفا
تركي
الرشا
العدد
##وضاع
محام
نجد
والتن
تقييم
##باع
##خصوص
الخلق
يتح
مؤكدا
##وفا
إح
تأثير
العدل
حملة
يومين
ويف
ابد
يؤكد
##علام
##AR
##ox
اثناء
تظهر
##قدام
##og
ليف
ولق
مقال
النوع
والاع
رائع
بكم
##صرف
دعوه
حاله
الوتر
صدور
34
##سمه
##ضى
الفع
اسباب
##يمات
وصول
صدري
رسائل
وعدد
##بيا
محل
الجدد
فارس
اهداف
عون
##حاديث
##خلص
فصل
الظن
وعلاج
##عتها
حكا
##حمة
##ندا
##عان
For
يون
حلول
##لوان
اكس
توفير
شقق
##اشق
أى
همس
لندن
فندق
##ظاهر
تعبر
سان
##صفح
##لقا
##ظبي
تعلي
مكة
القيم
##16
سيدنا
المدن
جورج
شهادة
ادارة
ضحك
75
##اشد
اشخاص
ورو
##قيقية
D8
اشهر
##مادي
##هره
##زيارة
موجود
نن
نجران
##لاص
إنها
المعا
##ارين
##مره
الصدر
##جية
##ارسة
##ديده
##غراف
ورئيس
تعال
##انيات
زائر
والاس
##وزارة
مجلة
صلاة
الأدب
وجع
##ثه
غرفة
اكون
جون
ولع
مراج
جبل
كوريا
##شاب
والآ
##تكم
ربيع
##ابلة
أر
ملعب
استمر
لض
وزنه
قوي
شوق
هايدي
##اتل
ضي
دنيا
##نوان
يلعب
فم
##اهده
##سع
نجوم
##ثيل
يحفظ
ذنوب
اذكار
العص
ففي
##سكر
##وزي
##لقت
عود
قيادة
##اغ
المحم
تحس
St
##ada
##ثناء
##ليد
يساعد
##ثرات
زيد
أست
اختي
يموت
المئة
##24
عرشه
طهران
للتح
70
500
رغبت
ناد
يفهم
Trip
80
غا
وأما
##نته
درهم
بلو
بوك
برس
حبا
ينتظر
طريقه
ارب
لست
يجع
كفا
##op
جلب
##ish
والي
##شين
زم
زراعة
فش
##كاديم
##Ad
ويج
##نيك
علو
لأنها
##درس
طرح
الشحن
روحي
##افا
وتر
حط
##oc
يحيى
تور
##ثور
وتب
فتره
##لاين
##وسطة
##قرأ
##داب
حام
توفر
المها
شخصية
يجد
يخرج
##ساط
وجاء
خطة
##visor
عمره
##ديان
نقول
اضافة
##14
سيدي
توزيع
اجن
الرمض
وجهة
##قصى
يتحدث
اولي
##نتي
بوس
تعزيز
وتست
حوار
الفائ
ندعو
##عدام
البرا
وكيل
##ينية
مأ
اراد
والمؤ
##لسان
اسبوع
بلدية
##جرد
ذنب
##زيا
##اصل
##38
لحد
إطلاق
حلب
مبت
##شى
انما
متر
توقف
Ah
##ناف
##سى
##أنه
##اتنا
فاط
قدي
ابتسم
محفو
##لعة
صوتك
يبي
تواصل
يشعر
جابر
##حط
اريد
والض
مياه
##لقات
سوا
أرد
غلط
صناعة
الرغم
الأمة
##وقرا
بتن
انتم
بينها
بام
##خفاض
معاك
ذكره
داي
حزن
معين
قروض
##واريخ
##تان
أمراض
عطر
صع
وأنا
يزال
##حايا
##جاح
الزرا
##اتكم
ليلة
الكام
##90
جس
##تيال
البيع
بالمع
##ضمام
ياتي
فهذا
##فرض
يبلغ
اغاني
فرع
##ينيا
37
ملاح
المذك
منزل
##سمة
لاج
ضح
العقد
اعضاء
ساحة
اداره
سلسلة
ضغط
##لقى
أهداف
##الدي
جماعة
##وقت
فاج
خطر
سابق
غريب
ضيف
العنف
##خير
##ut
##لتك
##انيين
أعلى
حرام
مؤخرا
اقوي
##يدي
##34
مول
##▬▬
سبع
القدر
##ليس
وأش
للمس
##راسة
تاب
حينما
سفر
ولكنه
##قنا
##ماك
لمش
##روة
لموا
اعط
050
بوح
##ul
لابد
48
جعفر
حمل
مرور
##خدمة
##حاد
##ليت
##تام
العش
ومنها
للناس
الأه
هات
##قطاع
ياع
الدرج
##سلام
##قدير
ورج
طويل
ومداد
يقدر
الغاز
يحاول
لبعض
القض
النسب
العض
الإش
##ER
##ماعات
##بور
مهند
سورة
ابناء
##وريت
دقيقة
and
فهل
الصحف
أور
##ويم
##شيش
##الحة
الشكر
##معه
##يطالي
تشعر
##ust
شعار
ورس
##صلي
##ئل
##وغان
خا
مشاعر
تحتوي
الصعب
##راها
بحضور
##صفات
هش
عجز
ولات
النقد
38
##فعال
أفلام
##اجي
عيش
يدي
##ركان
جر
تجربة
##اشة
ترم
جرح
الإف
##بادي
أربعة
فينا
غرد
تقع
##وظ
##ريقي
وشك
إنشاء
##ارها
حن
الياس
اجراء
##قوب
##حام
أهلا
عوض
الكتر
الاسم
طي
##اضرات
حج
##ظفين
##بحاث
اند
خطا
##68
##حاق
عيونك
عبارة
##جهيز
الترم
شمس
قري
والتص
##قها
##تاب
مسرح
رؤية
نمر
معرفة
##فير
##وكي
صرف
وبح
##لامات
الفقه
توجد
واغ
##خرة
مناز
##شوف
يمنع
النمو
رون
اليها
ساح
##كمال
عندنا
##باحث
العدو
##يدر
كبيره
خلاف
كوك
##ينات
قوم
##لوه
حك
سقوط
نبض
مسب
لمح
##ers
الرضا
##ment
أقسام
اتصل
السلف
واه
ظهور
44
ترغب
يشرف
أحب
وهل
صنع
تخرج
##حتك
ليا
مرك
رام
نظرا
##فقة
البوا
يجمع
وفى
مطعم
##ظاه
الأسد
##ميت
أساس
الصيف
##طول
يحبك
##ايق
وزاره
##خط
ذو
عبيد
ابتد
2007
##ورز
ولذ
90
الجنس
تعز
اخري
الكشف
عيوني
##لاني
والتج
أطلق
##رحل
سياسي
وليد
مدة
##جيع
##وضة
الدار
اصبحت
ماز
##روات
خلاص
Al
##هرباء
الغير
##ديدا
يقع
التفا
ناح
محكمة
تكت
جهود
اثاث
عامل
اري
تقدر
##تهي
فيت
ناق
##لندا
فكرة
حقيقة
للام
آدم
ترتيب
##قوا
والعم
ثابت
الفور
احلام
##ارم
##ناها
pr
الصيد
##فهوم
عرفت
اشهد
##خد
##لبة
الفكر
صحي
ابطال
##ئر
##ced
سابقا
تحقق
تساعد
ريف
##وزير
سمو
للعين
اخوان
ذوي
طن
وأس
##وائز
بالدم
معني
السك
##رون
أسباب
الجنة
##ess
امنوا
##طنبول
##لوق
يرجع
##جمالي
ربه
الشيء
بوابة
منش
##قاعد
عصر
تموت
##رياء
##وذ
راشد
##حبة
مسئ
وملائ
طبيب
سهل
##وريه
الاسد
قصه
المنظ
مريض
رواية
بطل
دولي
شحن
##هاده
كوم
باله
##يادي
الحص
بكره
##لاع
ضم
##قيه
وسهلا
ضيق
##eb
الشاب
لافت
لقي
##ابا
تخفي
ملام
فد
العيد
##أل
كتير
##ؤه
هب
##يرو
النشر
بأي
ثبت
إنتاج
للمست
قليلا
##ولف
القبض
بالي
مناق
##un
##جابة
##67
أبا
##يص
معنى
https
وجهك
الضع
سيتي
تل
أحدث
الاق
دوما
يرى
ظروف
يعلن
وجهه
غي
##حمتك
الامم
صندوق
فكره
##دار
##ؤاد
إعلان
##الع
##صرة
تجع
جازان
##مون
##13
وخص
ضرب
بمس
وبي
##ئيا
ابواب
##وعي
الخلف
مطر
أخر
سحب
تبر
ملابس
الإجت
الفا
##ناد
ناش
تصرف
المرح
لمعا
##للون
ترد
وموا
لحقوق
تبت
تاج
للتن
الداع
زال
مصري
الالت
حالات
##خراج
##كنت
طوال
##كوين
فاس
كتابه
##28
بقدر
جنه
الغام
##وائل
تقبل
أبرز
##ريقية
##راقب
لانها
##ah
تتعلق
اقرب
##وايا
زر
تستحق
##هلك
بشار
حروف
##وتا
##كومي
نصي
خروج
ورق
وقيل
بيس
يسر
##كاوى
الراج
مشبات
##هيل
##بان
فضل
تقنية
البرت
يعطي
قراءة
يجري
المأ
مواقف
لاحد
ذكرت
فنان
والتس
بارك
طارق
هاد
درجه
البعد
قرا
##ساوي
خواطر
شوي
##زون
ثانية
##للاج
والتق
قواعد
عذ
##قدار
وادي
وتخ
تواجه
إجراء
اولا
زياد
##فف
الوث
القوة
##ارئ
##وحيد
عاف
اللاج
أصل
بالاس
نريد
نايف
تردد
الممت
تقت
يصلون
##مائة
حلا
بفضل
الجلس
علش
مقاطع
##يزم
بيزو
##ماغ
لقب
أوب
الظهر
##فسار
سيع
المقت
تدريب
مصط
ماع
منتصف
صمت
وها
اثنين
يطلب
الأرد
##ديت
##داع
وابن
حسبي
ذاك
يعط
احدا
المحد
The
القبر
##نترنت
للذ
قدير
##ويورك
ليل
جيت
##لوع
صبا
جاءت
نهائي
بلاده
قوية
عائلة
يجي
وطلب
خري
سنين
طبيعي
طبعا
علماء
تحديث
امرأة
مبد
توجه
وجدت
اجمع
حاجة
##هدد
فكيف
##نز
للعام
سقط
هى
ياح
##دمير
شج
جرائم
لمت
2006
حجر
##ist
للموا
فروض
سنت
##ؤكد
لبي
ارس
##رابلس
رزق
##قلب
الانف
تضم
##جو
تحويل
عددا
امري
وبم
55
##ويض
بعدم
بيننا
أني
##ساك
##45
##نافس
##ديلات
##املات
بصورة
ممث
مذكر
##تب
##عتقد
عودة
##ine
نسخة
الفلا
فاست
يرحم
إقامة
يسمع
سكن
مل
حقا
##فتاء
الملف
جدة
طيور
فانز
للعمل
العرش
وأنه
باللغ
حرم
##امية
اكتر
##هلاوي
اتخاذ
أستر
تبحث
هجوم
عالمي
سيما
##عتك
وارحم
ونس
##ure
##تيح
##لزم
عمله
##لومه
##اهير
الصوم
مدار
عيسى
ومد
ومؤ
##عمه
تفت
ومحمد
39
مزيد
فالم
##لحه
حت
##وفه
هدا
##ubai
##راما
مصالح
ذاته
دائرة
غالبا
اصلا
قرر
عار
وارت
مدا
لديها
##فيذي
##ob
صدقه
أراد
##يريا
##ثنين
أصبحت
اخلاق
للمش
##رجي
عشرات
##عمة
موسم
يعتقد
وكم
السكر
2000
##ئاس
جيب
حقي
واحدا
يكت
كريست
##غوط
##ولهم
زياده
##فز
##عداء
كانون
يسمح
كلهم
##كيك
والأس
يلي
الحار
ياخذ
وربما
وفد
##سبوك
وفاه
تسي
يخص
الحزم
ساهم
ومج
تزيد
##عيون
ظن
لدخول
بولي
فقه
##اجة
تفض
لولا
مدن
الانس
اللون
هر
تهم
##ائيات
الفيز
##دو
ترى
##روري
الاقت
##ثرة
al
##ساهم
##لبك
مراكز
##مئن
وزراء
##شارات
صنعاء
لبن
اليس
##رأ
دخلت
كور
علشان
دايم
دفاع
##وندي
##شتاق
حضر
واحة
##ind
##ma
##يانه
مسي
اشتقت
مسألة
بقلم
والاخ
oper
المرج
##يجار
##طلبات
لعل
اتصال
##يرك
السمو
بعضها
##الها
##طفل
دعوة
##وامل
غد
خطوات
##شع
تميز
شام
##جابه
وخاصة
أداء
##متها
42
##زاء
المرش
##واري
##رفية
وطني
نيس
##وائية
خفي
##عوه
D9
جلد
ولأ
##ادثات
تكر
أولى
الفقر
الجنا
##اشقجي
نساء
##عوام
##الفة
##ook
يعقوب
أطفال
##lish
جهد
##اصي
نصيب
مالية
##بى
##جري
ليزر
##عده
دموع
لديهم
أمين
غيرها
تكشف
عزي
ثقافة
يرجى
ماهي
مدارس
##افات
درجات
الطبخ
تشغيل
لذ
Eng
وأف
زوجته
قاعدة
##ومين
##وجع
زعيم
والرس
الآية
##حتها
##غت
حسنه
أننا
احدهم
##طيل
مجالس
كمال
##بطال
طبية
فاغفر
##جيب
الضوء
طبر
تنز
وأي
wh
جراء
لانك
تخص
##طره
التوا
ندعوك
ميد
بيوت
عدن
##39
##ابك
داود
##ue
تقطع
يان
هجر
فرحه
ستة
الاك
##للذ
بانت
##رتون
##حاول
تداول
##زالة
##ائزه
جسم
##لغاء
الطقس
تزال
خاصه
يشبه
وحب
توص
##شستر
نسالك
بوش
لاحظ
وأم
##ودع
عسير
للان
شاف
##اقه
##ورهم
السكن
بصف
يومي
صفر
##زت
الغلا
السحر
كرام
##ضاع
جيدة
##64
the
يشارك
حيا
##كمه
بخصوص
##روبات
تاخذ
##ولورز
مونت
عسي
##ياع
بتس
##69
سيب
أزمة
اتجاه
الامه
سمير
قس
ره
تشي
دورات
##ائى
تبين
##لطيف
الاو
تعني
كفار
متميز
الكه
##راسات
##قار
يشكل
اللذ
واسعة
ايدي
سانت
##فاس
##تيل
تراجع
فانه
غس
##بيعات
باخ
ناج
ادري
أثر
كرم
وآله
جنب
##خرين
النتي
وحسن
الخوف
لتس
تث
##عدة
##رال
##غني
مور
زرع
##od
الجي
##قاب
الكيم
الصبح
فرصه
ثمن
فرد
##هوه
لون
قررت
الزيت
حريق
##خاب
قاعة
##قرام
تبدأ
مقب
أصدر
تؤكد
##ack
متع
##ON
رايت
أسماء
مشعل
##فيش
dubai
##سته
سحر
اخي
نض
##وصل
جاك
هار
توجيه
هموم
شرطة
##بيح
طه
##حني
سكر
اطلاق
##طون
رجلا
##غاني
مفاج
##رتك
##شيدي
يحقق
##ديقة
##الون
ماني
بيني
غني
راتب
##فيات
جلسة
ضا
السحب
دينا
الصحه
بول
وفيه
يطالب
مجمع
جبر
تصدر
دقيقه
##ئون
وفاة
سرا
##ترنت
بحمد
##علان
##ووو
ولذلك
##خين
##قلين
مسجد
##يسر
بدل
لأي
مصلحة
لاخ
ذوق
##وند
##قن
رعاية
يجيب
يرفع
##ذير
وبه
بالان
قدام
ماج
مباد
2005
##عدد
معينة
يدل
خليل
إج
وتابع
الافت
##ربعين
##هادات
متح
##تيات
##كتاب
تكلم
وسب
لأحد
اسماء
##48
تسبب
##جبات
قيد
##رتها
نعرف
مشترك
الحشد
قيمه
والاد
##ودية
الشوط
غاب
يطلق
##فيت
حذ
الخمس
##ap
##27
مدري
##ثاث
احتف
رائعة
##لطة
300
تنتهي
##انوني
##افل
##فيل
عشق
وبك
سلاح
بجميع
بمر
كندا
وكذا
بوجود
بالام
يقبل
##ئذ
##فيان
أفراد
مستوي
انتهت
##لقاء
##ابيع
يحتوي
##لسفة
##31
##سيك
فخر
##جمة
الده
##ائهم
بأنها
الملح
غالي
رأى
طبرجل
حدوث
بجد
والته
##نسيق
وقعت
فاض
##شيخ
on
هشام
كتبت
والتع
##tr
##سيان
غض
##لفا
كرب
مقطع
##نص
صي
يدفع
##ياته
نكون
##ستفيد
ماله
##ساتين
تركيب
وسوف
شرا
لمس
Forum
##قيقات
إعداد
##هيان
جريدة
زواج
فائ
الكري
##فهم
الأقل
شغ
عل
##ادن
تشكل
شديد
برم
مستقب
أدى
فشل
قرض
وعبد
##رور
مبلغ
##49
النجم
##ابعين
رز
خطوة
تمويل
امور
ضوء
##طم
غان
الوزن
يضع
البرم
اكد
##جمع
تلت
بالاع
موال
##كك
منس
العي
##one
##طيه
لعدم
##دب
اذكر
فليس
##افعي
العفو
وعلم
##فاعل
##حسن
##قدمة
مفتوح
لشخص
زوجها
ارشيف
جسد
##منت
طر
وداع
عوا
الفعل
لصالح
##29
##ريج
قدمت
ابعد
بنفسه
بسرعة
43
هادي
تحول
ملوك
##ce
##ياهو
تحسين
بلدة
وحدك
البال
يتبع
##th
##ذاك
##عيين
سامي
هلا
اللقب
قصف
مظلات
غرام
لدر
##21
يقتل
تاني
يسوي
لمر
الشري
##اهو
يتكلم
كسر
##يرون
تشهد
الحظ
فاي
حاس
خطاب
ومص
نيوز
الواق
درب
فاش
شهرين
تلقي
##ech
حذف
جائزة
نظم
برب
توكيل
##قاق
##راث
##ليني
##فعات
صرت
تقل
قاب
##رادة
والمد
سفير
ينفع
تسمح
مريم
عزل
لتش
اوي
نقدم
اوب
يغفر
يده
انظر
ابداع
##أكد
قاله
قبيله
نغ
ونعم
الدكت
أربع
واجب
##نق
هذ
بانه
تسلم
النم
انني
خد
المعم
كاب
الهد
شهداء
تجري
##اهي
فاح
حفر
السجن
جنون
للث
مشكله
معروف
##وجل
بمست
العري
ترج
يرغب
طرد
تبلغ
##افرين
الحرة
جودة
تولي
##صحاب
عليا
يعاني
ميش
جذ
آن
والده
فني
حصلت
##جزاء
ارقام
غفر
تحضير
##جرين
##ساطة
##غلاق
مكون
فرا
تفتح
195
فجر
كول
##لبس
الغد
فوائد
ثورة
فسي
ماجد
القوم
أحكام
طمو
انجاز
العذ
جوا
راض
##لاقي
امك
ودعم
معاي
##حلة
##بن
##وفة
مضم
##همية
يترك
ديم
اهلا
صفوف
اداء
##للعب
هوا
##دل
ويسر
اللعب
##فسي
##يلات
##لبا
وتغ
تقم
##فيا
مشاع
##ناعة
##زيلي
حولك
للض
القي
قمة
توب
نقوم
عادة
##ustom
##زايد
عراق
تفقد
##عدل
يقف
كأ
49
لقط
##جلة
##اركه
##rab
نهر
قبر
عامر
150
##يتد
توظيف
##47
اعتبر
عديدة
ساعد
##للسان
ويتم
يطلع
ذكرى
بلي
##gle
##ائط
##فوق
##شتراك
##نتك
##اريو
الما
##فعة
الزه
وطنية
وهنا
أحداث
##خبار
وكن
بمش
بالتح
مرحبا
جدول
تذ
##ونيا
أين
باش
بمت
طيبه
اضغط
والدي
##صره
مبر
ينس
العيش
الشرف
##بيين
درس
اعلام
يفتح
كشفت
ترجع
##نيع
والبح
اسيا
وابت
##قون
طلعت
المرة
##الدين
يري
مطلوب
منهما
للانت
ينظر
##36
للمن
غيابك
الفئة
بطاقة
cent
المتط
اتخذ
صر
ميك
صارت
بحاجه
##يعه
القصة
تام
ووا
##مسك
تأتي
ربع
009
أعلم
##أتي
##فسنا
##ريال
مساحة
كاف
بولا
النيل
تشير
##اشات
الذك
وغيره
##راجات
مرتين
تنتظر
السوي
##درج
عزيزي
يبت
##كنه
كيم
الجيل
يشوف
##لوبة
الفضل
46
##فين
صبر
الكره
بدعم
مري
جامعه
وجوه
##ووك
ومنا
اطار
##ww
وقبل
##هج
الكي
واللو
الضحك
##AT
يضم
تعطي
واغفر
اهتم
##لذا
ممتاز
مرف
الفار
امراض
يورو
الحرف
ترفع
آسيا
##ice
روى
إله
رياضة
شرط
مغرد
بكثير
##قيف
بصوت
##لاعب
حسابك
العلي
الشك
المظ
بريد
يات
##بته
موظ
لمست
كوب
خل
الهوي
تكتب
##اقات
رت
##رقية
روز
##reat
##همه
##حها
يغير
البرو
2004
لحم
##ركي
##اطئ
خليفة
جزيرة
قبيلة
حنين
مقدمة
##يير
مطالب
آذار
ليكون
##box
يونس
##دريب
يكشف
##فور
معهد
وحلول
لائ
##كاة
توق
##طئ
##ملكة
##oogle
توقيع
وحين
لغات
الشبك
##iv
العاج
وهكذا
قضاء
وارزق
متخصص
عيب
فكل
##يتهم
علوش
عكس
التب
##فضله
وسم
##رتويت
يصير
اقسام
الروم
تنام
##pl
تعيين
طويلا
مدي
##af
وانما
الانق
يبقى
##زية
فنحن
جديدا
عفش
أماكن
للمع
لسان
##بال
عندهم
##دري
انيس
العاص
اضافه
##ستير
##جهه
جميلا
صحفي
رفي
شري
نتم
##ort
المنه
إرسال
الحاس
شهدت
##روسيا
##سيت
##امنة
يهتم
##فيني
تحبه
نك
##قولة
##يروس
##صم
حفظه
مجددا
58
احتاج
خلقك
هديه
يلتزم
##آآ
ريم
أبدا
التض
##سامح
الصدا
##اءه
إني
الثقة
##بها
##tion
اساس
##ىء
ST
عمليه
وتقول
مقات
السبع
خوف
ياج
ياس
خسر
65
##قش
ليرة
ويكون
نكت
الجلد
تشمل
##فيس
الاي
57
حبه
##لاله
نسيم
آية
##az
قمه
اتش
##راكة
ردا
أنحاء
##البة
يفعل
فانها
##اريا
##رويج
##نال
الخس
##نتاج
##مكان
مطلع
##200
تسمع
خب
##تيش
لطلب
تحصل
ألب
حديثه
رحلة
##عوض
السلم
011
ناحية
##وتو
واضحة
##خصة
توفيق
سوري
##ثا
يشهد
##روفة
جمعه
روبية
تترك
ولت
##ولها
الفرج
آثار
روي
##قاله
نقابة
##شط
ماكس
الأنا
##ثره
ثانيه
##زرع
##حوا
راق
كافية
غذ
عندها
##انين
##خله
واعوذ
ابحث
##لوها
غز
باخت
أية
منطقه
##بعد
داخلي
الوفد
تقف
نيسان
الحرم
##رائف
sp
##شرت
فنادق
تخصص
##عج
تطلع
##نائي
نواف
قي
##حابه
الحدث
نو
المري
وشر
##فيز
توح
##لاط
##والى
##olog
النات
هج
##ud
##لادي
واصبح
الطرف
##ضن
##AM
##خا
مروان
##وارات
بوتين
نزل
القنا
مفتاح
موسكو
59
أشخاص
##برني
يبدأ
صفحات
الظلم
صرح
اعتقد
لتكون
تدور
كتابة
وللم
مشار
##اتيح
ووضع
يولد
بسيط
منبر
نصائح
##جنبي
والاح
انتظر
##زز
ملخ
تربية
واحب
اخاف
##لزمات
رئاسة
##ابط
ورغم
قلبا
روم
إيجاد
وتك
هواتف
ماك
##ائلة
##قاطع
##اوية
تمام
##رط
##لوات
##ينو
##يائية
تضع
غضب
آخرين
خطوط
##غفره
##صيب
##دوز
استر
الجاه
نعيم
##ذان
معاذ
الذا
##ربول
##ies
اغنيه
لاني
لحظات
حري
##لاس
الجوف
عدا
نفذ
تفعيل
شاعر
حكمه
##بتك
قوى
سطح
##لاته
والتى
##out
اسمع
##ؤها
المتح
##مييز
الصال
ويق
##حان
يعتمد
لعلاج
بعمل
##حار
##رجل
##برع
##تيم
اثار
تطلب
الدفع
لنفسك
##نهي
إث
##يلول
##طرية
القحط
موضع
مستمر
جزاء
الفتح
الارد
www
بسرعه
##كافحة
جوز
دولية
لاس
وأنت
##بطة
52
تحم
دولا
راجح
علاقه
تيم
باد
ارواح
##صرهم
##رحات
دايما
لتع
##لحين
احبه
ويجب
##رافيك
سلامة
الحلم
لحظة
وليست
غيري
ورضي
اوج
ينتهي
وبن
لث
تطور
خام
ليع
##ينغ
افتح
بيك
شرب
يثبت
مثله
ويه
واكد
معاه
لتأ
الادب
شهور
##بض
للمح
أون
##شفيات
وبت
لآ
يعرض
يرض
##لتين
صحيفه
سريع
##مح
أبيه
إضاف
أموال
سبا
مسعود
اشد
##قليمي
غر
وأبو
خبراء
معلم
الخز
تقدير
##ابق
يواجه
##وزع
##لاغ
بالاض
رحمتك
شان
##وووو
ممثل
زيدان
البل
##قاشات
لصاحب
ببعض
اغلب
الثقه
ثلث
##لاقات
مند
##لفه
متى
ساع
المبد
تتحدث
جرى
ثلاثه
999
جزءا
للمرة
##ماعة
##شكل
##بلغ
الموس
الضر
يسلم
st
ورشة
يحم
جل
بمث
##متك
تمني
اسود
عيادة
فرنك
متجر
##ترول
مصير
منص
كأن
عاب
##ولان
##هار
الرزق
جوان
علمية
النكت
##يتين
##ئناف
اقرا
العتي
##AS
##بعث
اور
عراقي
المجد
ميزات
القمة
##are
انتهى
إما
ونصف
مكاف
فضي
تجي
خيار
##ريبه
##يانو
##اليب
##فاه
250
الخطا
##رفت
نسيت
بتص
المرء
حرة
##هرات
ولس
الأر
بقوة
شب
##هولة
يقل
أبواب
قن
ليك
امني
41
اعادة
##فاءة
الفات
##ثيق
ديكور
كوا
to
مراحل
جوعا
فقدان
رده
ابنه
نعمل
تحالف
##لفظ
يونا
رائعه
بوكس
والاب
الاند
##شية
للشيخ
##ith
##وضه
مئات
##مهوري
##ube
ملكه
تبكي
ورفع
البغ
يؤمن
ايد
هيا
بقا
يتغير
كات
##وفت
تسليم
وهى
فؤاد
##راط
##كييف
أقرب
تجارة
بعين
تتحمل
##ستي
الماس
##23
متاب
يدرك
وضعت
عايز
##يفك
صدفه
##ream
##ونيس
اربع
طبع
مفهوم
حميد
##ناز
الشكل
ميديا
الحرس
اى
صدام
بشيء
مؤشر
عيوب
رئيسا
تصدق
##ظمه
##فارق
##اربه
##فعله
56
وانتم
تفهم
تنمية
رصد
تراه
سد
نداء
بعدك
امان
مارت
##نجر
إلكتر
اصعب
واخر
##هلاك
الجسد
##جارة
متك
رسمي
الاكت
خطط
مناسب
امراه
كرسي
التوص
أيها
##لبين
شخصيه
٢٠
تفكر
ضخ
pm
منصب
تبقى
اكيد
400
##الأ
واسع
##أى
نعيش
##ركاته
الميت
##سير
##لايت
وبارك
مفيش
لجنه
بمعنى
انتاج
##ran
آمن
يسمى
لل
##عاة
##عوة
##بوت
مالا
صادق
##مكن
##if
نقد
##ددت
آب
ليوم
عمال
سند
نطاق
طري
حرية
نيج
بالز
مرش
ديالي
لشركة
لإن
لمص
سلو
إسحاق
##ss
يذهب
54
##احبي
طبيع
الرأس
##لفي
جاب
إنجاز
الشار
وشع
فلان
عقود
تدعو
نموذج
##اوى
رمي
يوفق
درد
بابا
مضيفا
بحاجة
بقيمة
قمت
وسن
خاف
بالذ
##لاحظ
بعث
##ابعك
##ST
##ونيات
##صين
نبيل
am
Ph
صيد
الكهف
##غريده
جنس
ظهرت
##اخر
##رشيح
قرنية
أكدت
متفق
##طنا
العسل
##ماذج
عشاق
سع
##واتر
أبطال
ورضا
ميلاد
حاتم
حاف
سيناء
تسجل
تكفي
##ثمرين
##ارتك
##جاد
عمرك
##مودي
صاروخ
توافق
مميزة
##بق
أحلى
##ليها
##ستور
للصف
##بتها
استود
##يجي
انتها
##يئة
وإلى
85
المسئ
ولب
##78
عسل
باف
حائل
مافيه
نعلم
خان
##فاد
فالح
يتعرض
حارس
ترجمة
##شهد
##05
تبوك
ولقد
المحب
غلا
ستت
أذ
والقص
بتو
طيران
##ak
تون
ادخل
##غبة
##وارئ
##art
جيل
معدل
تعبير
خلك
نظره
للاسف
##ial
##our
الواس
رواد
##AN
وقل
##لقب
مسار
سنا
خلو
##فتح
##ليج
ثقة
أض
متأ
فاذا
وقوله
قاسم
ياص
اختار
##ئها
روابط
الأك
تعتمد
حلف
##خاء
زالت
الحجز
طلال
جامع
الأصل
والمه
بنكيه
حامد
##سلم
فورا
انتظ
##رازيل
باج
رفيق
الكن
##nl
ديس
##البات
##ئاب
كوال
ظاهرة
لمده
##اءات
جميلة
¤ô
الاقل
يعبر
راقي
علامة
نسخ
تعم
الهول
سجن
مضي
تشطيب
فعله
ننت
يفكر
كذ
استح
ويخ
##طوط
##بيان
فئة
وانتي
##مور
ايش
ظه
مخرج
##رباح
51
متعب
أقول
##عملة
##ذكير
توكلت
##أمل
مكانه
تهدف
ايقاف
##قذ
هول
##OP
حلقات
تبدا
##دران
وقتها
تسوي
احباب
##حدات
القتل
تغيب
##ؤمنين
عينك
منازل
مولا
المنص
يسال
حديد
رأيت
لمجلس
الحجر
صدرك
والشع
##فيها
محلية
##طنين
أعم
##ابرات
يرفض
وقوع
بيب
يقود
اكشن
##بون
99
محارم
##وكس
واكثر
قبله
واجه
ضعيف
رجع
وهما
##اصرة
تعاون
اعم
##قان
خلص
اغت
##ews
ثق
عائشة
شعبة
قدره
##شم
ومحا
العشق
عوده
##لتنا
تتبع
ضحايا
الإت
##ويين
صبح
##نهار
##ولاد
ابيض
رسمية
##خصائي
حوادث
اجتمع
جال
##ظهرت
##سيوية
والاه
وثلاث
كمان
صدره
يسجل
سهم
##ياح
##ميمي
##فله
تمتلك
العاش
وخير
يصدر
وجعل
##جبني
تحزن
منهج
##فتاح
اردت
##ويسرا
##غه
لأول
العف
ماشاء
رشيد
لاجل
بجانب
تؤدي
##ex
##ونيه
حقيقي
##75
حقه
##وقي
روت
##يدات
إثر
طالما
##غاف
وأيضا
كثيره
بكت
53
##يرن
جاي
##صلا
##صرت
انع
##يكية
Sp
تموز
##قالة
##هية
جماعه
بقوله
قياس
ويك
##لتهم
داف
##جلين
##جموعة
صحه
خلاله
##بدال
غيب
##ang
##جهود
أمل
##ئن
انطلق
متفر
حزين
أنظمة
سيم
احمر
##شرون
عبده
شويه
خطأ
دائم
ولهذا
سينما
اسمها
أصول
بطلب
ندوة
##حيي
تشبه
وبلغ
##ذكرك
لاعبي
عباره
نشرت
أنس
برق
##نتها
##صت
حصريا
الجرح
سلا
##حون
مسيرة
Bl
##ئله
##كسل
صم
شئت
##ظى
ثقي
ولفت
أحسن
تصنيف
الصرف
يأخذ
##لتقي
القوي
وري
##ology
##عراض
ونقل
##وقعة
الجلو
يصنع
الضفة
جانبه
Ch
للشعب
ختام
##عدا
قصائد
الفرص
صاحبه
##درة
ضاقت
##ربون
سبي
دوره
وكأن
##فك
جوري
##زنة
بانك
رحلات
لايف
##لجي
##دات
عملت
وشراء
Sh
2003
اطلع
ارج
##وفى
##أكيد
##all
معدات
تتضمن
##وضيح
عقل
اهلي
أبر
##26
##لربع
الربع
##الص
##ويترز
والو
لعرض
##اردة
قصد
فاطمة
الخري
ويوم
يوفر
##عايه
واجع
رابطة
##جون
الدوس
نفوس
علق
قبول
اذن
نحتاج
##علي
##لوث
الإج
##ئمة
ازياء
ولله
الانا
ساخ
خاض
مابي
تسويق
معتمد
مزاج
##ميك
##لحق
اعدام
رفعت
بقية
كسب
معارض
متط
حاولت
##جنب
دوا
وذكرت
تشكي
الكس
يسي
المقص
سار
##زقه
##79
شير
أسئلة
##عدت
بالمر
عبس
عموما
الغضب
اقسم
مذه
##وائر
##ائكم
مؤمن
##ويته
تسعى
وانه
تاتي
قديم
وأكثر
##حنا
##شاط
##بهه
وظيف
زان
اسمك
لانت
عه
فقلت
بعدد
واث
##حمين
##عوديه
اعلنت
وصفات
تختلف
وحي
روما
جحف
##شكيل
أشار
قلنا
وأد
عمرها
##ارو
تعاني
عامه
##ate
بطوله
##ip
النصف
##رشاد
##وتيوب
ووف
مشهد
الصمد
يدعم
خصم
##قده
باه
سكري
##واحي
جريمة
اقرأ
شقة
فير
ميلان
للصح
لشهب
##داة
##يمين
##ربا
تدعم
كلامه
قمر
امنيه
##وتها
وحم
فريقه
كامله
اعداد
سبعة
دمع
تفعل
##ht
مرشح
تشارك
##راعات
##age
الغني
شد
وظ
العوا
للسي
بنظام
##شيه
##يقظ
ô¤
وصحبه
ضحكت
##سها
قليلة
##باني
طعم
تسعد
##اضرة
ارجو
##قود
الاجر
##طوره
تسم
مخيم
تصف
##ok
جاد
##اير
##قوله
مشاهد
##شخاص
فيس
##طيات
قران
سوها
عملا
يتضمن
زه
قدرة
المجا
خلفية
لسانك
عاليه
الاض
##جيال
قالها
عدسات
توصيل
ex
##شير
للتص
معالي
##جيه
فنية
##لطه
بالث
عملاء
##يراد
ومات
اصل
##شب
بيده
##ديها
عالي
يحق
سفيان
شغل
ستايل
تضمن
##داك
الجوي
##يقة
##بدل
تجديد
جوائز
##لومة
وبس
##طالب
##فان
البدر
معرف
##امرة
محطات
##ياض
كنتم
وإلا
##ائص
وصور
لموقع
الول
يذ
##يفو
حظر
الار
البت
والأن
وعرض
سمي
سلطة
##اهدين
سلوك
ونص
اعمل
ربط
##قله
وته
بلادي
إصدار
##ax
والنس
##ارتها
فيقول
اترك
نصيحه
تحرك
##ظهار
والنا
تجارب
الأرج
وكما
يمتلك
معسكر
مصنع
##ماعه
انزل
##ضت
تهتم
مرسوم
اطلب
جوجل
يعيد
##and
Pl
ولج
سابقة
موز
وبدأ
##رن
ابا
##IN
الفلك
يختلف
معانا
بقلبي
اتح
لير
تبدو
##ry
وحسب
كلب
بقد
ليلا
with
بيري
إعلام
احذر
طائرة
##ريكيه
ودعا
والإس
شريف
بحجم
حجز
##يتنا
حصول
تواجد
##طرا
اشتاق
واحفظ
##انز
##دع
يكره
شوارع
##دادي
##ماق
دورا
لرئيس
لافتا
عتق
##لاميذ
كه
##بارية
تسال
##وطه
##نازل
مشتاق
##واخر
دب
القلي
الجاد
يطول
##تهما
رحي
يدور
حوله
فهناك
ترضي
سخ
معكم
##صن
وقام
##ثى
دو
لنت
ناب
قادة
فلك
تركية
لسه
##echn
##حول
تشحن
نام
ad
ودك
الكرد
فز
الماج
##وقة
##ناع
لفظ
جدد
##71
##نياهو
كش
حشرات
##اجم
##ديف
##عتين
##وبيا
##نساني
كفي
هيئه
اعلي
بيته
##اقم
لحل
قاتل
اشعر
##البا
استط
##فرة
##كريا
تكريم
عماد
بوضع
معركة
لمنت
اسرار
بينه
##واقع
باسيل
روعه
##pt
رقبه
الملي
ميدان
فقدت
الوجع
اعترف
##وسى
عينا
هندسة
كليب
ليون
ملع
يزور
##صلين
زوار
عمران
اتي
##ستون
أرس
بثلاث
فراغ
البطل
##61
الكلي
إليك
تكوين
##ابته
عقده
##ائز
برف
##يبي
ليكتب
قصيرة
تدفع
والبي
ياا
ايا
أسرة
عينيك
##ph
##شعر
##ard
##طرت
تستمر
مستح
##فعت
للمؤ
##tor
انهي
مكياج
يتطلب
84
##منا
##لوج
هلالي
الهدا
ولكم
##طبيق
##زلت
ارتفع
##اديه
عاصمة
##ساقط
الباط
الكوم
تحليل
وتحت
ذكرك
وكت
##بز
رؤساء
طبخ
##وبين
##لروض
##عبه
الروض
قله
البري
غاية
##ختار
اولى
إلغاء
##ذاعة
##لمك
جملة
الراس
##وانا
##غيث
للات
الحفل
الوعي
البطا
##ديس
والمك
عمار
##ضباط
هريرة
صال
##ياسي
ثانيا
طبيعة
##OS
##روز
طيبة
ومنهم
الوصل
والفر
سماحة
##رمى
واز
مزوري
موضحا
##قرب
والمط
##يادين
تايم
تخيل
رحمة
احدي
فرانس
##وضحت
##اشي
يسهل
##فقود
والتش
اغلي
بوجه
كونه
أرسل
##of
فراق
مشرو
ارسل
هواة
تبا
جعلت
مميزه
طويله
##دود
##لغاز
مراس
البور
كبر
خرجت
لنفسه
شق
##ريدة
وآخر
لذه
البوس
##باحة
##امله
##اءة
##كرون
عطا
فرحا
المحي
كهرب
##وكل
##63
والقر
فقر
##شاريع
توصل
اليم
مقام
زرا
تحرم
##ستها
وبناء
##ED
الكلب
##غن
الشأن
زادت
##عال
الجر
لاحقا
##عودة
الباك
ماهر
ويل
الجهة
وعمل
حدثني
بره
يتمكن
##صيد
هني
تأمين
الغز
تأسيس
كمية
##سيات
مون
يسعى
وتكون
سيس
يقضي
مرج
تعلق
جرت
مشغ
بينك
Arab
حاز
يامن
لضمان
غام
نائ
##رطوم
##والف
##ie
##نيها
لاد
##وحه
والحر
ديب
سائق
صلات
كذب
موريت
زب
ماتت
الجبل
محر
يلتقي
وأب
بطن
قويه
CN
##94
##ايه
نحت
العت
توثيق
حسني
عدسة
ديف
خض
شكلي
##جاهل
##▬▬▬▬
فحص
##ديب
الوقا
سنتين
صعيد
أدوات
##قتهم
##ندات
تقلي
والاش
##ران
##يازات
تطلق
صبري
انطلا
بآ
##بس
تمنع
##ستغ
اسواق
صيدا
##سيما
##تيك
مكتوب
بخط
يصلي
##راوح
خليجي
يحرم
##روها
مازال
محلات
انو
##ارفور
##وائي
الغيب
##هاجم
غم
تلعب
إصابة
لتر
بالمح
اطباء
يبكي
اتباع
مراد
##امير
تطالب
##جدات
مدخل
##امع
##وطة
هنالك
##وائم
ندعم
##ديدات
حدا
يومك
##ضاة
سئل
أغلب
ومنت
لرب
نورا
##قتين
نظيف
##ver
كرا
##روحة
شفاء
##مائ
##شيء
##نو
عينه
المحذ
تصويت
##ماهير
تخلي
حمام
اتوب
##طت
القلق
نسبه
وعليه
حمود
##قتنا
سهولة
##اتمه
جوي
كفايه
شاح
##OR
إذن
يتابع
السني
سبورت
شهيد
جواز
منزله
##عدك
الدع
الصدق
##شيط
##TM
كاملا
فيكم
فساد
النخ
قائمه
متف
##ونى
الساخ
يوف
فريد
الوفا
حديثة
انتبه
##عاف
وتشمل
ملامح
نقطه
امره
##زايا
مذ
يؤثر
##بورغ
الند
يسير
##كرين
التحت
وصح
##ظره
الكذب
مربع
##اين
جير
##شون
مشرف
ياللي
الميد
مثال
يتوقع
بفتح
##بهات
##ond
انسي
بيض
بموجب
##فيظ
##قيمين
##جعل
##ولوجي
##ابتن
عزام
##ازه
##حونة
##الفه
##وسم
لتت
عطاء
عاشق
خميس
خفض
أولاد
قلق
اسرع
##صلت
تتوقع
##درا
##لندي
بتف
متس
ارتك
##ويلات
متوا
مفض
##اعل
##فلون
ذاتها
نر
##صاف
قاط
جراح
بوسعك
اهداء
اطلق
##بني
يسبب
سباق
سيرة
رحيل
فعلت
رومان
##صفه
تمه
تقر
مصرية
##ماه
##عبة
العمي
علمت
هاشم
لهما
للجيش
بطر
##هوة
يبدا
يرحمه
##ابير
بتق
دينية
جبهة
##ايلات
##صام
##ناقشة
##قيقيه
التكن
شين
مستع
##بطين
قرارا
##باكات
أمنية
شيع
راجع
بسعر
سيدات
واقت
##فعه
مسير
الضيق
##غيرات
ينزل
##طبق
شامل
البث
امرا
تلقى
الزع
والمج
##ائعة
جندي
مدين
##حبك
اهله
##اكد
##وضي
امطار
منوعة
##عارف
عكا
تتكلم
##دمات
عشرين
إليهم
عاطف
دونيس
فرقة
عربيه
رجب
الركن
فط
سمه
واط
بيتك
حرص
يضر
##ملة
سببا
والار
##يض
##اها
##ائيا
##وقوف
موظف
اهد
لاه
##قض
والاف
والمف
##ضافات
خساره
جين
الثان
تلف
##ياتك
المرس
بغي
محور
القن
يستمر
روحك
يفوز
المعي
ميشال
نواب
جولة
البك
حاجات
خدمه
بيه
##حباب
جلال
##فيك
ماعاد
مائة
غربي
وأح
سخر
مغربي
##فايات
عدو
نتيجه
##هرج
##برك
##صارات
سرعة
##ive
##هلة
يشمل
اكتشف
يحكم
تذهب
ايجاب
يديك
وند
600
ثان
مسم
##انها
نجيب
أرج
حني
قراءه
كير
لمزيد
حديثا
قضيه
طعام
##رابي
طاع
اا
مرب
جحفلي
وسداد
تتغير
الفيس
شعراء
يقرب
ويحت
سوبر
والشر
ايس
##دعي
تحيه
سو
##ld
##بيعة
العط
##جازة
رؤوس
ياخ
البيض
تهن
##وضى
مبنى
##اهة
ونه
باص
1000
##تاحة
##امرات
##روك
حسابه
اكل
الكث
ألفا
غينيا
محسن
زار
##سيب
أعراض
وقفت
جار
صغيره
اضحك
##رافية
الربح
وكتب
حيدر
الخضر
ينام
باني
قراء
بدم
رسوم
توحيد
##يرنج
صحية
أجر
الغي
قالو
سوم
لمنع
يحل
كلامك
يتحمل
##ئيل
عباده
##صاري
##pp
غاز
عظم
##ساسا
شنو
٢٠١
##قك
والمخ
##ناية
نزلت
يرزق
اعيش
لايع
##ادير
وزوج
يديه
اير
وظيفة
##قسم
وطالب
بلاك
مابين
الود
2001
محددة
ولايه
يصح
هاشت
##ge
سلة
ابيك
##دن
عربة
تدا
أجمل
##وون
##افيين
وأعلن
جها
احبتي
صباحك
البعث
Pro
راد
يحضر
نفت
مفر
كبرى
وبأ
##ذور
قادرة
قطعة
العجز
##ows
للأمم
نون
##اتين
لاول
##يبات
##كرت
تبارك
مولد
جرب
تضحك
ثقه
##ذنب
##نفس
سائر
رحل
##ااا
مهاجم
##وابط
وكنت
اقدر
أنباء
ارفع
يعم
والحب
##ماش
تلم
بمجرد
حالي
##اريف
باتت
سكا
العثم
الميك
what
ثمة
مصطفي
##حيم
بدور
وزيرة
البطر
##وكيا
ينقص
مؤقت
تفكير
##غلب
##شراف
##صرح
##فوا
التمر
عسيري
##يفور
##AD
اموال
والطب
اللغه
##ارسات
اسمي
الولد
المذا
جناح
تجهيز
##89
تزوج
يدعي
بالمس
القصر
هامش
لانهم
شعبية
فتحت
تؤثر
اكره
وجمال
##وفية
والعد
خاطري
هيك
##داي
##ماج
للمر
باحد
خسائر
##انم
نسمة
ببط
أوضح
اروع
##عدات
وهب
تعرضت
##ass
الينا
فالله
تجرب
بالات
اعاده
أوراق
تكره
##قطة
متت
##عدادي
حينها
ومي
تفر
لخدمة
##غاث
##نود
لدرجه
الدوا
تتميز
##رحيل
وشكرا
سماء
##هدوء
نقاش
وسا
يفس
تأليف
تفس
جسر
بدات
##لينا
ضمير
يشير
الخطة
##ستا
قا
نظيره
##ذاء
مايك
##لاقه
توت
##كولات
##لالات
وشدد
انام
شلن
##قدة
تابعة
فضاء
Ad
بحبك
##كوما
وحيد
معن
غرائب
يلد
بصوره
##محمد
بالحب
AL
##بيدات
وسيلة
##يال
وعز
فروع
الهاد
واشرح
شباط
ومك
##غالي
فحسب
سواك
ولح
##كنة
روب
##قرة
منتج
##باقي
طع
إمام
ودع
قصير
واك
تمكنت
##غولي
And
مبالغ
##فري
بحد
كنوز
الشرك
ماه
المصن
##اقب
##الين
##72
للري
تاكد
اكرم
بيار
رغبة
النح
استث
054
مكاتب
إنسان
عضوا
حوالى
استد
كدا
##امح
قلبها
##ونغ
##شتري
الجوع
##وركا
للاعب
لابن
تدمير
مشد
##تهد
فلل
##بيعي
نير
اتفق
##بلج
##شرف
فإنها
##رود
##يجا
موك
##roid
مصاب
إقليم
##ذى
##اهيم
بقيت
يهدف
راحت
##ثف
سداد
##انق
ونظ
يفرح
محمدا
##ian
ولعل
قبره
لتم
الزم
اصلاح
سيرفر
اتفا
##مص
سلب
##عدي
لتق
يحدد
الوص
2002
مرسي
كنز
اعتمد
##يتي
علاء
##aw
ميناء
يمارس
ينشر
زوال
ماين
منصة
شعو
##جتماع
عصام
حولي
ستجد
##يييي
أسهم
ارسال
An
وحش
وفع
والمص
تعبت
تروح
صدا
وثائق
##بارة
##تراك
تراث
مهمه
##تس
##ردود
معاني
الخطر
##ونج
##وأ
واقول
صفقة
موري
لايم
جنتك
120
منطق
iP
##وود
صوته
##iz
كرد
احداث
##لنار
##سست
بحمده
بمصر
بلدي
كثره
بعي
تساقط
يتوقف
##ادلة
نرى
مضاع
الفرس
##لمبي
ايم
عبادك
وقر
##زح
ملائ
بجدة
وحدات
حاكم
منف
باز
لبس
##شأ
##فلات
كاز
فيمن
##ile
ياليت
##وسائل
موه
حسام
العرو
الألب
الضي
النحو
##ماعا
##اوف
أمور
##مدة
##لاقة
الفتن
##هودي
الفص
نوا
بلده
أمه
خيره
يضحك
بشخص
ياق
يصف
خطيرة
تتعرض
فجاه
##صرخ
##صرار
شخصيا
تقرر
والأم
##LC
##ide
##فط
فكن
64
88
##EN
##بيبة
ردد
##راكي
شاملة
باحت
##برات
باح
بالتق
نافع
صام
تتوقف
لنقل
##رفي
##مرت
راعي
##يسير
##حصل
##قدمه
راضي
حكايه
##فساد
مخط
حسابي
##غيب
جلنار
اسوا
بيضاء
انط
فاص
يفيد
##الته
##طاف
نتمني
فأن
شلون
خبير
##بغ
كروت
يسكن
اشكال
واني
##فرت
عبدك
سط
ملم
لطف
وفتح
المرف
##غرق
محبه
الصي
بنها
##صابات
##ebook
قصيده
اصدار
fem
بفوز
مثلما
جواب
واكت
السري
بقوه
يسعدك
وعق
نبيه
انقذ
مقدم
عبادي
##جيات
##يمار
يجتمع
##قوه
##ضعاف
ووجه
سعادة
##بث
ولاد
##ES
نعت
انقر
بإن
بسيطه
يسم
لحزب
مطاب
##شو
الناش
##ياق
##دال
بنشر
لمبار
##رفشة
إض
بقسم
متوفر
بحكم
احياء
منط
كولوم
قار
تسع
لبناء
لاحت
الثلث
##فيض
تهي
المار
تعامل
الفشل
رأسه
##ينيو
هدوء
إشارة
للحد
خار
فيكون
الكلا
تقود
اعين
أريد
سياق
عامين
أسامة
جيم
لااله
عبدا
حاض
ضاق
##لسلات
طلبت
قاعده
Le
ماس
ياه
ادعو
تأكيد
وإس
ابرز
مده
لمؤ
##ليفزي
##اكم
اولاد
تصير
مخطط
##وقعات
##لانية
شرعيه
ونشر
الطوي
هدي
ونقلت
عاز
مطمئ
عنهما
حصار
الإح
سعيده
##عاقد
ميس
##ديين
ماكان
##ثله
بتم
مهندس
ورف
رمض
بالحق
خطوه
روسي
حان
الحجم
سائ
منو
يفضل
##خلت
تضيع
علمي
##حيه
##لترا
فاني
آلية
حيل
قتي
جاريه
مليش
يفقد
جائزه
سق
##صى
معالج
ورفض
##عدون
أضرار
هالم
القوه
eyes
مؤلم
وقتل
الإيج
##رجال
جنيف
de
##ودان
رياضي
مطلق
الزور
نسال
تثبت
بارد
عرو
جهنم
ورحمه
ينسي
بليز
مضمون
مسج
اوقات
مصن
##باري
تسير
زهران
PK
##جام
قرأ
يضمن
وخارج
##ميله
##وراه
##ركين
هجمات
مدني
##دح
##وبيه
femt
الآلي
##ثرت
##end
فاعلم
باراك
##لندية
غيرهم
بيئة
وخط
##ترط
تصنع
مصطلح
##ستمر
تنسيق
لطب
##زيل
الضعف
يغيب
ومصر
يصيب
العكس
جمعة
احدى
الدخل
زام
طاب
انح
##عبير
صعبه
##ركية
ياسين
وملح
اجنبي
##ash
##ريكى
البلو
والأد
حكام
انتح
تتمكن
عايش
الوض
طاري
لغيرك
طيبا
##تهر
لكون
بديل
اهلها
قبائل
##YD
الاهم
الثمن
بسيطة
##اضل
موظفي
##ime
بلدان
عذب
مقص
جبران
##ئتلاف
##فيع
الطا
اهاب
وحدها
##دامة
قصيره
تسب
اجهزه
##شارة
شرم
شوقي
عقلك
صيام
وكر
حوا
أثبت
للآ
##ضحك
التلف
ياخي
وقدم
##RO
##مايه
##ويك
##up
يلزم
إمت
##وضية
أضاف
يمشي
تنظم
خصوص
##طيك
##عوث
للبر
يقيم
وخلال
Pr
تلو
تنبيه
عملها
عميد
ويبقي
الفج
بيعه
اعشق
Star
##الز
يسب
المسم
دينك
أنني
##ليمة
##ابها
##ساتذة
للتس
##لاجات
لقيت
تجميل
##يكو
القلم
بائ
صاحبي
الشج
عيال
هير
انثي
مقاب
عظيمه
شبكات
ماضي
الدر
##HD
احا
وتقدم
##برد
الصبا
نماذج
التز
##سرع
##ساطه
بيوم
تبعد
معص
والتف
تخسر
باحث
بنتي
لتخ
فتاة
ارجع
خرو
De
##oad
إغلاق
##وقاف
دلع
حمزة
اراء
سبل
##سح
##ياسة
السد
تكذب
حكيم
جبال
تقرا
معناه
بصفة
ونح
جراحة
لفترة
شرائ
ابوي
##بقى
الرحم
##ity
يبعد
أقوى
##ناسب
##الن
##جزائر
##ناهم
ستر
وقص
##لتان
القبي
ودم
##ريفي
##فسكم
##غرة
##ضيه
رحيم
وبحسب
مخاطر
لاتح
تجنب
لويس
##مئنان
يليق
لتج
نوره
المبت
ديني
##وجي
اسقاط
تغطية
لاز
وصولا
ايمان
خوفا
##للام
صديقي
صفة
اسي
##ميها
##ight
95
بفعل
ورقة
شعوب
مناه
##عاقة
يساوي
أساسي
##وارث
##سيين
##باي
اوت
واما
##ظمات
حكي
إصلاح
عطني
خيمة
صباحي
ينبع
القرى
اشف
رضيت
وفاء
وجمع
أراضي
الخطأ
للسلع
يسقط
##ادا
البع
بكال
تحفظ
##وسة
اللام
مسح
السوء
ذاكر
وبما
بالاش
##جائب
##سهيل
##لطف
للأس
ادع
ساره
بجده
امانه
راسي
قتلوا
يقطع
##وانه
تراج
وابدا
ووال
عذر
يتحقق
مزي
##ائمين
أشد
##ناصر
واوضح
ترض
##متاع
غسل
##اليق
نسمع
وافق
##iy
##صبحت
جلسات
أولي
استاد
أحدا
تنظر
فانا
كتلة
ترفيه
##لالي
ويؤ
##لكية
##اتا
صدم
وفت
عرفات
شيئ
##لطات
##رمان
الحوا
ضياع
تفوق
المان
بالاح
معم
##هلها
##صله
عائض
لمصر
انتهي
السهر
يقرا
##ركت
يوجه
كنيسة
##ايب
ومه
##85
فلاش
##زاق
##ظيما
فقير
سهلا
مهد
البول
تمثيل
اعجاب
##جازات
الايج
الحز
تشجيع
بتج
عاصفه
##جيج
يعالج
فول
والصح
تحكي
يهدد
والتط
##ؤول
عائدا
وتحدث
يصلح
وكشف
بقاء
عملي
منخفض
160
شده
بتت
تذاكر
ارح
فاد
##اعية
الفرا
بوف
ريح
صراع
كوكب
الفلو
ترق
محيط
اجد
يثير
متاح
القس
##سعيد
أصيب
##وتش
##راجعة
فهذه
بعدين
النض
وعي
هندية
##SD
جمه
##uc
خبرة
1440
##فاك
الكار
##ساها
حيال
عجل
المدى
أستاذ
##وجة
طلبة
إدلب
الفنى
##ذيه
نزار
والى
##حرار
ياد
##منه
##جهز
نشوف
تأخذ
صوم
والأخ
##ياتها
يخاف
محفوظ
بقلب
حذر
##بيات
تفجير
##تكلم
تحدد
تكلف
الإله
بانها
ملء
##واية
##همين
Dream
صوتي
doc
نادر
وسر
وسدد
افكار
وبدون
##داخل
لاف
ممر
قهوه
بلس
شاشة
##لعه
يشار
سماع
المحر
اصط
بارت
رحب
درويش
##ite
be
أيدي
تمسك
بلح
ومخ
ينص
للشحن
بجودة
يتأ
بشري
##غلال
بتش
دينه
ذهبت
##مث
الكرم
لائحة
ورحمة
Ar
ربح
نطالب
كويت
هامة
بلال
وأحمد
##46
مكتبه
وجوده
##داوي
##عمر
استاذ
يطرح
مسلح
تبني
تسقط
جهات
شديدة
اخط
ونفس
للأسف
تخاف
مذهب
النك
وصاحب
اسر
اصلح
##لجأ
##خبات
اراضي
##جيد
والعق
الإحت
وفيما
ميون
##برم
القاب
أسر
يصعب
رقص
##مش
pl
الوات
خايف
لحضور
##وعد
أغس
مطلب
800
اخوي
قاس
##ames
أخيرا
##عادل
لكان
وضعف
ردود
كومي
##زات
##واها
كتبه
احلى
نوعية
##خلف
ul
نجح
ياف
##وليه
##نن
##شال
إند
شرع
محرك
تكري
أشكال
مبدأ
##ينت
بتهمة
حمدان
##man
ايق
يخدم
##لود
يتمتع
##رائق
صدرت
##ome
همي
اموت
##ينها
̈°
أعد
دوليا
##شفاء
طائر
لأنهم
أجمع
تنزيل
رجاء
##بعه
تحط
تدل
أفكار
بشير
انفض
##سنه
سموه
كوست
خيال
زوجة
ورؤ
شاهين
##بري
برك
تعادل
##وفرة
بشدة
##وفات
شمو
تيار
غالب
##ous
سريعا
الفطر
واشار
##شري
سنغاف
وأكدت
وبذلك
وعبر
##قيمت
الرش
وراح
حديقة
##جهل
فنون
وني
الراي
وسيتم
لشؤون
لوقف
الطلا
68
يرضي
تنفي
##نامة
يضرب
لاحول
اقدام
إيمان
يشاء
##وافي
##للات
تعيد
##قاسم
أسواق
يهدي
اضافي
ساهو
##ill
النوا
بوست
عده
##MD
كالم
تفضل
الدرس
هاني
فيلا
تقي
واشت
حماة
اسلام
ويقال
وأخذ
تحسن
وايضا
جهته
السمع
##تز
طقم
##يجاد
اصيب
##ويع
##اليف
بخلاف
السا
برض
وسجل
يخليك
##وصات
والجن
يدين
سهلة
أيلول
ورم
بريف
تبتسم
72
##oft
وحفظ
لغه
الزين
عرق
سح
حامل
سيدة
أسوان
##بدء
الذنب
عر
الأمل
أعرف
أجزاء
سامح
تدرك
فارق
##رخ
اتهم
الصاب
يوضح
سؤ
ترفض
##انغ
اعز
ناز
قف
الأثر
##أه
##اور
وشعب
قبيل
##ضمنة
تأخر
##ساة
قات
إدخال
يقصد
طفله
ورض
قلم
##بغي
اسلوب
حقك
##ياكم
كفوا
تنه
امنا
تجاري
ومنذ
##وقية
استقب
مرحله
##قاليد
وفيها
للرا
إط
صعوبة
يخلق
##وظيف
عجائب
حركه
بقيمه
##ائله
تايمز
##وتوغ
وسام
##اروخ
الريح
##فاضة
ماا
وجودك
أزياء
##نيد
رات
وحقق
البدء
تاثير
يعطيك
وافت
ظاهر
##يرها
##برية
عمق
ساد
الوط
نهار
##قادات
مكس
فرنسي
تتج
##جبت
##للم
053
والسي
##فتر
تخصيص
اللات
المجه
ستح
مطب
##يائي
حرق
يحس
##ميص
##خلات
price
مفيد
التقى
##واتيم
والذى
وبط
##على
يراك
الحكا
تفرح
1437
تعتقد
مود
67
اجواء
شريط
ولمن
##هى
اينما
سجلت
مخصص
##امعات
ليالي
تحد
تجيب
يومه
##لجيكا
##اطب
شعبنا
##اسب
يجعلك
رع
86
##سيع
##van
##باره
##لعت
يروح
##تيبه
الفاس
خاطر
كاش
وثيقة
ويص
فالأ
استف
مثلك
مطلقا
بدوره
##عونا
زياره
أخي
وحتي
مبس
الفم
سياره
حبيت
وانته
كلف
##دوا
##نائه
بسب
##ياها
##وقه
نشرها
##واعش
##عبد
##mail
##MT
##رصاد
بوج
اخرج
يتقدم
مارتن
استن
فتاه
##96
يقوي
##ختم
##OX
الفيت
##ونهم
بقر
صعبة
زبد
وقنا
##اعب
داعي
الكفر
المغت
##ثث
يرك
مسجل
an
حالك
وزيرا
آلة
تفيد
أوغ
##اهه
عاوز
فلس
ماير
Com
وحقوق
تشك
الناز
مام
حققت
كيد
فرس
##ium
سقف
##ien
يصدق
اهمية
تجار
مهام
##واره
مطاعم
بيل
##ياسية
رئيسة
مؤس
##سنوات
اهالي
الحن
دردشة
القذا
##عاش
كميات
##ليزيه
السيف
ومنع
إزالة
والأح
##وانية
جاهز
ثيمات
اية
يحيي
المنس
انشر
##SL
كو
العظم
أمرا
##RE
والاث
قولي
##يتا
بتأ
زينب
ارهاب
##مك
يدافع
الزهر
وينت
##بعاد
الاتح
ناص
سني
بورصة
صلة
كارت
التام
مصرف
مذكرة
برميل
تامر
إلخ
##ove
القصف
مقه
لوحات
جوه
##صيح
يدك
الأسر
##حى
لوضع
بإذن
وهن
بقايا
للاحت
لايك
آي
يواصل
هدفا
بروت
صاب
جعله
##كى
حصة
خطورة
أولئك
وأت
أهالي
وسوء
أدت
##رجاع
ولكل
محس
بورت
بدءا
فكانت
لال
تركت
##عبي
##دها
كرو
بجروح
حش
أشرف
مرسى
بموا
العشر
اوراق
تصور
##ديقه
##ey
لعبه
ومنه
المفر
يضيع
##زياء
وروى
غسيل
خاتم
افراد
قيس
وقي
فتنه
نادى
فعلى
##ناسبة
للجنة
واصل
تغفر
##جى
سامبا
##قاومة
لطيف
غادر
المثل
دوم
رضاك
يعقد
مراسل
##نتوس
الفخ
##جها
بروح
نشره
مرتاح
يبد
عدي
##مثل
##قاته
##دهور
بئر
ابقي
خطير
##وفين
##ائمه
##غف
##قفين
ضروري
يتميز
##100
تميم
prk
فله
رميهم
دمت
يغادر
##كاك
##عقد
كرتون
شأنه
##لوف
مشيرة
لور
قاموا
سكاي
وقتك
انكم
تكرار
مضحك
##pen
##ثاق
مثير
انفاس
العود
أقدم
طيز
صقر
نرجو
لقوات
تضر
##فيين
الصع
##ريحا
يمين
المور
للبحث
ذبح
ديفيد
اثبت
##عدين
دواء
##وعب
تتطلب
ميل
##هاا
##ياطين
للقاء
##طنة
يقرأ
نوكيا
الخيل
للشخص
حمص
يول
بحفظ
الويب
أبيب
##قابل
بفر
وجهها
هاتفك
اختلف
الخبز
خلقت
كافيه
مضى
##ئيه
لوا
يدري
سبأ
راسك
##غراض
ديوث
##قايق
الجس
طاهر
ازاي
You
##يسيا
محرم
يث
##يافة
قريش
للتع
حظي
##جبك
فاقد
الجزر
ايف
خالية
وفاته
##اشه
كح
مكر
##TV
خليك
تغيرت
##مارات
كرك
اشوفك
عقدت
بالسي
كفو
شح
##زار
يحسب
أعظم
وعائ
أعداد
الدهر
لار
روان
شعبي
أقصى
##قاطعة
ضابط
الألي
##طفاء
##ينال
وتنت
##راضى
الضحي
يرب
##رمه
##حونه
اقترح
هدايا
##بيك
مسك
##df
بتك
عدنان
##ريحة
##خخ
معان
##055
بوص
تتمتع
تنشر
##فقد
صفات
حار
##فران
كونها
للوطن
أعط
مالها
##كتابة
ننتظر
الحك
##افلة
##همات
أسس
مايع
البسي
فواز
طبق
##زيغ
رفضت
تؤمن
وقلب
##يباد
##مارسة
سويت
سريعة
للعم
يمنح
يوقف
وحول
واحنا
##نمارك
يرون
##نتون
والتأ
عادت
إنك
نيمار
يقين
الفري
عقول
##برين
##بطي
توكل
حلال
الدمع
اشرح
عات
والال
ربكم
أدناه
تكييف
شيله
##يناء
##وينت
تحذير
المتش
نقله
##سمين
##ach
رحله
علام
مباحث
حاسب
كود
##غوا
##قيلة
الغاء
بمكة
وحق
أطراف
مترا
##وضوح
روات
وجب
##ياطة
بداخ
##دور
##وراق
##برامج
تصفح
معالم
##888
##يرت
مكروه
أيار
لكنهم
ومدير
للمد
##ong
فقالت
للابد
صافي
احببت
##ايخ
ربا
تقتل
##لزال
وربي
داني
سمحت
الخش
##wit
وزن
شايف
أعتقد
جهاد
ترش
Cl
وايت
بصدق
الستة
بلب
تلمي
مهدي
##اثولي
##IG
##طلح
##صدير
اغلاق
رئيسي
بجن
66
##لسلة
##راجة
##رائط
تتخذ
فاروق
لرفع
جعجع
جور
مسقط
##ضاءة
##صلات
##تهن
محلي
الباس
##والب
شهاده
وحيدا
شأنها
اصد
حركات
وابعد
بنحو
ووزير
حدد
##ضائع
بتر
صيا
تعدي
##غات
##رتب
لعمل
غيار
كونوا
يظل
الضو
توسيع
69
##ترين
نمت
أوضاع
كيك
##راعي
فايز
##فقه
##دره
##هنة
جفعات
سعيدا
##av
لفر
أقر
كثرة
##روقات
بصد
62
اخيرا
بغض
مرتبط
بوم
إنهم
ماشي
وشارك
النيه
كرر
راك
##ييد
##وفك
يعين
وجرح
فبر
قذ
##ماح
83
صغار
تأش
##زلة
وقلت
بيتي
مندوب
ساق
مخلوق
دوام
رصيد
##بطل
وجهي
بالمد
للحزب
بقول
جاهزة
لكني
للتأ
توي
وائل
بايرن
شاطئ
##اصد
لأجل
وشهد
معارك
لاش
##عش
ثوب
الهاش
الوصف
للقر
##ib
ووص
بالنا
##بطية
##وقفت
وامت
قوت
خالص
ابسط
##غبين
شاركت
ديز
يعشق
افهم
للحجز
##نجاز
عنصر
وغفر
وشلون
تراب
حجة
يمكنه
##ستطيع
عبي
بصي
or
فاق
وحض
وفض
ونشره
يبعث
##روفه
التمو
ثوره
يوافق
سهر
تمشي
مصرع
محدش
اعطي
##انيم
لاننا
ادعم
##اسر
يتع
نيوزي
وقته
والتخ
السين
تهدد
اتبع
فالت
##ata
##للطيف
##رمون
##انو
عقلي
##DR
تمارس
مختار
سياحة
مدبلج
خضر
تلب
مجنون
بالتف
حماد
لكننا
##قصي
لجان
##42
##ليشيا
بكلمه
منى
توف
##ركون
معايا
لحن
اخطاء
تسجي
##لهوب
ذنبه
خاد
##اليل
##ؤنا
ملاك
والفض
الحجة
مشا
##أخذ
حضن
##خام
بتحب
الحكي
63
وبكل
تعلمت
اربعة
by
##راده
##يتس
##النا
كرونة
خطي
أدنى
بمثل
##41
تاخ
كلاب
عمه
89
##الش
يديم
عاط
فلوس
##ts
يحكي
الصم
ثلاثا
##وسات
##اعا
مدرسه
طهر
عافيه
شمالي
##زول
##ايام
##ولتين
##ئتم
##نوا
ماراح
مثلي
اسط
أدبية
لعدد
عنكم
غريبه
دلي
واضحا
بالأس
جوده
##تيت
نظرة
مائه
لوك
الشاي
صا
ينقل
لتلك
##قيد
سخط
لشراء
شوا
حرك
الوقف
##۩۞۩
هوية
الخفي
يظن
ليبر
الكوك
##يفات
##فنا
قصيدة
اشكر
غازي
مراه
قابل
الثم
بيا
لوت
نجحت
صحيحة
بحلول
تؤجر
##روسي
قتلت
دماء
صفحه
وطب
سعي
##لتون
شهريا
المره
##شارك
صديقه
TR
##ملف
أنشطة
جلسه
##ضار
دري
best
سلف
تاك
##els
فوج
متحدث
خليفه
sh
فرب
##واهر
##خان
سوس
دعت
احم
لرؤ
همه
##مى
عميق
بالتص
سلامه
يتالم
الروس
##لغي
بوع
##ليح
##قدس
##ودك
تهديد
##اجل
نبات
##غض
وتمت
##ثيمين
انمي
وكي
شرعية
يتيح
نهج
لأب
انصر
##ery
وبدا
##فجر
رقي
طبقا
الامس
وجوب
قياد
تاخر
يختار
بنس
##AC
##فني
تأكد
##خذه
نموت
أقام
##ign
أخرجه
##غياب
صحافة
وشخص
ورائ
قلة
1994
ليتني
ومدى
##وراء
نارية
قادم
وعلوم
##لئ
##يدس
##طير
لنشر
العبا
##ضحى
واعلم
النهر
بهما
عوامل
##TL
ورجال
اساسي
نعمتك
يتج
تفرض
ضاع
##0000
نتمنى
مخلص
كيان
ياكل
98
اكر
اذهب
الكور
رباح
##زيق
الجهد
حمدا
الانك
##تية
كواشا
قرابة
##افئ
##بأ
بود
##نسى
الفحص
##ظاهرة
حملات
والأف
DV
##نسيه
حدثت
بقتل
يراه
كسل
بتخ
ماري
زكريا
Is
##هيري
صحافي
وحشت
##سيكي
0555
##اتذة
دمعه
##يتام
وخمس
متحف
أتى
ازاله
همك
##خدمي
عبا
##ff
انحاء
فعال
##راي
##ساءل
زجاج
الإحص
قديمة
##xx
ياربي
يحسن
تقضي
أغاني
##واكه
##ly
##صيله
إير
مبادئ
تجاهل
وصار
صحراء
لذي
##ams
وامن
LLC
##طبخ
تحسب
سقطت
بعضا
سراح
برمجة
get
تكفون
##طيور
تندم
ممثلة
غزه
القف
نوعا
أوت
تقسيم
كلو
##منع
شيف
نصوص
##دمان
و6
لسانه
##زوي
Be
Hot
##لدية
هنيئا
1999
صوب
العو
ماسك
راسه
##كاسب
يجلس
نقيب
لوح
تسمى
ودون
الجيد
##SS
أبى
##رقم
نات
حولها
سنن
##یة
##قابة
فست
صاحبة
افرح
بمجلس
رموز
78
##EL
جاني
صبرا
كريات
##ark
أرى
واللغ
وور
كوني
لوس
سدي
الرعب
77
كلامي
##ؤدي
##43
##روا
لفريق
أهله
معتم
وصفه
أرمين
القطع
لوحد
##راخ
الهز
حتما
يفرض
قدمه
دى
نصب
##اريين
##ذكره
جاسم
دني
pdf
شاطر
للال
أحياء
العفش
اقصي
الثدي
بنجاح
فسيح
إنا
تحدي
##وبع
توري
ثالثة
الايه
صغيرا
وكلما
71
ابريل
تمنيت
##قلا
##orld
يتحول
##سيوي
بقط
اللائ
عثر
زفات
ومف
تخفيض
الكبد
انفا
##p3
بكي
##كند
واجمل
الاكل
اهلك
تأجيل
وإد
راه
يمه
##ريبي
ليلي
الجار
##جزات
وجهات
لأم
حلمي
##وكول
##تهاد
ويقوم
الطه
هدم
##95
##وائح
تتع
بندر
تتأ
افتخر
قويا
فوزه
##يهات
برفع
اتها
##واريز
تنزل
بنى
ادب
سلطات
حمي
اسوي
##صون
تختار
اللم
خفيف
ليسوا
يتخذ
مايكل
مئة
##خات
اتوقع
ويأتي
بلق
##قمار
ودر
how
##راءات
##وسا
فالك
باق
##cess
نوح
##غام
عرضه
##وكم
وده
وعش
سلمة
الكا
سرق
تثبيت
##ربها
مؤسس
تنقل
فدي
مشر
بانور
أمي
وضعها
المزع
بمقر
النمل
أسلحة
فيا
أشياء
صيف
كانك
دعوات
News
##ئوية
كع
آخرون
##بله
سيء
غصب
حاضر
كيس
تكس
ممنوع
##فعول
تقويم
دروب
المخط
##شكال
غريبة
بطرس
Ex
أصلا
ضباط
##زله
##ناي
تعارف
##كسون
##وقعه
##هدفت
ضحكه
الغرف
أسلوب
##ياطي
ادوات
لتف
##صنة
مقاعد
لنظام
1995
بحوث
الكف
البوم
رواتب
##اليون
يروي
ضربة
الدرع
##ييل
##ظا
بينا
##ربوا
بجوار
سور
##جنات
شهرا
إبداع
لساني
بقيه
والسب
##لعن
اطراف
لوجه
##شتي
بنص
حصري
تعطيل
يسرق
بعرض
مناص
##قدت
##رحلات
المتأ
أسفل
الامت
تحوي
منق
قائم
كين
بيها
حلي
قرى
جمعت
بفارق
بحرية
##ايم
##طها
جوار
تما
وعاف
##نقل
##ازن
السخ
بست
جنات
اعتذر
شمر
معاهم
غرفه
ايار
أخرج
الإعت
احيان
وأج
##وائف
نقلت
##سنين
ليد
واحسن
##ارن
عاق
بمركز
وسواء
##ire
العصب
##ork
مفيدة
أخت
اضطر
اقليم
اوجاع
فانك
وتوفي
يفرق
هاج
كمن
##لديك
سرير
يتعلم
ووجد
أمة
مجاهد
موتي
##احه
ينه
لقسم
##فاح
أجواء
تستاه
أغنية
واجمع
لكره
السهل
can
##جبه
##afe
##وخة
إيه
رادي
##متهم
عظيما
##ريكات
بأم
مرد
المطب
ينفذ
حقائق
يخلي
يغني
إخت
##ناقض
والاق
لنادي
##ost
يبارك
##ائنات
السعي
لاغ
الكرو
ولان
يلقي
##tern
يبين
بزي
##ast
تحظى
##ons
سكنية
81
أفاد
الوعد
اود
غيم
التشي
طاح
كوي
الدرد
رجعت
دست
Ac
يفر
حزنك
ولها
مايت
##سيير
فائدة
مسافة
سيدتي
140
طقس
املك
أسرار
##كمله
تدين
موف
##هله
##يزه
##حمود
##نائس
الفرع
جريمه
##درك
جهازك
##كثره
##قاتها
كأنه
متصف
حسم
##زف
مزا
تفتخر
##ضامن
بيم
وسع
عائله
شرقي
اجازه
احكام
خالي
عزاء
1998
خطف
الغائ
دل
##نعه
ومهما
مشارك
طالع
حسبنا
الين
فرعون
1996
تأسست
لعيون
شعبان
خسارة
فلت
##صنع
أحر
##دهار
اقر
ويعد
##ky
حسبما
##فصال
##ئم
كويتي
##قاوي
تقام
##خدمه
الزب
##sp
قرات
واخذ
سالب
عضوية
##ساحة
حاب
الحوت
عدل
جزا
يبيع
وجعا
بدونك
جروب
##وافقة
اعداء
ولأن
كلمته
##HP
وثبت
اسطول
شعرت
المسب
البطن
وتز
عابر
وحل
حدة
##مدينة
##طاق
وداعا
##كررة
##واكب
اشهار
نونبر
سيطرة
فيهما
بيانا
ونش
##امنا
##for
الناج
##ويتش
##براط
النسخ
جدران
بمبلغ
غضون
##ئاسي
ودول
ضخمة
العيب
##توث
ودا
إننا
لسنا
واكتب
##قاتي
##نجية
##لاش
يفض
أصدق
انباء
بإس
عمن
أطباء
نغمات
رائد
##ain
وجيه
المفض
ومكان
بعيدة
##999
##طفي
سدد
وقطع
##ياحة
فأنت
إخراج
موارد
ويغفر
الهدي
توج
##ياف
ملتقي
ch
##جور
كميه
يتهم
اليكم
كولون
##كسار
##صيه
تدر
بلاش
##راكش
قيمته
وضعه
##عكس
๑۩۞۩
ابني
##ne
زاوية
تخزين
فران
ابنائ
ولغ
حبوب
##وثي
الشوك
بتلك
واترك
أجد
SP
بعضنا
##anc
##لند
##شش
##آء
لبحث
ورأى
نهيان
##780
تنفذ
laz
##وانب
ماما
كويس
انتخ
0540
والاص
قابلة
وعب
##عارض
##سكي
##ضمون
اتس
MP
صاف
يخسر
أيوب
عري
الره
بشرط
##روطيه
وكثير
روضه
وطرق
##عمد
تليف
أنصار
تياس
وانس
كوت
كورة
##ائرات
##زرعة
##ئى
الحلف
علمني
##طنه
الديك
##وفو
كد
##يرى
يعترف
61
يفترض
مثبت
للحين
الكسل
عامي
مفرو
##بوا
##اليين
صحتك
حزينه
##ls
المتب
يدعون
##جله
##med
عيونه
ومق
أبلغ
تناسب
داعيا
أقوال
وناس
##ساق
##hone
اصابة
طاعتك
فاطمه
شاشات
قاضي
اعراض
التت
##جملة
ايجاد
AR
الفلم
لاند
تويت
re
##فره
شبك
أعوام
واجت
كليا
جبريل
##قبة
##زيين
يور
قربك
آراء
##ودها
##عتمد
##عتنا
همسه
##nline
واذكر
الغرض
ووفقا
أسرع
##رجة
ضعيفة
حاجز
آنذاك
اصوات
لمه
##جيا
حرارة
تسمي
صدى
أواخر
تهريب
لدول
منير
الشيف
تعقد
دن
افك
شيوخ
##لاما
يومنا
توقيف
A7
عيسي
سوفت
87
يميز
تسعة
يسيطر
##عكاس
رأسها
##حله
##ماته
تتمثل
وشي
##طبة
ورده
##عق
البه
يسبق
يأت
لقائه
طفلا
سلطنة
ويؤكد
##ايك
تتحقق
تدع
زعلان
هان
قلعة
والهر
عاصم
اسئلة
مزاد
جولد
وطننا
الورق
مبكر
CF
الشرع
اشك
##نيش
سرعه
عدت
##دمة
جات
##لمبية
##تمكن
ar
فنج
آيات
##رامية
غطاء
##موية
74
سرية
أعلاه
السح
يوصل
لوجود
تتحول
اكسب
##هود
Sy
منصبه
##طالبة
##نادا
##ump
موث
ابكي
أنج
##ضحيات
##سره
مرضي
وقول
يعادل
##اصه
والهي
##حمام
##لذاكر
أرقام
الاجن
علمه
حازم
وعاد
cont
بند
##ينهو
##الإ
دراسه
بقرار
##جوز
##وائع
مطير
##نتيني
مقار
##ical
##وريوس
أكواد
باشا
سارة
##روء
بكامل
سكت
رايك
82
انخفض
خلايا
والري
وباقي
##ؤهم
اقامة
توضح
دوت
تلاقي
يقرر
الهرم
عرضها
بحثا
وعمر
فرحت
059
##لطان
نزول
روضة
لينا
راع
##بطولة
قدرات
وشمال
##لراق
يضيق
73
##ولكس
جوهر
الراق
##MA
شجره
لايت
أقصر
عشره
بالمش
دورها
##اهم
يتكون
الفك
زلت
وأصبح
توس
##سنجر
الوان
الخم
المذ
##طيح
وانشر
لليوم
ملكي
يوص
تتردد
املا
Play
##ord
جمل
تسكن
انتو
تقيم
يخيب
##حيين
وضوح
عزم
أطلقت
يسمي
أصوات
##وادر
##خرجه
برلين
##لهما
أدب
##ND
بمحا
##لتا
يرحل
صلو
حرا
والتب
مصلح
ويعمل
مؤكدة
البند
تكمن
110
CL
سرطان
يتس
بكون
المند
##ظروف
نيت
##ستيك
وتحول
##هك
يوح
##qu
تحبون
تقدمه
اشفي
##بحر
##لمني
المول
##جددة
##ana
ينظم
ابر
مزد
أحدهم
##ؤك
بكرا
هلي
رغب
ساكت
ننسي
تعام
تايجر
واعلن
قسي
##ميديا
##يرين
79
اليا
الجان
مبدع
๑۩۞۩๑
كيب
##واتي
مسلما
##ريغ
لاهل
يحبه
##لوقتي
ادرك
خريطة
مصيبه
واللج
##ريبية
تخفيف
الارج
قدما
##غى
أثار
##لكي
واهم
##ell
ووصف
السلة
لاعت
شكله
نوعها
##BD
بتاع
الحذر
حفلات
##لكات
مانع
##عتهم
تسيطر
##وتين
غيابه
أمره
الدوم
##سابق
ღღ
اصاب
المدة
متعه
مرغ
ناقص
بلن
IP
جسده
##طو
يضيف
##هاي
تسوية
سرقة
كاذ
أحلام
##حح
##طراب
##عدى
واقف
بون
يعنى
ويبدو
ماح
هيبه
##ووون
نفسيه
تحل
وبخ
##فتها
ميان
بمعدل
##فورت
اموات
برت
العسر
##أحمد
يتذكر
##تمين
##tra
مسبقا
##ثارة
##مرات
بدعوه
##ix
##ائقي
شاك
##لخص
تفضيل
بترجي
مضت
صهيون
وقلبي
سيادة
700
##لسل
لتصبح
حظك
ينجح
عجزت
استمع
تظل
وعالم
شهود
وأهم
تثق
##غرس
محدد
##قطاب
ضده
وتفض
شبيه
لأكثر
##علها
شفا
فرش
مجهول
شاني
اوز
##ونيسي
دقيق
لحركة
ليم
لإس
نبت
بكين
الريف
هيف
##ارتي
##ree
##نغ
واسعد
تكبر
##يدين
آله
للأن
تتمني
صبحي
فشلت
وأنها
يحبون
وتذكر
يقر
باقل
##ذين
يعجز
جمله
##قبض
مستقل
يقارب
##فيلم
ابلغ
شجرة
غبت
##طري
##ربك
ورز
طراز
ماوي
##خن
نفسا
##امنئي
الذوق
اتنا
المشا
بالاج
لاتت
احص
خلفه
طاقم
##يعاب
وبشكل
شاي
عددهم
معاد
تغني
تشاهد
بجمال
برصيد
Sec
سواه
اثي
##بنى
فضلك
الباق
##قور
آمنوا
الجفن
إلينا
ضيفني
##رامي
##لوبا
بطاقه
الفخر
تعكس
##طاقة
حاص
hd
ليصل
الموه
##لوبه
فعند
92
##عاث
تات
اذار
إيقاف
بنقل
##223
تخلص
يناقش
##رنا
وثقاف
اعمار
##شرا
##بيها
بدري
بكافة
لتصل
الأنت
طلبك
جرير
اقدم
##سمك
فاهم
##طأ
وحديث
##جازه
وينك
نصية
ثور
##ادثة
روبر
##شاد
جثة
##قاوم
##فها
بيف
وتدرب
##BC
رحمته
##ثبات
##ثوذ
اصلي
قولوا
خسرت
المدي
##ترى
قديما
معمر
عملائ
اقترب
تدرس
##موح
شهيدا
##بابوي
قنب
##خدمين
اليسر
وقلوب
أنتم
يحزن
##ظرة
##البه
كعب
رخصة
##رابه
يلق
نيه
قدا
##وسه
##الهم
القرآ
ابتعد
جوف
الغم
القرب
المنح
قريبة
تصنيع
الألف
##ؤلات
الشتا
سلع
يدا
مقبول
ذنوبي
بدو
متش
فسوف
ستن
##ais
##GN
مايف
ضربه
كالت
مدف
1990
المشي
فوت
بضم
مشاك
##ادور
قصور
إحت
إسلام
فضيلة
أصدرت
لأس
قرن
وتعد
##ئنا
##لائه
00962
ونور
##آم
وعيون
دان
##فالات
تنجح
##اللي
لتغ
##طورة
76
##ادى
أحوال
السهم
تمنح
بواقع
اليهم
بلدنا
##ms
الفهم
جود
##وبرا
يدوم
##زامن
##ريز
بوب
لى
مجز
##واص
غرار
الردي
الحمي
كني
توقيت
افكر
##شرع
للعلم
##كنا
##ug
إنج
إعطاء
بفض
يظ
تدبير
غلاف
عطية
خطب
محظ
لعلي
الأست
عددها
تها
احترم
تظن
##حاث
كوكو
ويغ
وكاله
للذين
هيب
قومي
صانع
أفادت
اوقف
##واس
القرض
##ant
شركاء
لوز
##رول
عمارة
بنز
و5
##IP
##يادية
فرجا
بيجي
##قيقا
نال
نعمة
موجه
الصدد
مقط
##MS
##ؤلؤ
##تال
اتعب
دستور
حكومه
أدخل
##فينا
قبور
كليات
خصائص
تفرق
ولدت
بغيت
كثرت
نفيه
##ecial
ساج
والوف
تنطلق
##ET
نيابة
عقله
لفتره
تروي
يكذب
قطار
per
بنج
وصرح
مناس
العاط
##وحد
##اخرة
دماغ
والدم
والحي
اقسي
اخوه
##نسيا
كانه
توم
تنص
##رونا
دق
مادام
##وسيقى
إنهاء
##لمت
صادر
مبني
دقايق
الصلي
##خوا
ريب
كوبا
يعكس
لعي
بهدوء
هيلا
طالت
نظرية
##وليد
##كاف
##راهية
130
تحولت
توضيح
قهر
##يتان
حنيفة
حسنا
##فافية
يدعى
للتف
محدود
ثواني
مصمم
ينيك
عاده
افتتح
##عور
##كملها
مبسوط
ورقه
فوات
كليه
##558
##ولته
الكات
بتد
أكل
متعلق
الخرج
##وثيق
العبي
صيني
لمحا
قريه
بترك
وحكم
##قرر
##وهرات
بذل
حبيبت
حدائق
افراح
دكت
تثير
تسليك
##هرام
ذكرته
معبر
##بوط
غف
يتوجب
تبع
زفاف
مشاري
سمح
ضيوف
جت
بقت
##DF
مذا
والمغ
عظ
اكواد
فورد
عقوبة
شاكر
اتكلم
يفع
##ناعات
بالآ
اخبر
##وفيتش
حكما
بأحد
##ect
قتيلا
افعل
##جره
الصفر
ينتمي
##اعيات
رائحه
ووق
والكر
بقلبك
##بئ
إدراج
##انج
أود
للنشر
مصورة
اقبل
للولا
تطيب
مدافع
إثبات
الحوي
القمح
ماش
طار
جراحه
##رقص
وول
اقوال
سيئه
مآ
إيم
ثالثا
##ace
أخبر
صريح
شقيق
وخذ
##غفرين
نقي
##edia
##73
جبهه
اغني
رود
تدوم
##عاطف
##موت
امكان
يلم
درعا
##غاثة
##LL
واضحه
الفاش
ودور
يتق
حلقه
الدير
العار
فون
mp3
ساف
المنع
mot
اماكن
درر
##ستين
سوني
قرأت
محي
##BOX
رحت
لاخر
ونظام
خر
موجة
أظهر
الجمل
الإب
##وديو
##ore
والتم
مسكين
وعذاب
وماذا
ألي
عشرا
ثنائي
##فتان
الدب
##قناع
##شاق
تتابع
قضى
سدر
##عايش
تربيه
##EC
##سامة
مبك
للمحت
نزلاء
خدي
راديو
ميزان
بوق
لاخت
##جمه
##ادره
##كايات
جافا
الخصم
منقول
ومز
بريدك
صراحه
##كز
قتله
بحسن
وهد
تركز
ليلى
تحلي
##OM
حيوان
جح
مكانك
مله
بسلام
كونج
فرقا
##تيز
لقطات
تقدمت
##الو
##ويف
ليصبح
خمسين
##يله
مينا
##سيكو
فوك
وافضل
طلبه
لقطه
وزاد
والبط
Dump
ولكني
اطيب
وارج
##vel
##obile
##ذجا
الوهم
##ثوذكس
غانم
##ابهة
##ثبيت
جنوبي
شارب
سمر
##IF
العال
ضغوط
هوي
يكسر
##الايت
##روعة
البغي
ماعرف
##سبين
سوداء
بريدة
##روبا
كتابا
بوز
##Tube
VU
قبلها
قطعه
##كشاف
##قبله
دكة
##يرية
ياك
ومما
غارات
باسمك
اضف
ساحل
##angu
هارون
للوا
يتمني
لواء
##حمته
رايكم
انص
تعهد
جند
حسان
##يها
طاقة
ياش
##ear
##ياسات
ومثل
بدقة
تدعي
تحتفل
رجيم
مدح
##اهما
شرطه
مخلف
الرشد
مرضى
بصمت
1992
بحقوق
مساجد
الخال
ويوجد
يزداد
ريش
يعوض
TV
##YR
##بوه
##وتنا
متصدر
الجوز
##oh
وخلف
ربهم
دعوى
والعب
عربى
تبد
##نكر
اثنان
عبير
##ans
والتغ
لبيع
تأهيل
أبحاث
السيح
لصوت
عائشه
لعلم
خلفي
عودته
يسوع
ازالة
فإنك
ويذكر
##صرا
وردت
##طايا
th
ذمه
عشت
الموز
##احف
##سيخ
عقبال
انب
تقلب
عفو
##مائهم
##ساطير
فيجب
الاصل
بلاي
تضيق
Th
##مومي
##كشف
##انهم
##وكيز
صلوات
واجر
شارون
صحفية
وتصفح
##ميمات
بداخل
امتي
امرك
حوض
وأق
صفا
الاني
لبيك
يناسب
رفا
تولى
##54
لاتنس
وجاءت
براف
اسف
روحه
مقدار
يحتفل
الخد
ايلول
يرسل
##جزء
##ownl
مسئول
يبق
نفي
القنص
كبري
منزلك
##لتزم
تجربه
قير
تخضع
صحيحه
وتبقي
مشددا
وقتا
حزني
بأكثر
تذكير
فضله
بأنهم
تمكين
يشرح
يمني
النحل
لكافة
الثلج
##ظيفي
وبالن
آمنة
تزايد
بكلية
زوجه
فكم
حلق
نري
نسائي
##رحة
مكانا
##ووول
وبأقل
##لمون
يكثر
أبد
الحية
بنية
محاكم
تير
خاب
التاي
تتيح
مازن
لصح
##الما
متخ
##غاز
عقار
والحق
البو
جدار
##سيوط
زود
##بادرة
معروض
ظنك
فئات
الفحم
ظالم
البوح
أظهرت
مكن
3D
تيميه
GX
الجع
IS
أسود
دامب
النع
##DL
ديار
يساهم
##اهية
عملك
صلاته
يرتفع
لأننا
والعن
الشا
##فاج
##ولاته
##UR
##ورون
والقي
##وارج
وفج
نيب
جواد
رغبات
##ائرية
يحول
وحدث
جفاف
نعي
آليات
ليو
لحساب
تهنئة
لمجرد
المتك
ايات
##صرون
متج
قطرات
وحزب
مظهر
ومجلس
##مازيغ
عارفه
##لاتر
أداة
ترحيب
عبادة
شملت
والما
##للفظ
اكلات
سالت
تنافس
و3
اللفظ
الرسل
##سيوم
سنقوم
##IT
##ومن
احوال
دريم
نافعا
ارتكب
دولت
السام
لكنني
نظافة
الكلى
المقه
موضة
##غش
تغلب
بنين
##فراد
##لاتي
Phot
##نيان
قطري
رحلت
الجهل
##شهار
ذم
##ورغ
راحة
صالة
انز
أهلها
القطر
##لروب
ككل
فتحي
الروب
حملت
يحمي
فوري
صادقه
واجهت
امرنا
بدع
##سبان
كلكم
ووقف
محترف
وأخرى
أيمن
ازداد
قمنا
اعلى
متصل
واذ
##مانة
أرباح
1967
##اليم
تمتد
ترف
الشرح
هالح
بوضوح
وسأ
شهاد
##تهيه
##يتو
نية
وبات
أنط
##ضايق
##نكبوت
##افظه
تحدثت
وحنا
فكري
تشاء
##وكالة
##ثين
شرعي
اولئك
##وصول
رفيع
هدية
وون
فل
هدى
بافضل
اذك
يخضع
تنفع
ركز
تربي
##سيكية
بعثة
بعينك
##رئيس
PL
لاحق
مناهج
فحل
أخذت
الشوا
للمنا
سيرته
شهاب
يحافظ
عنف
الشرط
ماخ
ديننا
الشيب
##أم
محامي
يردد
##ائيل
بالدر
يالغ
بامت
عينيه
العظ
اهت
##riv
اماني
##ييس
##فيلد
غاض
##اضى
طائف
كاد
طالبا
للشر
اربعه
97
ميم
##طنوخ
حريه
والتد
هذين
##تيبات
يقولك
##صرين
يفوق
App
عجيب
##AB
ناع
وأبي
للجنه
رضوان
نظري
ذاكرة
##بابات
يكمل
##قاس
190
##لوش
اصغر
مثلها
ظبي
##يزان
مرارا
يحارب
يدرس
عدوان
الفيم
فيرج
العطر
وجهت
شكري
سيئة
سوز
##ظهور
متصفح
ممد
انضم
180
مشج
الرغ
بيقول
يتسبب
مالم
##حس
دامت
اهلنا
##ber
##مالية
هبوط
##ازي
تكسر
للوز
##IC
احرص
والهم
لطلاب
تقوله
##ائده
1997
##واط
واثق
اظن
##ary
جوانب
جمالك
الكرب
##وتكم
شفي
كانا
أيا
##ذنوب
تتوفر
##US
سخطك
##ماوي
##ستن
والحد
يستر
تعشق
##سيج
قدرها
تطرح
##فوذ
وسلام
اخرين
سافر
شخصي
سنتر
دونك
نفط
بكاء
استع
اصبر
وخرج
انتقد
غوار
شعوري
تفاصي
بفت
مصم
تامل
أركان
##دك
كافه
##وابه
##صريه
شتى
اروح
مجري
المعن
##ثني
ووفق
لزم
يكبر
بيكون
##صرنا
##قطت
اصدر
الفقد
يتعين
ودفع
فرانك
التقي
وتقوم
الفاع
اسهل
فأنا
ومط
وصلنا
والطف
##سمها
##ويني
خمسه
صعود
للكم
ترتفع
الابر
الكاس
وحز
##نيني
تشتمل
##econd
##التي
طفلك
مطابخ
يتخ
تيسير
عنيزة
الرض
بمرض
حزم
افع
قديمه
ومث
##طوطات
الشجر
##la
مكث
بالفر
تصيب
مظاهر
فوجد
اخذت
وعين
الطير
هيد
جمعيه
صابر
المفس
الاثر
سألت
وأص
اشترك
يبتسم
نظمت
الستر
##وازي
##يشن
والشت
##روفي
##ساسة
مساحه
حطت
ينتج
اسطح
جعلني
اعي
Black
أبنائ
رجالي
صنعت
مشه
الغيم
org
##لانه
##98
صوتها
خاطئة
ورك
##ثيف
يوقع
وبشر
فربما
##سمات
##ائما
##هوله
اسامه
تنتج
علمنا
الابن
الخبي
##ism
فترات
بلوك
ناه
##يدون
عوف
لقا
ملكا
جعلها
بعدي
ملخص
ultra
تجرح
والإد
قيامك
فاضل
وتلك
بيريز
رحمك
1991
أمثال
الكو
عقيل
##فاءات
تعط
ديون
##كاليف
إحص
وتوجه
ينصح
##ادق
الشرب
بالعم
السعد
الشرا
لتد
قدرت
تساهم
##KK
الشاح
تركيز
صالون
مقعد
عيا
تصريف
##ضحية
يحتمل
##icro
مرمى
##سكري
فغ
أصاب
وبهذا
يقلل
##نيفات
نشعر
ياريت
##old
##ساسه
بلع
قادرا
تحيا
مستعد
بالسر
الضرر
Prem
مخاوف
جف
يبر
نظرت
لترك
سول
القاس
الحضر
##شيما
بلاغ
آفاق
تفاهم
منشن
خذني
سياتي
مبينا
لمسات
أعت
درو
ليتك
US
##ren
ونست
يازين
دوار
##io
##اراتي
تراك
بعيني
ps
دفعه
ودعت
لنفسي
بيدي
ونب
تخدم
اتهام
بكلام
حصيلة
ووض
##صان
كبرت
ترين
ادي
##ورتي
خم
##فرغ
ترسل
ملحوظ
ويرى
اصابه
أند
extr
##cam
يومية
تسبيح
##ماط
يابو
بلاء
يشتري
شوقا
بموقع
تحق
تذكرت
نظير
##تكار
##ult
##قالي
رحاب
أمني
##ودو
فلاح
بوقف
آلم
الآتي
ماكنت
قح
النقص
الخمر
##ولز
الحرص
الضخ
المكي
سوريه
هداف
##كرام
##همال
السفن
وجواب
فرصتك
موقعه
ومسا
قياده
جثمان
وبالم
قوائم
##ائره
##مالة
خرب
موافق
حصر
طاقه
حقل
تهد
عذرا
الابد
96
##فاتر
ينادي
##قوف
تشتاق
ساند
سويد
PC
##عتكم
طيلة
ورزقا
##ليمي
بسمه
ناط
##كتك
تلفزي
ماعند
الوثي
##زوق
##ودعك
الأند
##مامة
افا
Open
شباك
دراما
إك
برلم
##قبول
##رافقه
يخالف
##تة
جالس
والشي
رؤيه
وبدأت
محاور
زعماء
##وظفين
حبايب
نظيفة
واشف
جرا
فاضي
safe
ابها
اعماق
تزداد
أنزل
##RD
اوف
##راكم
وتعمل
GMT
##IS
تفك
ادناه
يسرا
ماركا
تورس
##خور
همسات
##OL
##وبى
##طوي
##ارتين
والقد
ويز
##IM
##ideo
##اناة
اقصر
##واعه
##فلي
##يهما
ولذا
##ليغ
SE
##زعه
باول
تود
ماكو
الحقد
Games
##خلة
جى
بجان
STAR
وتشكر
تلبية
surg
بقلمي
##قدين
مبدا
لقوله
اشرف
شعري
##روسية
والتك
##اموس
رعب
##يقاف
##راقه
للظ
دعما
وإع
امتلك
معجم
كركوك
إرادة
يفعله
##اييل
بعق
تغلق
حقيبة
دورية
وتحر
للاج
لزوج
عنان
##زما
الأوز
##بيبه
##وقا
سهله
##رونج
اللاذ
##اوب
بالمت
يقوله
مصدا
##هائي
ذكرنا
##واعها
1512
بشرية
ردي
مقيم
ابوك
غسان
تفاع
بالو
##دمت
جرو
يكلف
زا
عندكم
للشعر
جنرال
الأي
##هايه
##راهم
##طوا
تباد
##شرطة
يومئذ
شاع
واعد
##درب
##رافة
قيوم
يمل
وختم
صيغة
وياك
##خسر
##فقت
انعم
طرفه
لاص
ومعه
مشجع
مصور
سوال
الجدل
البير
مزيدا
نقلا
مبكرا
دبلي
وضح
شدد
##ملكه
أردت
وخلق
أرب
##MK
##وعيه
العلو
اللحم
##برج
أخري
##فردات
##ئس
غلب
En
يجبر
مقلب
##جيم
##ZN
ادعوا
©¤
طق
نجمه
معز
مبرر
ووز
##sh
يمس
برقم
اسب
يهد
اطول
انتوا
اقام
فصول
Ab
براس
اتم
ظلما
يحذر
زعم
وراحه
وانك
أوقات
تكسب
ابنته
بنعم
للدول
##اريكا
متمر
ولنا
حافلة
بارب
##صية
زعل
تصدير
أجن
ودين
بالصد
البؤ
ويحفظ
أقيم
مصانع
المضي
عصير
##وتة
افعال
##لاها
شخصين
##رتين
الشغل
طموح
معرفه
صوتا
قه
وضم
حرس
##رقى
##كتشف
شوك
يحترم
##لوتي
##OK
ذنوبك
##وميه
هيون
هوب
الثوب
طائفة
##ath
الأكل
فرنس
أخطاء
##ليين
##غناء
مكانة
عرضا
##سيد
##اريون
اعفاء
منفذ
vs
والحض
جرين
##اعدي
جنيها
الزر
مسائل
عك
للفت
وقامت
##قضي
أمانة
ونج
بمص
فاب
##لراف
انصار
رويال
SD
##ae
##متنا
##بيبي
الراف
وجبة
طنطا
##حاح
بحجة
##لمب
إحياء
ولادة
حراج
خات
##لدة
يكفيك
غزل
هونج
##نيل
جنسية
##اسل
البص
##سيفر
حلها
ادى
بالما
ذكاء
الكبر
يتي
حاصل
تستعد
قبض
net
وكأنه
أسوأ
ويقدم
فإننا
هاجر
##زمه
مخرجا
##120
صغ
احبها
##كيه
مغلقة
الترج
تسهيل
وفوق
وافقت
شعره
فذكر
time
نفع
معاها
##ابون
دياب
تشتري
##ادها
صناعه
##جيرات
كافي
##ايا
قباني
رجوع
يرضيك
ومضه
شيعه
##وراة
وبص
يستطع
ذر
##ورونا
زمي
غرق
ألوان
سيده
نسبيا
عطلة
البرج
حكومي
##هتمام
وحر
CH
ميزة
محبوب
ثابتة
يأكل
كلك
##يداد
تونسي
ضيفه
لعلها
¤©
بحم
الكني
الوسي
دفاعا
##صفة
ذل
الجدي
تقني
لدرجة
Su
ولاي
عموم
الاحص
حلمك
##موش
الماك
إثارة
##مراني
ذنبا
ختم
عقيدة
شيعي
##لدون
مسن
##غرافي
طور
تمث
تسمية
لاكثر
اراك
لجهة
صالحا
نان
يكرم
##وانة
كلن
بمشي
ذاتك
الصلة
أقيمت
روائع
دفعة
يرتبط
94
تمس
##واجهه
خفيفة
شبكه
مدع
##مثلة
##امعه
تاكل
سبعين
ينتقد
المذه
توقي
شفاع
##ديمه
ثر
تجدد
##327
##رزاق
يجعله
عرضت
تنفس
##ZD
أعلام
##زازي
صورا
حصرية
تعرفه
##راقبه
طير
تمديد
تشلسي
يدها
دافع
91
##اليوم
##ازر
##ram
##سرية
فبعد
الليث
##لاحقة
نطق
تعداد
جروح
اوس
##غمات
بنو
تغطي
عيناك
للمره
##int
خطرا
عربيا
إسقاط
مرافق
كيني
تضرب
##جف
ريفاس
سلك
البس
##ائعات
##طرق
لمحمد
##ضرات
ينطق
حزنا
##تهاء
وصدق
شيخنا
تحترم
بضع
93
صدقت
##اطا
وافتح
##وزات
للفوز
حبس
قولهم
##وليات
وصوله
امشي
ابنها
##ener
ولدي
يخوض
بنادي
بمكان
شوفوا
نمط
##ere
كفاءة
##يتش
عفيف
وضمان
ايامي
تستطع
Qu
##سمية
##احية
اهدي
أحمر
##الميه
##ريخ
يود
تطهير
خاصا
فعلي
فقام
الممن
تجبر
اعوام
أكون
والفن
##يتال
##ZS
##وتات
##osh
##58
تتكون
حقها
1993
ظلت
##389
عكاظ
##رحي
سكاى
##قدسات
##فاذ
وتعلم
##شكلة
تره
أشارت
ترخيص
لآخر
سلي
##المت
دعاه
ديا
##اليك
يتفق
بخدمة
يغلق
منظر
طابع
فالع
نتحدث
حداد
##تيبة
##مها
##بده
##قيها
فجاء
الناف
حكاية
حبل
##سطه
##غله
موحد
##كوني
تتخ
تحض
##IGER
كانو
##دنا
حاط
للأمن
وعملا
مؤلمه
نافذة
محدث
بعب
لكنك
##eg
مواهب
شعبه
حبيبه
##ألك
ليها
تامة
جماعي
الانش
رائحة
الثور
وضيق
##59
حادثة
قدمها
داء
##ION
سوالف
كوره
والرا
نائبا
##افظات
فتن
تتحرك
تزويد
##ولكم
تقال
علامه
احاول
زهير
ارضي
ويزيد
##لسوف
يهمني
##اان
أليس
سواتر
لقلبي
ترس
ومركز
الاير
##رائية
انور
##زاني
ارم
##ويضات
استعم
وفدا
##فاهم
##سيطرة
أهمها
هائلة
تساوي
##ضرب
ترشيح
نبيك
جلي
##لونه
إشراف
للمخ
##غيره
ثقيل
##رائد
المسح
##ونز
والدر
ومسؤ
##شرنا
يحفظك
قحبه
اسك
##ائلا
##فاؤل
تحذر
السلب
شىء
بينكم
TIGER
بشي
مانات
وكفي
قاع
لحفظ
أزهر
##que
ملاب
##ؤوس
مركب
تربط
المؤس
ظني
بلقب
عروس
فلق
تتقدم
##رفون
شتاء
##ديرية
##وائج
بيتا
عايزه
يدر
بزاف
##ادف
والتر
##ناث
وطنه
أسلم
##للط
فتاوى
عافني
بركات
##لائل
##اندة
إزاء
ضخم
الوها
مشي
جذب
ألق
أوائل
فرحان
اساء
سلبا
##فاعي
##ung
نملك
ومب
##وبل
تخطي
اياك
عفوا
##غيم
##ويح
صحف
1980
##ذوق
تواضع
لثلاث
احدكم
##وارب
لمي
##وشن
غايه
##افيا
لغرض
سيح
انقاذ
وفالك
##يتم
اعطاء
الهن
مغفره
فقيرا
نفى
##♥ღ
##اكه
متزوج
##لسة
عظيمة
المسك
بامر
عليم
ثياب
جيف
سيئ
خالق
##ريمة
##يدز
الموص
يتصل
ممثلا
تشخيص
يناشد
هيثم
وقب
ماده
تعويض
تتعلم
##فورد
الامة
##نامية
الشات
عقوبه
المير
##وكيو
سفينة
تتعب
رآ
وقوات
تأجير
اوسع
ضريبة
احزان
يكاد
مشغول
للطب
هولي
بأمر
منسق
Islam
##282
##ربيا
##قصاء
##الوا
ليبي
سلعة
##رموت
مولاي
دايو
##ale
##نجاح
المدا
للاعت
تذكره
لباس
ضيقه
وعليك
سيطر
دبليو
##se
أدرك
شموخ
بشان
نفسية
وتأتي
بدت
بركه
وقفة
شدة
البنا
العزل
حجاب
الأهم
بالقط
يستعد
بسوء
نزع
##هيلات
ذمة
##اهن
أير
حث
حرج
ذكي
##فارقة
ومغ
ابنة
هيكل
فماذا
##سمنت
نادرة
عفوك
واول
##ريفيا
دونه
برغم
350
نضع
##فضه
زحلة
فجأة
##شغل
##ادثه
اذاكر
أبعد
أخلاق
والإع
خبي
إل
##اربين
بالتع
##اشا
##المه
جولي
يشترط
فأما
يقام
النصي
مفتي
##AH
الطوا
للمه
تأييد
مشيط
وبقي
كتائب
لأبي
يفتتح
دما
##صالحة
##ناده
##ics
##مهات
لوج
اجم
Tr
عتاب
Sc
ودخل
والسم
المهد
مزاجك
هارد
حضورك
قتلى
الدف
تعي
وسعه
مزارع
##شيوس
اكمل
يحد
حقد
ثبات
عماني
##غفرك
يتزوج
ويجعل
##صص
##erv
##فيري
تقصف
##اعيد
خبره
##وشة
نقدر
التلا
إكس
احسنت
##وهاب
أكمل
تطمئن
##وتهم
إعت
ملعقة
مبي
1989
محبة
فديت
لاتس
##118
##خلاص
##ائريه
مورين
مراقب
طباعة
اغار
##قطه
اميره
الأعم
##ساعده
ضمنية
##طفئ
الحسد
فذلك
باغ
##روان
المتس
مرتبة
رابطه
##أسم
إقرار
نين
##بيقي
يمسك
رعد
وفرح
##تار
##بكي
##ink
اجعله
أعرب
للغه
بابت
نمير
سمارت
وايد
وارد
##دمه
يعزز
ارحل
##ظري
بكيت
غار
##ناش
1968
الذكي
العاز
##76
##قصير
##صارى
ورعان
بصري
الجوه
جلدر
قرعه
خاضعة
##7770
##ايها
معاق
وغدا
الصلب
كق
أوجه
والرج
امثال
برابط
لجلب
لاتب
الغاف
لاا
##فاقية
وسائر
كنزه
نفسيا
##منون
توازن
توقفت
##نازير
##NG
مهتم
درع
نفذت
##وابت
سجون
قومه
ولهم
تغي
##وشي
وردا
حقيق
##ail
صوتية
صورته
وبإ
جيمس
Un
السلا
CNH
بطريق
يافا
##شان
دقة
PKG
صناع
تراكم
يسخر
منهو
لذوي
ظاهره
##قاليم
##لخصات
##المة
يتوجه
##2010
احسان
جمالا
داخله
لامن
مجاري
أساسا
طيار
وقفه
فخامه
Am
هايتي
##جابي
##ددين
لجل
##روش
مخصصة
يمسي
انصح
ممثلي
##NT
##تناع
##ومك
وتقد
##سمت
الزعل
##بعات
##وسيع
حشد
مؤلف
بيحب
سبام
##بغاء
##يعاد
السلو
170
ادعي
جولات
##برغ
اجابه
##جهد
لحظ
توبه
حضرت
ضرر
ناظر
إقام
ظاه
وشكر
ارك
ينهي
نطلب
للامم
خلافا
##ثلا
بقطر
الحاض
اللط
هالك
للاخ
ماض
شقه
##عني
متق
##زيه
وللا
تفتيش
يشاهد
##جرى
تفاعل
##أته
ويعود
خيالي
رابع
##لجا
هه
ساكن
القمه
كمب
مشهور
وأمر
##اهات
رين
##ائفة
##ناقش
##روفا
اوص
##اجرة
##لاقا
##سبت
حصد
يرحمك
للتج
محليا
كسارة
عاجلا
باقة
اسد
El
كرات
جدوى
بؤ
شهري
وكف
##رافات
قائما
محذ
ذكرها
زراعه
ولاح
كيري
اغسطس
لشهر
##ااك
بالغة
##لاده
الكلم
فعليا
لاقت
##AG
ينكر
عهده
دائمة
للاس
يتولى
جادة
والكل
##غور
للرد
جيده
##رائه
خلل
نبراس
اقد
##وثائق
شقتك
فاحفظ
والاز
مقهى
سكرت
وتبين
##وصيل
##سوبي
ضربات
بقلوب
أعاد
بالإس
الندم
يوان
تدفق
##وتيك
##جزة
طاولة
نخبة
الصها
غسالة
##ئام
##ys
دلال
الكاذ
سيات
وعود
##فوك
ثقل
وقتي
##53
النثر
سرور
خوات
دمر
طريقا
استقر
البدي
##فيسور
جوع
تغذية
##وجات
0500
يتحرك
##ptv
##عوها
يوفقك
تحريك
2020
##لده
تسوق
صلب
نلتقي
للجز
اقوى
مهموم
فريدة
تكبير
أمم
اتخذت
رعا
اوق
ميجا
وللش
أبيض
خت
حمايه
احكي
##عباء
سالفه
لادن
##الخ
امنه
تارك
كونغ
فازت
##جاجه
للتر
الهام
ماستر
##جرت
فاعل
طعن
حاد
لمركز
هلك
ابوس
اكن
ويسعد
لجمع
مختصر
وقدر
##وعين
ساهمت
مصلحه
##افير
فيفا
##اهرات
يسأل
ياما
وحاول
##٠٠
احن
توبي
مستحي
برود
لمثل
##ury
بكلم
لوف
##لفاظ
لعدة
##نياء
سلبية
الصبي
فيض
للحب
##هده
واهل
##بادئ
الصلح
##ستار
دوائر
##ريش
المجر
##ينسي
vb
نقمتك
ولولا
الحش
ضحكتك
السوا
هرم
LG
أطول
تزوير
##لبن
وتضم
ارخص
قبرص
وصوت
نوفر
##inanc
##حيلي
التقد
عادات
أنبأ
أبل
الروي
شوب
كورد
دفعت
الدقة
بصير
##غواي
تجعلك
##ورط
##عودي
##عيان
حولنا
##زاع
يصور
القوس
تبعث
نوي
التهم
##سيون
ياتيك
اتذكر
وبحث
وتقبل
00966
شطر
الإنك
قحطان
يخلص
iptv
طالبت
##آة
الأنس
جهل
وتوا
ويضيف
قتيل
ضاعت
تحمي
سراج
##هرة
يحظر
##let
##اهيه
رسوله
##يمر
هاك
وحصل
تجده
##وحش
علاوة
مدنية
عرضة
##مارة
صحيحا
لرس
غايب
##رائع
وعرف
##اثر
TM
فديو
المقط
##ct
ذنبي
ايت
طوا
##اردو
##سابقة
السمك
##وانئ
يعقل
يخفي
صديقا
قتادة
النجف
متمن
زهرة
عجب
مليئه
##ثرا
##زهار
للتق
يتكرر
##كاثر
رايه
##بيحه
قليله
موقفه
الطعن
##شهر
##كتات
مازلت
اقامه
مشوار
##ese
نفوذ
الشقق
وبار
ارقي
ابل
##زى
##لحف
بروز
طلوع
1982
وحضر
مثيرة
هندي
##كانات
كروم
كنتي
وأخرج
قوس
والآن
التفت
ورود
##نتهي
##ئتين
##كرار
بورد
أيد
بعينه
##سوم
حروب
بريده
مسكن
##ood
##جزه
وعضو
فسب
واليك
سماحه
تحرر
سيعود
مساهم
الفهد
جوكر
اناس
##هيئة
تعالج
يوجع
والاط
افتقد
جماع
##عاه
##وطان
خطه
ودية
الوحي
تنشيط
##رقب
وإح
للتش
بلوغ
وقله
باطل
نسخه
لحين
##جج
اولها
وامان
##غازي
##ثية
يعرفه
ظهرا
1988
رايح
سيقوم
تدشين
اطرد
بالقص
حينئذ
##7824
والمث
##بعها
قرط
ومالي
تخطيط
شكلها
##ارتنا
لاري
##حهم
##ؤم
جناته
أشبه
إياه
مجرى
استج
ميني
جعلنا
اسوء
##نوك
خلصت
ملاعب
جوية
يرسم
الفح
بعيون
ليال
##93
والصد
##وقيع
حسيت
محبي
متوقع
باط
فقيل
للتنس
##REAM
##ock
مكتوم
تلقت
##جيزة
شال
ملكية
اياه
للبنك
فأخذ
##عوده
مؤسسه
اسكت
قناع
مسبق
قيادي
##بب
الطول
زكي
شعرك
##رابة
وروح
اعجبت
تظلم
مايد
##سيح
ترسم
##طاب
يشغل
موته
##فلت
##ee
##ظرك
صنف
مقرر
للقلب
اغانى
وممث
هدفه
##ml
الصغ
##سابات
ومسلم
##ريحه
أنش
##للين
شعورك
تتلقى
مدام
يدع
طرائف
##بابة
تقرب
رفح
لهن
##دان
##فرين
ساس
سجد
رزقا
بعمق
##سلمين
##oth
حقهم
وشركة
بمؤ
تأخير
##بطت
الجذ
الخاط
يفوت
ضحية
اللذي
ملز
تمضي
ركعه
مكاني
تراها
##gy
##لوقات
ستقوم
غلاك
فصائل
ديما
افاد
فالج
وحشه
التما
واجهة
يقد
فكرت
عملهم
شره
##دايا
##اكي
900
كينيا
ثلاثي
تراني
خليه
وأول
يمضي
لوزير
بيتر
نوعه
استلم
التشا
عاا
خله
الفاط
شعيب
##اجات
عفا
##المات
صفاء
مطلعة
##بيو
غربية
بإست
##2015
##خار
##قارن
##طهير
##قدان
##بداد
وتخلي
عضلات
بكركي
قدرته
ورجل
عددال
إدريس
زوجي
واشهد
شيب
ناجح
وبيع
en
كونا
روبرت
أثبتت
هدفين
ذاتي
يختص
منطلق
##عمق
هود
حجاج
قدموا
والفت
فاف
يتصدر
تسيير
ينال
ميتا
كرس
لفتح
أعض
##فضة
##كوميه
كذبه
##يقاع
أخيه
بخاري
طلبا
##يفية
جسدي
##حتهم
جاذ
اضعاف
الخلل
معيش
الرقص
تاه
لسي
لاجلك
##فتي
نيو
صاحبك
##ین
هين
ألقى
بى
انظمة
##ranç
##عله
عقبة
أرضية
اسحق
##لفل
##ولوم
وقوف
##وادم
دعمها
الهض
ويرجع
خلع
وتعرف
لئ
تشرف
الخطط
اقدار
الحظر
ووصل
فيمكن
##رابط
ثواب
معينه
##يداع
طفو
##ئح
##ويتها
تعبئة
العزم
##وفان
وإست
دخلي
##آر
يعجب
تشار
رامي
MP3
تريده
أورد
مجرب
##غلق
1500
استه
باتا
##حمدي
تدهور
شعرها
##وشه
تكاد
تحذ
ترتبط
##جازي
يلح
##كبة
##رازات
وجها
واتهم
مناخ
غريبا
يهود
عاجلة
##بايب
##ويله
حصن
أتمنى
##ولن
##لدات
خوض
##alax
فلب
اسهم
نسعى
##ميلي
##oun
الدرب
البها
##جما
بنسبه
هجوما
ماكين
للتخ
بيدك
##البية
مخي
والفي
تقليل
Micro
##روءة
##خصيص
اقرار
اسره
وحمل
كنه
الأت
متوق
مقدر
##اميك
ألبوم
##خاف
يهاجم
مقبره
##لامح
لابت
إلقاء
##uch
المبر
ضياء
مسافر
##دلة
تدبر
تصلح
تعثر
##غداد
داخلك
##صرها
ستين
وظيفه
فيج
يكمن
##AL
غو
شعرية
الموض
وموتي
##وصف
اتع
##رافه
امهات
الشيش
خارجي
360
##ويتك
النقي
##حيى
رشا
حصولك
لغيره
تكمل
قائلة
إنقاذ
اشتري
غباء
نبيا
##تيان
فوض
##UB
وحبيب
##هاش
للسوق
والإن
بغية
مايخص
اهو
ذاتية
وتعب
نايم
يقتصر
أدلة
##قازيق
اسفل
الشاع
جئت
##GD
سلمت
تاس
قطعت
ابليس
الإك
إحداث
##وابا
##ورنت
ظلمت
سيره
##نئ
##يلي
دفتر
المدع
القصه
دلالة
تدمر
##قاتل
قصاص
ادور
##واهم
##ئته
افر
قان
حنون
عاليا
مولود
محلل
فاكثر
احسب
حمار
الجاي
##راة
ذهاب
للنصر
##وافل
##سيسي
##وقيت
HT
مايس
بيرو
مساكم
طلق
##صحابه
وتؤكد
نجاحا
إغ
حقن
##لتني
نبدا
بيبي
مجن
مجمل
##360
عاشور
##دته
وبنات
وذهب
تجميع
ويط
الغلط
مجهود
تحافظ
##كروا
الإي
يقترب
نوايا
تتجه
غيرنا
ونع
##ience
انهاء
بإد
فهمت
بالاف
مهنة
آيفون
تمييز
اختك
والقط
عبق
##سيمة
اجيب
فيروز
الغزو
##اطري
قتال
صياغة
مركزا
صدقني
واجد
مثيل
صادقا
تصاعد
حفص
قريبه
صافية
توافر
##ائعه
##ئران
لوحه
##فاة
روك
وابي
عنيفة
تطرق
عيبا
ويظهر
لطال
رمات
ونق
اسما
بعيده
كارثة
حالته
مخاط
فاجعل
فرسان
الكود
والمق
بالاخ
تكسير
سعداء
بطرق
##عبين
يسار
##ييه
دخوله
مؤثره
المحل
رصيده
أثاث
يغطي
نسبته
تحفيظ
التسا
وحضور
ينتقل
توه
عادية
يميل
##ins
تقلق
يتيم
تبرع
لولي
##اريات
وإذ
##تف
ويبلغ
الولي
وأهل
الإبل
بادر
ماق
احزن
وطال
تسكت
وجرى
تبغي
##ware
وتتم
لعقد
حضره
##الط
طائره
ينطلق
ردت
فمع
شكلت
اخطر
و4
صاح
ترحل
عصرا
السند
حلما
عظام
اغنية
شرائح
لرجل
يله
##فوعة
تشرح
فتنة
##لمس
أعطى
المده
فاير
##ting
العرف
بتكون
##بادلة
##ماوية
ونف
##بتهم
##ذبه
تومي
يتنا
##زني
EC
بركة
خروجه
ملكة
مراكش
##ثوم
ليح
بصور
شراكة
مجدي
##خرية
شيك
لحق
الون
وسج
أقلام
اتب
##أله
سمعنا
اسرة
جنة
##نهم
ظرف
مضاد
حفاظ
##سنة
##ضيء
تعطل
يحتسب
فلور
الغدة
يمث
أوز
مريضا
الهوا
واقعة
الصنع
وفاز
##تحاق
يجر
مؤثر
##فظة
مواسم
كوين
يفتقد
داره
غاليه
يجرح
شامخ
مصحف
##خلوا
دوس
دفن
##ator
Fl
##ثان
0550
ثقافه
ناديه
##ارتهم
غروب
يؤذ
##خيم
يقتضي
##حمله
انساك
عمرا
والوق
##vue
ينعم
World
عسر
متنا
الفلس
##والله
نرجع
واليه
معافي
وطيب
تصلي
قوالب
لدولة
قصيد
بالتر
بالمؤ
##ويب
##ادته
##IA
راقيه
##St
عقاب
ليتم
##لونا
مساله
ابشر
ضيع
للعب
مصريه
##نساء
حاش
##ايير
بمق
دمياط
تحكيم
##حريري
للخطر
حليب
انتق
Sm
##OT
لجافا
وانها
##ديمير
ايلي
وتاب
تناقش
عدوك
وارفع
المزد
سقي
النفي
ينبض
وجز
##رامكو
##طوبة
##راش
جزئيا
الحفر
يزيل
وجنوب
##نور
الديب
باسمه
صامت
##حرص
##لزام
الرمز
##plic
##اضره
Tra
##ؤوا
##الاس
هنري
طاعه
براد
عناء
اشراف
##ودعات
هدفها
##غانية
بديلا
بصدد
فلسفة
##KP
##شرية
جني
غيبتك
##inter
نرت
شكره
Sport
الكاز
ab
اشر
##لوجيا
كاري
##افعين
ويلي
نشرته
أجريت
تبيع
ناقش
احلم
معقول
وأفاد
يتك
##ony
جيزان
للملك
حسنة
ولط
يشجع
البرق
وأسر
يتعب
بتغ
مدرس
##ههه
مقياس
ازمة
غن
الوك
الغس
لكأس
تورط
##87
كيا
برفقة
كلش
ماركه
سرعان
##زقك
اشبه
تتكرر
##EF
تفصي
تحبني
فضيحه
##اربي
قبلك
أكس
عزه
واعرف
وكتاب
أحزاب
##رافقة
آمال
فائده
ركب
التوت
ناجي
تقترب
##يدها
##اصرين
##ذات
يهو
PHP
##لانكا
مداخل
محو
هدفنا
##كاذيب
مظلوم
نصرة
تخلف
دنياك
الخت
ولده
تعدد
##يسار
صعبا
كوادر
كج
##نعت
##هاها
مرزوق
Gu
تطبي
##طاقات
وسمع
تزول
##ef
##او
o°
##براني
ولست
الناي
وصلوا
مفقود
يعلق
الكاف
مسجات
إمارة
لعنه
حيله
##لقاها
زوجتي
كفيل
صبي
إصاب
للمحا
يشرب
إجازة
اركان
نذكر
بياض
حبنا
أنقرة
الجفا
أريحا
قادره
SC
تقصير
##غون
الهمه
بنفسي
يحرق
##شور
##حتنا
ويعرف
شفيق
##وعها
تفوز
واحمد
جدية
تشغل
كوس
مهر
فقل
##أيت
##ينيك
يوحنا
##ars
##حترم
##بدع
لاعبا
أندية
##ارتون
##ندقية
تتذكر
هايب
عجوز
##ame
يخلو
عالما
##سكس
##خلا
ينطبق
125
بأول
##تموند
##امره
قاض
فإنهم
اوضح
واو
##رقي
سيست
طابت
##طفه
حده
عطور
##199
اطباق
شمل
تصب
سعيدة
##تج
مسمي
تشري
Con
عشاء
##max
آبل
اجساد
خليج
الواف
##سوانا
وقطر
##رياضة
بشارة
يظلم
شكوى
اجانب
تشوفه
رفعه
##روشات
وضبط
الفضي
##86
ممات
طلي
الخشب
التبر
##وجا
غانا
سويا
##جزئة
غابت
والدا
##قيمة
موزم
جلالة
سميت
ووج
نتعلم
بضعة
معلن
##ويز
يرحب
جريح
انتر
هيت
##آب
وجن
يصرف
ظهره
جبار
وارس
##ايز
بحفظك
كلثوم
تعجب
##معي
توصلت
ساحات
ينج
رينو
تلاوة
##ضعفين
##als
##قيبة
مكي
هاجم
كرت
القا
بكرة
تركه
سرك
010
قياسي
واكبر
خلقنا
مسلحة
وصد
##ميمه
تزعل
##هين
##هادي
تنتشر
Langu
أشعار
متاحة
##74
نشيد
##iyab
##للد
نوري
ابيه
يجز
يجلب
حلاوه
##ياتنا
قادمه
عسا
تكثر
السور
##وزن
و2
مجرم
تحصيل
##كوا
قميص
فعالة
المشه
قسوه
قيود
وصفة
لارت
##ومو
خيرية
##OA
معلق
##ريضه
صورتك
ياحي
معال
##قاقات
ذري
سياحي
الوله
مضحكة
وشرح
تلبيس
تدريس
تعنى
جيتك
##دوية
وجبات
وبينك
بانيت
طبقة
وخر
الاسي
توعية
فتم
اشتهر
اللاس
النائ
##لاتها
##ادين
ظفر
surge
شئون
مقترح
أوس
ساو
كوالي
العوض
##قتكم
##وافر
تبييض
ليص
مايم
نشكر
رشح
روج
يمتد
أسيوط
وبش
##حدر
منتد
ملغ
##رقت
نامي
##حرر
لسبب
مديرة
اساسا
قوته
الممر
عبث
يفسر
تظ
طريقك
##عثرات
##برها
##معاء
الشئ
السبل
بحور
ساموا
##رتفاع
وإما
دونها
##عدم
جثث
AF
تقليد
حمدي
##مامه
أردني
##TML
##اكيد
موقعك
هزيمة
وتونس
الويف
تناز
نكتب
##ااح
##اطي
طفي
##كريات
المدف
##ادقة
ديو
غبي
##همني
النظم
جانبا
des
##دياد
خالف
ناجحة
الالب
الرضي
much
جزيره
يثق
صليت
arab
وكون
LA
أسم
ساخنة
والجد
محله
يحط
عتامة
##ضحيه
##tl
العذر
ممكنة
##جود
مختص
القذ
اخترت
ستبقي
Te
ستس
##iew
1987
تدير
##لويات
صراحة
ضو
##غرات
##لوت
تجتمع
##ahar
اخراج
فيلد
عمليا
الريم
##سوا
##واننا
ميثاق
##عري
اشعار
##عوات
شاغرة
كفروا
ومضم
مؤهلا
ولوا
##طارات
بأفضل
بدين
زح
غلطه
##عدوا
Em
والحم
بدفع
##زنه
كروس
تزين
ورث
عارض
عشية
واسعا
يتمثل
يلحق
ويحب
##لايين
آداب
متلحف
عميل
مثالا
تنال
لسر
##رث
برؤ
فو
العون
عرعر
##راوية
بردا
محضر
مرورا
حنبل
ويضم
برصاص
الغش
##كاو
كذاب
ادخال
ماغ
##ina
ابوه
ضجة
وتعرض
كسي
##500
يتردد
نرج
برأ
غيرت
وسعت
البكت
كاظم
شقي
وأفضل
نجمة
طوكيو
##جرام
أعقاب
##ارسه
سويف
بدوي
##زويلا
تحي
وقرأ
فوزي
بيج
ونسبة
فاشل
lazer
##ليقات
توني
هونغ
الجذب
##ance
##عاج
وبلا
##ريبات
تكتشف
femto
lasic
فاكر
##خرط
##شياء
fr
##ندس
DREAM
برن
ريحه
شديدا
ألح
حزام
##وننا
فتحه
##خري
وأعرب
##طباء
وتنا
##حاسب
نصل
نفهم
##منح
##ويها
##ايح
##جزيرة
أعداء
##واته
1979
النطق
##لانا
تقطيع
قاطع
##نوع
عملنا
اشته
يضاف
##جاني
450
مصد
أكلات
إليكم
##صوص
لدور
تحية
لوال
صريحة
المكس
تسببت
وابقي
##امس
للبط
اجي
الملل
0533
##ext
تعتذر
تذك
CA
##لاحق
معركه
نقبل
حبها
الرمي
##فتره
##روى
مدرج
الميم
جيري
دفاتر
ديل
الضرب
##حنة
السطح
أنهما
كإ
##ملت
راجل
لسكان
ضلو
الهدى
##املك
يحن
##555
يتوفر
وسبق
وكثر
فدا
رائعا
قضت
##راويه
لايست
بمد
للطفل
جوالك
فعليه
##فعية
يمد
حيفا
شجع
جث
لعبد
اكدت
##ضوا
عطرك
ياز
للكي
الانه
فيروس
##است
تعجز
صيانه
ماقد
ابين
##ديولا
ديربي
##ux
ولف
##لائي
وحركة
##باتات
##لست
نابلس
ممدوح
بكسر
التمه
forum
خصي
اوري
فردا
عدنا
دعمكم
##ool
ساك
وانش
ضايق
تسرب
ღ♥ღ
أنثى
ولين
##ملك
فوركس
الصفا
ندرك
طرب
لضعف
GT
تلبس
للعرب
الضيف
رابعة
عشقي
##لاجة
وتض
الالي
رزقه
##شهاد
زوجتك
برافو
تعترف
مزاجي
استق
دونغ
##فلام
صبرك
كتبها
الساق
##شاه
تخلق
اجاز
يزرع
مواف
تصعيد
حضرتك
رأيه
أفراح
اخشي
SV
عداد
وعاش
##لوبك
وسهل
##عاقه
أشعر
إيف
يومها
ايمن
صديقك
كوبي
دعمه
التنا
##باهي
مقعدا
خاش
psd
سيري
الأرز
زن
Se
أدري
الأض
##هاوس
كلوب
فالد
نومك
##شوا
خفا
##ستيشن
##وجاع
الثري
بعقد
يفرج
الإض
رخي
##ازان
الهج
عهود
وتحمل
وكلام
أسفر
##وقل
احصل
اداري
والاي
هاذي
يغرد
للأم
بوغ
##زور
RT
التحض
##ادرت
##معون
وقصص
رزقك
##ياتهم
بمنع
##دواج
HU
وحدي
##زج
##فتك
##زيم
دمج
##وسيا
##ونتاج
بإح
يجيك
##رحه
##سول
عرشك
##لتيكو
نيل
تكليف
بقطع
الدال
محترم
التزم
راضيه
مؤتم
وعط
افقد
بدعوة
رئاس
محف
بحض
##رفشه
##قهلية
##وتشي
##زهري
مجله
هبة
هواء
لقطاع
صفقات
##Sat
للنفط
ونحو
منفر
ملل
وتشير
اتعلم
##ارعة
المرو
وبق
يحبني
تسلل
كريمة
رنا
يمنحك
##يبها
فالق
سفاره
اظلم
وصحه
نيفيز
لقر
وهدف
امها
حسد
شرو
جاري
كافر
ابراج
تلتزم
##okia
##ique
حيز
New
##بيرا
##لزمه
بتقول
فاين
##ئتي
موجب
لينك
ثمان
mod
##ya
المهن
راحتك
زحمه
##UP
##جده
رغبه
تبعا
الربط
السنت
للرجل
يقدمه
ازمه
##شح
الحدا
مادري
##أنف
بمعني
##ارث
يزعم
تاون
والنه
##تن
##سما
سمعته
##حاسيس
##ناهج
ذراع
أطباق
بدمشق
##1932
موباي
الخف
##orn
نوال
واهد
هوبا
صالحة
وحزن
تحلم
##كور
عبيدة
##اصره
##ستنا
ولابد
بالمق
بالمخ
شقيقه
إحد
##منتدى
##overy
يتغ
وإي
يلعن
##نتظر
خطبة
##دهن
المشر
عرفنا
cl
مديرا
وهلال
الأبد
فمنك
##ينج
صيغ
منال
##لاوي
يريح
بالري
لرجال
##ps
تبتعد
دمي
سيلفي
مغر
كتابي
##وزو
تشبع
فتيات
##yle
##غمض
اال
غرين
مارب
فالب
تحفيز
سيؤ
##ision
##ودج
##min
مايش
موطن
واسم
يكسب
##زايدة
والكت
فؤ
##لاشات
##ناعه
التلق
عرس
العجب
تمطر
##alaxy
جزي
الشن
##زوجه
واصلح
لمد
موديل
##قلها
ورح
نزيه
سكك
My
ظلام
برنام
سره
مبادل
ترزق
الدفن
هالت
##ليبس
بماء
يلب
##رداد
غائ
##صريين
اسولف
نسيان
ZW
##براز
هطول
حبة
تحمله
بغرض
اقولك
وأصيب
طبقات
بلج
والفق
لفض
توضع
اجزاء
##روقة
جرم
تطبق
وامر
إنش
موجز
وصباح
ومميز
##خرون
فضائل
بعت
خوي
رؤيا
كتر
مونا
بلان
نظافه
بحري
لبدء
مكعب
صحب
مقاول
مستعم
عيت
بالمو
##ائلين
##ذبهم
##صاله
مناصب
##82
تعتزم
off
مسوي
فولكس
ذهبية
##NL
##اكسي
العتب
أوسع
للمسا
رافا
للنظر
ومحد
والأب
ادخ
زمنية
بكلمة
الأني
موجهة
يصب
ترند
##طهاد
قيمتك
أمان
LED
حربا
##ستية
ونقول
متعدد
للعد
يشكر
معجب
انيق
ورواج
##الاب
جائز
تطل
نعوذ
دائمه
أسنان
تفارق
سفن
##للى
تفاج
ووك
اقلام
دامك
مواجه
##VB
يتر
##نايا
سأل
جول
وملي
لازال
##جمل
##ديلا
احي
بارده
##هيد
سمعي
ارق
##قدات
##ich
قدمته
يغلب
رأت
وحما
يشك
لتعلم
للحكم
مادية
روسية
قولا
حبيبك
tr
نحبهم
##soft
FR
وصفها
واليا
تحتل
للغة
لجعل
يقولي
##جوب
واسعه
والرق
ينفي
##ندسين
بدخول
حاجته
سجده
لأهل
روايه
محق
الرؤى
تميل
##اردن
ماخذ
##وادور
الفس
شوط
وطنا
##راسه
الجسر
عيان
لصف
105
للاجر
عقدة
مهت
##قاظ
مرتضي
بذكره
##اسات
طيف
وأه
وراك
تاجر
والنق
١٩
تانيه
وولا
ارضه
الحما
بته
وكشفت
TH
اهميه
تهاني
نعود
تبث
##موا
##روي
##يندوز
فادي
تكتمل
طنجة
معتز
دره
قالا
شاحنة
دليلا
قطب
منزلي
تبك
أذن
رياضه
الرقة
مسمى
وفرض
##رغم
##تت
شوفو
وكلنا
بالرب
تحرق
الغزل
اذي
جنسي
##مائر
##ress
نحيا
بسداد
do
##رقة
تحبها
واسر
قاده
أمطار
اللد
##لونة
تقلل
الذل
شوت
##واضع
بطول
1948
##شاور
##لتس
1970
احتسب
بهاء
خرق
جذور
مفار
##ليلات
للمص
سقما
لأنك
ترتاح
اعتما
يعاقب
وحيث
مفخ
تاف
##لعي
وسبل
اسنان
##its
##ارسين
##ساوية
ترجم
عبرت
##ثري
حظوظ
##ؤؤ
##ذهان
ماتش
بنور
بحال
عملوا
##كتشاف
بقصف
نبحث
##حش
برسم
أصغر
لخير
رخص
بولس
عجلة
صدقة
أمامه
##دني
حجب
مخلد
BO
دبلوم
تبديل
012
ريد
ويعت
##بروا
سطر
تعرضه
استجب
لئن
جسدها
افب
النهج
فهر
اكتفي
ينقذ
ستوك
هوندا
بموت
##83
يربط
عبور
روق
جارية
شفته
غصن
متب
تنادي
##شخص
##81
سلاما
سعه
##اكهة
##نكم
علية
اصنع
##رورا
1436
لكى
آلات
تخلو
لوم
تضطر
باض
الكتل
##رفا
ألأ
بحوز
##84
٢٠١٨
مريح
##ساح
##شيت
تنازل
القطط
##ild
مسجلا
##ريكان
dm
##درت
##ترون
الوجد
##وبك
عنيف
أدوية
فی
يدوية
##بلاغ
جيه
##ions
كجم
01149
جيران
وشعر
طلا
##بوب
وسير
شنت
لإح
مقاتل
كائن
ضجيج
فستان
مؤقتا
اسكن
قادمة
محط
ومض
يراقب
أنور
اقص
مقوله
##ضافه
كانها
تند
خج
اعتاد
توجع
##ll
سمعه
بشحن
معلوم
المني
خارطة
فخرج
وتوبا
##كرز
سحاب
يتجه
حور
تقليص
امامك
##اطع
سورين
##38919
برايم
بسام
محاسب
رياح
عقيد
##فلة
1986
يركز
إتمام
##oy
حره
##ربيل
بلدا
والأع
ناهيك
نرحب
ترحب
تجلب
تراقب
##ونالد
سوب
عمالة
لاير
عسكر
##احت
عزف
ركعت
طلحة
##توا
##بتنا
سياسه
AD
اللى
عناية
##عوان
ملاذ
يهودي
وبلغت
والبا
وضرب
بتبقي
تقولي
إطلا
##كتها
لانني
سيحدث
غموض
امامه
والمي
أسعد
##طاول
بيق
ضربت
##رائها
قيا
الحفظ
##نعة
##اطس
كيفيه
##بنا
لتجنب
بدرجة
قنبلة
اعتقل
أخطر
قدس
شيم
ماريا
وفخر
بعدة
الأخذ
##داس
نقلها
الشاه
101
نلعب
##عظ
##شوق
##اصلة
حلت
مزور
##دس
لحود
ميركل
لذيذ
يبا
انديه
طبيه
فاحسن
تشتكي
##ريمه
مرجع
##2016
لدنك
وضحك
##RK
رفضه
بشرني
##جزت
الزير
مولى
سيدني
##TD
بنزين
sa
حجمها
الطين
##مالى
PS
١٠
وستنج
تحققت
هاه
احلا
بيلا
##OC
الفاض
والظ
كرامه
زور
للإست
قاسي
اخوك
##كف
لمنصب
حقنا
ويجوز
بظ
##هامه
للدين
بعضه
يجه
وشباب
##هاج
##وجواي
منهن
##2018
مبتد
##bc
##واله
##اعته
الراح
جسمك
دخلوا
خيبه
##عط
يزعل
لاو
بحه
مرمي
راسها
سيل
استبد
نترك
بيش
لقت
LC
شكلك
صرنا
يونغ
بوسط
أعمار
وكلا
220
مؤيد
شروق
تتك
كمل
##يفر
##ضون
بشوف
تضمنت
1976
فتفضل
فرحتي
##غاه
رافع
غائب
وقاية
وحنان
##فاكية
وانزل
ونز
فجعل
##obe
والوا
ونتي
##لوح
زغ
ضل
##فادي
تعاد
فاقت
الشاذ
امسك
##سيو
##able
حضوره
داري
##مله
يرتكب
##بتين
أودي
ورواه
ادعيه
راقت
وشهدت
تتزوج
وكانه
يقط
##GA
أحدكم
فوكس
طلاق
##مأن
يته
عمير
مستن
##اهلي
نتوقع
اتق
تيجي
شيلات
سواد
خصيصا
بلم
ظلمه
##طراف
تشويش
يكفر
النون
و7
##IO
##خف
##ريفة
وسيله
قو
تيفو
تكلني
##عنا
يرجي
##101
تفعله
ناسا
متفا
مسلمة
لرو
اعمي
شكاوى
اصول
تقدما
##97
بلدك
وخل
ايوه
سيه
النصب
فلقد
نراه
اسئله
وأنتم
##ory
##نزير
رادو
بالتن
fil
نصره
تتسبب
النبض
نحاول
زينه
سوازي
##متكم
DM
ann
ستان
يلبس
تخبر
##غاء
##وطني
وللأ
بحجه
سيئات
يحتل
ربيعة
يخفى
##بوينت
بحل
وعروض
##لباو
لعض
ابيات
مكاسب
حراس
أعين
الفرن
##ذرت
##فته
تعزز
1439
بدولة
عرفة
##مرا
##ميدان
دح
نتحمل
اقب
الرمل
سيرين
##ويلها
اشار
##قدا
هروب
وحذر
##انيوم
فالص
نيتك
وقرر
فعليك
هواك
إضغط
عاشت
سفاري
##ower
نهى
##حرية
عدمه
##ماسك
بشركة
واكرم
ميه
جروس
##طاحة
هرب
##وسفي
النية
حصوله
سجاد
تدوير
سهيل
##نتيجة
خلية
أفك
##ages
اعني
##ement
rec
أوساط
لاق
رضى
وسخر
فاعت
أفر
##erry
##erat
ماشفت
##طاوي
تلاوه
نبضات
ووقع
##جماع
##نينا
بصح
النبى
كاني
ليث
لدفع
خريجي
دينهم
##ann
##روهم
وحلف
خلفا
قضي
وكتبت
بفضلك
##أر
##لاميه
##رموك
نتاج
تيس
##يدية
قرعة
يرف
##باسات
نجل
ويصبح
وقوة
الشق
##بطه
##قلاع
##ودى
HTML
بتب
ركلة
مئوية
ac
متلا
مسبوق
رؤيته
Nokia
وصال
خبز
ارتاح
أجاب
عونا
ياعم
بيسو
وادخل
فخذ
صلح
##EM
وادم
نبقي
##فوقي
##iss
1200
1962
والمأ
ممتع
عنزة
##وارض
3000
يكر
العرق
®¤
1983
##ذكاء
بالشر
مبكرة
احرار
اتشرف
5000
سحاق
توماس
##لامس
حليف
اسلحة
##سكرية
فأجاب
##وليا
اخته
الكأس
طوله
##واتها
يحلم
بذكرك
إذاعة
فيرجى
يكتشف
انسحب
##RL
مرتفع
ومرت
سفارة
أجرى
##وائق
جلو
جعلته
أبعاد
روفر
شيبة
Sun
دياثه
بكثره
بلص
اشارة
فائقة
بعلم
تكرم
دلو
قناعه
مراسم
##اثير
##شام
حجه
وخالد
قسيمه
تلتقي
صلاتك
بليون
الظل
تشرق
لوحده
bl
##مدن
##وازنة
متحم
فداء
زخ
ضباب
مراره
صحيف
سئ
وامه
أكرم
تحتسب
ومال
وضعي
لعن
ويضع
والرب
لبك
مشغل
##1594
حادة
اتقوا
وإخ
##وثيين
حالها
##هانة
فخامة
##كوك
ناسفة
وفجاه
MK
ترجمه
##واتهم
##شتاين
والاك
##قلون
115
محطه
وليت
اخرها
منتجع
قدرك
الاله
بعدهم
دجاج
مطروح
وغياب
نقف
تطول
تأمل
تكرر
##جيني
جنان
اجبر
يبني
بلغة
ونساء
فبعض
##400
ستيشن
محال
مخال
##رفات
غيمه
##ينيه
قراره
##روسة
مزايا
تحمد
نجاد
نامت
وترت
تجلس
##افح
تخيب
##وريين
البان
قولها
اعترض
وأحد
أئمة
عليكي
تقرأ
##ضحت
##كسجين
تجرى
اضم
##ابيه
القهر
ويكتب
أكن
أرواح
بعز
هلو
ثقيلة
فرو
يهزم
##باخ
تجعله
باولو
جدير
تجميد
يريده
الخطي
Apple
##وريات
حساس
##صفية
تحضر
##كهة
Des
فطره
مصدق
لعبت
##زازات
فضيحة
وولي
ذنوبه
كفت
تخي
##ade
##زعة
اوفر
نشرة
اقوله
فيجن
آر
فنيا
نزيف
##وياء
##ميق
##صاعد
##ركته
بحالة
النيج
سلبي
##VR
نأمل
حسنى
عساف
سته
والاض
بله
##صروا
ثقافي
بشراء
##روال
لامر
وينه
الخطب
صفه
##ظور
بتحبه
طرحت
تؤيد
شهرة
qu
care
حجمه
اطهر
نبارك
وبركه
لئلا
ببناء
والعا
تهمة
وتظهر
وكلي
نادره
الدلو
IPTV
افخم
بوقت
حاضرا
ذالك
خصص
البطي
حفله
أمية
بابوا
ورغ
ومو
##عادته
05411
##زس
##يلها
تختفي
يصرخ
KM
رهن
باذ
##حوذ
نعتقد
توريد
اجله
زهره
فوزا
وأطلق
كاي
يرتاح
الصفة
وصفت
##راوى
ومحب
غمر
وتعود
ساخن
عصب
كفاك
وعسي
فريزر
يراها
تقوي
سفراء
##EP
##air
Net
بهال
لشعب
تمثي
وسيد
ماتب
##mb
غذاء
التها
مجيب
0020
تنسى
يأمر
01145
البدو
وخدمة
تبخل
أرجو
##تمت
##les
وفك
تتس
ناري
وقائع
##نتان
##crip
##صفور
##جيلات
سارك
الأجر
حية
باقت
##فليقة
المتف
##امو
منعت
##ازم
تضاف
سوهاج
سيخ
ترميم
اثبات
##ريدي
يطيب
°°
استرا
##ئهم
##طيس
رائدة
خن
الشد
المدح
يعاد
##راعه
ass
تأك
##ote
وانظر
##للص
شنط
ed
##فاكيا
مايج
##آلم
معاون
تغطيه
اوغ
يرمي
بلنتي
ابوها
##جوا
##ليفون
اناقه
بدليل
مبين
يؤخذ
معيار
ينف
يذبح
كريس
اظهر
ونشاط
##بدة
##وينا
##ثاء
EG
خلطه
##سارة
تعميم
زله
##قلات
يصد
##ices
دوب
يغضب
حمراء
شفاه
##كاني
يسد
سنان
##كورا
بربك
##قفال
##كسات
اذان
##طاني
يلاحظ
مركبة
السط
حفاظا
##معة
ستقام
##يادته
مخر
نفر
وكبار
عابره
شنودة
يصوت
##ائس
تشويه
##MW
مجلات
رأينا
انشهد
##فكر
وبينه
إدراك
حبان
الرص
تزرع
متحرك
##راهيه
Ed
اليق
منعا
##خراط
لود
قمع
كوفي
إيجاب
##كتئاب
AB
شرعا
فكلما
زهور
شحات
سلمي
111
ويرفع
سناء
انقطع
##انيت
##BP
يتب
عجبا
##غيان
سكع
حالنا
نفحات
فمه
الحيا
##أسها
تله
والحن
تكلمت
داون
اجود
تسيء
يخرب
اطعم
وكنا
يعز
##ذاهب
مترج
هائل
آم
يره
##رشي
اخضر
الأهل
موب
##لاندا
الغنم
القاء
لته
يدير
##وريس
عبره
بالتس
##ull
غفور
طوق
##عوى
بلط
بابه
وخلي
##وفيه
للصور
ابغي
##المن
ونحوه
الرقه
Comp
##oshop
##212
راغب
تبون
##ID
بوسع
##RR
ضمه
ضيا
حوائج
##غشقر
يوصف
صاحي
جزاكم
الممث
تولد
شلل
##كرات
##حيا
يطرد
Wh
##وقين
أنمي
فالس
أسفرت
مزع
فرك
##اعف
مستغ
مجربه
##أجر
واحلي
##خيرة
عينها
##لاي
غش
لتك
حمزه
جبيل
رمزي
تنقص
##جعله
الثع
ثمار
بسيطا
##قتان
نشتري
شيطان
غلاب
منظمه
إرهاب
حلوة
##حواذ
جبت
##تبع
سببها
ماركت
TOP
بصيغ
قهوة
قولت
يشع
الدرك
زينة
حسنات
معط
أفعال
الحره
قوقل
##طفات
آلآ
اجرا
روحا
بوصف
يرا
غلي
الناب
##لاءمة
وبقيت
جنبي
عاملا
ينافس
قابوس
نووية
كامكس
كورس
رافي
بطب
وجدوا
##وكيت
ياغ
وارب
ادا
اقنع
بجمع
عنق
وليا
متاع
##ستهم
بحيرة
عواد
بانهم
ارا
خفوقي
فعلها
مزرعة
الطاغ
##RC
##وبايل
لقضاء
تحتها
اجرها
مكم
لمنا
دقه
تدافع
##رضى
##VE
وتوقع
مراتب
##قراره
ترحم
##صاح
102
وتؤ
لرا
Sky
يكتمل
واهلي
نجا
مفصل
الهيد
##ايات
نقدية
##atch
وعنه
ساي
##ازى
سرد
تعذيب
بقصد
اشوفه
احتفظ
HK
كيت
##اغواي
##iel
اللص
لحالي
تنتمي
وللت
نتح
##راصير
كامب
وباذن
بمقت
##غلون
جوزيف
وكسر
##رابطة
فيست
##وليس
وقلبك
اغلق
محاس
##شارد
خوري
Mar
الخا
وكس
وتغير
اسعاد
الدش
الطن
الارب
صحبه
للعق
##خيلك
جبير
##ريدا
##زيما
فاتح
للسفر
ht
لافتة
أسد
حصاد
##فتين
وسك
تحرص
us
ادعاء
يسعي
##غيت
الهوى
الاهل
فريقا
الجبن
بنود
حزمة
باطن
##قبه
بقضاء
ندري
نقاء
ودعاء
et
ويبقى
عشانك
نيران
لشئون
يعبد
شيكل
انهار
##خلل
##نكار
##603
تمد
##آل
هدد
##وهام
##التها
الهضم
إظهار
حلمت
الكاب
الخلد
شبيب
حالا
المنط
##ستم
لولو
##بايا
لحسن
تنسوا
##ivers
##رائهم
ووجود
##ناا
نوبل
ثامر
##هاية
##اريك
##سايل
ينقطع
قرضه
##عته
##ثنى
وحس
مايا
فرضت
فوا
المبذ
##زعاج
##ابيح
ويترك
##عاطي
مقتنع
ماتوا
103
##واتو
شريحة
مضيفه
##قهم
##ولوا
gu
كابول
وسيت
العبث
تسعي
النقض
والرد
##همك
##زداد
##يزال
email
جريده
##قلاب
حرصا
دعوته
لقلبك
##حقه
عائد
موحدة
##انيون
للخير
هوت
وظل
الياء
آخره
ضعفي
كاون
تفع
مهي
بيبقي
متاجر
وفرج
شواطئ
صغر
سريعه
##دمج
حماه
علئ
تغادر
قوام
دفا
كرست
##سترا
للتط
ومجرب
ابتلي
##ارقام
شجاع
##عرفه
1973
تشجع
التشك
كادي
##زهة
BD
وقود
دراجة
ونائب
KH
نود
فأخ
نتكلم
##ورن
##ضيات
وقهر
قاهر
##غفرت
متل
لبلد
تحيات
يهمه
ازعل
تهدي
جوزيه
ذكور
طفلة
قدامك
نانسي
##لجيكي
##وارق
التهن
افادت
الزنا
مقبل
وجدنا
ثمه
نتج
1984
##WG
العنب
امنية
##SAT
##كاه
##انته
لعله
موقفا
##حمت
##ضره
وتضمن
سيبقي
انتشر
##سفي
جلست
جرحك
مجيد
اخيه
واربح
وتمكن
ومواد
نيته
جسدك
وأمن
##وريد
سكينه
##811
لطيفة
إلت
باور
##ليمان
طاعة
عوازل
عزتي
رابعا
يحميك
للحرب
##قني
##نتهم
الحلي
واصرف
##وانيا
##زئة
باخر
##ضج
##idae
جاهل
شعبها
بستان
صحته
حاسد
خفف
##فش
الفيل
##ميلات
باااك
لقرار
وأغ
تليق
##ضاها
الحوض
##طرب
الحذف
للنبي
تنطق
ومره
##ضول
##غره
آت
شجن
خرائط
بتي
¤®
Book
وكافة
AMD
يرافق
##92
ضفاف
##كاغو
لخوض
تعترض
مسيره
فمثلا
غنى
عوز
##عارات
قنديل
وجي
احتيا
فيينا
سرت
##زيج
قضيت
##سامي
##وائب
فاتحه
وجميل
فرغ
وعقد
خزائن
وتوكل
مترو
اجاب
##زقة
خامس
مصعب
راتبه
شاهدت
بشك
##رتهم
يتدخل
تحيط
ارف
يلتفت
##قلل
وصلك
أدم
طحن
##اليت
التكت
اسس
سكربت
##عوبة
فتكون
وحكوم
تكفير
##شقي
117
##وخي
للمقا
التذك
##حتين
عزوز
##فعش
MS
حارب
رقمي
يتحكم
صديقة
خلط
خطابه
المتد
BW
وتصبح
الأجن
حيه
طيفك
ذره
ندم
قيف
خاصية
قبالة
الورا
صوتوا
واللا
بحياة
اخطات
والأش
ag
و20
##ضرر
##طباع
جورجي
إلح
قرآن
وقسم
ضمنها
بريك
ننسى
##ini
بصمات
بكتاب
اهدني
مفروض
وذات
حققه
##ضانة
##ساقفة
الفرض
تجيني
##ize
##حيلان
NOK
##ديز
##حملها
Cont
##لالا
ترو
بالرد
وود
بعمر
وتبلغ
لدوله
و200
##زها
متهم
##رائس
##INE
ننسا
##وطي
ويقت
لنس
جهه
##نتا
قرون
الأجل
منتهي
أوف
سيش
محتوي
واقعا
لاجئ
##لواء
هاتفي
لوي
##ثون
العمق
بالمص
##فراج
آلام
يسهم
بالبر
يحرك
تعدل
فإني
شابا
##وووم
اها
عاقل
صاروا
تقاطع
الرقي
تحتضن
شفتك
سعة
##كما
حريم
ابش
البرب
عو
دارت
خائ
##سندر
مخز
##ick
صفقه
الخاد
سوءا
##ens
مثلث
Techn
##امنه
##سنى
قارئ
شوفتك
ep
حشيش
الصدف
##ern
والعص
سى
قلوبا
لنه
نسمح
تيمية
ثماني
ولعب
الأنف
##ارون
لسم
ذكرا
##ابله
الزنج
وبج
##😂😂
وورد
وابد
اخو
وأبرز
يوجب
لاتن
يعجبك
كيفك
##سار
##كتبة
تايه
موفق
وبيت
وبلاد
تال
يترتب
الدني
غدر
ملو
##قطقه
وترجع
مابقي
##ضاعف
حضنك
نموا
اقوم
##ظافر
##هات
##بتسم
الطرح
##حايب
ومحت
تاخرت
تقوية
ورجع
كربه
صححه
ولام
##موحات
وبعيد
لمعان
##مود
صمتي
بلقاء
##يزو
SZ
وسيم
حكمة
لمخ
لشيء
ونسي
بقرب
لعشاق
مذك
شكاوي
##ولنا
ذكية
##وصي
##مائه
يسري
##ظيمي
ذاه
نشأ
يحرص
##متين
يؤلم
##خون
بدار
خبرات
غنية
الحطب
واسال
جلاله
تتفق
يعترض
أبدى
وصلاح
فردي
الصقر
##روليه
الذيب
##حبها
##نيطرة
جنبا
##باطل
##هري
لصد
ضعيفا
حنونه
##رسه
ويدخل
جنين
##ماطم
مركزي
ونوه
ابوع
وعدت
##tv
##فيضات
##700
سليمة
النقر
يحظى
جونز
الشطر
ثرو
تناقض
احيا
مافيش
##ونين
التاج
##لوهم
طريقي
وبع
ستظل
ونادي
عيار
الغار
##line
الراش
مصح
##سبورغ
##ضعة
##بيدي
ونفسي
##حمن
وسعيد
معتقل
##جرون
تتولى
أناقة
##مانيه
##PS
بمنت
##ووه
البلي
يطبق
تحبك
توسع
##ايغ
مغلق
وانسي
تلوث
اتمنى
##ولاده
##وامع
نورك
##لمرت
رخام
يوضع
مملكه
##اعش
Web
119
عروة
##راسي
لعظيم
##ومها
للجدل
بمخ
۩۩
اوضاع
اعطال
يزول
حصان
##بيوت
بشده
Av
##MAX
نسعي
حالتي
رقاب
غب
عبود
ستد
أثارت
لاعبو
محارب
يشفي
آخرها
الوف
هذة
احبكم
أوامر
لأنني
8A
بحت
استئ
لبر
ليستر
عاجله
وظهر
##رتس
فنا
بيح
العزه
##مصادر
حيوية
BT
Adobe
وطلع
##جزر
يجدد
الالف
فيات
كبد
ويشير
##نفذ
##هرت
نؤ
هواه
ضاح
مفه
##ميين
اتغير
المصم
ناخ
السيئ
##uter
صمتك
سيطرت
رسميه
##وابق
راية
مكونة
##الكسي
ولاه
بذات
منظور
تويته
تابعه
باربي
إعجاب
حدي
لونه
ماجه
تلتفت
بحقه
##ساه
وارجع
##افق
هيل
خلت
للنقل
تورنت
##وافذ
سمك
Box
اخسر
مصاد
مزيج
سكني
Res
تعارض
وراه
الطاز
##هولم
يهودا
##سترو
غطي
لطيفه
رتب
بائع
غادة
ابنا
##قراء
نكن
تكوني
واسمع
زلزال
البؤر
##طرح
لشرك
##und
تارة
بمه
اعيد
##اسه
اضيفك
##نيوم
حلوين
##اركوم
إمكان
١٤
اوك
##اام
يقي
كأنها
فاخ
##دحام
تقتصر
يحاسب
##مليون
لقوى
وارض
##زمات
##صلح
صاير
بنوك
رأيك
##جلي
##غادر
تعق
داوود
هاتين
##مته
يعتذر
عشيرة
1977
وصيه
وبسبب
أحق
فراس
تلع
وليه
ستع
آلي
أرضه
يتضح
##بداء
##ولال
كئ
جايب
قاص
بصرف
لكونه
مسجلة
ايامك
##ضاح
ناوي
فيليب
توشي
بابل
هاري
##صوره
##نتائج
##باحه
##امد
##ونسكو
##أسبوع
مشددة
يعلمه
##عارضة
تصفية
القاك
لقول
Mus
سماعه
همومك
تسريب
بصحة
ستست
الحدي
نشطاء
شبرا
اخوكم
ظله
##رمني
نسينا
ميعاد
تيمور
وابشر
##افلات
##وفيت
ازرق
الودي
مهره
براحه
حاجتك
الكفا
تنوي
مضيفة
تسأل
ويكي
تخالف
البب
##لاوه
##ادجي
ضمت
ويشمل
##باش
نومه
##سمي
سولا
سحق
##غلت
##لديو
بكري
فرط
يحبها
فعلته
مساكن
سمعة
بجنوب
حقوقه
ثقب
عمادة
عبوة
سرايا
قوما
لخص
أكتب
قاعه
مطلقه
للدور
##وسيه
##باغ
يستاه
تسلط
والرف
مواق
وحجم
##ماي
شيرين
حمادة
لانو
انكر
نعطي
الديو
وقدمت
وجودي
نيف
للسيط
وحيدة
وذاك
تار
مسموح
##آإ
##RA
لعلكم
قطره
##ولياء
##غطيه
تمرين
##مجة
يتف
وعت
هادئ
ارضاء
##العدد
MX
شتات
ووسط
فكرية
باقيه
##يريه
حفلة
ثع
وهذي
##خالد
##شني
تهون
##ستك
للكشف
اثق
بحبه
هاما
عان
ودروس
وتقع
ستائر
خديجة
الصحى
##ريمير
حزبه
الصغر
ارسلت
##ضييق
##زنك
يدمر
علاجه
محظوظ
مؤمنا
والمز
##جته
واين
ذها
خشية
افض
ريان
عديد
new
امتدت
ونجح
ثمنها
##وطين
ازاء
##بيرة
فيف
موهبه
##زنات
##ؤكم
مبتسم
زميله
يقلق
عتي
اقصد
صلبة
وعجل
Smart
للبح
ويعلم
عصابة
طوارئ
تفاؤل
لوحدي
توليد
وياه
نمشي
للحق
Fr
مكثفة
##com
##يسا
الحيل
وفريق
##work
##ثت
رغبته
التقط
اسلم
القمع
محكمه
فتاوي
بالار
العرس
غيث
ويمت
##يلا
##بيلات
بشارع
تصادم
جرج
##عوب
##YP
المنك
##ابري
علنا
تركها
عفان
##زالت
وصالح
بحس
ونن
يتسع
السلي
لفي
لناس
خانة
تهييج
فهمي
##لسون
يلجأ
لأداء
للسيد
يتد
ويحقق
جزاك
مغرب
وإنه
تخطط
و1
مدربا
عتب
أوبك
اثارة
##جارات
1981
محض
تنح
توقعت
حذرت
أرسلت
ديسك
##وجها
علميا
يفصل
##لوين
أشاد
اتجه
104
طاج
يتقبل
نصار
##ones
##ريها
براك
##وافز
دمه
تميزت
##ينز
طمع
الوفي
مابيل
برهان
تغرق
##وفسكي
لإست
##WD
##ats
##ردام
##لوكة
بفوزه
تتهم
اشتيا
١٢
الشده
بوابه
منظم
تعذر
##ختصر
فالن
وبها
امطر
تفصل
شائعة
حسي
كريما
مسيحي
ترمي
قفز
الإغ
##صاد
روعة
ألو
لاكن
##وثه
بقرية
كفيله
تتخيل
البنى
##EX
منافس
قصرت
سرح
ألس
سببه
اعتق
اجلس
ثقتك
تضيف
لوب
شيخه
فهى
ضمور
تاكا
تخر
تالي
##لاتك
##ECH
هاذا
##متعون
Rec
مقرا
أوقية
##رامة
الفل
سعره
##ليكس
##راعيه
ALL
يزل
الإخت
وراها
المنف
##التين
1434
السنا
##كنات
ثبوت
##اهدوا
الطرب
مسوين
شط
إنني
بكثرة
##نيابة
##يناه
فاذكر
##raph
إخلاء
يطيح
##عيمي
جهدا
رباب
##لائها
##خلنا
تضامن
قسط
##فاعله
يختفي
السنن
All
ويعيش
عميقة
̈°o
رايس
ومعت
مصنف
مستقر
##خامه
##عمله
فصيله
ابعاد
البدع
ويبت
غص
اضل
اياد
نعد
بحاله
عجمان
للكل
قاموس
يرق
يقات
وسفر
وتطلع
كنع
سهام
تفكيك
اعرفه
يلوم
##ميلة
معاكم
الرفض
حاجتي
تزور
خيب
##بيله
اصير
واللح
مسودة
##اشية
بالتج
##شفير
صمود
##يلون
بركان
ترات
ونظرا
ملاحظ
1961
بمسجد
وأربع
##BA
0A
ويطلب
بجهود
كونان
Fri
تصد
الرعد
وعلق
##amp
##ياهم
##صعب
ولكي
##مانين
أتم
لكزس
كونك
نؤكد
يزين
السبا
##زنا
ننام
##ندسة
توصف
منحت
##تحت
قبري
تدعى
مناش
وخاصه
##فاسي
فرقه
هادئة
اللوز
##لافه
تبرز
##باين
حذاء
عطف
إعمار
بطلا
نؤمن
صداقه
استب
معلمه
وتعكس
##هدئة
تتدخل
حبر
بدبي
وقطاع
ينتهك
NT
فأمر
ننشر
سبوت
وثق
القاع
UF
سينا
تحارب
كمد
متقدم
قاسية
##رتنا
سله
السيء
الفير
اثبتت
##ميلية
يسود
##شآت
تجسس
يعارض
صعد
##ound
واصدق
اضع
حضارة
وجديد
للاخت
قارب
##لابة
##bl
##قاعدة
مغت
برقا
تحتفظ
وحدهم
والرش
بشرى
ينبت
ركوب
النهي
بالحد
عزوجل
الأحم
lat
كوينز
مشايخ
تفصيل
فقت
متهما
##نني
وترضي
##آمر
##رفش
##تهاب
##ساي
تأثر
وممت
COM
ابيب
الماي
براءه
صوف
عكار
##رمز
ووطن
فؤادي
##لدان
تجسد
طوني
##اريس
للاد
بالعب
شتي
معلش
بالظ
واثقا
خفت
لمسه
لمكان
البني
Sa
قلمي
عزك
##قتني
●●
بارز
مراح
##واجده
زلنا
شوفي
مناظر
نوافذ
##91
##خالفة
ثانوى
##gypt
سلمى
##واجدة
وفنون
رقيب
راند
##آآآآ
امننا
##اخبار
هيفاء
##غفرتك
صالحه
صدارة
##لافي
يخطط
دعي
##تحول
112
أرجاء
##بؤ
وحياه
قدامي
معبد
وطف
للفي
وكلاء
بسمة
##غالات
انقلب
خضراء
##فوف
##غاوات
تنف
وزع
تشا
ادعى
نحوه
##ذنبي
ببيع
شوفه
سلسله
##sn
##لتر
يجيد
رمزية
حياكم
لوق
##نائها
تالا
الغسل
1956
0D
دورته
دائره
للجسم
ركاب
##نيس
منافذ
كرامة
فضائح
تسبق
انفع
راموس
ثانى
الدعا
##anger
سمايل
راكان
وشكرك
الطح
مديري
عيليت
وضعية
دخيل
القري
IQ
##دهم
القرا
وثم
درك
بخمس
ميخ
سرقه
اكي
شموع
تباع
القطن
خف
أسماك
فصار
وطرد
تعوض
حقول
im
لقلب
##ضين
بمرور
##ثاله
##600
منعه
يسيء
##ition
ملق
##يفورم
عيناي
راش
بمبار
وطول
بدونه
بدني
قدوم
##حور
مصرى
##ختر
##RN
##yp
يراد
الاسف
يتصرف
يصر
URL
أشغال
و10
128
##يتور
##يلاء
##قاو
لقتل
وسبب
الحمر
##نيئا
بديع
البسط
ترشي
بيكو
##ضعه
بفرح
سيعقد
ماليه
لغز
وكلمة
##روفات
240
##اال
مادي
سهرة
##افارو
الطبع
غربه
##ذيات
مطلقة
الفرو
بوي
تنتقل
قيرغ
للتم
##فرقة
مملك
##افت
المنق
مكوه
خاوه
سيرا
سائل
##بتون
##رحيم
الحان
سلمية
وسمو
لفرض
هزاع
عياش
135
تغضب
المحس
ونائ
شور
افرا
يشتاق
قنابل
MAD
##ode
لغاية
##بعك
طاز
كيوت
##حكم
قاعات
##ريان
شعلة
##36060
تمل
جذي
فتت
خلونا
مستني
واهله
ويدعو
اخطا
دفء
ارحمه
ساوث
انتا
بيجو
شعبيه
لوحدك
بقطاع
1985
واعط
بالوا
الانح
عتبة
عشقا
أذكر
##وعود
فيكي
##كرها
وحط
##يانغ
##اثه
##بيون
##بتني
##YN
مجاز
نزاع
##فسر
تصليح
زيف
مثلهم
ولكنك
تفادي
عدوهم
أعوذ
نصير
قرطاج
يفقه
##بكاء
اذاعه
خصصت
بحرف
أفق
بالاد
غوغل
##بيري
انكس
##ZT
اعطيت
تكفل
حرمان
##موم
بخت
ومساء
قره
ماحد
هزازي
##خوان
سكوت
##قطار
مصيره
##درجه
فمات
يسهر
وحرية
مقدي
وبعث
آلت
##عيدي
##ذكرة
خاليه
ريك
١١
نياب
خلدون
لهيئة
لاحظت
يخون
سيؤدي
توفيت
مجلد
ولاء
فتي
البيه
يظنون
لدوري
وتضع
ومعنى
يابعد
##وتن
حملته
مفعول
B1
قرص
خاطرك
يفهمك
##اقبة
منوعه
E2
قدها
مقاوم
سعيا
لدين
مرسلي
550
وثي
##وليت
##رائر
ET
لسا
سماه
ماريو
رحبت
ret
انض
107
لتط
جرام
وفن
بيست
الشقة
والفا
##دادات
زوايا
##ذاذ
ندي
يرس
##نودنا
تشاد
فاك
اعطني
##800
قرآ
للفصل
وتجمع
خاطره
قتلي
##دامه
2030
سباحة
لبا
اؤمن
خذا
##هيار
للرو
جدلا
##ثنا
يخفف
أشك
##رائض
##تيمي
مهمته
تحطم
أنظر
يبك
تعوي
يشتم
##للوم
مالنا
##كونا
عامله
لبيه
اليور
بعرف
خلاصة
وأمام
يزعج
##ساخ
نشأت
##رامل
اللوم
وشوف
دش
تسحب
1978
##سرين
شجر
خطيب
##اهرين
ميدي
ترويج
##مط
تزوجت
طرحه
نفعل
رابح
##PR
أولها
صعده
Air
IDR
استغف
منصات
##اءل
السع
شرطي
بقربك
جناتك
واكدت
وذا
مدافئ
سلوف
##وهن
عكر
مصباح
تجب
هريره
بالأن
هزت
توض
بينت
##درسه
حرفيا
فنيه
##YG
عاصفة
زكاة
فالف
هالب
وخلص
##سيسية
##عتني
##صائل
##يامي
##ريطه
براءة
فاخر
رحيله
إبن
الرضع
بذكرى
##كش
##والت
##وول
اميل
تفوت
##ank
قادما
صربيا
##زرار
وذوي
دريك
يسته
##فاقات
انيقه
السرد
نضحك
جوالي
بصيغة
مليء
جيوش
وتيرة
##وديه
##رجمات
يسبح
تسهم
اصحي
تجن
الرمد
جذاب
##اطرة
##ظلات
فالإ
هياط
ارجوك
لخلق
##لالك
بابك
مرم
بشمال
ضمني
إلها
ووحد
مقالة
حملها
##بابه
شتم
عاصي
##روية
جدتي
تهب
اكذب
##رحى
بسحب
أمكن
##امجه
تكف
ونشرت
وروي
بلديه
يصاب
قووول
Man
##ريكه
تسرق
غزو
وتعيش
هيه
##ماة
يأتى
Fil
والسر
غط
وزم
أظن
بالأح
بعثه
والشف
##زلنا
وطنهم
##NF
ينوي
##رافكس
عمدا
فيد
##فجرات
الحاد
دخان
##ther
قائدا
ووعد
كابتن
خامات
سابقه
تصغير
##ثاره
هالة
وابنه
اشترى
##صاره
##ures
والصف
لأني
1975
دينيه
الطبى
العنق
تتصل
والخط
للنه
##وبكر
كسرت
شانه
##زوير
منسوب
يالي
بنغ
اربح
فنجان
كوري
يشتكي
اضعف
##nxx
##oham
طرحها
وصارت
##خصاب
فاعف
لحاله
لتست
وعقب
##سائر
مابعد
دجن
##GK
##خبة
كوبر
بيتنا
عزت
منحة
تنمو
يتصور
##وائيه
عرفته
##زيمة
size
وتمر
##rim
تصمت
مريضه
فئه
exper
##عمير
غاف
وضد
قضائي
سجله
مقدما
##form
إياها
BHD
كالح
وهبي
جوله
وحرص
الطلق
##ايكي
روو
##رفان
وأرد
طالبة
زائدة
فقره
بلغه
الخاض
SAT
##نائيه
يضعف
جعلك
برئيس
هويته
احط
ممتعه
حيوي
تفاقم
اجلك
برز
الفط
مرق
يااا
ينق
بزع
وحافظ
الزن
سنيني
##ياي
وفقني
##HS
ودنيا
##وسل
وينعم
عنصرا
##شارع
حكمت
بثمن
##ااه
##لبول
اوكي
اشع
مثالي
ذاكره
والجم
##بيعه
وبعده
توحي
##نافسة
وفهم
##بوهة
يسافر
الذهن
أقبل
ميونخ
##مدت
ستره
##52
##سكين
OM
مبوبة
LK
وتهدف
الطار
لعالم
عرسال
تمثال
توزع
احضان
خوان
فوق21
css
ابنك
درسا
##بيس
ذب
##قاص
بلسان
نفرح
بمقتل
يتوب
##oot
غفله
تحريم
##ومال
الأسم
شارل
PEN
وهج
قفل
##اوا
متمس
بكار
للصلع
تركته
مودي
وسحب
رايق
طلبنا
##Berry
عروق
##روجين
مايب
No
ينفعك
106
Ag
والإت
ألك
سكين
فود
##راثيم
طريف
يضح
مهنية
##عجل
فليت
عذابك
وجيزه
##نر
##كوت
##وفياء
فالش
رأسهم
تتنا
##طلون
ونجاح
الأفق
V2
قالب
يأمل
##وكاسل
اوجع
يؤخر
مواضع
جنبك
حقائب
راحتي
##رقل
اسير
##يناها
الأخر
يؤدى
##داديه
فرجته
بلف
##plus
بصدري
##الكم
خلفيه
108
لوقت
التاق
بقلبه
##eal
تخليك
وترب
فرحة
وتميز
وتدخل
شغب
##لتم
##جيتال
يقنع
مهلة
ويلعب
لخدمه
حايل
##هايمر
con
لحكم
فام
تكثيف
##نعام
وقائد
##JF
##والد
مكشوف
تقعد
يرتدي
##روحه
والجو
تبرير
موكب
##صورة
عفرين
سدا
نخاف
ديلي
أهلية
##هاض
##سبها
ناسي
##فيون
يعا
وقاد
¤°
تؤذي
الخدج
نعتبر
نايل
خور
##تبة
بعلبك
لهي
اححح
هرمون
حرمه
الرتب
والإح
بأننا
بخبر
2018م
مالطا
##na
data
غلام
##خائر
جوني
##ساندة
شايب
علقت
الرفع
اضاء
where
مازدا
##تكاب
يشفع
##احبه
لاط
##عهم
##EB
وامي
##vol
تهديه
توليه
MDL
تبعي
تلقاه
##صوت
SLL
اتنين
خرجوا
تسويه
الجود
كتبي
اممي
ارباح
جواك
ارش
##ملي
واعظم
نفسنا
سارع
الشوف
##وطنة
CM
##وبلس
ينتصر
شابه
##ونيك
GYD
##طبع
##غطيات
محطم
آلع
##فسد
HRK
فراش
##قيته
##تمان
##اكو
يتطلع
وللح
مفاجئ
الفرز
جهتها
بالقي
guid
مكنت
نسعد
ومرضي
##طيها
عايشه
نفسهم
##مضي
أجنبي
html
##fo
وحا
لاتع
اراه
سائلا
##سلي
تعاقد
وثالث
##ورطين
واخره
سجين
Ak
حديثك
الحام
650
##موذج
##ميشن
مسائي
##itt
قائل
تنغ
##حتي
Ap
وجلس
البقر
##راجه
##یر
اعتز
##بهان
اره
وعظيم
0547
سوار
##ated
##جيله
مشكل
اشهدك
يرتجف
قبح
نضال
إيصال
##يرمو
صان
يشتغل
##مونا
ترافق
أهلي
وامام
رشو
شبهات
وأنهم
ننصح
##رددات
نفاق
بنيت
ثورات
معلقا
أفت
خشب
دعس
بأص
##شكلات
يكلم
لحوم
##وكه
##قاقير
عنب
##مول
مروح
الأخت
ادريس
موقعا
تافه
متعة
مذهل
IC
ماليا
عاصمه
يابن
rtl
عواقب
##ندينا
واسكن
##شئ
فوضى
المرب
إسم
تشفي
واصبر
عرفتك
حددت
الغيث
بالحي
للنفس
كنعان
##vb
##اراته
ناض
خفيفه
##con
أسهل
ورزق
تهوي
مصدرا
والأج
ناعم
سكون
يخطر
##وحي
##110
##جرا
##ركبات
صيحات
##رايا
نصيبك
ونصره
##عادات
اعشاب
